{
  "version": "1.0",
  "truncation": null,
  "padding": null,
  "added_tokens": [
    {
      "id": 0,
      "content": "[UNK]",
      "single_word": false,
      "lstrip": false,
      "rstrip": false,
      "normalized": false,
      "special": true
    },
    {
      "id": 1,
      "content": "[CLS]",
      "single_word": false,
      "lstrip": false,
      "rstrip": false,
      "normalized": false,
      "special": true
    },
    {
      "id": 2,
      "content": "[SEP]",
      "single_word": false,
      "lstrip": false,
      "rstrip": false,
      "normalized": false,
      "special": true
    },
    {
      "id": 3,
      "content": "[PAD]",
      "single_word": false,
      "lstrip": false,
      "rstrip": false,
      "normalized": false,
      "special": true
    },
    {
      "id": 4,
      "content": "[MASK]",
      "single_word": false,
      "lstrip": false,
      "rstrip": false,
      "normalized": false,
      "special": true
    }
  ],
  "normalizer": null,
  "pre_tokenizer": {
    "type": "Sequence",
    "pretokenizers": [
      {
        "type": "Split",
        "pattern": {
          "String": "[SEP1]"
        },
        "behavior": "Isolated",
        "invert": false
      },
      {
        "type": "Split",
        "pattern": {
          "String": "[SEP2]"
        },
        "behavior": "Isolated",
        "invert": false
      },
      {
        "type": "Split",
        "pattern": {
          "String": "[SEP3]"
        },
        "behavior": "Isolated",
        "invert": false
      }
    ]
  },
  "post_processor": null,
  "decoder": null,
  "model": {
    "type": "BPE",
    "dropout": null,
    "unk_token": "[UNK]",
    "continuing_subword_prefix": null,
    "end_of_word_suffix": null,
    "fuse_unk": false,
    "byte_fallback": false,
    "ignore_merges": false,
    "vocab": {
      "[UNK]": 0,
      "[CLS]": 1,
      "[SEP]": 2,
      "[PAD]": 3,
      "[MASK]": 4,
      ",": 5,
      "0": 6,
      "1": 7,
      "2": 8,
      "3": 9,
      "4": 10,
      "5": 11,
      "6": 12,
      "7": 13,
      "8": 14,
      "9": 15,
      "E": 16,
      "F": 17,
      "I": 18,
      "N": 19,
      "P": 20,
      "R": 21,
      "S": 22,
      "T": 23,
      "W": 24,
      "[": 25,
      "]": 26,
      "e": 27,
      "f": 28,
      "h": 29,
      "i": 30,
      "l": 31,
      "n": 32,
      "o": 33,
      "r": 34,
      "t": 35,
      "u": 36,
      "y": 37,
      "][": 38,
      "EP": 39,
      "SEP": 40,
      "[SEP": 41,
      "][1": 42,
      "No": 43,
      "ne": 44,
      "None": 45,
      "][None": 46,
      "][0": 47,
      "If": 48,
      "2]": 49,
      "1]": 50,
      "3]": 51,
      "][If": 52,
      "Re": 53,
      "rn": 54,
      "tu": 55,
      "Retu": 56,
      "Return": 57,
      "[SEP2]": 58,
      "[SEP1]": 59,
      "[SEP3]": 60,
      "][2": 61,
      "[1": 62,
      "][Return": 63,
      "][3": 64,
      "][0][0": 65,
      "][None][None": 66,
      ",2": 67,
      "][1][1": 68,
      "][][": 69,
      "[1,2": 70,
      "[If": 71,
      "][4": 72,
      ",1": 73,
      "][None][If": 74,
      "[2]": 75,
      "Fo": 76,
      "For": 77,
      "][For": 78,
      "[1]": 79,
      "[0": 80,
      "][Return]": 81,
      "][1][0": 82,
      "][]": 83,
      "][5": 84,
      "[]": 85,
      "[None": 86,
      ",4": 87,
      "][1]": 88,
      "][None]": 89,
      "][6": 90,
      "[3]": 91,
      "][3,4": 92,
      "[1][2": 93,
      "][][]": 94,
      ",3": 95,
      "[Return": 96,
      "[Return]": 97,
      "][If][Return": 98,
      "][7": 99,
      "Tr": 100,
      "Try": 101,
      "][None][Return]": 102,
      "][None][None]": 103,
      ",6": 104,
      ",5": 105,
      "][8": 106,
      "[None][For": 107,
      "][If][If": 108,
      "[4": 109,
      "][1][0][0": 110,
      "[1][2,3": 111,
      "][2]": 112,
      "[1,2][2": 113,
      "[If][Return": 114,
      "[1,2][": 115,
      "][2][0": 116,
      "][9": 117,
      "][None][If][None][If": 118,
      "[4]": 119,
      "][10": 120,
      "][Try": 121,
      "][4,5": 122,
      "[1,2][3": 123,
      "][1][1]": 124,
      ",7": 125,
      "[1,2][][3,4": 126,
      ",8": 127,
      "[2": 128,
      "[1,2][][]": 129,
      "][11": 130,
      "][5,6": 131,
      "][If][None][None": 132,
      "][0][0][0][0": 133,
      "][1][2": 134,
      "][None][For": 135,
      "][1][0]": 136,
      "][][5": 137,
      "][12": 138,
      "[If][None][If": 139,
      "][0]": 140,
      "[None]": 141,
      "[5": 142,
      "][6,7": 143,
      "[0][0": 144,
      ",9": 145,
      "][3]": 146,
      "][13": 147,
      ",10": 148,
      "][None][Return": 149,
      "][7,8": 150,
      "[1,2][2][3,4": 151,
      "[Try": 152,
      "[If][None][Return]": 153,
      "[5]": 154,
      "][14": 155,
      "][1][1][0": 156,
      "[If][None][None": 157,
      "][If][None][If": 158,
      "[1][2,3][4": 159,
      "[1,2][2][]": 160,
      "][15": 161,
      "[1,2][3,4": 162,
      "[1][0": 163,
      "][8,9": 164,
      ",11": 165,
      "][0][0][0": 166,
      ",12": 167,
      "][3][4,5": 168,
      "][9,10": 169,
      "[3": 170,
      "][3][]": 171,
      "][1][0][1][0": 172,
      "][][5,6": 173,
      "][16": 174,
      "[If][Return][Return]": 175,
      "][1][3": 176,
      "[1][2,3][1": 177,
      "][0][0]": 178,
      "][10,11": 179,
      "][11,12": 180,
      "[1][2,3][4,1": 181,
      "][4][5,6": 182,
      "[6": 183,
      "][Try][None][None": 184,
      "][][7": 185,
      "Wh": 186,
      "il": 187,
      "][Wh": 188,
      "ile": 189,
      "][While": 190,
      "][17": 191,
      "][][6": 192,
      "][If][If][None][None": 193,
      "][If][None]": 194,
      "][2][0]": 195,
      "[0]": 196,
      "][1][2]": 197,
      "][2][2": 198,
      "[None][For][If][Return": 199,
      "][If][Return][If][Return": 200,
      "][4]": 201,
      ",13": 202,
      "][1][1][1][1": 203,
      "][][4": 204,
      "[1][]": 205,
      "[1][2,3][4,5": 206,
      "[If][None][If][None][If": 207,
      ",14": 208,
      "][18": 209,
      "[6]": 210,
      "][If][None][None]": 211,
      "][None][None][For": 212,
      "[1][2,3][1][]": 213,
      "][12,13": 214,
      "][13,14": 215,
      "][19": 216,
      "[1,2][][3,4][][5,6": 217,
      "][3][0": 218,
      "[If][None][None]": 219,
      "[0][0][0": 220,
      "[1,2][][3,4][][]": 221,
      ",15": 222,
      "][Return][Return]": 223,
      "][4][]": 224,
      "][1][1][1]": 225,
      "][If][Return][Return]": 226,
      "][6][7,8": 227,
      ",16": 228,
      "][20": 229,
      "][][9": 230,
      "[7": 231,
      "][5]": 232,
      "][If][For": 233,
      "][5][6,7": 234,
      "][2][1]": 235,
      "][1][0][0][0": 236,
      "[None][For][None][Return]": 237,
      "][Return][None]": 238,
      "[0][1][0": 239,
      "][1][0][0]": 240,
      "][][7,8": 241,
      "][21": 242,
      "][None][None][None]": 243,
      "[1][2][3,4": 244,
      "][14,15": 245,
      "[1][2][3": 246,
      "][15,16": 247,
      "][][8": 248,
      "][2][0][0": 249,
      "][1][2][0": 250,
      "][1][4": 251,
      "][1][0][1][1": 252,
      "[1,2][3][3][]": 253,
      "[0][1][1": 254,
      "[2][0": 255,
      ",17": 256,
      "[1,2][3][4,5": 257,
      "][22": 258,
      "][1][0][1]": 259,
      "][None][Try": 260,
      ",18": 261,
      "[1,2][2][3,4][4][5,6": 262,
      "[7]": 263,
      "[If][None]": 264,
      "[1,2][3,4][5,6": 265,
      "[Try][None][None": 266,
      "][If][None][Return]": 267,
      "][If][If][None][If": 268,
      "][23": 269,
      "[None][While": 270,
      "[1][2][1]": 271,
      "[1][1][1": 272,
      "[1,2][3][3][4,5": 273,
      "][5][]": 274,
      "][2][2]": 275,
      "][16,17": 276,
      "][6]": 277,
      "][If][Return][None]": 278,
      "[0][0][0][0][0": 279,
      "][8][9,10": 280,
      "[1,2][3][][4": 281,
      "][None][Try][None][None": 282,
      "[1,2][][3,4][5": 283,
      "][][1]": 284,
      "[If][None][None][For": 285,
      "][1][3]": 286,
      "][2][1][1": 287,
      "][If][None][If][None][If": 288,
      "][24": 289,
      "][][][]": 290,
      "[1,2][][3][4,5": 291,
      "][17,18": 292,
      "][6][]": 293,
      "][7][8,9": 294,
      ",19": 295,
      "][If][If][Return": 296,
      "][][3": 297,
      "[1][2][3,1": 298,
      "[8": 299,
      "][If][None][None][None]": 300,
      "[1][0][0": 301,
      "[1,2][2][3,4][5": 302,
      "][None][Return][For": 303,
      ",20": 304,
      "][25": 305,
      "][None][If][None]": 306,
      "[If][None][If][None][Return]": 307,
      "][1][0][2": 308,
      "][4][0": 309,
      "][Try][Return": 310,
      "][][6,7": 311,
      "[None][For][None]": 312,
      "][][9,10": 313,
      "[If][None][None][Return]": 314,
      "[0][2": 315,
      "][None][If][None][None]": 316,
      "[0][1][0][0": 317,
      "][18,19": 318,
      "[0][1][1]": 319,
      "][26": 320,
      "][19,20": 321,
      "][If][None][Return": 322,
      "][None][If][None][None": 323,
      "[If][None][If][Return": 324,
      "[1,2][3,2": 325,
      "][10][11,12": 326,
      "][27": 327,
      ",21": 328,
      "][1][1][0][0": 329,
      "][1][1][0]": 330,
      "][If][Return]": 331,
      "][7]": 332,
      ",22": 333,
      "][1][5": 334,
      "[1,2][3][4": 335,
      "][3][3": 336,
      "[8]": 337,
      "[1,2][3][][4,5": 338,
      "][0][0][0][0][0][0][0][0": 339,
      "[If][If][Return": 340,
      "[If][Return][If][Return][If][Return": 341,
      "[0][1][0]": 342,
      "[If][Return][If][Return][Return]": 343,
      "[1,2][2][3,4][4][]": 344,
      "[None][For][If][Return][None]": 345,
      "[1][2,3][4,1][][1]": 346,
      "][5,6][7,8": 347,
      "][None][None][Return]": 348,
      "[1][1][1]": 349,
      "[0][0][0][0": 350,
      "][6,3": 351,
      "][For][Return": 352,
      "[1,2][][3,4][][5,6][][7,8": 353,
      "[9": 354,
      "][None][For][None]": 355,
      "][9][10,11": 356,
      "][28": 357,
      "[0][3": 358,
      "[1][1][0": 359,
      "][3][4": 360,
      "][29": 361,
      "][None][If][None][If][None][If][None][If": 362,
      "][21,22": 363,
      "][6][7": 364,
      "][20,21": 365,
      "[1,2][2][3][4,5": 366,
      "][If][None][None][For": 367,
      "][1][0][0][0][0": 368,
      ",23": 369,
      "][][8,9": 370,
      "][1][2][1]": 371,
      "[1,2][3,4][5": 372,
      "[3][0": 373,
      "][1][6": 374,
      ",24": 375,
      "][6,7][8": 376,
      "][2][3": 377,
      "][1][2][0]": 378,
      "[If][Return][None][For": 379,
      "[1][1][0]": 380,
      "][][11,12": 381,
      "][8]": 382,
      "][None][If][None][Return]": 383,
      "[If][None][Try][None][None": 384,
      ",1][1]": 385,
      "][8][]": 386,
      "[If][None][For": 387,
      "][None][While": 388,
      "][1][0][1][1]": 389,
      "][For][None][None": 390,
      "][7][7": 391,
      "[1][2,3][4,5][": 392,
      "[1][2][]": 393,
      "][6,7][8,9": 394,
      "[0][0][1]": 395,
      "[1,2][][3,4][][5,6][][]": 396,
      "][12][13,14": 397,
      "][1][3][0": 398,
      "][3][0]": 399,
      "[1,2][3][][]": 400,
      "[1,2][][3,4][4][5,6": 401,
      "][][3]": 402,
      "][11][12,13": 403,
      "][If][None][For": 404,
      "][None][If][Return": 405,
      "][3][1]": 406,
      "][22,23": 407,
      "[If][Return][None]": 408,
      "[If][Return][If][Return": 409,
      "][23,24": 410,
      "][30": 411,
      "][If][If][If][None][None": 412,
      "][If][If][None][Return": 413,
      "][2][1][0": 414,
      "][3][0][0": 415,
      "[1,2][2][3,4][4][5,6][6][7,8": 416,
      "][Try][If][None][None": 417,
      "][7,8][9,10": 418,
      "][1][4]": 419,
      "[If][None][If][None][None]": 420,
      "[Try][None][Return": 421,
      "[9]": 422,
      "][][10": 423,
      "[10": 424,
      ",25": 425,
      "][5][0": 426,
      "[1][2,3][1][4,5": 427,
      "[If][For": 428,
      "][If][None][None][Return]": 429,
      "[0][1][2": 430,
      ",26": 431,
      "[1,2][][3][]": 432,
      "[1][2,3][4,1][][]": 433,
      "][][6][]": 434,
      "][2][0][2][0": 435,
      "][1][1][2": 436,
      "][31": 437,
      "][If][None][If][None][None": 438,
      "][1][0][0][0]": 439,
      "[None][For][For": 440,
      "][0][0][0][0]": 441,
      "][1][7": 442,
      "][0][0][0][0][0": 443,
      "][9]": 444,
      "][1][1][0][1]": 445,
      "][5,6][7": 446,
      "[None][Return]": 447,
      "[0][1][2]": 448,
      "[1][0][1]": 449,
      "[1][2,3][4,1][][5": 450,
      "][][2]": 451,
      "][1][0][1][0]": 452,
      "[None][None]": 453,
      "][3][4][5,6": 454,
      "][Try][None][None]": 455,
      "][2][1][2": 456,
      "[0][2][0": 457,
      "][If][If][None][None]": 458,
      "[1][2,3][4,5][][6": 459,
      "][24,25": 460,
      "[1,2][3][4,3": 461,
      "][][10,11": 462,
      "][32": 463,
      "[None][For][If][None]": 464,
      "][1][0][1][0][0": 465,
      "[Try][Return][Return]": 466,
      "[2][0][0": 467,
      "][None][If][For": 468,
      "[If][If][If][None][None": 469,
      "][7,8][9": 470,
      "][Try][None][Return": 471,
      "][25,26": 472,
      "[1,2][3][4,5][6,7": 473,
      ",28": 474,
      "[Try][None][None][Return]": 475,
      "][4][1]": 476,
      "][1][1][1][1]": 477,
      "][If][None][If][None]": 478,
      ",27": 479,
      "][7][]": 480,
      "][][13,14": 481,
      "[1][1]": 482,
      "][5][6,7][8,9": 483,
      "][If][None][If][None][None]": 484,
      "[1][2][3,1][1]": 485,
      "[1,2][][3,4][4][]": 486,
      "[0][1][1][0": 487,
      "[0][1][0][1][0": 488,
      "[1][2][3,4][5": 489,
      "][8][9": 490,
      "][33": 491,
      "][14][15,16": 492,
      "][13][14,15": 493,
      "[If][None][If][None][None": 494,
      "][If][None][If][Return": 495,
      "][1][0][0][1]": 496,
      "[If][None][If][None]": 497,
      "][][11": 498,
      "][0][0][0]": 499,
      "][4][5": 500,
      "][If][Return][None][None]": 501,
      "][3][2]": 502,
      "][3][3]": 503,
      "][9,10][11,12": 504,
      "][2][0][0][0": 505,
      "][None][None][None][None": 506,
      "[1,2][3,4][][5": 507,
      "[1,2][2][3,4][5][][6][]": 508,
      "[None][For][None][For": 509,
      "[0][0][0]": 510,
      "[None][For][None][None]": 511,
      "][34": 512,
      "[1,2][2][3,4][][]": 513,
      "[If][None][Try][None][None][If][None]": 514,
      "][If][Return][Return": 515,
      "[1,2][][3,4][][5": 516,
      "[If][None][Try": 517,
      "[1][1][2": 518,
      "][1][0][2]": 519,
      "][27,28": 520,
      "[If][None][If][None][If][None][Return]": 521,
      "][5][6,7][8": 522,
      "][2][2][0": 523,
      "[None][For][If][If": 524,
      "][2][0][0]": 525,
      "[4][0": 526,
      "][10,11][12,13": 527,
      "[1,2][][3,4][5,6": 528,
      "][35": 529,
      "[10]": 530,
      "][1][0][2][0": 531,
      "][None][If][If][None][None": 532,
      "][1][0][1][2": 533,
      "[0][0][2]": 534,
      "[If][None][None][None]": 535,
      "[If][If][None][None": 536,
      "[1][2,3][4,1][5,6": 537,
      "[None][For][If][Return][Return]": 538,
      "[1][2,3][4,5][][5": 539,
      "[1][0][0][0": 540,
      "[1][0][0]": 541,
      "[1,2][2][3,4][][5,6": 542,
      "][26,27": 543,
      ",29": 544,
      "][10][]": 545,
      "[1,2][3][4,5][][3": 546,
      "][1][1][2]": 547,
      ",2][2]": 548,
      "][7,4": 549,
      "][1][8": 550,
      "][10][11": 551,
      "[1,2][3,4][][][]": 552,
      ",30": 553,
      "][10,11][12": 554,
      "][10]": 555,
      "[None][For][If][Return][None][None]": 556,
      "[0][4": 557,
      "][2][]": 558,
      "[1][1][0][1][1": 559,
      "][9][]": 560,
      "][11]": 561,
      "[1,2][][3,4][][5,6][][7,8][][9,10": 562,
      "][6,1": 563,
      "[If][None][If][None][If][None][If][None][If": 564,
      "[1][1][0][0": 565,
      "[None][For][If][For": 566,
      "][If][If][Return][Return": 567,
      "][6,5": 568,
      "][Try][None][None][None]": 569,
      "][1][0][1][0][1][0][1][0": 570,
      "[1][1][2]": 571,
      "[If][Return][For": 572,
      "][7][8": 573,
      ",3][3]": 574,
      "][1][0][3": 575,
      "][If][If][None][If][None][If": 576,
      "][36": 577,
      "[1][2,3][4,5][6,7": 578,
      "][][12": 579,
      "][None][Return][None]": 580,
      "[1,2][2][3][]": 581,
      "[1,2,3": 582,
      "[None][For][None][Return][For": 583,
      "[2][1][0]": 584,
      "][1][]": 585,
      "][9,10][11": 586,
      "][2][1][1]": 587,
      "][2][4": 588,
      "][6][0": 589,
      "[1][2][3][4,5": 590,
      "[1][3": 591,
      "[1,2][3,4][][4": 592,
      "][6][7,8][9": 593,
      "[1,2][][3,4][5,6][7,8": 594,
      "][][][][]": 595,
      "][If][Return][If][Return][If][Return][If][Return": 596,
      "][][12,13": 597,
      "][1][1][1][2": 598,
      "][8][9,10][10][11,12": 599,
      "[0][1]": 600,
      "[Try][None][None]": 601,
      ",31": 602,
      "[1,2][3,4][][": 603,
      "[1,2][3,2][4,5": 604,
      "][28,29": 605,
      "][29,30": 606,
      "[1][2][0": 607,
      "][2][0][1]": 608,
      "][1][0][1][1][0": 609,
      "[0][2][0]": 610,
      "][37": 611,
      "[1,2][3][3][4,5][6": 612,
      "][15][16,17": 613,
      "[1][2,3][4,1][][5,6": 614,
      "[1][2,3][4,5][][1][1]": 615,
      "][][15,16": 616,
      "][16][17,18": 617,
      "[1,2][][3][4,5][6,3": 618,
      "][4][4": 619,
      "[None][For][None][None][For": 620,
      "][2][1][0][0": 621,
      ",32": 622,
      "][1][2][0][0": 623,
      "][1][5]": 624,
      "[2][1][1": 625,
      "][None][For][None][Return]": 626,
      "[1,2][2][3,4][4][5,6][6][]": 627,
      "[1][1][1][0": 628,
      "][If][If][None][None][None]": 629,
      "[None][None][Return]": 630,
      "][38": 631,
      "[If][Return][If][None][Return]": 632,
      "[If][None][If][Return][Return]": 633,
      "][8,9][10": 634,
      "][12]": 635,
      "][1][4][0": 636,
      "[If][Return][If][None][If": 637,
      "[Try][Return][None]": 638,
      "][13,14][15,16": 639,
      "][39": 640,
      "[0][1][3": 641,
      "][2][1][0]": 642,
      "[1][0][2]": 643,
      "][][13": 644,
      "[1][2,3][][]": 645,
      "][1][1][3": 646,
      "[If][None][If][If][None][None": 647,
      "[1,2][3,4][": 648,
      "[1][2,3][4,1][5": 649,
      "[1][1][1][1][1": 650,
      "[1][2,3][4][][5,6": 651,
      "[2][1]": 652,
      "[1,2][3,4][5,6][4": 653,
      "][4][0]": 654,
      "][5][5": 655,
      "[Try][Return": 656,
      "][None][None][None][None]": 657,
      "][1][1][1][0]": 658,
      "][14,15][16,17": 659,
      "][If][Try": 660,
      "][1][1][0][0][0": 661,
      "[If][Return][If][Return][If][Return][Return]": 662,
      "][0][0][1]": 663,
      "][6][6": 664,
      "][][5]": 665,
      "[1][2]": 666,
      "][1][10": 667,
      "][None][For][For": 668,
      "][2][0][0][0][0": 669,
      "][2][3]": 670,
      "[0][0][0][0][0]": 671,
      "[2][1][1]": 672,
      "][][4]": 673,
      ",33": 674,
      "[If][None][If][None][None][For": 675,
      "[1][1][0][1][1][1][1]": 676,
      "][][14": 677,
      "][1][1][1][0": 678,
      "][If][None][If][If][None][None": 679,
      "[1][0][0][0][0": 680,
      "][If][None][Try": 681,
      "[None][For][If][None][None]": 682,
      "][2][5": 683,
      ",34": 684,
      "][4][0][0": 685,
      "[0][1][1][0]": 686,
      "[0][2][1]": 687,
      "][9][9": 688,
      "[1][2,3][][4": 689,
      "][For][None][If": 690,
      "[If][Return]": 691,
      "][12][]": 692,
      "][40": 693,
      "][If][If][None][If][None][None": 694,
      "][7][8,9][10": 695,
      "[2][0][0]": 696,
      "[11]": 697,
      "[1,2][3][3][4][5,6": 698,
      "][1][1][1][0][0": 699,
      "][2][1][1][0": 700,
      "][17][18,19": 701,
      "][If][For][None][None": 702,
      "[1,2][][3][4,5][3][]": 703,
      "[None][For][If][If][None][None": 704,
      "[0][0][1][0]": 705,
      "][1][1][1][1][1]": 706,
      "][8][9,10][11": 707,
      "[If][Return][If][Return][None]": 708,
      "[1][2,3][4][][5": 709,
      "][None][For][None][None]": 710,
      "][3][4][]": 711,
      "][1][9": 712,
      "[1][2,3][1][4][5,6": 713,
      "[1,2][][3][4": 714,
      "][If][If][If][Return": 715,
      "[1,2][2][3,4][5,6": 716,
      "[None][For][Try][Return": 717,
      "[None][For][For][Return": 718,
      "[1,2][][3,4][][5,6][][7,8][][]": 719,
      "[1,2][][3][4,5][6,7": 720,
      "][None][If][None][None][None]": 721,
      "][14,15][16": 722,
      "][11][]": 723,
      "][12][13": 724,
      "][Return][For": 725,
      "[1][2][0]": 726,
      "][0][0][0][1]": 727,
      "[If][None][Return][For": 728,
      "[1][2][3,1][4": 729,
      "][30,31": 730,
      "][1][1][1][1][0": 731,
      "][1][2][1][2": 732,
      ",4][4]": 733,
      ",2][]": 734,
      "][11,12][13": 735,
      "[0][1][3]": 736,
      "[None][None][For": 737,
      "[Try][If][None][None": 738,
      "][6][1]": 739,
      "][If][If][None]": 740,
      "[5][0": 741,
      "][1][0][1][0][1]": 742,
      "[1][2,3][4,5][][": 743,
      "][18][19,20": 744,
      "[If][Return][Try": 745,
      "][13]": 746,
      "][Return][Return": 747,
      ",1][]": 748,
      "[1,2][3][4,5][6,7][3": 749,
      "][31,32": 750,
      ",36": 751,
      "][2][0][2]": 752,
      "][9][10": 753,
      "][11,12][13,14": 754,
      "][1][1][0][0]": 755,
      "[If][Try][Return": 756,
      ",5][5]": 757,
      "][1][3][1]": 758,
      "[0][5": 759,
      ",35": 760,
      "][If][Return][If][Return][Return]": 761,
      "[0][1][1][1]": 762,
      "][1][0][0][0][1]": 763,
      "[1][2][3][4": 764,
      "][41": 765,
      "][][6,7][8": 766,
      "][7][0": 767,
      "][1][0][0][1][0][0": 768,
      "[0][2]": 769,
      "][17,18][19,20": 770,
      "[If][If][If][None][If": 771,
      "][14][14": 772,
      "][None][If][None][If][None]": 773,
      "[0][1][0][1]": 774,
      "][][15": 775,
      "][Return][None][None]": 776,
      "[1][2,3][4,5][][1": 777,
      "][1][2][2]": 778,
      "][Try][None][None][Return]": 779,
      "[0][1][0][0]": 780,
      "[If][None][If][Return][None][None]": 781,
      "][1][1][2][0": 782,
      "[0][2][2": 783,
      "][1][0][1][2]": 784,
      "[0][2][0][0": 785,
      "][][11,12][][13,14": 786,
      "[1,2][][3,4][5,2": 787,
      "[Try][None][None][None]": 788,
      "][42": 789,
      "[None][For][If][None][None": 790,
      "][1][0][0][0][0][0][0": 791,
      "][None][If][None][If][None][None]": 792,
      "][None][If][None][None][For": 793,
      "[0][0][0][0][0][0": 794,
      "[1][1][3": 795,
      "[1][2][3,1][]": 796,
      "[If][None][If][Return][None]": 797,
      "[0][0][3]": 798,
      "[1,2][3][3][4,5][][]": 799,
      "[1,2][2][3,4][4": 800,
      "[0][1][2][0": 801,
      "][1][6]": 802,
      "[1][1][0][2": 803,
      "[Try][None][Return][Return]": 804,
      "[1][2,3][4][][5,1": 805,
      "][32,33": 806,
      "][If][If][If][If": 807,
      "][For][For": 808,
      "][None][For][If][Return": 809,
      "[1][2,3][4,5][6": 810,
      "[1,2][2][3,4][5,6][7,8": 811,
      "][7,6": 812,
      "[2][0][1]": 813,
      "[3][0][0": 814,
      "][][16": 815,
      "][][7][8,9": 816,
      "][33,34": 817,
      "][1][0][0][0][0]": 818,
      "][If][If][None][None][None][None": 819,
      "[1,2][][3,4][5][5][]": 820,
      ",38": 821,
      "][If][Try][None][None": 822,
      "][2][1][3": 823,
      "][1][0][0][0][0][0": 824,
      "][43": 825,
      "[12]": 826,
      "[0][0][0][1]": 827,
      "][5][1]": 828,
      "[0][0][0][0]": 829,
      "][][2": 830,
      "][6,2": 831,
      "[If][Try": 832,
      "][If][None][If][None][Return]": 833,
      "][2][2][1]": 834,
      "[None][While][None][Return]": 835,
      "[1,2][2][3,4][4][5,6][6][7,8][8][9,10][10][11,12": 836,
      "][1][11": 837,
      "[If][None][If][None][If][None][If][None][Return]": 838,
      "][7][7][]": 839,
      "[1][4": 840,
      "[1,2][3,2][][4": 841,
      "][15][15": 842,
      "][None][None][For][None]": 843,
      "][9][10,11][12": 844,
      "][][6,7][8,9": 845,
      "[1][2][3,4][1][1]": 846,
      "][][17,18": 847,
      "[1,2][2][3][4": 848,
      "][1][0][4": 849,
      "][8][8": 850,
      ",37": 851,
      "][If][None][None][If][None][None": 852,
      "][None][If][Return][Return]": 853,
      "][20][21,22": 854,
      "[1,2][3][4,5][][3][6,7": 855,
      "][If][Return][None][None": 856,
      "][10][10": 857,
      "][][6]": 858,
      "[0][1][1][1][1": 859,
      "[If][None][If][For": 860,
      "][6][7,8][9,10": 861,
      "[1,2][3][4,3][5,6": 862,
      "][1][0][1][0][0]": 863,
      "][][16,17": 864,
      "][][19,20": 865,
      "[1][1][1][1]": 866,
      "][8,3": 867,
      "[If][Return][If][If": 868,
      "[If][None][If][None][If][None][If][None][If][None][If][None][If": 869,
      "[1][2][3,1][4,5": 870,
      "[0][1][0][0][0": 871,
      "[If][None][If][None][If][None][None]": 872,
      "[0][1][0][1][0]": 873,
      "[0][3][0": 874,
      "[1,2][3,4][][5,6": 875,
      "][19][20,21": 876,
      "][3][6,7": 877,
      "[1][1][3]": 878,
      "][7][8,9][10,11": 879,
      "[1][2,3][][4,5": 880,
      "[0][0][3": 881,
      "[1,2][3][4][5": 882,
      "[1][2,3][4,1][5,6][1": 883,
      "][44": 884,
      "[1][2,3][4,5][][5][1]": 885,
      "][13][13": 886,
      "[If][If][Return][None][None]": 887,
      "][2][3][0": 888,
      "[0][0][1][1": 889,
      "[If][None][None][For][None][Return]": 890,
      "][6,7][8,5": 891,
      "[1,2][3][4,3][][3]": 892,
      "][45": 893,
      "[14": 894,
      "[2][1][2": 895,
      "][1][1][0][1][1]": 896,
      "][9][10,11][12,13": 897,
      "][11][11": 898,
      "][][17": 899,
      "[If][If][If": 900,
      "[1,2][][3,4][5,4": 901,
      "][If][None][None][None][None]": 902,
      "[0][0][1][0][0]": 903,
      "[3][1][0]": 904,
      ",6][6]": 905,
      "[If][None][None][If][None][Return]": 906,
      "][][7][]": 907,
      "][12][13,14][14][15,16": 908,
      "[0][1][0][1][1]": 909,
      "][4][4]": 910,
      "][5][0][0": 911,
      "[1][0][1][0]": 912,
      "[0][0][1][1]": 913,
      "][2][6": 914,
      "[2][3": 915,
      "][34,35": 916,
      "][35,36": 917,
      "[If][None][None][While": 918,
      "[1,2][2][3][4,5][6,3": 919,
      "[If][If][None][None]": 920,
      "][14]": 921,
      "[1,2][3,4][5,6][][": 922,
      "][][3][]": 923,
      "[0][0][0][0][1]": 924,
      "][1][0][1][1][1][1": 925,
      "][0][0][0][0][0]": 926,
      "][If][If][None][None][None][None]": 927,
      "][1][0][1][1][1]": 928,
      "[0][0][2][0": 929,
      "][][7,8][9": 930,
      "][][7,8][][9,10": 931,
      "][2][1][2]": 932,
      "][18,19][20,21": 933,
      "[1,2][3][3][4,5][5][]": 934,
      "][8][0": 935,
      "][14][15": 936,
      "][None][Return][Return]": 937,
      "][1][0][3]": 938,
      "][2][2][0]": 939,
      "[If][If][Return][None]": 940,
      "][For][None][None]": 941,
      "][1][5][0": 942,
      "[1][1][1][0]": 943,
      "[1,2][3][4,5][][3][3]": 944,
      "][5,3": 945,
      "[1][2,3][3][]": 946,
      "][If][For][None][If": 947,
      ",40": 948,
      "][6][3": 949,
      "][7,1": 950,
      "][1][12": 951,
      "][1][1][3]": 952,
      "[1,2][3,4][4": 953,
      "[0][2][2]": 954,
      "[0][0][1][0][0": 955,
      "][1][3][0]": 956,
      "][1][1][4": 957,
      ",39": 958,
      "][If][Try][Return": 959,
      "[1][1][0][1][0": 960,
      "][0][0][0][0][0][0": 961,
      "][1][8,9": 962,
      "][None][None][None][For": 963,
      "[1][2,3][4,5][][1][6,7": 964,
      "[1,2][3,2][][]": 965,
      "[1,2][][3,4][][5][]": 966,
      "[0][1][0][0][0]": 967,
      "[1][2,3][4,1][][2]": 968,
      "][1][2][0][1]": 969,
      "][][14,15": 970,
      "[If][If][If][Return": 971,
      "[If][Return][If][None][None": 972,
      "[1,2][3][4][5,6": 973,
      "[1,2][2][3,4][4][5,6][6][7,8][8][]": 974,
      "][46": 975,
      "[None][For][Try": 976,
      "[If][None][If][None][None][Return]": 977,
      "][1][1][0][1][0]": 978,
      "][2][2][0][0": 979,
      "[13]": 980,
      "][18,19][20": 981,
      "][6,4": 982,
      "[If][Return][If][None][If][None][If": 983,
      "][1][3][0][0": 984,
      "[1,2][3,2][][2]": 985,
      "][None][None][While": 986,
      "[If][None][If][None][If][None][If": 987,
      "][For][None]": 988,
      "][22,23][24,25": 989,
      "[2][0][0][0": 990,
      "[0][1][4": 991,
      "][If][None][Try][None][None": 992,
      "][5][5]": 993,
      "][][18": 994,
      "][6,7][][8": 995,
      "][8,1": 996,
      "[1,2][3,4][][][5,6": 997,
      "][47": 998,
      "[1][2,3][3][4,5": 999
    },
    "merges": [
      "] [",
      "E P",
      "S EP",
      "[ SEP",
      "][ 1",
      "N o",
      "n e",
      "No ne",
      "][ None",
      "][ 0",
      "I f",
      "2 ]",
      "1 ]",
      "3 ]",
      "][ If",
      "R e",
      "r n",
      "t u",
      "Re tu",
      "Retu rn",
      "[SEP 2]",
      "[SEP 1]",
      "[SEP 3]",
      "][ 2",
      "[ 1",
      "][ Return",
      "][ 3",
      "][0 ][0",
      "][None ][None",
      ", 2",
      "][1 ][1",
      "][ ][",
      "[1 ,2",
      "[ If",
      "][ 4",
      ", 1",
      "][None ][If",
      "[ 2]",
      "F o",
      "Fo r",
      "][ For",
      "[ 1]",
      "[ 0",
      "][Return ]",
      "][1 ][0",
      "][ ]",
      "][ 5",
      "[ ]",
      "[ None",
      ", 4",
      "][1 ]",
      "][None ]",
      "][ 6",
      "[ 3]",
      "][3 ,4",
      "[1 ][2",
      "][][ ]",
      ", 3",
      "[ Return",
      "[Return ]",
      "][If ][Return",
      "][ 7",
      "T r",
      "Tr y",
      "][None ][Return]",
      "][None][None ]",
      ", 6",
      ", 5",
      "][ 8",
      "[None ][For",
      "][If ][If",
      "[ 4",
      "][1 ][0][0",
      "[1][2 ,3",
      "][ 2]",
      "[1,2 ][2",
      "[If ][Return",
      "[1,2 ][",
      "][2 ][0",
      "][ 9",
      "][None][If ][None][If",
      "[4 ]",
      "][1 0",
      "][ Try",
      "][4 ,5",
      "[1,2 ][3",
      "][1][1 ]",
      ", 7",
      "[1,2][ ][3,4",
      ", 8",
      "[ 2",
      "[1,2 ][][]",
      "][1 1",
      "][5 ,6",
      "][If ][None][None",
      "][0][0 ][0][0",
      "][1 ][2",
      "][None ][For",
      "][1][0 ]",
      "][][ 5",
      "][1 2",
      "[If ][None][If",
      "][0 ]",
      "[None ]",
      "[ 5",
      "][6 ,7",
      "[0 ][0",
      ", 9",
      "][ 3]",
      "][1 3",
      ",1 0",
      "][None ][Return",
      "][7 ,8",
      "[1,2][2 ][3,4",
      "[ Try",
      "[If ][None][Return]",
      "[5 ]",
      "][1 4",
      "][1][1 ][0",
      "[If ][None][None",
      "][If ][None][If",
      "[1][2,3 ][4",
      "[1,2][2 ][]",
      "][1 5",
      "[1,2 ][3,4",
      "[1 ][0",
      "][8 ,9",
      ",1 1",
      "][0][0 ][0",
      ",1 2",
      "][3 ][4,5",
      "][9 ,10",
      "[ 3",
      "][3 ][]",
      "][1][0 ][1][0",
      "][][5 ,6",
      "][1 6",
      "[If][Return ][Return]",
      "][1 ][3",
      "[1][2,3 ][1",
      "][0][0 ]",
      "][10 ,11",
      "][11 ,12",
      "[1][2,3][4 ,1",
      "][4 ][5,6",
      "[ 6",
      "][Try ][None][None",
      "][][ 7",
      "W h",
      "i l",
      "][ Wh",
      "il e",
      "][Wh ile",
      "][1 7",
      "][][ 6",
      "][If][If ][None][None",
      "][If ][None]",
      "][2][0 ]",
      "[0 ]",
      "][1 ][2]",
      "][2 ][2",
      "[None][For ][If][Return",
      "][If][Return ][If][Return",
      "][4 ]",
      ",1 3",
      "][1][1 ][1][1",
      "][][ 4",
      "[1 ][]",
      "[1][2,3 ][4,5",
      "[If ][None][If][None][If",
      ",1 4",
      "][1 8",
      "[6 ]",
      "][If ][None][None]",
      "][None][None ][For",
      "[1][2,3][1 ][]",
      "][12 ,13",
      "][13 ,14",
      "][1 9",
      "[1,2][][3,4 ][][5,6",
      "][3 ][0",
      "[If ][None][None]",
      "[0 ][0][0",
      "[1,2][][3,4 ][][]",
      ",1 5",
      "][Return ][Return]",
      "][4 ][]",
      "][1][1 ][1]",
      "][If][Return ][Return]",
      "][6 ][7,8",
      ",1 6",
      "][2 0",
      "][][ 9",
      "[ 7",
      "][5 ]",
      "][If ][For",
      "][5 ][6,7",
      "][2 ][1]",
      "][1][0][0 ][0",
      "[None][For ][None][Return]",
      "][Return ][None]",
      "[0 ][1][0",
      "][1][0][0 ]",
      "][][7 ,8",
      "][2 1",
      "][None][None ][None]",
      "[1][2 ][3,4",
      "][14 ,15",
      "[1][2 ][3",
      "][15 ,16",
      "][][ 8",
      "][2 ][0][0",
      "][1 ][2][0",
      "][1 ][4",
      "][1][0 ][1][1",
      "[1,2][3 ][3][]",
      "[0 ][1][1",
      "[2 ][0",
      ",1 7",
      "[1,2][3 ][4,5",
      "][2 2",
      "][1][0 ][1]",
      "][None ][Try",
      ",1 8",
      "[1,2][2][3,4 ][4][5,6",
      "[7 ]",
      "[If ][None]",
      "[1,2][3,4 ][5,6",
      "[Try ][None][None",
      "][If ][None][Return]",
      "][If][If ][None][If",
      "][2 3",
      "[None ][While",
      "[1][2 ][1]",
      "[1 ][1][1",
      "[1,2][3 ][3][4,5",
      "][5 ][]",
      "][2 ][2]",
      "][16 ,17",
      "][6 ]",
      "][If][Return ][None]",
      "[0 ][0][0][0][0",
      "][8 ][9,10",
      "[1,2][3 ][][4",
      "][None ][Try][None][None",
      "[1,2][][3,4 ][5",
      "][ ][1]",
      "[If][None][None ][For",
      "][1 ][3]",
      "][2 ][1][1",
      "][If ][None][If][None][If",
      "][2 4",
      "][][ ][]",
      "[1,2][ ][3][4,5",
      "][17 ,18",
      "][6 ][]",
      "][7 ][8,9",
      ",1 9",
      "][If ][If][Return",
      "][ ][3",
      "[1][2][3 ,1",
      "[ 8",
      "][If][None][None ][None]",
      "[1 ][0][0",
      "[1,2][2][3,4 ][5",
      "][None][Return ][For",
      ",2 0",
      "][2 5",
      "][None][If ][None]",
      "[If][None][If ][None][Return]",
      "][1][0 ][2",
      "][4 ][0",
      "][Try ][Return",
      "][][6 ,7",
      "[None][For ][None]",
      "][][9 ,10",
      "[If][None][None ][Return]",
      "[0 ][2",
      "][None][If ][None][None]",
      "[0 ][1][0][0",
      "][18 ,19",
      "[0 ][1][1]",
      "][2 6",
      "][19 ,20",
      "][If ][None][Return",
      "][None][If ][None][None",
      "[If][None][If ][Return",
      "[1,2][3 ,2",
      "][10 ][11,12",
      "][2 7",
      ",2 1",
      "][1][1 ][0][0",
      "][1][1 ][0]",
      "][If ][Return]",
      "][7 ]",
      ",2 2",
      "][1 ][5",
      "[1,2][3 ][4",
      "][3 ][3",
      "[8 ]",
      "[1,2][3][][4 ,5",
      "][0][0][0][0 ][0][0][0][0",
      "[If ][If][Return",
      "[If][Return ][If][Return][If][Return",
      "[0 ][1][0]",
      "[If][Return ][If][Return][Return]",
      "[1,2][2][3,4 ][4][]",
      "[None][For][If][Return ][None]",
      "[1][2,3][4,1 ][][1]",
      "][5,6 ][7,8",
      "][None][None ][Return]",
      "[1 ][1][1]",
      "[0 ][0][0][0",
      "][6 ,3",
      "][For ][Return",
      "[1,2][][3,4][][5,6 ][][7,8",
      "[ 9",
      "][None][For ][None]",
      "][9 ][10,11",
      "][2 8",
      "[0 ][3",
      "[1 ][1][0",
      "][3 ][4",
      "][2 9",
      "][None][If][None][If ][None][If][None][If",
      "][21 ,22",
      "][6 ][7",
      "][20 ,21",
      "[1,2][2 ][3][4,5",
      "][If][None][None ][For",
      "][1][0][0 ][0][0",
      ",2 3",
      "][][8 ,9",
      "][1][2 ][1]",
      "[1,2][3,4 ][5",
      "[3 ][0",
      "][1 ][6",
      ",2 4",
      "][6,7 ][8",
      "][2 ][3",
      "][1 ][2][0]",
      "[If][Return ][None][For",
      "[1 ][1][0]",
      "][ ][11,12",
      "][8 ]",
      "][None][If ][None][Return]",
      "[If ][None][Try][None][None",
      ",1 ][1]",
      "][8 ][]",
      "[If ][None][For",
      "][None ][While",
      "][1][0 ][1][1]",
      "][For ][None][None",
      "][7 ][7",
      "[1][2,3][4,5 ][",
      "[1][2 ][]",
      "][6,7 ][8,9",
      "[0][0 ][1]",
      "[1,2][][3,4][][5,6 ][][]",
      "][12 ][13,14",
      "][1][3 ][0",
      "][3 ][0]",
      "[1,2][3 ][][]",
      "[1,2][][3,4 ][4][5,6",
      "][][ 3]",
      "][11 ][12,13",
      "][If ][None][For",
      "][None][If ][Return",
      "][3 ][1]",
      "][22 ,23",
      "[If][Return ][None]",
      "[If][Return ][If][Return",
      "][23 ,24",
      "][3 0",
      "][If][If ][If][None][None",
      "][If][If ][None][Return",
      "][2 ][1][0",
      "][3 ][0][0",
      "[1,2][2][3,4][4][5,6 ][6][7,8",
      "][Try ][If][None][None",
      "][7,8 ][9,10",
      "][1 ][4]",
      "[If][None][If ][None][None]",
      "[Try ][None][Return",
      "[9 ]",
      "][ ][10",
      "[1 0",
      ",2 5",
      "][5 ][0",
      "[1][2,3][1 ][4,5",
      "[If ][For",
      "][If][None][None ][Return]",
      "[0 ][1][2",
      ",2 6",
      "[1,2][ ][3][]",
      "[1][2,3][4,1 ][][]",
      "][][6 ][]",
      "][2][0 ][2][0",
      "][1][1 ][2",
      "][3 1",
      "][If][None][If ][None][None",
      "][1][0][0 ][0]",
      "[None][For ][For",
      "][0][0][0][0 ]",
      "][1 ][7",
      "][0][0][0][0 ][0",
      "][9 ]",
      "][1][1][0 ][1]",
      "][5,6 ][7",
      "[None ][Return]",
      "[0 ][1][2]",
      "[1][0 ][1]",
      "[1][2,3][4,1 ][][5",
      "][][ 2]",
      "][1][0 ][1][0]",
      "[None ][None]",
      "][3 ][4][5,6",
      "][Try ][None][None]",
      "][2 ][1][2",
      "[0 ][2][0",
      "][If][If ][None][None]",
      "[1][2,3][4,5 ][][6",
      "][24 ,25",
      "[1,2][3][4 ,3",
      "][ ][10,11",
      "][3 2",
      "[None][For ][If][None]",
      "][1][0 ][1][0][0",
      "[Try ][Return][Return]",
      "[2 ][0][0",
      "][None][If ][For",
      "[If ][If][If][None][None",
      "][7,8 ][9",
      "][Try ][None][Return",
      "][25 ,26",
      "[1,2][3][4,5 ][6,7",
      ",2 8",
      "[Try][None][None ][Return]",
      "][4 ][1]",
      "][1][1 ][1][1]",
      "][If][None][If ][None]",
      ",2 7",
      "][7 ][]",
      "][ ][13,14",
      "[1 ][1]",
      "][5][6,7 ][8,9",
      "][If][None][If ][None][None]",
      "[1][2][3,1 ][1]",
      "[1,2][][3,4 ][4][]",
      "[0 ][1][1][0",
      "[0 ][1][0][1][0",
      "[1][2][3,4 ][5",
      "][8 ][9",
      "][3 3",
      "][14 ][15,16",
      "][13 ][14,15",
      "[If][None][If ][None][None",
      "][If][None][If ][Return",
      "][1][0][0 ][1]",
      "[If][None][If ][None]",
      "][ ][11",
      "][0][0 ][0]",
      "][4 ][5",
      "][If][Return ][None][None]",
      "][3 ][2]",
      "][3 ][3]",
      "][9,10 ][11,12",
      "][2 ][0][0][0",
      "][None][None ][None][None",
      "[1,2][3,4 ][][5",
      "[1,2][2][3,4][5 ][][6][]",
      "[None][For ][None][For",
      "[0 ][0][0]",
      "[None][For ][None][None]",
      "][3 4",
      "[1,2][2][3,4 ][][]",
      "[If][None][Try][None][None ][If][None]",
      "][If][Return ][Return",
      "[1,2][][3,4 ][][5",
      "[If ][None][Try",
      "[1 ][1][2",
      "][1][0 ][2]",
      "][27 ,28",
      "[If][None][If][None][If ][None][Return]",
      "][5][6,7 ][8",
      "][2 ][2][0",
      "[None][For ][If][If",
      "][2 ][0][0]",
      "[4 ][0",
      "][10,11 ][12,13",
      "[1,2][][3,4 ][5,6",
      "][3 5",
      "[10 ]",
      "][1][0 ][2][0",
      "][None][If ][If][None][None",
      "][1][0 ][1][2",
      "[0][0 ][2]",
      "[If][None][None ][None]",
      "[If ][If][None][None",
      "[1][2,3][4,1 ][5,6",
      "[None][For][If][Return ][Return]",
      "[1][2,3][4,5 ][][5",
      "[1 ][0][0][0",
      "[1 ][0][0]",
      "[1,2][2][3,4 ][][5,6",
      "][26 ,27",
      ",2 9",
      "][10 ][]",
      "[1,2][3][4,5 ][][3",
      "][1][1 ][2]",
      ",2 ][2]",
      "][7 ,4",
      "][1 ][8",
      "][10 ][11",
      "[1,2][3,4 ][][][]",
      ",3 0",
      "][10,11 ][12",
      "][10 ]",
      "[None][For][If][Return ][None][None]",
      "[0 ][4",
      "][2 ][]",
      "[1 ][1][0][1][1",
      "][9 ][]",
      "][1 1]",
      "[1,2][][3,4][][5,6][][7,8 ][][9,10",
      "][6 ,1",
      "[If][None][If][None][If ][None][If][None][If",
      "[1 ][1][0][0",
      "[None][For ][If][For",
      "][If][If][Return ][Return",
      "][6 ,5",
      "][Try][None][None ][None]",
      "][1][0][1][0 ][1][0][1][0",
      "[1 ][1][2]",
      "[If][Return ][For",
      "][7 ][8",
      ",3 ][3]",
      "][1][0 ][3",
      "][If][If ][None][If][None][If",
      "][3 6",
      "[1][2,3][4,5 ][6,7",
      "][ ][12",
      "][None][Return ][None]",
      "[1,2][2 ][3][]",
      "[1,2 ,3",
      "[None][For ][None][Return][For",
      "[2 ][1][0]",
      "][1 ][]",
      "][9,10 ][11",
      "][2 ][1][1]",
      "][2 ][4",
      "][6 ][0",
      "[1][2 ][3][4,5",
      "[1 ][3",
      "[1,2][3,4 ][][4",
      "][6][7,8 ][9",
      "[1,2][][3,4 ][5,6][7,8",
      "][][ ][][]",
      "][If][Return][If][Return ][If][Return][If][Return",
      "][ ][12,13",
      "][1][1 ][1][2",
      "][8][9,10 ][10][11,12",
      "[0 ][1]",
      "[Try ][None][None]",
      ",3 1",
      "[1,2][3,4 ][][",
      "[1,2][3,2 ][4,5",
      "][28 ,29",
      "][29 ,30",
      "[1][2 ][0",
      "][2][0 ][1]",
      "][1][0 ][1][1][0",
      "[0 ][2][0]",
      "][3 7",
      "[1,2][3][3][4,5 ][6",
      "][15 ][16,17",
      "[1][2,3][4,1 ][][5,6",
      "[1][2,3][4,5][ ][1][1]",
      "][ ][15,16",
      "][16 ][17,18",
      "[1,2][][3][4,5 ][6,3",
      "][4 ][4",
      "[None][For ][None][None][For",
      "][2 ][1][0][0",
      ",3 2",
      "][1][2 ][0][0",
      "][1 ][5]",
      "[2 ][1][1",
      "][None][For ][None][Return]",
      "[1,2][2][3,4][4][5,6 ][6][]",
      "[1 ][1][1][0",
      "][If][If][None][None ][None]",
      "[None ][None][Return]",
      "][3 8",
      "[If][Return ][If][None][Return]",
      "[If][None][If ][Return][Return]",
      "][8,9 ][10",
      "][1 2]",
      "][1][4 ][0",
      "[If][Return ][If][None][If",
      "[Try ][Return][None]",
      "][13,14 ][15,16",
      "][3 9",
      "[0 ][1][3",
      "][2 ][1][0]",
      "[1][0 ][2]",
      "][ ][13",
      "[1][2,3 ][][]",
      "][1][1 ][3",
      "[If][None][If ][If][None][None",
      "[1,2][3,4 ][",
      "[1][2,3][4,1 ][5",
      "[1 ][1][1][1][1",
      "[1][2,3][4 ][][5,6",
      "[2 ][1]",
      "[1,2][3,4][5,6 ][4",
      "][4 ][0]",
      "][5 ][5",
      "[Try ][Return",
      "][None][None ][None][None]",
      "][1][1 ][1][0]",
      "][14,15 ][16,17",
      "][If ][Try",
      "][1][1 ][0][0][0",
      "[If][Return][If][Return][If][Return ][Return]",
      "][0][0 ][1]",
      "][6 ][6",
      "][][5 ]",
      "[1 ][2]",
      "][1][1 0",
      "][None][For ][For",
      "][2 ][0][0][0][0",
      "][2 ][3]",
      "[0][0][0][0][0 ]",
      "[2 ][1][1]",
      "][][4 ]",
      ",3 3",
      "[If][None][If ][None][None][For",
      "[1][1][0][1][1 ][1][1]",
      "][ ][14",
      "][1][1 ][1][0",
      "][If][None][If ][If][None][None",
      "[1 ][0][0][0][0",
      "][If ][None][Try",
      "[None][For ][If][None][None]",
      "][2 ][5",
      ",3 4",
      "][4 ][0][0",
      "[0][1][1 ][0]",
      "[0 ][2][1]",
      "][9 ][9",
      "[1][2,3 ][][4",
      "][For ][None][If",
      "[If ][Return]",
      "][12 ][]",
      "][4 0",
      "][If][If][None][If ][None][None",
      "][7][8,9 ][10",
      "[2 ][0][0]",
      "[1 1]",
      "[1,2][3 ][3][4][5,6",
      "][1][1 ][1][0][0",
      "][2 ][1][1][0",
      "][17 ][18,19",
      "][If][For ][None][None",
      "[1,2][][3][4,5 ][3][]",
      "[None][For ][If][If][None][None",
      "[0][0 ][1][0]",
      "][1][1][1][1 ][1]",
      "][8][9,10 ][11",
      "[If][Return ][If][Return][None]",
      "[1][2,3][4 ][][5",
      "][None][For ][None][None]",
      "][3 ][4][]",
      "][1 ][9",
      "[1][2,3][1 ][4][5,6",
      "[1,2][ ][3][4",
      "][If][If ][If][Return",
      "[1,2][2][3,4 ][5,6",
      "[None][For ][Try][Return",
      "[None][For ][For][Return",
      "[1,2][][3,4][][5,6][][7,8 ][][]",
      "[1,2][][3][4,5 ][6,7",
      "][None][If ][None][None][None]",
      "][14,15 ][16",
      "][11 ][]",
      "][12 ][13",
      "][Return ][For",
      "[1][2 ][0]",
      "][0][0][0 ][1]",
      "[If ][None][Return][For",
      "[1][2][3,1 ][4",
      "][30 ,31",
      "][1][1 ][1][1][0",
      "][1][2 ][1][2",
      ",4 ][4]",
      ",2 ][]",
      "][11,12 ][13",
      "[0 ][1][3]",
      "[None ][None][For",
      "[Try ][If][None][None",
      "][6 ][1]",
      "][If][If ][None]",
      "[5 ][0",
      "][1][0][1][0 ][1]",
      "[1][2,3][4,5 ][][",
      "][18 ][19,20",
      "[If][Return ][Try",
      "][1 3]",
      "][Return ][Return",
      ",1 ][]",
      "[1,2][3][4,5][6,7 ][3",
      "][31 ,32",
      ",3 6",
      "][2][0 ][2]",
      "][9 ][10",
      "][11,12 ][13,14",
      "][1][1 ][0][0]",
      "[If ][Try][Return",
      ",5 ][5]",
      "][1][3 ][1]",
      "[0 ][5",
      ",3 5",
      "][If][Return][If][Return ][Return]",
      "[0 ][1][1][1]",
      "][1][0][0][0 ][1]",
      "[1][2][3 ][4",
      "][4 1",
      "][][6,7 ][8",
      "][7 ][0",
      "][1][0][0 ][1][0][0",
      "[0 ][2]",
      "][17,18 ][19,20",
      "[If ][If][If][None][If",
      "][14 ][14",
      "][None][If][None][If ][None]",
      "[0][1][0 ][1]",
      "][ ][15",
      "][Return ][None][None]",
      "[1][2,3][4,5][ ][1",
      "][1][2 ][2]",
      "][Try][None][None ][Return]",
      "[0 ][1][0][0]",
      "[If][None][If][Return ][None][None]",
      "][1][1 ][2][0",
      "[0 ][2][2",
      "][1][0 ][1][2]",
      "[0 ][2][0][0",
      "][][11,12 ][][13,14",
      "[1,2][][3,4][5 ,2",
      "[Try ][None][None][None]",
      "][4 2",
      "[None][For ][If][None][None",
      "][1][0][0 ][0][0][0][0",
      "][None][If][None][If ][None][None]",
      "][None][If ][None][None][For",
      "[0][0][0][0][0 ][0",
      "[1 ][1][3",
      "[1][2][3,1 ][]",
      "[If][None][If ][Return][None]",
      "[0][0 ][3]",
      "[1,2][3][3][4,5 ][][]",
      "[1,2][2][3,4 ][4",
      "[0 ][1][2][0",
      "][1 ][6]",
      "[1 ][1][0][2",
      "[Try][None][Return ][Return]",
      "[1][2,3][4][][5 ,1",
      "][32 ,33",
      "][If][If ][If][If",
      "][For ][For",
      "][None][For ][If][Return",
      "[1][2,3][4,5 ][6",
      "[1,2][2][3,4 ][5,6][7,8",
      "][7 ,6",
      "[2][0 ][1]",
      "[3 ][0][0",
      "][ ][16",
      "][][7 ][8,9",
      "][33 ,34",
      "][1][0][0 ][0][0]",
      "][If][If][None][None ][None][None",
      "[1,2][][3,4][5 ][5][]",
      ",3 8",
      "][If ][Try][None][None",
      "][2 ][1][3",
      "][1][0][0 ][0][0][0",
      "][4 3",
      "[1 2]",
      "[0][0][0 ][1]",
      "][5 ][1]",
      "[0][0][0 ][0]",
      "][ ][2",
      "][6 ,2",
      "[If ][Try",
      "][If][None][If ][None][Return]",
      "][2][2 ][1]",
      "[None][While ][None][Return]",
      "[1,2][2][3,4][4][5,6][6][7,8 ][8][9,10][10][11,12",
      "][1][1 1",
      "[If][None][If][None][If ][None][If][None][Return]",
      "][7][7 ][]",
      "[1 ][4",
      "[1,2][3,2 ][][4",
      "][15 ][15",
      "][None][None][For ][None]",
      "][9][10,11 ][12",
      "][][6,7 ][8,9",
      "[1][2][3,4 ][1][1]",
      "][ ][17,18",
      "[1,2][2 ][3][4",
      "][1][0 ][4",
      "][8 ][8",
      ",3 7",
      "][If][None][None ][If][None][None",
      "][None][If ][Return][Return]",
      "][20 ][21,22",
      "[1,2][3][4,5][][3 ][6,7",
      "][If][Return ][None][None",
      "][10 ][10",
      "][][6 ]",
      "[0 ][1][1][1][1",
      "[If][None][If ][For",
      "][6][7,8 ][9,10",
      "[1,2][3][4,3 ][5,6",
      "][1][0 ][1][0][0]",
      "][ ][16,17",
      "][ ][19,20",
      "[1 ][1][1][1]",
      "][8 ,3",
      "[If][Return ][If][If",
      "[If][None][If][None][If ][None][If][None][If][None][If][None][If",
      "[1][2][3,1 ][4,5",
      "[0 ][1][0][0][0",
      "[If][None][If][None][If ][None][None]",
      "[0][1][0 ][1][0]",
      "[0 ][3][0",
      "[1,2][3,4 ][][5,6",
      "][19 ][20,21",
      "][3 ][6,7",
      "[1 ][1][3]",
      "][7][8,9 ][10,11",
      "[1][2,3][][4 ,5",
      "[0][0 ][3",
      "[1,2][3][4 ][5",
      "[1][2,3][4,1][5,6 ][1",
      "][4 4",
      "[1][2,3][4,5][][5 ][1]",
      "][13 ][13",
      "[If][If][Return ][None][None]",
      "][2 ][3][0",
      "[0][0 ][1][1",
      "[If][None][None][For ][None][Return]",
      "][6,7][8 ,5",
      "[1,2][3][4,3 ][][3]",
      "][4 5",
      "[1 4",
      "[2 ][1][2",
      "][1][1][0 ][1][1]",
      "][9][10,11 ][12,13",
      "][11 ][11",
      "][ ][17",
      "[If ][If][If",
      "[1,2][][3,4][5 ,4",
      "][If][None][None ][None][None]",
      "[0][0 ][1][0][0]",
      "[3 ][1][0]",
      ",6 ][6]",
      "[If][None][None ][If][None][Return]",
      "][][7 ][]",
      "][12][13,14 ][14][15,16",
      "[0][1][0 ][1][1]",
      "][4 ][4]",
      "][5 ][0][0",
      "[1][0 ][1][0]",
      "[0][0 ][1][1]",
      "][2 ][6",
      "[2 ][3",
      "][34 ,35",
      "][35 ,36",
      "[If][None][None ][While",
      "[1,2][2][3][4,5 ][6,3",
      "[If ][If][None][None]",
      "][14 ]",
      "[1,2][3,4][5,6 ][][",
      "][ ][3][]",
      "[0][0][0][0 ][1]",
      "][1][0 ][1][1][1][1",
      "][0][0][0][0 ][0]",
      "][If][If][None][None ][None][None]",
      "][1][0 ][1][1][1]",
      "[0][0 ][2][0",
      "][][7,8 ][9",
      "][][7,8 ][][9,10",
      "][2 ][1][2]",
      "][18,19 ][20,21",
      "[1,2][3][3][4,5 ][5][]",
      "][8 ][0",
      "][14 ][15",
      "][None][Return ][Return]",
      "][1][0 ][3]",
      "][2 ][2][0]",
      "[If ][If][Return][None]",
      "][For ][None][None]",
      "][1][5 ][0",
      "[1][1][1 ][0]",
      "[1,2][3][4,5][][3 ][3]",
      "][5 ,3",
      "[1][2,3 ][3][]",
      "][If][For ][None][If",
      ",4 0",
      "][6 ][3",
      "][7 ,1",
      "][1][1 2",
      "][1][1 ][3]",
      "[1,2][3,4 ][4",
      "[0 ][2][2]",
      "[0][0 ][1][0][0",
      "][1][3 ][0]",
      "][1][1 ][4",
      ",3 9",
      "][If ][Try][Return",
      "[1 ][1][0][1][0",
      "][0][0][0][0 ][0][0",
      "][1 ][8,9",
      "][None][None ][None][For",
      "[1][2,3][4,5][][1 ][6,7",
      "[1,2][3,2 ][][]",
      "[1,2][][3,4][][5 ][]",
      "[0][1][0][0 ][0]",
      "[1][2,3][4,1 ][][2]",
      "][1][2][0 ][1]",
      "][ ][14,15",
      "[If ][If][If][Return",
      "[If][Return ][If][None][None",
      "[1,2][3 ][4][5,6",
      "[1,2][2][3,4][4][5,6][6][7,8 ][8][]",
      "][4 6",
      "[None][For ][Try",
      "[If][None][If ][None][None][Return]",
      "][1][1][0 ][1][0]",
      "][2][2 ][0][0",
      "[1 3]",
      "][18,19 ][20",
      "][6 ,4",
      "[If][Return ][If][None][If][None][If",
      "][1][3 ][0][0",
      "[1,2][3,2 ][][2]",
      "][None][None ][While",
      "[If][None][If][None][If ][None][If",
      "][For ][None]",
      "][22,23 ][24,25",
      "[2 ][0][0][0",
      "[0 ][1][4",
      "][If ][None][Try][None][None",
      "][5 ][5]",
      "][ ][18",
      "][6,7 ][][8",
      "][8 ,1",
      "[1,2][3,4][][ ][5,6",
      "][4 7",
      "[1][2,3 ][3][4,5"
    ]
  }
}