{
  "version": "1.0",
  "truncation": null,
  "padding": null,
  "added_tokens": [
    {
      "id": 0,
      "content": "[UNK]",
      "single_word": false,
      "lstrip": false,
      "rstrip": false,
      "normalized": false,
      "special": true
    },
    {
      "id": 1,
      "content": "[CLS]",
      "single_word": false,
      "lstrip": false,
      "rstrip": false,
      "normalized": false,
      "special": true
    },
    {
      "id": 2,
      "content": "[SEP]",
      "single_word": false,
      "lstrip": false,
      "rstrip": false,
      "normalized": false,
      "special": true
    },
    {
      "id": 3,
      "content": "[PAD]",
      "single_word": false,
      "lstrip": false,
      "rstrip": false,
      "normalized": false,
      "special": true
    },
    {
      "id": 4,
      "content": "[MASK]",
      "single_word": false,
      "lstrip": false,
      "rstrip": false,
      "normalized": false,
      "special": true
    }
  ],
  "normalizer": null,
  "pre_tokenizer": {
    "type": "Sequence",
    "pretokenizers": [
      {
        "type": "Split",
        "pattern": {
          "String": "[SEP1]"
        },
        "behavior": "Isolated",
        "invert": false
      },
      {
        "type": "Split",
        "pattern": {
          "String": "[SEP2]"
        },
        "behavior": "Isolated",
        "invert": false
      },
      {
        "type": "Split",
        "pattern": {
          "String": "[SEP3]"
        },
        "behavior": "Isolated",
        "invert": false
      }
    ]
  },
  "post_processor": null,
  "decoder": null,
  "model": {
    "type": "BPE",
    "dropout": null,
    "unk_token": "[UNK]",
    "continuing_subword_prefix": null,
    "end_of_word_suffix": null,
    "fuse_unk": false,
    "byte_fallback": false,
    "ignore_merges": false,
    "vocab": {
      "[UNK]": 0,
      "[CLS]": 1,
      "[SEP]": 2,
      "[PAD]": 3,
      "[MASK]": 4,
      ",": 5,
      "0": 6,
      "1": 7,
      "2": 8,
      "3": 9,
      "4": 10,
      "5": 11,
      "6": 12,
      "7": 13,
      "8": 14,
      "9": 15,
      "E": 16,
      "F": 17,
      "I": 18,
      "N": 19,
      "P": 20,
      "R": 21,
      "S": 22,
      "T": 23,
      "W": 24,
      "[": 25,
      "]": 26,
      "e": 27,
      "f": 28,
      "h": 29,
      "i": 30,
      "l": 31,
      "n": 32,
      "o": 33,
      "r": 34,
      "t": 35,
      "u": 36,
      "y": 37,
      "][": 38,
      "EP": 39,
      "SEP": 40,
      "[SEP": 41,
      "][1": 42,
      "No": 43,
      "ne": 44,
      "None": 45,
      "][None": 46,
      "][0": 47,
      "If": 48,
      "2]": 49,
      "1]": 50,
      "3]": 51,
      "][If": 52,
      "Re": 53,
      "rn": 54,
      "tu": 55,
      "Retu": 56,
      "Return": 57,
      "[SEP2]": 58,
      "[SEP1]": 59,
      "[SEP3]": 60,
      "][2": 61,
      "[1": 62,
      "][Return": 63,
      "][3": 64,
      "][0][0": 65,
      "][None][None": 66,
      ",2": 67,
      "][1][1": 68,
      "][][": 69,
      "[1,2": 70,
      "[If": 71,
      "][4": 72,
      ",1": 73,
      "][None][If": 74,
      "[2]": 75,
      "Fo": 76,
      "For": 77,
      "][For": 78,
      "[1]": 79,
      "[0": 80,
      "][Return]": 81,
      "][1][0": 82,
      "][]": 83,
      "][5": 84,
      "[]": 85,
      "[None": 86,
      ",4": 87,
      "][1]": 88,
      "][None]": 89,
      "][6": 90,
      "[3]": 91,
      "][3,4": 92,
      "[1][2": 93,
      "][][]": 94,
      ",3": 95,
      "[Return": 96,
      "[Return]": 97,
      "][If][Return": 98,
      "][7": 99,
      "Tr": 100,
      "Try": 101,
      "][None][Return]": 102,
      "][None][None]": 103,
      ",6": 104,
      ",5": 105,
      "][8": 106,
      "[None][For": 107,
      "][If][If": 108,
      "[4": 109,
      "][1][0][0": 110,
      "[1][2,3": 111,
      "][2]": 112,
      "[1,2][2": 113,
      "[If][Return": 114,
      "[1,2][": 115,
      "][2][0": 116,
      "][9": 117,
      "][None][If][None][If": 118,
      "[4]": 119,
      "][10": 120,
      "][Try": 121,
      "][4,5": 122,
      "[1,2][3": 123,
      "][1][1]": 124,
      ",7": 125,
      "[1,2][][3,4": 126,
      ",8": 127,
      "[2": 128,
      "[1,2][][]": 129,
      "][11": 130,
      "][5,6": 131,
      "][If][None][None": 132,
      "][0][0][0][0": 133,
      "][1][2": 134,
      "][None][For": 135,
      "][1][0]": 136,
      "][][5": 137,
      "][12": 138,
      "[If][None][If": 139,
      "][0]": 140,
      "[None]": 141,
      "[5": 142,
      "][6,7": 143,
      "[0][0": 144,
      ",9": 145,
      "][3]": 146,
      "][13": 147,
      ",10": 148,
      "][None][Return": 149,
      "][7,8": 150,
      "[1,2][2][3,4": 151,
      "[Try": 152,
      "[If][None][Return]": 153,
      "[5]": 154,
      "][14": 155,
      "][1][1][0": 156,
      "[If][None][None": 157,
      "][If][None][If": 158,
      "[1][2,3][4": 159,
      "[1,2][2][]": 160,
      "][15": 161,
      "[1,2][3,4": 162,
      "[1][0": 163,
      "][8,9": 164,
      ",11": 165,
      "][0][0][0": 166,
      ",12": 167,
      "][3][4,5": 168,
      "][9,10": 169,
      "[3": 170,
      "][3][]": 171,
      "][1][0][1][0": 172,
      "][][5,6": 173,
      "][16": 174,
      "[If][Return][Return]": 175,
      "][1][3": 176,
      "[1][2,3][1": 177,
      "][0][0]": 178,
      "][10,11": 179,
      "][11,12": 180,
      "[1][2,3][4,1": 181,
      "][4][5,6": 182,
      "[6": 183,
      "][Try][None][None": 184,
      "][][7": 185,
      "Wh": 186,
      "il": 187,
      "][Wh": 188,
      "ile": 189,
      "][While": 190,
      "][17": 191,
      "][][6": 192,
      "][If][If][None][None": 193,
      "][If][None]": 194,
      "][2][0]": 195,
      "[0]": 196,
      "][1][2]": 197,
      "][2][2": 198,
      "[None][For][If][Return": 199,
      "][If][Return][If][Return": 200,
      "][4]": 201,
      ",13": 202,
      "][1][1][1][1": 203,
      "][][4": 204,
      "[1][]": 205,
      "[1][2,3][4,5": 206,
      "[If][None][If][None][If": 207,
      ",14": 208,
      "][18": 209,
      "[6]": 210,
      "][If][None][None]": 211,
      "][None][None][For": 212,
      "[1][2,3][1][]": 213,
      "][12,13": 214,
      "][13,14": 215,
      "][19": 216,
      "[1,2][][3,4][][5,6": 217,
      "][3][0": 218,
      "[If][None][None]": 219,
      "[0][0][0": 220,
      "[1,2][][3,4][][]": 221,
      ",15": 222,
      "][Return][Return]": 223,
      "][4][]": 224,
      "][1][1][1]": 225,
      "][If][Return][Return]": 226,
      "][6][7,8": 227,
      ",16": 228,
      "][20": 229,
      "][][9": 230,
      "[7": 231,
      "][5]": 232,
      "][If][For": 233,
      "][5][6,7": 234,
      "][2][1]": 235,
      "][1][0][0][0": 236,
      "[None][For][None][Return]": 237,
      "][Return][None]": 238,
      "[0][1][0": 239,
      "][1][0][0]": 240,
      "][][7,8": 241,
      "][21": 242,
      "][None][None][None]": 243,
      "[1][2][3,4": 244,
      "][14,15": 245,
      "[1][2][3": 246,
      "][15,16": 247,
      "][][8": 248,
      "][2][0][0": 249,
      "][1][2][0": 250,
      "][1][4": 251,
      "][1][0][1][1": 252,
      "[1,2][3][3][]": 253,
      "[0][1][1": 254,
      "[2][0": 255,
      ",17": 256,
      "[1,2][3][4,5": 257,
      "][22": 258,
      "][1][0][1]": 259,
      "][None][Try": 260,
      ",18": 261,
      "[1,2][2][3,4][4][5,6": 262,
      "[7]": 263,
      "[If][None]": 264,
      "[1,2][3,4][5,6": 265,
      "[Try][None][None": 266,
      "][If][None][Return]": 267,
      "][If][If][None][If": 268,
      "][23": 269,
      "[None][While": 270,
      "[1][2][1]": 271,
      "[1][1][1": 272,
      "[1,2][3][3][4,5": 273,
      "][5][]": 274,
      "][2][2]": 275,
      "][16,17": 276,
      "][6]": 277,
      "][If][Return][None]": 278,
      "[0][0][0][0][0": 279,
      "][8][9,10": 280,
      "[1,2][3][][4": 281,
      "][None][Try][None][None": 282,
      "[1,2][][3,4][5": 283,
      "][][1]": 284,
      "[If][None][None][For": 285,
      "][1][3]": 286,
      "][2][1][1": 287,
      "][If][None][If][None][If": 288,
      "][24": 289,
      "][][][]": 290,
      "[1,2][][3][4,5": 291,
      "][17,18": 292,
      "][6][]": 293,
      "][7][8,9": 294,
      ",19": 295,
      "][If][If][Return": 296,
      "][][3": 297,
      "[1][2][3,1": 298,
      "[8": 299,
      "][If][None][None][None]": 300,
      "[1][0][0": 301,
      "[1,2][2][3,4][5": 302,
      "][None][Return][For": 303,
      ",20": 304,
      "][25": 305,
      "][None][If][None]": 306,
      "[If][None][If][None][Return]": 307,
      "][1][0][2": 308,
      "][4][0": 309,
      "][Try][Return": 310,
      "][][6,7": 311,
      "[None][For][None]": 312,
      "][][9,10": 313,
      "[If][None][None][Return]": 314,
      "[0][2": 315,
      "][None][If][None][None]": 316,
      "[0][1][0][0": 317,
      "][18,19": 318,
      "[0][1][1]": 319,
      "][26": 320,
      "][19,20": 321,
      "][If][None][Return": 322,
      "][None][If][None][None": 323,
      "[If][None][If][Return": 324,
      "[1,2][3,2": 325,
      "][10][11,12": 326,
      "][27": 327,
      ",21": 328,
      "][1][1][0][0": 329,
      "][1][1][0]": 330,
      "][If][Return]": 331,
      "][7]": 332,
      ",22": 333,
      "][1][5": 334,
      "[1,2][3][4": 335,
      "][3][3": 336,
      "[8]": 337,
      "[1,2][3][][4,5": 338,
      "][0][0][0][0][0][0][0][0": 339,
      "[If][If][Return": 340,
      "[If][Return][If][Return][If][Return": 341,
      "[0][1][0]": 342,
      "[If][Return][If][Return][Return]": 343,
      "[1,2][2][3,4][4][]": 344,
      "[None][For][If][Return][None]": 345,
      "[1][2,3][4,1][][1]": 346,
      "][5,6][7,8": 347,
      "][None][None][Return]": 348,
      "[1][1][1]": 349,
      "[0][0][0][0": 350,
      "][6,3": 351,
      "][For][Return": 352,
      "[1,2][][3,4][][5,6][][7,8": 353,
      "[9": 354,
      "][None][For][None]": 355,
      "][9][10,11": 356,
      "][28": 357,
      "[0][3": 358,
      "[1][1][0": 359,
      "][3][4": 360,
      "][29": 361,
      "][None][If][None][If][None][If][None][If": 362,
      "][21,22": 363,
      "][6][7": 364,
      "][20,21": 365,
      "[1,2][2][3][4,5": 366,
      "][If][None][None][For": 367,
      "][1][0][0][0][0": 368,
      ",23": 369,
      "][][8,9": 370,
      "][1][2][1]": 371,
      "[1,2][3,4][5": 372,
      "[3][0": 373,
      "][1][6": 374,
      ",24": 375,
      "][6,7][8": 376,
      "][2][3": 377,
      "][1][2][0]": 378,
      "[If][Return][None][For": 379,
      "[1][1][0]": 380,
      "][][11,12": 381,
      "][8]": 382,
      "][None][If][None][Return]": 383,
      "[If][None][Try][None][None": 384,
      ",1][1]": 385,
      "][8][]": 386,
      "[If][None][For": 387,
      "][None][While": 388,
      "][1][0][1][1]": 389,
      "][For][None][None": 390,
      "][7][7": 391,
      "[1][2,3][4,5][": 392,
      "[1][2][]": 393,
      "][6,7][8,9": 394,
      "[0][0][1]": 395,
      "[1,2][][3,4][][5,6][][]": 396,
      "][12][13,14": 397,
      "][1][3][0": 398,
      "][3][0]": 399,
      "[1,2][3][][]": 400,
      "[1,2][][3,4][4][5,6": 401,
      "][][3]": 402,
      "][11][12,13": 403,
      "][If][None][For": 404,
      "][None][If][Return": 405,
      "][3][1]": 406,
      "][22,23": 407,
      "[If][Return][None]": 408,
      "[If][Return][If][Return": 409,
      "][23,24": 410,
      "][30": 411,
      "][If][If][If][None][None": 412,
      "][If][If][None][Return": 413,
      "][2][1][0": 414,
      "][3][0][0": 415,
      "[1,2][2][3,4][4][5,6][6][7,8": 416,
      "][Try][If][None][None": 417,
      "][7,8][9,10": 418,
      "][1][4]": 419,
      "[If][None][If][None][None]": 420,
      "[Try][None][Return": 421,
      "[9]": 422,
      "][][10": 423,
      "[10": 424,
      ",25": 425,
      "][5][0": 426,
      "[1][2,3][1][4,5": 427,
      "[If][For": 428,
      "][If][None][None][Return]": 429,
      "[0][1][2": 430,
      ",26": 431,
      "[1,2][][3][]": 432,
      "[1][2,3][4,1][][]": 433,
      "][][6][]": 434,
      "][2][0][2][0": 435,
      "][1][1][2": 436,
      "][31": 437,
      "][If][None][If][None][None": 438,
      "][1][0][0][0]": 439,
      "[None][For][For": 440,
      "][0][0][0][0]": 441,
      "][1][7": 442,
      "][0][0][0][0][0": 443,
      "][9]": 444,
      "][1][1][0][1]": 445,
      "][5,6][7": 446,
      "[None][Return]": 447,
      "[0][1][2]": 448,
      "[1][0][1]": 449,
      "[1][2,3][4,1][][5": 450,
      "][][2]": 451,
      "][1][0][1][0]": 452,
      "[None][None]": 453,
      "][3][4][5,6": 454,
      "][Try][None][None]": 455,
      "][2][1][2": 456,
      "[0][2][0": 457,
      "][If][If][None][None]": 458,
      "[1][2,3][4,5][][6": 459,
      "][24,25": 460,
      "[1,2][3][4,3": 461,
      "][][10,11": 462,
      "][32": 463,
      "[None][For][If][None]": 464,
      "][1][0][1][0][0": 465,
      "[Try][Return][Return]": 466,
      "[2][0][0": 467,
      "][None][If][For": 468,
      "[If][If][If][None][None": 469,
      "][7,8][9": 470,
      "][Try][None][Return": 471,
      "][25,26": 472,
      "[1,2][3][4,5][6,7": 473,
      ",28": 474,
      "[Try][None][None][Return]": 475,
      "][4][1]": 476,
      "][1][1][1][1]": 477,
      "][If][None][If][None]": 478,
      ",27": 479,
      "][7][]": 480,
      "][][13,14": 481,
      "[1][1]": 482,
      "][5][6,7][8,9": 483,
      "][If][None][If][None][None]": 484,
      "[1][2][3,1][1]": 485,
      "[1,2][][3,4][4][]": 486,
      "[0][1][1][0": 487,
      "[0][1][0][1][0": 488,
      "[1][2][3,4][5": 489,
      "][8][9": 490,
      "][33": 491,
      "][14][15,16": 492,
      "][13][14,15": 493,
      "[If][None][If][None][None": 494,
      "][If][None][If][Return": 495,
      "][1][0][0][1]": 496,
      "[If][None][If][None]": 497,
      "][][11": 498,
      "][0][0][0]": 499,
      "][4][5": 500,
      "][If][Return][None][None]": 501,
      "][3][2]": 502,
      "][3][3]": 503,
      "][9,10][11,12": 504,
      "][2][0][0][0": 505,
      "][None][None][None][None": 506,
      "[1,2][3,4][][5": 507,
      "[1,2][2][3,4][5][][6][]": 508,
      "[None][For][None][For": 509,
      "[0][0][0]": 510,
      "[None][For][None][None]": 511,
      "][34": 512,
      "[1,2][2][3,4][][]": 513,
      "[If][None][Try][None][None][If][None]": 514,
      "][If][Return][Return": 515,
      "[1,2][][3,4][][5": 516,
      "[If][None][Try": 517,
      "[1][1][2": 518,
      "][1][0][2]": 519,
      "][27,28": 520,
      "[If][None][If][None][If][None][Return]": 521,
      "][5][6,7][8": 522,
      "][2][2][0": 523,
      "[None][For][If][If": 524,
      "][2][0][0]": 525,
      "[4][0": 526,
      "][10,11][12,13": 527,
      "[1,2][][3,4][5,6": 528,
      "][35": 529,
      "[10]": 530,
      "][1][0][2][0": 531,
      "][None][If][If][None][None": 532,
      "][1][0][1][2": 533,
      "[0][0][2]": 534,
      "[If][None][None][None]": 535,
      "[If][If][None][None": 536,
      "[1][2,3][4,1][5,6": 537,
      "[None][For][If][Return][Return]": 538,
      "[1][2,3][4,5][][5": 539,
      "[1][0][0][0": 540,
      "[1][0][0]": 541,
      "[1,2][2][3,4][][5,6": 542,
      "][26,27": 543,
      ",29": 544,
      "][10][]": 545,
      "[1,2][3][4,5][][3": 546,
      "][1][1][2]": 547,
      ",2][2]": 548,
      "][7,4": 549,
      "][1][8": 550,
      "][10][11": 551,
      "[1,2][3,4][][][]": 552,
      ",30": 553,
      "][10,11][12": 554,
      "][10]": 555,
      "[None][For][If][Return][None][None]": 556,
      "[0][4": 557,
      "][2][]": 558,
      "[1][1][0][1][1": 559,
      "][9][]": 560,
      "][11]": 561,
      "[1,2][][3,4][][5,6][][7,8][][9,10": 562,
      "][6,1": 563,
      "[If][None][If][None][If][None][If][None][If": 564,
      "[1][1][0][0": 565,
      "[None][For][If][For": 566,
      "][If][If][Return][Return": 567,
      "][6,5": 568,
      "][Try][None][None][None]": 569,
      "][1][0][1][0][1][0][1][0": 570,
      "[1][1][2]": 571,
      "[If][Return][For": 572,
      "][7][8": 573,
      ",3][3]": 574,
      "][1][0][3": 575,
      "][If][If][None][If][None][If": 576,
      "][36": 577,
      "[1][2,3][4,5][6,7": 578,
      "][][12": 579,
      "][None][Return][None]": 580,
      "[1,2][2][3][]": 581,
      "[1,2,3": 582,
      "[None][For][None][Return][For": 583,
      "[2][1][0]": 584,
      "][1][]": 585,
      "][9,10][11": 586,
      "][2][1][1]": 587,
      "][2][4": 588,
      "][6][0": 589,
      "[1][2][3][4,5": 590,
      "[1][3": 591,
      "[1,2][3,4][][4": 592,
      "][6][7,8][9": 593,
      "[1,2][][3,4][5,6][7,8": 594,
      "][][][][]": 595,
      "][If][Return][If][Return][If][Return][If][Return": 596,
      "][][12,13": 597,
      "][1][1][1][2": 598,
      "][8][9,10][10][11,12": 599,
      "[0][1]": 600,
      "[Try][None][None]": 601,
      ",31": 602,
      "[1,2][3,4][][": 603,
      "[1,2][3,2][4,5": 604,
      "][28,29": 605,
      "][29,30": 606,
      "[1][2][0": 607,
      "][2][0][1]": 608,
      "][1][0][1][1][0": 609,
      "[0][2][0]": 610,
      "][37": 611,
      "[1,2][3][3][4,5][6": 612,
      "][15][16,17": 613,
      "[1][2,3][4,1][][5,6": 614,
      "[1][2,3][4,5][][1][1]": 615,
      "][][15,16": 616,
      "][16][17,18": 617,
      "[1,2][][3][4,5][6,3": 618,
      "][4][4": 619,
      "[None][For][None][None][For": 620,
      "][2][1][0][0": 621,
      ",32": 622,
      "][1][2][0][0": 623,
      "][1][5]": 624,
      "[2][1][1": 625,
      "][None][For][None][Return]": 626,
      "[1,2][2][3,4][4][5,6][6][]": 627,
      "[1][1][1][0": 628,
      "][If][If][None][None][None]": 629,
      "[None][None][Return]": 630,
      "][38": 631,
      "[If][Return][If][None][Return]": 632,
      "[If][None][If][Return][Return]": 633,
      "][8,9][10": 634,
      "][12]": 635,
      "][1][4][0": 636,
      "[If][Return][If][None][If": 637,
      "[Try][Return][None]": 638,
      "][13,14][15,16": 639,
      "][39": 640,
      "[0][1][3": 641,
      "][2][1][0]": 642,
      "[1][0][2]": 643,
      "][][13": 644,
      "[1][2,3][][]": 645,
      "][1][1][3": 646,
      "[If][None][If][If][None][None": 647,
      "[1,2][3,4][": 648,
      "[1][2,3][4,1][5": 649,
      "[1][1][1][1][1": 650,
      "[1][2,3][4][][5,6": 651,
      "[2][1]": 652,
      "[1,2][3,4][5,6][4": 653,
      "][4][0]": 654,
      "][5][5": 655,
      "[Try][Return": 656,
      "][None][None][None][None]": 657,
      "][1][1][1][0]": 658,
      "][14,15][16,17": 659,
      "][If][Try": 660,
      "][1][1][0][0][0": 661,
      "[If][Return][If][Return][If][Return][Return]": 662,
      "][0][0][1]": 663,
      "][6][6": 664,
      "][][5]": 665,
      "[1][2]": 666,
      "][1][10": 667,
      "][None][For][For": 668,
      "][2][0][0][0][0": 669,
      "][2][3]": 670,
      "[0][0][0][0][0]": 671,
      "[2][1][1]": 672,
      "][][4]": 673,
      ",33": 674,
      "[If][None][If][None][None][For": 675,
      "[1][1][0][1][1][1][1]": 676,
      "][][14": 677,
      "][1][1][1][0": 678,
      "][If][None][If][If][None][None": 679,
      "[1][0][0][0][0": 680,
      "][If][None][Try": 681,
      "[None][For][If][None][None]": 682,
      "][2][5": 683,
      ",34": 684,
      "][4][0][0": 685,
      "[0][1][1][0]": 686,
      "[0][2][1]": 687,
      "][9][9": 688,
      "[1][2,3][][4": 689,
      "][For][None][If": 690,
      "[If][Return]": 691,
      "][12][]": 692,
      "][40": 693,
      "][If][If][None][If][None][None": 694,
      "][7][8,9][10": 695,
      "[2][0][0]": 696,
      "[11]": 697,
      "[1,2][3][3][4][5,6": 698,
      "][1][1][1][0][0": 699,
      "][2][1][1][0": 700,
      "][17][18,19": 701,
      "][If][For][None][None": 702,
      "[1,2][][3][4,5][3][]": 703,
      "[None][For][If][If][None][None": 704,
      "[0][0][1][0]": 705,
      "][1][1][1][1][1]": 706,
      "][8][9,10][11": 707,
      "[If][Return][If][Return][None]": 708,
      "[1][2,3][4][][5": 709,
      "][None][For][None][None]": 710,
      "][3][4][]": 711,
      "][1][9": 712,
      "[1][2,3][1][4][5,6": 713,
      "[1,2][][3][4": 714,
      "][If][If][If][Return": 715,
      "[1,2][2][3,4][5,6": 716,
      "[None][For][Try][Return": 717,
      "[None][For][For][Return": 718,
      "[1,2][][3,4][][5,6][][7,8][][]": 719,
      "[1,2][][3][4,5][6,7": 720,
      "][None][If][None][None][None]": 721,
      "][14,15][16": 722,
      "][11][]": 723,
      "][12][13": 724,
      "][Return][For": 725,
      "[1][2][0]": 726,
      "][0][0][0][1]": 727,
      "[If][None][Return][For": 728,
      "[1][2][3,1][4": 729,
      "][30,31": 730,
      "][1][1][1][1][0": 731,
      "][1][2][1][2": 732,
      ",4][4]": 733,
      ",2][]": 734,
      "][11,12][13": 735,
      "[0][1][3]": 736,
      "[None][None][For": 737,
      "[Try][If][None][None": 738,
      "][6][1]": 739,
      "][If][If][None]": 740,
      "[5][0": 741,
      "][1][0][1][0][1]": 742,
      "[1][2,3][4,5][][": 743,
      "][18][19,20": 744,
      "[If][Return][Try": 745,
      "][13]": 746,
      "][Return][Return": 747,
      ",1][]": 748,
      "[1,2][3][4,5][6,7][3": 749,
      "][31,32": 750,
      ",36": 751,
      "][2][0][2]": 752,
      "][9][10": 753,
      "][11,12][13,14": 754,
      "][1][1][0][0]": 755,
      "[If][Try][Return": 756,
      ",5][5]": 757,
      "][1][3][1]": 758,
      "[0][5": 759,
      ",35": 760,
      "][If][Return][If][Return][Return]": 761,
      "[0][1][1][1]": 762,
      "][1][0][0][0][1]": 763,
      "[1][2][3][4": 764,
      "][41": 765,
      "][][6,7][8": 766,
      "][7][0": 767,
      "][1][0][0][1][0][0": 768,
      "[0][2]": 769,
      "][17,18][19,20": 770,
      "[If][If][If][None][If": 771,
      "][14][14": 772,
      "][None][If][None][If][None]": 773,
      "[0][1][0][1]": 774,
      "][][15": 775,
      "][Return][None][None]": 776,
      "[1][2,3][4,5][][1": 777,
      "][1][2][2]": 778,
      "][Try][None][None][Return]": 779,
      "[0][1][0][0]": 780,
      "[If][None][If][Return][None][None]": 781,
      "][1][1][2][0": 782,
      "[0][2][2": 783,
      "][1][0][1][2]": 784,
      "[0][2][0][0": 785,
      "][][11,12][][13,14": 786,
      "[1,2][][3,4][5,2": 787,
      "[Try][None][None][None]": 788,
      "][42": 789,
      "[None][For][If][None][None": 790,
      "][1][0][0][0][0][0][0": 791,
      "][None][If][None][If][None][None]": 792,
      "][None][If][None][None][For": 793,
      "[0][0][0][0][0][0": 794,
      "[1][1][3": 795,
      "[1][2][3,1][]": 796,
      "[If][None][If][Return][None]": 797,
      "[0][0][3]": 798,
      "[1,2][3][3][4,5][][]": 799,
      "[1,2][2][3,4][4": 800,
      "[0][1][2][0": 801,
      "][1][6]": 802,
      "[1][1][0][2": 803,
      "[Try][None][Return][Return]": 804,
      "[1][2,3][4][][5,1": 805,
      "][32,33": 806,
      "][If][If][If][If": 807,
      "][For][For": 808,
      "][None][For][If][Return": 809,
      "[1][2,3][4,5][6": 810,
      "[1,2][2][3,4][5,6][7,8": 811,
      "][7,6": 812,
      "[2][0][1]": 813,
      "[3][0][0": 814,
      "][][16": 815,
      "][][7][8,9": 816,
      "][33,34": 817,
      "][1][0][0][0][0]": 818,
      "][If][If][None][None][None][None": 819,
      "[1,2][][3,4][5][5][]": 820,
      ",38": 821,
      "][If][Try][None][None": 822,
      "][2][1][3": 823,
      "][1][0][0][0][0][0": 824,
      "][43": 825,
      "[12]": 826,
      "[0][0][0][1]": 827,
      "][5][1]": 828,
      "[0][0][0][0]": 829,
      "][][2": 830,
      "][6,2": 831,
      "[If][Try": 832,
      "][If][None][If][None][Return]": 833,
      "][2][2][1]": 834,
      "[None][While][None][Return]": 835,
      "[1,2][2][3,4][4][5,6][6][7,8][8][9,10][10][11,12": 836,
      "][1][11": 837,
      "[If][None][If][None][If][None][If][None][Return]": 838,
      "][7][7][]": 839,
      "[1][4": 840,
      "[1,2][3,2][][4": 841,
      "][15][15": 842,
      "][None][None][For][None]": 843,
      "][9][10,11][12": 844,
      "][][6,7][8,9": 845,
      "[1][2][3,4][1][1]": 846,
      "][][17,18": 847,
      "[1,2][2][3][4": 848,
      "][1][0][4": 849,
      "][8][8": 850,
      ",37": 851,
      "][If][None][None][If][None][None": 852,
      "][None][If][Return][Return]": 853,
      "][20][21,22": 854,
      "[1,2][3][4,5][][3][6,7": 855,
      "][If][Return][None][None": 856,
      "][10][10": 857,
      "][][6]": 858,
      "[0][1][1][1][1": 859,
      "[If][None][If][For": 860,
      "][6][7,8][9,10": 861,
      "[1,2][3][4,3][5,6": 862,
      "][1][0][1][0][0]": 863,
      "][][16,17": 864,
      "][][19,20": 865,
      "[1][1][1][1]": 866,
      "][8,3": 867,
      "[If][Return][If][If": 868,
      "[If][None][If][None][If][None][If][None][If][None][If][None][If": 869,
      "[1][2][3,1][4,5": 870,
      "[0][1][0][0][0": 871,
      "[If][None][If][None][If][None][None]": 872,
      "[0][1][0][1][0]": 873,
      "[0][3][0": 874,
      "[1,2][3,4][][5,6": 875,
      "][19][20,21": 876,
      "][3][6,7": 877,
      "[1][1][3]": 878,
      "][7][8,9][10,11": 879,
      "[1][2,3][][4,5": 880,
      "[0][0][3": 881,
      "[1,2][3][4][5": 882,
      "[1][2,3][4,1][5,6][1": 883,
      "][44": 884,
      "[1][2,3][4,5][][5][1]": 885,
      "][13][13": 886,
      "[If][If][Return][None][None]": 887,
      "][2][3][0": 888,
      "[0][0][1][1": 889,
      "[If][None][None][For][None][Return]": 890,
      "][6,7][8,5": 891,
      "[1,2][3][4,3][][3]": 892,
      "][45": 893,
      "[14": 894,
      "[2][1][2": 895,
      "][1][1][0][1][1]": 896,
      "][9][10,11][12,13": 897,
      "][11][11": 898,
      "][][17": 899,
      "[If][If][If": 900,
      "[1,2][][3,4][5,4": 901,
      "][If][None][None][None][None]": 902,
      "[0][0][1][0][0]": 903,
      "[3][1][0]": 904,
      ",6][6]": 905,
      "[If][None][None][If][None][Return]": 906,
      "][][7][]": 907,
      "][12][13,14][14][15,16": 908,
      "[0][1][0][1][1]": 909,
      "][4][4]": 910,
      "][5][0][0": 911,
      "[1][0][1][0]": 912,
      "[0][0][1][1]": 913,
      "][2][6": 914,
      "[2][3": 915,
      "][34,35": 916,
      "][35,36": 917,
      "[If][None][None][While": 918,
      "[1,2][2][3][4,5][6,3": 919,
      "[If][If][None][None]": 920,
      "][14]": 921,
      "[1,2][3,4][5,6][][": 922,
      "][][3][]": 923,
      "[0][0][0][0][1]": 924,
      "][1][0][1][1][1][1": 925,
      "][0][0][0][0][0]": 926,
      "][If][If][None][None][None][None]": 927,
      "][1][0][1][1][1]": 928,
      "[0][0][2][0": 929,
      "][][7,8][9": 930,
      "][][7,8][][9,10": 931,
      "][2][1][2]": 932,
      "][18,19][20,21": 933,
      "[1,2][3][3][4,5][5][]": 934,
      "][8][0": 935,
      "][14][15": 936,
      "][None][Return][Return]": 937,
      "][1][0][3]": 938,
      "][2][2][0]": 939,
      "[If][If][Return][None]": 940,
      "][For][None][None]": 941,
      "][1][5][0": 942,
      "[1][1][1][0]": 943,
      "[1,2][3][4,5][][3][3]": 944,
      "][5,3": 945,
      "[1][2,3][3][]": 946,
      "][If][For][None][If": 947,
      ",40": 948,
      "][6][3": 949,
      "][7,1": 950,
      "][1][12": 951,
      "][1][1][3]": 952,
      "[1,2][3,4][4": 953,
      "[0][2][2]": 954,
      "[0][0][1][0][0": 955,
      "][1][3][0]": 956,
      "][1][1][4": 957,
      ",39": 958,
      "][If][Try][Return": 959,
      "[1][1][0][1][0": 960,
      "][0][0][0][0][0][0": 961,
      "][1][8,9": 962,
      "][None][None][None][For": 963,
      "[1][2,3][4,5][][1][6,7": 964,
      "[1,2][3,2][][]": 965,
      "[1,2][][3,4][][5][]": 966,
      "[0][1][0][0][0]": 967,
      "[1][2,3][4,1][][2]": 968,
      "][1][2][0][1]": 969,
      "][][14,15": 970,
      "[If][If][If][Return": 971,
      "[If][Return][If][None][None": 972,
      "[1,2][3][4][5,6": 973,
      "[1,2][2][3,4][4][5,6][6][7,8][8][]": 974,
      "][46": 975,
      "[None][For][Try": 976,
      "[If][None][If][None][None][Return]": 977,
      "][1][1][0][1][0]": 978,
      "][2][2][0][0": 979,
      "[13]": 980,
      "][18,19][20": 981,
      "][6,4": 982,
      "[If][Return][If][None][If][None][If": 983,
      "][1][3][0][0": 984,
      "[1,2][3,2][][2]": 985,
      "][None][None][While": 986,
      "[If][None][If][None][If][None][If": 987,
      "][For][None]": 988,
      "][22,23][24,25": 989,
      "[2][0][0][0": 990,
      "[0][1][4": 991,
      "][If][None][Try][None][None": 992,
      "][5][5]": 993,
      "][][18": 994,
      "][6,7][][8": 995,
      "][8,1": 996,
      "[1,2][3,4][][][5,6": 997,
      "][47": 998,
      "[1][2,3][3][4,5": 999,
      "][1][0][1][1][0]": 1000,
      "[If][If][If][None][Return": 1001,
      "[None][For][If][Return]": 1002,
      "[None][For][If][If][None][If": 1003,
      "][5][6,7][7][8,9": 1004,
      "][2][0][0][0]": 1005,
      "][][7]": 1006,
      "[None][While][If][Return": 1007,
      "][None][Try][None][None]": 1008,
      "][][6,7][][]": 1009,
      "][10,11][9": 1010,
      "][2][1][1][1][1": 1011,
      "][None][For][None][For": 1012,
      "[Try][If][Return": 1013,
      ",42": 1014,
      "][7][][8,9": 1015,
      "[1,2][][3][4][5,6": 1016,
      "[1,2][3][3][4": 1017,
      "][21,22][23,24": 1018,
      "][3][0][0][0": 1019,
      "[6][0": 1020,
      "][1][0][2][1]": 1021,
      "][15,16][17": 1022,
      "[11": 1023,
      "[1][0][3]": 1024,
      "][13,14][15": 1025,
      "[1][2][3,4][5,6": 1026,
      "[1,2][3][][4,5][6": 1027,
      "[Try][None][None][For": 1028,
      "[1][2,3][4,3": 1029,
      "][2][2][2]": 1030,
      "[1,2][3][4,3][5,6][3": 1031,
      "][0][0][0][0][0][0][0][0][0][0][0][0][0][0][0][0": 1032,
      "][37,38": 1033,
      "][If][None][Return][None]": 1034,
      "[1][1][0][2][1][1][1]": 1035,
      "[1,2][2][3,4][5][5][]": 1036,
      "][If][None][If][For": 1037,
      "][1][0][0][0][0][0]": 1038,
      "][3][1][1": 1039,
      "][22][23,24": 1040,
      "][][6,7][][8,9": 1041,
      "[None][For][For][Return][None]": 1042,
      "][11][12": 1043,
      "[1,2][2][3][4,5][3][]": 1044,
      "][1][0][0][1][1]": 1045,
      "[If][For][Return": 1046,
      "][14][]": 1047,
      "][48": 1048,
      "][1][0][1][0][0][0": 1049,
      "][2][4]": 1050,
      "][If][For][Return": 1051,
      "][8][9,10][10][]": 1052,
      "][2][1][2][0": 1053,
      "][None][If][Return][None]": 1054,
      "[None][None][None]": 1055,
      "][7,8][][9": 1056,
      "][If][If][For": 1057,
      "[1,2][][3,4][5][][]": 1058,
      "[1,2][2][3,4][5,4": 1059,
      "[If][None][None][None][For": 1060,
      "][7,2": 1061,
      "][36,37": 1062,
      "][1][0][0][1][0]": 1063,
      "][If][None][If][None][None][None]": 1064,
      "[1,2][][3,4][4][5,6][6][7,8": 1065,
      "][5][0]": 1066,
      "][][5][]": 1067,
      "][None][Return][None][None]": 1068,
      "[2][2][0": 1069,
      "[If][None][If][None][If][None]": 1070,
      "][3][2][0": 1071,
      "][5,6][7,1": 1072,
      "[1][2][3][4,1": 1073,
      "[If][None][For][None]": 1074,
      "][6][0][0": 1075,
      "[0][0][2][0]": 1076,
      ",41": 1077,
      "][1][0][2][0]": 1078,
      "][1][0][3][0": 1079,
      "][17,18][19": 1080,
      "[None][For][If][None][Return]": 1081,
      "[1][0][1][1]": 1082,
      "][10][11,12][13": 1083,
      "][5][8,9": 1084,
      "][5][2]": 1085,
      "[If][Return][None][For][None][Return]": 1086,
      "[1,2][3,4][5][4": 1087,
      "[15": 1088,
      "][1][0][1][3": 1089,
      "[1][1][0][1]": 1090,
      "][7,8][3": 1091,
      "][None][If][None][None][Return]": 1092,
      "[If][None][If][None][If][Return": 1093,
      "[1,2][3][4,5][][3][]": 1094,
      "][3][1][2": 1095,
      "[0][1][2][0]": 1096,
      "][None][If][If][If][None][None": 1097,
      "][7][7][8,9": 1098,
      ",7][7]": 1099,
      "][1][1][0][1][1": 1100,
      "][16]": 1101,
      "[1][2][2]": 1102,
      "][13][]": 1103,
      "][22,23][24": 1104,
      "][2][1][1][1]": 1105,
      "][15]": 1106,
      "][1][1][1][1][0]": 1107,
      "[1,2][3,4][][2][2]": 1108,
      "][][7,8][][]": 1109,
      "[1,2][3][][4,5][][]": 1110,
      "[1,2][3,4][5,4": 1111,
      "[1,2][][3,4][5][6,7": 1112,
      "][8][9,10][11,12": 1113,
      "][If][None][Return][Return]": 1114,
      "[1,2][3,4][][4][]": 1115,
      "][None][None][For][None][None]": 1116,
      "][3][8,9": 1117,
      "[If][Try][None][None": 1118,
      "[If][Return][Try][None][Return": 1119,
      "[1,2][][3,4][4": 1120,
      "[0][0][0][1][0]": 1121,
      "[If][If][If][Return][Return": 1122,
      "][None][None][For][For": 1123,
      "[2][2]": 1124,
      "[2][2][0]": 1125,
      "][][7,3": 1126,
      "][12,13][14": 1127,
      "][5][6,7][7][]": 1128,
      "][1][2][1][1]": 1129,
      "][None][None][For][None][Return]": 1130,
      "][1][0][1][1][0][0": 1131,
      "][If][None][None][None][None": 1132,
      "[If][None][None][For][If][Return": 1133,
      "[1][2,3][4,1][][5,1": 1134,
      "[1][0][1][1": 1135,
      "][If][None][None][None][For": 1136,
      "[1][0]": 1137,
      "[2][1][2]": 1138,
      "][4][3]": 1139,
      "][1][0][2][2": 1140,
      "][3][0][1]": 1141,
      "[1,2][][3,4][][5,6][][7,8][][9,10][][11,12][][13,14": 1142,
      "][2][1][1][0]": 1143,
      "[If][If][Return][Return][Return]": 1144,
      "[1][3]": 1145,
      "][16][17": 1146,
      "][None][If][None][For": 1147,
      "][2][0][1][1": 1148,
      "[1,2][3][3][4,5][6][6][]": 1149,
      "][6][6]": 1150,
      "][1][0][1][0][1][1]": 1151,
      "][21,22][23": 1152,
      "[1,2][3,4][5][5": 1153,
      "][If][None][Return][For": 1154,
      "[1][1][4": 1155,
      "][49": 1156,
      ",44": 1157,
      "[1,2][2][3,4][5,2": 1158,
      "][50": 1159,
      "[If][Return][If][None][None]": 1160,
      "[1][0][1][0][0]": 1161,
      "][None][None][None][Return]": 1162,
      "[If][If][Return][Return]": 1163,
      "][6][7][8,9": 1164,
      "][If][If][If][None][If": 1165,
      "][If][While": 1166,
      "[None][For][If][None][None][For": 1167,
      "][1][2][1][1": 1168,
      "[3][1][1]": 1169,
      "][1][0][2][0][0": 1170,
      "[2][1][0][0": 1171,
      "][9][10,11][11][12,13": 1172,
      "][5][6,7][8,5": 1173,
      "][If][If][None][For": 1174,
      "[1,2][3,4][5,6][7][7": 1175,
      "[If][Try][If][None][None": 1176,
      "][7,8][5": 1177,
      "[1][0][0][0]": 1178,
      "[1][2,3][4,5][][6,7": 1179,
      "][1][7]": 1180,
      "][4][2]": 1181,
      "[None][For][None][For][None]": 1182,
      "][If][If][None][None][Return]": 1183,
      "[0][3][0]": 1184,
      "[1,2][][3,4][5,6][7": 1185,
      "[1][0][3": 1186,
      "[3][0][0]": 1187,
      "][16][]": 1188,
      "][None][None][If][None][None]": 1189,
      "[1][1][1][1][1]": 1190,
      "[If][None][If][None][Try][None][None": 1191,
      "][18][18": 1192,
      "[1,2][3][][4,2": 1193,
      "][38,39": 1194,
      "[1][2,3][4,5][][][1]": 1195,
      "][7,5": 1196,
      "][8,6": 1197,
      "[4][0][0": 1198,
      "][7][8,7": 1199,
      "][51": 1200,
      ",43": 1201,
      "[1][2][3][]": 1202,
      "][7][1]": 1203,
      "[1][0][1][0][0": 1204,
      "][17][17": 1205,
      "][2][0][1][1]": 1206,
      "[1][3][0": 1207,
      "][6][7][]": 1208,
      "][25,26][27,28": 1209,
      "[None][For][If][Return][None][If][None]": 1210,
      "[2][0][2]": 1211,
      "[If][Return][If][Return][If][Return][If][Return][Return]": 1212,
      "[1][2][3,4][5,2": 1213,
      "[12": 1214,
      "][9][0": 1215,
      "][][11,12][][]": 1216,
      "[0][0][2": 1217,
      "][If][None][For][None]": 1218,
      "][None][None][If][None]": 1219,
      "][None][If][For][None][None": 1220,
      "][39,40": 1221,
      "][][19": 1222,
      "][0][0][0][0][0][0]": 1223,
      "[0][0][1][2": 1224,
      "][10,5": 1225,
      "[0][0][1][0][1]": 1226,
      "[0][6": 1227,
      "][If][If][If][Return][Return": 1228,
      "[1,2][][3,4][5][6,7][8,9": 1229,
      "[3][1]": 1230,
      "][Try][None][None][None][None]": 1231,
      "][12][13,14][15": 1232,
      "[0][0][4]": 1233,
      "[1,2][3,4][5,6][2][2": 1234,
      "][][3][3]": 1235,
      "[1][1][0][0]": 1236,
      "][1][14": 1237,
      "[1,2][3][4,5][6,7][3][3": 1238,
      "][If][None][None][If][None]": 1239,
      "[1][2,3][4,5][6,7][8": 1240,
      "[If][If][None]": 1241,
      "[0][0][0][1][1]": 1242,
      "[1,2][][3,4][][5,6][][7,8][][9,10][][]": 1243,
      "[14]": 1244,
      "[16": 1245,
      "[1][1][2][0": 1246,
      "][2][0][1][0]": 1247,
      "[0][0][4": 1248,
      "][7,8][][": 1249,
      "[1,2][][3,4][][5,6][6][7,8": 1250,
      "][21][21": 1251,
      "][13][14": 1252,
      "[7][0": 1253,
      "[1,2][][3,4][4][5,6][6][]": 1254,
      "][If][If][Return][Return]": 1255,
      "][1][13": 1256,
      "][2][0][1][2": 1257,
      "[2][2": 1258,
      "][If][None][If][None][If][None]": 1259,
      "[If][Return][None][While": 1260,
      "][9,3": 1261,
      "][7,8][][9,10": 1262,
      "][1][6][0": 1263,
      "][13][14,15][16,17": 1264,
      "[1,2][][3,4][5,2][][]": 1265,
      "][None][For][If][None]": 1266,
      "][12][12": 1267,
      "][If][None][If][None][If][None][If][None][If": 1268,
      "[If][None][Return": 1269,
      "][If][None][None][If][None][None]": 1270,
      "][If][If][If][If][None][None": 1271,
      "[0][3][1]": 1272,
      "[1,2][2][3][4,5][6,7": 1273,
      "][][20": 1274,
      "][6][9,10": 1275,
      "[1][0][0][0][0]": 1276,
      "[0][1][4]": 1277,
      "[1][2,3][4,5][][1][6": 1278,
      "][40,41": 1279,
      "[If][None][If][None][None][None]": 1280,
      "][1][1][0][2]": 1281,
      "[0][1][1][0][0]": 1282,
      "][If][None][If][None][If][None][None]": 1283,
      "[1,2][3,2][4,5][2": 1284,
      "][1][1][0][0][1]": 1285,
      "[1,2][2][3][4][5,6": 1286,
      "[If][Return][Try][None][None": 1287,
      "[0][1][1][0][0": 1288,
      "][7,8][9,10][8": 1289,
      "][1][0][0][2]": 1290,
      "[1,2][3,4][5,6][2": 1291,
      "][41,42": 1292,
      "][3][1][1]": 1293,
      ",46": 1294,
      "][1][1][1][1][1][1][1][1": 1295,
      "][][7,8][9,10": 1296,
      "][3][0][0]": 1297,
      "][If][If][If][None][Return": 1298,
      ",8][8]": 1299,
      "[1][2][3,4][][5,6": 1300,
      "][11][12,13][14": 1301,
      "][7][7]": 1302,
      "][Try][Return][Return]": 1303,
      "][53": 1304,
      "][1][0][0][1][1": 1305,
      "][][8]": 1306,
      "][1][2][0][0][0": 1307,
      "][][5][5]": 1308,
      "][1][0][1][0][1][0]": 1309,
      "[1][2,3][4,1][5][1": 1310,
      "[0][7": 1311,
      "][52": 1312,
      "][12,13][14,15": 1313,
      "][2][0][0][1]": 1314,
      "[0][1][1][1][0]": 1315,
      "][None][If][If][Return": 1316,
      "[None][For][If][None][If": 1317,
      "][25,26][27": 1318,
      "[If][None][If][If][If][None][None": 1319,
      "][18][19": 1320,
      "[If][None][None][For][None]": 1321,
      "][][23,24": 1322,
      "[If][If][None][None][None]": 1323,
      "][15,16][17,18": 1324,
      "[2][4": 1325,
      "[1][2][3,4][2][]": 1326,
      "[1,2][3,4][5,6][][][][]": 1327,
      "][6,1][1]": 1328,
      "][][6][7,8": 1329,
      "[1][2][3,1][2]": 1330,
      "[1][2,3][4,5][][6,1": 1331,
      "][3][2": 1332,
      "][1][0][5": 1333,
      "][23][24,25": 1334,
      "[If][Return][None][For][If][Return": 1335,
      "[1][2,3][1][4,5][3][]": 1336,
      "[1][2,3][4,5][][5][6,7": 1337,
      "][If][Try][If][None][None": 1338,
      "][9,4": 1339,
      "][6,7][8,9][10": 1340,
      "][26,27][28,29": 1341,
      "][][18,19": 1342,
      "[1][2][0][0": 1343,
      "[1][2,3][4,1][5,6][7,8": 1344,
      "[None][For][If][Return][None][If][None][None]": 1345,
      "][None][If][Return][None][None]": 1346,
      "][][20,21": 1347,
      "[1][0][2][0": 1348,
      "[0][0][0][0][0][0]": 1349,
      "][If][If][Return][If][Return": 1350,
      "[1][5": 1351,
      "][3][1][0]": 1352,
      "][0][0][0][0][0][0][0": 1353,
      "][2][1][1][0][0": 1354,
      "[0][1][0][0][1]": 1355,
      "[None][For][Try][None][None]": 1356,
      "][6][6][]": 1357,
      "[If][Return][If][None][If][Return": 1358,
      "[3][1][1": 1359,
      "[None][For][For][None]": 1360,
      "[1][1][0][0][0": 1361,
      "][5,3][3]": 1362,
      ",45": 1363,
      "[None][For][If][Return][If][None]": 1364,
      "][3][1][0][0": 1365,
      "][][][8,9": 1366,
      "][54": 1367,
      "][7][][]": 1368,
      "][][9]": 1369,
      "[1][0][0][1]": 1370,
      "[1,2][2][3,4][][5,6][][]": 1371,
      "][12][13,14][14][15,16][16][17,18": 1372,
      "[0][0][0][0][0][0][0]": 1373,
      "[1][2,3][4,1][][5,1][1]": 1374,
      "][5][6][]": 1375,
      "][Try][Return][None][None]": 1376,
      "][1][1][0][0][0]": 1377,
      "[1][1][0][1][1]": 1378,
      "[0][0][1][1][0]": 1379,
      "][10,11][3": 1380,
      "][If][None][If][None][If][None][None": 1381,
      "][If]": 1382,
      "[0][3]": 1383,
      "][None][Try][Return": 1384,
      "[13": 1385,
      "][7,3": 1386,
      "][10][0": 1387,
      "][][8][]": 1388,
      "][][10,11][12": 1389,
      "][13][14,15][16": 1390,
      "[1][2][3,4][1": 1391,
      "[1][2][3][1]": 1392,
      "][26][27,28": 1393,
      "][2][1][0][1]": 1394,
      "[2][2][1]": 1395,
      "][1][10,11": 1396,
      "[If][None][None][If][None][None": 1397,
      "[2][1][3": 1398,
      "[Try][None]": 1399,
      "][15][]": 1400,
      "[1][0][2][0]": 1401,
      "][10][11,12][13,14": 1402,
      "[1,2][3][][4,5][6,3": 1403,
      "[1,2,3][4": 1404,
      "[If][If][Return][Return": 1405,
      "][][15,16][][17,18": 1406,
      "[1,2][][3][4,5][6,3][][3]": 1407,
      "][][21,22": 1408,
      "][1][1][1][3": 1409,
      "][17]": 1410,
      "[None][While][Try": 1411,
      "[If][Return][If][Return][If][Return][None]": 1412,
      "[0][4][0": 1413,
      "][1][0][1][2][0": 1414,
      "][9,8": 1415,
      "][If][Return][If][Return][None]": 1416,
      "][18]": 1417,
      "][1][1][1][2]": 1418,
      "][1][2][1][0]": 1419,
      "][2][5,6": 1420,
      ",47": 1421,
      "[1][1][0][1][0]": 1422,
      "[1][3][0]": 1423,
      "[0][0]": 1424,
      "[1,2][3][3][4][]": 1425,
      "[2][1][1][0": 1426,
      "[1][2][3,4][4][5,6": 1427,
      "][1][4][1]": 1428,
      "[1][1][1][1][0]": 1429,
      "[1][1][4]": 1430,
      "[If][None][If][None][If][None][If][None][If][None][Return]": 1431,
      "[None][If][None][Return]": 1432,
      "][None][If][None][If][None][Return]": 1433,
      "[1][1][1][0][0": 1434,
      "][55": 1435,
      "][None][If][None][If][None][None": 1436,
      "][][9,10][11": 1437,
      "[If][None][If][None][For": 1438,
      "][If][If][None][None][None][Return]": 1439,
      "[If][None][If][None][If][None][None": 1440,
      "[1][6": 1441,
      "][6,7][4": 1442,
      "[1][0][1][0][1]": 1443,
      "[1,2][3,2][][1]": 1444,
      "[1][2,3][4,5][][6][6][1]": 1445,
      "[1,2][3][4,5][6,7][3][8,9": 1446,
      "][43,44": 1447,
      "][1][1][2][2": 1448,
      "[1,2][2][3,4][][5": 1449,
      "[If][Return][If][Return][If][Return][If][Return][If][Return][If][Return][If][Return": 1450,
      "[0][1][2][1]": 1451,
      "][8][1]": 1452,
      "[1][2][3,1][4,1": 1453,
      "][5][3": 1454,
      "][2][1][1][2]": 1455,
      "][If][If][None][Return][Return]": 1456,
      "[If][Return][If][Return]": 1457,
      "[If][Return][If][None][None][For": 1458,
      "[1][2][3][2]": 1459,
      "[1,2][3][4,5][][3][6,7][3][8,9": 1460,
      "][1][8]": 1461,
      "][2][7": 1462,
      "[0][0][2][1]": 1463,
      "[1][2,3][4][5": 1464,
      "][Try][None][None][None][None": 1465,
      "][1][1][1][1][1][1]": 1466,
      "[If][Return][If][None]": 1467,
      "][None][If][Return]": 1468,
      "[None][For][If][None][None][None]": 1469,
      "[1,2][3,4][][4][5,6": 1470,
      "][57": 1471,
      "][2][1][0][2": 1472,
      "][][][3]": 1473,
      "][None][If][None][Return": 1474,
      "[1,2][][3,4][5][6,5": 1475,
      "][3][10": 1476,
      "][None][If][If][None][None]": 1477,
      "][56": 1478,
      "[If][None][If][If][Return": 1479,
      "][][21": 1480,
      "][6][7,6": 1481,
      "][8,9][10,7": 1482,
      "][None][If][If][None][None][None]": 1483,
      "[None][None][None": 1484,
      "][6][5]": 1485,
      "][6,4][4]": 1486,
      "[If][Return][If][None][None][Return]": 1487,
      "[0][0][1][0": 1488,
      "][][9][]": 1489,
      "[1,2][][3,4][5][5][6,7": 1490,
      "][15][16": 1491,
      "[1,2][3][][4,5][3][]": 1492,
      "][2][1][4": 1493,
      "[1,2][][3][4][]": 1494,
      ",9][9]": 1495,
      "][1][0][0][0][0][1]": 1496,
      "][42,43": 1497,
      "[1][2,3][4][][5,1][4]": 1498,
      "][If][None][If][None][Return": 1499,
      "][None][Try][None][None][None]": 1500,
      "[If][If][Return][None][Return]": 1501,
      "][1][15": 1502,
      ",48": 1503,
      "][9,1": 1504,
      "[3][3": 1505,
      "][None][If][None][If][None][If][None][If][None][If][None][If][None][If][None][If": 1506,
      "][For][If][None]": 1507,
      "][7,4][8,9": 1508,
      "[17": 1509,
      "][1][1][0][0][0][0": 1510,
      "][6][7,8][9,6": 1511,
      "[None][For][Try][Return][None][None]": 1512,
      "][58": 1513,
      "][7][3": 1514,
      "][9,10][7": 1515,
      "][None][Try][If][None][None": 1516,
      "][If][If][Return][Return][Return]": 1517,
      "[1][2][3,4][5,1": 1518,
      "[If][Try][None][None][None]": 1519,
      "][1][1][0][1][1][0": 1520,
      "[1][2,3][4,1][][5,2": 1521,
      "[1][2,3][4,5][6,7][5": 1522,
      "[2][1][0": 1523,
      "][11,6": 1524,
      "[1][0][1][1][1]": 1525,
      "][26,27][28": 1526,
      "][0][0][0][0][0][0][0][0]": 1527,
      "][6][7,1": 1528,
      ",49": 1529,
      "][9,7": 1530,
      "[1][2,3][4][4][]": 1531,
      "][6,7][8,9][10,11": 1532,
      "[1,2][3][3][4,5][6][6][7,8": 1533,
      "][2][1][0][0][0": 1534,
      "][4][3": 1535,
      "[0][1][1][1][1]": 1536,
      "[1][2,3][1][4,5][5][]": 1537,
      "[1][2,3][4][][5,6][4][1]": 1538,
      "][1][7,8": 1539,
      "[If][If][If][None][If][None][If": 1540,
      "][If][Return][For": 1541,
      "][8][8]": 1542,
      "][10,9": 1543,
      "][3][0][3][0": 1544,
      "[1][2][3,4][5,6][7,8": 1545,
      "[1,2][3][4,5][][6": 1546,
      "][11][12,13][14,15": 1547,
      "[None][If][None][None]": 1548,
      "][][31": 1549,
      "][7][0][0": 1550,
      "][8,7": 1551,
      "][If][If][For][None][None": 1552,
      "[0][0][1][1][0": 1553,
      "][Try][None][Return][Return]": 1554,
      "[0][8": 1555,
      "][If][If][If][None][If][None][None": 1556,
      "[1,2][3][3][4,5][6,7": 1557,
      "[3][0][1]": 1558,
      "[1][0][0][0][0][0": 1559,
      "][][][][": 1560,
      "[None][For][If][If][None][None]": 1561,
      "[If][None][None][If][Return][Return]": 1562,
      "][][4][4]": 1563,
      "[None][For][For][Return][If][None]": 1564,
      "][5][6][7,8": 1565,
      "][6][3]": 1566,
      "][If][Return][If][Return]": 1567,
      "[3][1][2": 1568,
      "][1][3][2]": 1569,
      "[If][None][If][None][If][None][If][None][None]": 1570,
      "[1][2][3,4][4][1]": 1571,
      "[0][1][1][2]": 1572,
      "][22][22": 1573,
      "[Try][None][None][If][None][Return]": 1574,
      "[1,2][][3][4,5][6": 1575,
      "][25][25": 1576,
      "[1,2][][3,4][5,6][][": 1577,
      "[1,2][3,4][][][2]": 1578,
      "[15]": 1579,
      "[18": 1580,
      "][11,12][10": 1581,
      "][None][None][For][If][Return": 1582,
      "][19][20": 1583,
      "][1][4][0][0": 1584,
      "[1,2][3][4,5][6": 1585,
      "[1,2][2][3,4][4][5,6][6][7,8][8][9,10][10][]": 1586,
      "[1,2][][3,4][][5][6,7": 1587,
      "][29,30][31,32": 1588,
      "[If][Return][Try][Return][Return]": 1589,
      "[If][None][While": 1590,
      "][None][For][If][None][None]": 1591,
      "[Try][For": 1592,
      "][If][None][If][If][None][If": 1593,
      "[None][For][If][Return][If][None][None]": 1594,
      "][19]": 1595,
      "[Try][None][None][Try][None][None": 1596,
      "][If][If][None][If][None][None]": 1597,
      "[1,2][][3,4][5,6][][][]": 1598,
      "][2][8": 1599,
      "[If][If][None][Return": 1600,
      "[2][1][1][1]": 1601,
      "[5][0][0": 1602,
      "][][11,12][13": 1603,
      "[1,2][2][3,4][4][5][]": 1604,
      "][1][0][1][3]": 1605,
      "][5][4]": 1606,
      "][2][0][1][0][0": 1607,
      "[2][0][0][0][0": 1608,
      "][12,7": 1609,
      "[1,2][][3,4][][5,6][6][]": 1610,
      "[0][1][0][0][0][0": 1611,
      ",50": 1612,
      "[2][2][2": 1613,
      "][1][0][1][1][1][1]": 1614,
      "[1,2][3][][4][]": 1615,
      "][19,20][21": 1616,
      "[1][2,3][1][4][5,6][4][]": 1617,
      "[1,2][][3,4][][5,6][7,8][9,10": 1618,
      "[None][While][None]": 1619,
      "][][30": 1620,
      "[1][2,3][4,1][][5,2][2]": 1621,
      "[1][0][0][0][1]": 1622,
      "[1,2][3][4][5,4": 1623,
      "][2][1][0][1][0": 1624,
      "][3][1][1][0": 1625,
      "[0][1][3][0": 1626,
      "[0][1][1][0][1]": 1627,
      "][2][0][2][0]": 1628,
      "[1,2][2][3,4][5][6,7": 1629,
      "[If][None][None][If][None][If": 1630,
      "[1,2][][3,4][4][5,6][][]": 1631,
      "][4][5,1": 1632,
      "[1][2,3][4,5][6,7][1][1": 1633,
      "][9,6": 1634,
      "][None][If][None][If][None][If][None][None]": 1635,
      "][Try][Return][None]": 1636,
      "][None][For][None][None": 1637,
      "[1,2][2][3,4][5,6][7": 1638,
      "][17][18": 1639,
      "[1,2][3,4][5,6][][7": 1640,
      "][If][If][If][None][None][None][None": 1641,
      "[1,2][][3,4][5,6][][7": 1642,
      "[If][Return][If][None][If][None][Return]": 1643,
      "[1,2][3,2][][4,5": 1644,
      "][6][4": 1645,
      "[0][1][0][1][2]": 1646,
      "[1,2][3,4][][2][]": 1647,
      "][6][0]": 1648,
      "][16][16": 1649,
      "][1][1][1][1][0][0": 1650,
      "][][8][9,10": 1651,
      "][None][Return][For][None]": 1652,
      "][None][If][None][None][None][None]": 1653,
      "[If][Return][None][For][If][Return][None]": 1654,
      "][][24": 1655,
      "[0][2][1][1": 1656,
      "[3][0][0][0": 1657,
      "[1,2,3][][][]": 1658,
      "[1,2][3,4][5,6][][7,8": 1659,
      "[1,2][3,2][4": 1660,
      "[If][For][Return][None]": 1661,
      "][1][7][0": 1662,
      "][1][1][1][0][1][0": 1663,
      "][For][None][Return": 1664,
      "][1][0][2][1][1": 1665,
      "][1][2][3": 1666,
      "][3][0][2]": 1667,
      "][20][20": 1668,
      "[1,2][3][][4,5][6,7": 1669,
      "[1][2,3][4,1][5,6][1][7": 1670,
      "][2][4][0": 1671,
      "][1][1][2][1]": 1672,
      "][59": 1673,
      "[If][None][If][None][Try": 1674,
      "][][8,9][10": 1675,
      "[None][For][None][Return][For][None]": 1676,
      "][7,6][8,9": 1677,
      "][1][16": 1678,
      "][44,45": 1679,
      "][If][If][Return][None]": 1680,
      "[1][1][2][0]": 1681,
      "[1][1][1][0][1]": 1682,
      "[1][1][0][0][1]": 1683,
      "][2][0][3": 1684,
      "[1][2,3][4][5,6][7,8": 1685,
      "[0][0][0][2]": 1686,
      "][12][13,14][15,16": 1687,
      "][][10]": 1688,
      "][If][Return][If][Return][If][Return][Return]": 1689,
      "[1,2][2][3,4][4][5,6][][]": 1690,
      "][16,17][18": 1691,
      "][7][10,11": 1692,
      "[1,2,3][4,5": 1693,
      "][4][0][0][0": 1694,
      "[None][If][Return": 1695,
      "[4][1][0]": 1696,
      "[1,2][2][3][2]": 1697,
      "[1][0][1][2": 1698,
      "[0][0][0][1][2]": 1699,
      "[1,2][3][][4][5,6": 1700,
      "][][10,11][12,13": 1701,
      "][9,5": 1702,
      "[1,2][3][4,5][6][3": 1703,
      "[If][None][None][For][If][Return][None]": 1704,
      "[1,2,3,4": 1705,
      "][6][][]": 1706,
      "][6][2]": 1707,
      ",51": 1708,
      "][None][If][None][If][None][If][None]": 1709,
      "[0][1][0][2]": 1710,
      "][46,47": 1711,
      ",52": 1712,
      "][1][1][0][1][0][0": 1713,
      "[1][0][4]": 1714,
      "[1][3][1]": 1715,
      "][Return][If][Return][Return]": 1716,
      "][None][For][If][If": 1717,
      "[Try][While": 1718,
      "[1][2,3][4,1][5,6][7,1": 1719,
      "[1,2][3,4][5][5][5][]": 1720,
      "[1][2][3,4][1][5,6": 1721,
      "][1][1][2][0]": 1722,
      "][1][1][3][0": 1723,
      "][1][2][2][0": 1724,
      "[If][None][None][None][Return]": 1725,
      "[If][None][None][If][None][None][Return]": 1726,
      "[1][0][0][1][1]": 1727,
      "][45,46": 1728,
      "][2][0][0][0][0][0": 1729,
      "][1][1][1][0][1]": 1730,
      "][If][None][None][None][Return]": 1731,
      "[1][2,3][1][4][3]": 1732,
      "[1,2][3,4][][5][5][]": 1733,
      "[If][If][None][None][None][Return]": 1734,
      "[If][Return][For][If][Return][Return]": 1735,
      "[1][2,3][4][][5,6][7,4": 1736,
      "][10,11][][12,13": 1737,
      "[If][None][If][None][If][Return][Return]": 1738,
      "][If][None][None][For][None]": 1739,
      "][][10,11][][12,13": 1740,
      "][1][12,13": 1741,
      "][62": 1742,
      "][1][0][0][0][1][0]": 1743,
      "][1][1][5": 1744,
      "][1][0][1][4": 1745,
      "][60": 1746,
      "[1,2][][3][2]": 1747,
      "[1,2][3][4,5][6,7][8": 1748,
      "][If][If][None][If][None]": 1749,
      "][7][8,9][10,7": 1750,
      "[1][2,3][4,5][6][5": 1751,
      "[Try][None][None][None][Return]": 1752,
      "[None][While][None][None]": 1753,
      "][If][If][Return][None][None]": 1754,
      "[0][2][1][0]": 1755,
      "][7,8][9,6": 1756,
      "[1][2,3][4,5][][1][6,1][1]": 1757,
      "[None][For][If][None][If][None]": 1758,
      "[0][0][1][1][1]": 1759,
      ",10][10]": 1760,
      "[1,2][2][3,4][4][5": 1761,
      "[1][0][1][0][1][0": 1762,
      "[1][2,3][1][4][5": 1763,
      "[1,2][3,4][5,6][][2": 1764,
      "[1][2,3][1][4,5][][]": 1765,
      "][2][0][2][0][2][0][2][0": 1766,
      "[None][For][None][For][None][Return]": 1767,
      "[1][2][3][4,1][3]": 1768,
      "][][27,28": 1769,
      "][4][7,8": 1770,
      "][9][1]": 1771,
      "[0][0][3][0": 1772,
      "[1,2][][3][4,5][6,7][8,9": 1773,
      "][][22": 1774,
      "][][23": 1775,
      "[0][1][5": 1776,
      "[4][1][1]": 1777,
      "][9][9]": 1778,
      "[2][1][1][1][1": 1779,
      "[0][0][1][2]": 1780,
      "[1][2,3][1][4][]": 1781,
      "][1][2][0][2]": 1782,
      "][13][14,15][15][16,17": 1783,
      "][2][5]": 1784,
      "[None][For][None][If][None][Return]": 1785,
      "][2][0][2][1]": 1786,
      "[2][0]": 1787,
      "][7,8][][][]": 1788,
      "][If][None][If][If][If][None][None": 1789,
      "[If][None][If][None][If][None][None][For": 1790,
      "[2][0][1][0]": 1791,
      "[If][None][None][For][For": 1792,
      "[0][0][0][0][2]": 1793,
      "[If][None][For][If][Return": 1794,
      "[1,2][][3][4][3]": 1795,
      "[16]": 1796,
      "[1][1][5": 1797,
      "][9,10][5": 1798,
      "][2][2][2][2": 1799,
      "[0][1][0][0][0][0]": 1800,
      "[0][3][0][0": 1801,
      "][2][1][0][1][1": 1802,
      "][7][][8": 1803,
      "[If][None][None][For][None][None]": 1804,
      "][6,3][3]": 1805,
      "[0][0][0][0][0][0][1]": 1806,
      "][1][0][0][1][1][0": 1807,
      "[2][1][1][0]": 1808,
      "][None][For][If][Return][None]": 1809,
      "[1,2][2][3,4][2][]": 1810,
      "][2][0][0][2]": 1811,
      "[1,2][3,4][][4][2]": 1812,
      "][][24,25": 1813,
      "][Return][If][Return": 1814,
      "[None][If][Return][Return]": 1815,
      "[1,2][2][3,4][5][6,7][8,9": 1816,
      "[8][0": 1817,
      "[1][0][0][1][0]": 1818,
      "][If][None][None][If][For": 1819,
      "][1][2][0][0]": 1820,
      "[1][2][3][4][5,6": 1821,
      "][29,30][31": 1822,
      "][If][None][If][Return][None]": 1823,
      "[1][2,3][4,5][][6,7][8,9": 1824,
      "][If][If][Return][None][None": 1825,
      "][27][28,29": 1826,
      "0]": 1827,
      "][21]": 1828,
      "][2][0][0][0][0]": 1829,
      "[0][0][2][0][0]": 1830,
      "[Try][None][Return][For": 1831,
      "][][33": 1832,
      "[1,2][2][3,4][5][6,5": 1833,
      "][7,8][9,10][11": 1834,
      "[None][For][None][Return][For][None][None]": 1835,
      "][3][1][3": 1836,
      "[1][0][1][1][0]": 1837,
      "][8][9][]": 1838,
      "][1][11,12": 1839,
      ",53": 1840,
      "][10,1": 1841,
      "[1][0][1][0": 1842,
      "[0][0][0][0][0][0][0][0][0]": 1843,
      "[0][2][0][0]": 1844,
      "][10][11,10": 1845,
      "][Return][Return][Return]": 1846,
      "][2][0][2][2": 1847,
      "[2][1][3]": 1848,
      "][5][6,7][5][]": 1849,
      "[1,2][3][3][4,5][6,7][8,9": 1850,
      "][2][1][1][1][1]": 1851,
      "[If][None][If][Return][None][If][None][None]": 1852,
      "[1][2][3][4,5][6,3": 1853,
      "[1][4]": 1854,
      "][None][If][If][If][None][If": 1855,
      "][][6][6]": 1856,
      "][18][]": 1857,
      "][24][25,26": 1858,
      "][2][3][0][0": 1859,
      "[If][None][For][None][Return]": 1860,
      "][][10][]": 1861,
      "][14][15,16][17": 1862,
      "][1][9,10": 1863,
      "[1][4][0": 1864,
      "[0][0][5": 1865,
      "[If][None][Try][None][None][Return]": 1866,
      "][][25": 1867,
      "][If][Try][None][None]": 1868,
      "][If][If][Try": 1869,
      "][9][0][0": 1870,
      "][10,6": 1871,
      "[1][0][1][1][0": 1872,
      "][10,11][][12": 1873,
      "][12][13,14][14][15,16][16][17,18][18][19,20": 1874,
      "][][10][11,12": 1875,
      "][1][1][1][0][1][1": 1876,
      "][][][11,12": 1877,
      "][1][2][1][2]": 1878,
      "[1][0][4": 1879,
      "[If][None][If][None][If][None][If][None]": 1880,
      "[1,2][][3][4,5][3": 1881,
      "][9,10][11,12][10": 1882,
      "][48,49": 1883,
      "][][15,16][][17,18][][19,20": 1884,
      "][1][0][4][0": 1885,
      "][8,4": 1886,
      "[1,2][2][3][4][]": 1887,
      "][10,4": 1888,
      "][11][0": 1889,
      "][None][For][If][If][None][None": 1890,
      "][13,14][12": 1891,
      "][If][If][None][Return][None]": 1892,
      "][If][If][None][If][None][If][None][None": 1893,
      "][None][If][For][Return": 1894,
      "][2][0][1][1][0": 1895,
      "][0][0][0][2]": 1896,
      "][20][21": 1897,
      "[1,2][2][3][4,5][3": 1898,
      "[0][4][0]": 1899,
      "][Return][If][None]": 1900,
      "[None][None][For][None][Return]": 1901,
      "[2][2][2]": 1902,
      "][1][2][3]": 1903,
      "][If][If][None][None][If][If][None][None": 1904,
      "][If][For][For": 1905,
      "[0][0][0][0][0][0][0][0][0][0][0][0][0": 1906,
      "][][25,26": 1907,
      "][64": 1908,
      "][10,11][][": 1909,
      "[None][For][If][Return][None][None][None]": 1910,
      "[0][0][0][0][0][0][0": 1911,
      "][None][If][While": 1912,
      "][8][3]": 1913,
      "[1][2,3][4,1][][3]": 1914,
      "][17][]": 1915,
      "][47,48": 1916,
      "][5,2": 1917,
      "][61": 1918,
      ",55": 1919,
      "][2][0][4": 1920,
      "][If][For][None][None]": 1921,
      "][5][6,7][][]": 1922,
      "][2][1][0][2]": 1923,
      "][15][16,17][18": 1924,
      "][17][18,19][20,21": 1925,
      "[19": 1926,
      "[1][1][2][1]": 1927,
      "[1][1][0][0][0]": 1928,
      "[None][For][None][If][For": 1929,
      "][If][If][If][None][None]": 1930,
      "][2][0][3][0": 1931,
      "][0][0][0][0][1]": 1932,
      "][12,11": 1933,
      ",11][11]": 1934,
      "][10,11][5": 1935,
      "][If][If][If][None][None][None][None]": 1936,
      "][10,11][12,13][14": 1937,
      "][10,11][12,9": 1938,
      "][2][9": 1939,
      "][2][1][2][1]": 1940,
      "][6][6][7,8": 1941,
      "][1][0][0][3": 1942,
      "[If][Return][None][Return]": 1943,
      "][10,8": 1944,
      "][10,11][8": 1945,
      "][1][4][0]": 1946,
      "[0][2][0][1]": 1947,
      "[None][For][If][None][For": 1948,
      "][][5][8,9": 1949,
      "][19,20][21,22": 1950,
      "][29][30,31": 1951,
      "][Return][None][None": 1952,
      "][66": 1953,
      "[3][1][2]": 1954,
      "[1,2][][3,4][][5,6][][7][]": 1955,
      "[1][2][3,4][1][5": 1956,
      "][8][9,10][11,12][13,14": 1957,
      "][26][26": 1958,
      "][2][3][1]": 1959,
      "[1][2,3][1][4,5][6,3": 1960,
      "][9,10][11,12][13": 1961,
      "][16][17,18][19": 1962,
      "][2][1][3]": 1963,
      "][None][If][Try": 1964,
      "[0][5][0": 1965,
      "[None][None][None][For": 1966,
      "][If][Return][Return][Return]": 1967,
      "][If][None][If][None][If][None][Return]": 1968,
      "][None][Return][For][None][None]": 1969,
      "[0][2][3]": 1970,
      "][9][10,11][11][]": 1971,
      "[0][3][2]": 1972,
      "][If][None][If][Return][None][None]": 1973,
      "[1,2][][3,4][][5][6,7][8,5": 1974,
      "][If][None][While": 1975,
      "][1][1][1][2][0": 1976,
      "][1][0][6": 1977,
      "][2][0][1][2]": 1978,
      "[6][0][0": 1979,
      "[1][2][3,4][][5": 1980,
      "[1][2][3,4][1][]": 1981,
      "[Try][If][Return][Return][Return]": 1982,
      "][2][1][0][0]": 1983,
      "][1][17": 1984,
      "][1][1][2][1][1": 1985,
      "[If][If][None][None][Return]": 1986,
      "][7][12,13": 1987,
      ",54": 1988,
      "][None][For][None][None][For": 1989,
      "[0][0][5]": 1990,
      "][7,8][4": 1991,
      "][If][If][None][If][If][None][None": 1992,
      "[If][For][For": 1993,
      "[1,2][3][3][4,5][6][6][7,8][9": 1994,
      "[If][Try][Return][None][None]": 1995,
      "[1][2,3][4,5][][1][6,7][1][8,9": 1996,
      "][10,3": 1997,
      "][11][14,15": 1998,
      "[If][None][None][If][None][None]": 1999
    },
    "merges": [
      "] [",
      "E P",
      "S EP",
      "[ SEP",
      "][ 1",
      "N o",
      "n e",
      "No ne",
      "][ None",
      "][ 0",
      "I f",
      "2 ]",
      "1 ]",
      "3 ]",
      "][ If",
      "R e",
      "r n",
      "t u",
      "Re tu",
      "Retu rn",
      "[SEP 2]",
      "[SEP 1]",
      "[SEP 3]",
      "][ 2",
      "[ 1",
      "][ Return",
      "][ 3",
      "][0 ][0",
      "][None ][None",
      ", 2",
      "][1 ][1",
      "][ ][",
      "[1 ,2",
      "[ If",
      "][ 4",
      ", 1",
      "][None ][If",
      "[ 2]",
      "F o",
      "Fo r",
      "][ For",
      "[ 1]",
      "[ 0",
      "][Return ]",
      "][1 ][0",
      "][ ]",
      "][ 5",
      "[ ]",
      "[ None",
      ", 4",
      "][1 ]",
      "][None ]",
      "][ 6",
      "[ 3]",
      "][3 ,4",
      "[1 ][2",
      "][][ ]",
      ", 3",
      "[ Return",
      "[Return ]",
      "][If ][Return",
      "][ 7",
      "T r",
      "Tr y",
      "][None ][Return]",
      "][None][None ]",
      ", 6",
      ", 5",
      "][ 8",
      "[None ][For",
      "][If ][If",
      "[ 4",
      "][1 ][0][0",
      "[1][2 ,3",
      "][ 2]",
      "[1,2 ][2",
      "[If ][Return",
      "[1,2 ][",
      "][2 ][0",
      "][ 9",
      "][None][If ][None][If",
      "[4 ]",
      "][1 0",
      "][ Try",
      "][4 ,5",
      "[1,2 ][3",
      "][1][1 ]",
      ", 7",
      "[1,2][ ][3,4",
      ", 8",
      "[ 2",
      "[1,2 ][][]",
      "][1 1",
      "][5 ,6",
      "][If ][None][None",
      "][0][0 ][0][0",
      "][1 ][2",
      "][None ][For",
      "][1][0 ]",
      "][][ 5",
      "][1 2",
      "[If ][None][If",
      "][0 ]",
      "[None ]",
      "[ 5",
      "][6 ,7",
      "[0 ][0",
      ", 9",
      "][ 3]",
      "][1 3",
      ",1 0",
      "][None ][Return",
      "][7 ,8",
      "[1,2][2 ][3,4",
      "[ Try",
      "[If ][None][Return]",
      "[5 ]",
      "][1 4",
      "][1][1 ][0",
      "[If ][None][None",
      "][If ][None][If",
      "[1][2,3 ][4",
      "[1,2][2 ][]",
      "][1 5",
      "[1,2 ][3,4",
      "[1 ][0",
      "][8 ,9",
      ",1 1",
      "][0][0 ][0",
      ",1 2",
      "][3 ][4,5",
      "][9 ,10",
      "[ 3",
      "][3 ][]",
      "][1][0 ][1][0",
      "][][5 ,6",
      "][1 6",
      "[If][Return ][Return]",
      "][1 ][3",
      "[1][2,3 ][1",
      "][0][0 ]",
      "][10 ,11",
      "][11 ,12",
      "[1][2,3][4 ,1",
      "][4 ][5,6",
      "[ 6",
      "][Try ][None][None",
      "][][ 7",
      "W h",
      "i l",
      "][ Wh",
      "il e",
      "][Wh ile",
      "][1 7",
      "][][ 6",
      "][If][If ][None][None",
      "][If ][None]",
      "][2][0 ]",
      "[0 ]",
      "][1 ][2]",
      "][2 ][2",
      "[None][For ][If][Return",
      "][If][Return ][If][Return",
      "][4 ]",
      ",1 3",
      "][1][1 ][1][1",
      "][][ 4",
      "[1 ][]",
      "[1][2,3 ][4,5",
      "[If ][None][If][None][If",
      ",1 4",
      "][1 8",
      "[6 ]",
      "][If ][None][None]",
      "][None][None ][For",
      "[1][2,3][1 ][]",
      "][12 ,13",
      "][13 ,14",
      "][1 9",
      "[1,2][][3,4 ][][5,6",
      "][3 ][0",
      "[If ][None][None]",
      "[0 ][0][0",
      "[1,2][][3,4 ][][]",
      ",1 5",
      "][Return ][Return]",
      "][4 ][]",
      "][1][1 ][1]",
      "][If][Return ][Return]",
      "][6 ][7,8",
      ",1 6",
      "][2 0",
      "][][ 9",
      "[ 7",
      "][5 ]",
      "][If ][For",
      "][5 ][6,7",
      "][2 ][1]",
      "][1][0][0 ][0",
      "[None][For ][None][Return]",
      "][Return ][None]",
      "[0 ][1][0",
      "][1][0][0 ]",
      "][][7 ,8",
      "][2 1",
      "][None][None ][None]",
      "[1][2 ][3,4",
      "][14 ,15",
      "[1][2 ][3",
      "][15 ,16",
      "][][ 8",
      "][2 ][0][0",
      "][1 ][2][0",
      "][1 ][4",
      "][1][0 ][1][1",
      "[1,2][3 ][3][]",
      "[0 ][1][1",
      "[2 ][0",
      ",1 7",
      "[1,2][3 ][4,5",
      "][2 2",
      "][1][0 ][1]",
      "][None ][Try",
      ",1 8",
      "[1,2][2][3,4 ][4][5,6",
      "[7 ]",
      "[If ][None]",
      "[1,2][3,4 ][5,6",
      "[Try ][None][None",
      "][If ][None][Return]",
      "][If][If ][None][If",
      "][2 3",
      "[None ][While",
      "[1][2 ][1]",
      "[1 ][1][1",
      "[1,2][3 ][3][4,5",
      "][5 ][]",
      "][2 ][2]",
      "][16 ,17",
      "][6 ]",
      "][If][Return ][None]",
      "[0 ][0][0][0][0",
      "][8 ][9,10",
      "[1,2][3 ][][4",
      "][None ][Try][None][None",
      "[1,2][][3,4 ][5",
      "][ ][1]",
      "[If][None][None ][For",
      "][1 ][3]",
      "][2 ][1][1",
      "][If ][None][If][None][If",
      "][2 4",
      "][][ ][]",
      "[1,2][ ][3][4,5",
      "][17 ,18",
      "][6 ][]",
      "][7 ][8,9",
      ",1 9",
      "][If ][If][Return",
      "][ ][3",
      "[1][2][3 ,1",
      "[ 8",
      "][If][None][None ][None]",
      "[1 ][0][0",
      "[1,2][2][3,4 ][5",
      "][None][Return ][For",
      ",2 0",
      "][2 5",
      "][None][If ][None]",
      "[If][None][If ][None][Return]",
      "][1][0 ][2",
      "][4 ][0",
      "][Try ][Return",
      "][][6 ,7",
      "[None][For ][None]",
      "][][9 ,10",
      "[If][None][None ][Return]",
      "[0 ][2",
      "][None][If ][None][None]",
      "[0 ][1][0][0",
      "][18 ,19",
      "[0 ][1][1]",
      "][2 6",
      "][19 ,20",
      "][If ][None][Return",
      "][None][If ][None][None",
      "[If][None][If ][Return",
      "[1,2][3 ,2",
      "][10 ][11,12",
      "][2 7",
      ",2 1",
      "][1][1 ][0][0",
      "][1][1 ][0]",
      "][If ][Return]",
      "][7 ]",
      ",2 2",
      "][1 ][5",
      "[1,2][3 ][4",
      "][3 ][3",
      "[8 ]",
      "[1,2][3][][4 ,5",
      "][0][0][0][0 ][0][0][0][0",
      "[If ][If][Return",
      "[If][Return ][If][Return][If][Return",
      "[0 ][1][0]",
      "[If][Return ][If][Return][Return]",
      "[1,2][2][3,4 ][4][]",
      "[None][For][If][Return ][None]",
      "[1][2,3][4,1 ][][1]",
      "][5,6 ][7,8",
      "][None][None ][Return]",
      "[1 ][1][1]",
      "[0 ][0][0][0",
      "][6 ,3",
      "][For ][Return",
      "[1,2][][3,4][][5,6 ][][7,8",
      "[ 9",
      "][None][For ][None]",
      "][9 ][10,11",
      "][2 8",
      "[0 ][3",
      "[1 ][1][0",
      "][3 ][4",
      "][2 9",
      "][None][If][None][If ][None][If][None][If",
      "][21 ,22",
      "][6 ][7",
      "][20 ,21",
      "[1,2][2 ][3][4,5",
      "][If][None][None ][For",
      "][1][0][0 ][0][0",
      ",2 3",
      "][][8 ,9",
      "][1][2 ][1]",
      "[1,2][3,4 ][5",
      "[3 ][0",
      "][1 ][6",
      ",2 4",
      "][6,7 ][8",
      "][2 ][3",
      "][1 ][2][0]",
      "[If][Return ][None][For",
      "[1 ][1][0]",
      "][ ][11,12",
      "][8 ]",
      "][None][If ][None][Return]",
      "[If ][None][Try][None][None",
      ",1 ][1]",
      "][8 ][]",
      "[If ][None][For",
      "][None ][While",
      "][1][0 ][1][1]",
      "][For ][None][None",
      "][7 ][7",
      "[1][2,3][4,5 ][",
      "[1][2 ][]",
      "][6,7 ][8,9",
      "[0][0 ][1]",
      "[1,2][][3,4][][5,6 ][][]",
      "][12 ][13,14",
      "][1][3 ][0",
      "][3 ][0]",
      "[1,2][3 ][][]",
      "[1,2][][3,4 ][4][5,6",
      "][][ 3]",
      "][11 ][12,13",
      "][If ][None][For",
      "][None][If ][Return",
      "][3 ][1]",
      "][22 ,23",
      "[If][Return ][None]",
      "[If][Return ][If][Return",
      "][23 ,24",
      "][3 0",
      "][If][If ][If][None][None",
      "][If][If ][None][Return",
      "][2 ][1][0",
      "][3 ][0][0",
      "[1,2][2][3,4][4][5,6 ][6][7,8",
      "][Try ][If][None][None",
      "][7,8 ][9,10",
      "][1 ][4]",
      "[If][None][If ][None][None]",
      "[Try ][None][Return",
      "[9 ]",
      "][ ][10",
      "[1 0",
      ",2 5",
      "][5 ][0",
      "[1][2,3][1 ][4,5",
      "[If ][For",
      "][If][None][None ][Return]",
      "[0 ][1][2",
      ",2 6",
      "[1,2][ ][3][]",
      "[1][2,3][4,1 ][][]",
      "][][6 ][]",
      "][2][0 ][2][0",
      "][1][1 ][2",
      "][3 1",
      "][If][None][If ][None][None",
      "][1][0][0 ][0]",
      "[None][For ][For",
      "][0][0][0][0 ]",
      "][1 ][7",
      "][0][0][0][0 ][0",
      "][9 ]",
      "][1][1][0 ][1]",
      "][5,6 ][7",
      "[None ][Return]",
      "[0 ][1][2]",
      "[1][0 ][1]",
      "[1][2,3][4,1 ][][5",
      "][][ 2]",
      "][1][0 ][1][0]",
      "[None ][None]",
      "][3 ][4][5,6",
      "][Try ][None][None]",
      "][2 ][1][2",
      "[0 ][2][0",
      "][If][If ][None][None]",
      "[1][2,3][4,5 ][][6",
      "][24 ,25",
      "[1,2][3][4 ,3",
      "][ ][10,11",
      "][3 2",
      "[None][For ][If][None]",
      "][1][0 ][1][0][0",
      "[Try ][Return][Return]",
      "[2 ][0][0",
      "][None][If ][For",
      "[If ][If][If][None][None",
      "][7,8 ][9",
      "][Try ][None][Return",
      "][25 ,26",
      "[1,2][3][4,5 ][6,7",
      ",2 8",
      "[Try][None][None ][Return]",
      "][4 ][1]",
      "][1][1 ][1][1]",
      "][If][None][If ][None]",
      ",2 7",
      "][7 ][]",
      "][ ][13,14",
      "[1 ][1]",
      "][5][6,7 ][8,9",
      "][If][None][If ][None][None]",
      "[1][2][3,1 ][1]",
      "[1,2][][3,4 ][4][]",
      "[0 ][1][1][0",
      "[0 ][1][0][1][0",
      "[1][2][3,4 ][5",
      "][8 ][9",
      "][3 3",
      "][14 ][15,16",
      "][13 ][14,15",
      "[If][None][If ][None][None",
      "][If][None][If ][Return",
      "][1][0][0 ][1]",
      "[If][None][If ][None]",
      "][ ][11",
      "][0][0 ][0]",
      "][4 ][5",
      "][If][Return ][None][None]",
      "][3 ][2]",
      "][3 ][3]",
      "][9,10 ][11,12",
      "][2 ][0][0][0",
      "][None][None ][None][None",
      "[1,2][3,4 ][][5",
      "[1,2][2][3,4][5 ][][6][]",
      "[None][For ][None][For",
      "[0 ][0][0]",
      "[None][For ][None][None]",
      "][3 4",
      "[1,2][2][3,4 ][][]",
      "[If][None][Try][None][None ][If][None]",
      "][If][Return ][Return",
      "[1,2][][3,4 ][][5",
      "[If ][None][Try",
      "[1 ][1][2",
      "][1][0 ][2]",
      "][27 ,28",
      "[If][None][If][None][If ][None][Return]",
      "][5][6,7 ][8",
      "][2 ][2][0",
      "[None][For ][If][If",
      "][2 ][0][0]",
      "[4 ][0",
      "][10,11 ][12,13",
      "[1,2][][3,4 ][5,6",
      "][3 5",
      "[10 ]",
      "][1][0 ][2][0",
      "][None][If ][If][None][None",
      "][1][0 ][1][2",
      "[0][0 ][2]",
      "[If][None][None ][None]",
      "[If ][If][None][None",
      "[1][2,3][4,1 ][5,6",
      "[None][For][If][Return ][Return]",
      "[1][2,3][4,5 ][][5",
      "[1 ][0][0][0",
      "[1 ][0][0]",
      "[1,2][2][3,4 ][][5,6",
      "][26 ,27",
      ",2 9",
      "][10 ][]",
      "[1,2][3][4,5 ][][3",
      "][1][1 ][2]",
      ",2 ][2]",
      "][7 ,4",
      "][1 ][8",
      "][10 ][11",
      "[1,2][3,4 ][][][]",
      ",3 0",
      "][10,11 ][12",
      "][10 ]",
      "[None][For][If][Return ][None][None]",
      "[0 ][4",
      "][2 ][]",
      "[1 ][1][0][1][1",
      "][9 ][]",
      "][1 1]",
      "[1,2][][3,4][][5,6][][7,8 ][][9,10",
      "][6 ,1",
      "[If][None][If][None][If ][None][If][None][If",
      "[1 ][1][0][0",
      "[None][For ][If][For",
      "][If][If][Return ][Return",
      "][6 ,5",
      "][Try][None][None ][None]",
      "][1][0][1][0 ][1][0][1][0",
      "[1 ][1][2]",
      "[If][Return ][For",
      "][7 ][8",
      ",3 ][3]",
      "][1][0 ][3",
      "][If][If ][None][If][None][If",
      "][3 6",
      "[1][2,3][4,5 ][6,7",
      "][ ][12",
      "][None][Return ][None]",
      "[1,2][2 ][3][]",
      "[1,2 ,3",
      "[None][For ][None][Return][For",
      "[2 ][1][0]",
      "][1 ][]",
      "][9,10 ][11",
      "][2 ][1][1]",
      "][2 ][4",
      "][6 ][0",
      "[1][2 ][3][4,5",
      "[1 ][3",
      "[1,2][3,4 ][][4",
      "][6][7,8 ][9",
      "[1,2][][3,4 ][5,6][7,8",
      "][][ ][][]",
      "][If][Return][If][Return ][If][Return][If][Return",
      "][ ][12,13",
      "][1][1 ][1][2",
      "][8][9,10 ][10][11,12",
      "[0 ][1]",
      "[Try ][None][None]",
      ",3 1",
      "[1,2][3,4 ][][",
      "[1,2][3,2 ][4,5",
      "][28 ,29",
      "][29 ,30",
      "[1][2 ][0",
      "][2][0 ][1]",
      "][1][0 ][1][1][0",
      "[0 ][2][0]",
      "][3 7",
      "[1,2][3][3][4,5 ][6",
      "][15 ][16,17",
      "[1][2,3][4,1 ][][5,6",
      "[1][2,3][4,5][ ][1][1]",
      "][ ][15,16",
      "][16 ][17,18",
      "[1,2][][3][4,5 ][6,3",
      "][4 ][4",
      "[None][For ][None][None][For",
      "][2 ][1][0][0",
      ",3 2",
      "][1][2 ][0][0",
      "][1 ][5]",
      "[2 ][1][1",
      "][None][For ][None][Return]",
      "[1,2][2][3,4][4][5,6 ][6][]",
      "[1 ][1][1][0",
      "][If][If][None][None ][None]",
      "[None ][None][Return]",
      "][3 8",
      "[If][Return ][If][None][Return]",
      "[If][None][If ][Return][Return]",
      "][8,9 ][10",
      "][1 2]",
      "][1][4 ][0",
      "[If][Return ][If][None][If",
      "[Try ][Return][None]",
      "][13,14 ][15,16",
      "][3 9",
      "[0 ][1][3",
      "][2 ][1][0]",
      "[1][0 ][2]",
      "][ ][13",
      "[1][2,3 ][][]",
      "][1][1 ][3",
      "[If][None][If ][If][None][None",
      "[1,2][3,4 ][",
      "[1][2,3][4,1 ][5",
      "[1 ][1][1][1][1",
      "[1][2,3][4 ][][5,6",
      "[2 ][1]",
      "[1,2][3,4][5,6 ][4",
      "][4 ][0]",
      "][5 ][5",
      "[Try ][Return",
      "][None][None ][None][None]",
      "][1][1 ][1][0]",
      "][14,15 ][16,17",
      "][If ][Try",
      "][1][1 ][0][0][0",
      "[If][Return][If][Return][If][Return ][Return]",
      "][0][0 ][1]",
      "][6 ][6",
      "][][5 ]",
      "[1 ][2]",
      "][1][1 0",
      "][None][For ][For",
      "][2 ][0][0][0][0",
      "][2 ][3]",
      "[0][0][0][0][0 ]",
      "[2 ][1][1]",
      "][][4 ]",
      ",3 3",
      "[If][None][If ][None][None][For",
      "[1][1][0][1][1 ][1][1]",
      "][ ][14",
      "][1][1 ][1][0",
      "][If][None][If ][If][None][None",
      "[1 ][0][0][0][0",
      "][If ][None][Try",
      "[None][For ][If][None][None]",
      "][2 ][5",
      ",3 4",
      "][4 ][0][0",
      "[0][1][1 ][0]",
      "[0 ][2][1]",
      "][9 ][9",
      "[1][2,3 ][][4",
      "][For ][None][If",
      "[If ][Return]",
      "][12 ][]",
      "][4 0",
      "][If][If][None][If ][None][None",
      "][7][8,9 ][10",
      "[2 ][0][0]",
      "[1 1]",
      "[1,2][3 ][3][4][5,6",
      "][1][1 ][1][0][0",
      "][2 ][1][1][0",
      "][17 ][18,19",
      "][If][For ][None][None",
      "[1,2][][3][4,5 ][3][]",
      "[None][For ][If][If][None][None",
      "[0][0 ][1][0]",
      "][1][1][1][1 ][1]",
      "][8][9,10 ][11",
      "[If][Return ][If][Return][None]",
      "[1][2,3][4 ][][5",
      "][None][For ][None][None]",
      "][3 ][4][]",
      "][1 ][9",
      "[1][2,3][1 ][4][5,6",
      "[1,2][ ][3][4",
      "][If][If ][If][Return",
      "[1,2][2][3,4 ][5,6",
      "[None][For ][Try][Return",
      "[None][For ][For][Return",
      "[1,2][][3,4][][5,6][][7,8 ][][]",
      "[1,2][][3][4,5 ][6,7",
      "][None][If ][None][None][None]",
      "][14,15 ][16",
      "][11 ][]",
      "][12 ][13",
      "][Return ][For",
      "[1][2 ][0]",
      "][0][0][0 ][1]",
      "[If ][None][Return][For",
      "[1][2][3,1 ][4",
      "][30 ,31",
      "][1][1 ][1][1][0",
      "][1][2 ][1][2",
      ",4 ][4]",
      ",2 ][]",
      "][11,12 ][13",
      "[0 ][1][3]",
      "[None ][None][For",
      "[Try ][If][None][None",
      "][6 ][1]",
      "][If][If ][None]",
      "[5 ][0",
      "][1][0][1][0 ][1]",
      "[1][2,3][4,5 ][][",
      "][18 ][19,20",
      "[If][Return ][Try",
      "][1 3]",
      "][Return ][Return",
      ",1 ][]",
      "[1,2][3][4,5][6,7 ][3",
      "][31 ,32",
      ",3 6",
      "][2][0 ][2]",
      "][9 ][10",
      "][11,12 ][13,14",
      "][1][1 ][0][0]",
      "[If ][Try][Return",
      ",5 ][5]",
      "][1][3 ][1]",
      "[0 ][5",
      ",3 5",
      "][If][Return][If][Return ][Return]",
      "[0 ][1][1][1]",
      "][1][0][0][0 ][1]",
      "[1][2][3 ][4",
      "][4 1",
      "][][6,7 ][8",
      "][7 ][0",
      "][1][0][0 ][1][0][0",
      "[0 ][2]",
      "][17,18 ][19,20",
      "[If ][If][If][None][If",
      "][14 ][14",
      "][None][If][None][If ][None]",
      "[0][1][0 ][1]",
      "][ ][15",
      "][Return ][None][None]",
      "[1][2,3][4,5][ ][1",
      "][1][2 ][2]",
      "][Try][None][None ][Return]",
      "[0 ][1][0][0]",
      "[If][None][If][Return ][None][None]",
      "][1][1 ][2][0",
      "[0 ][2][2",
      "][1][0 ][1][2]",
      "[0 ][2][0][0",
      "][][11,12 ][][13,14",
      "[1,2][][3,4][5 ,2",
      "[Try ][None][None][None]",
      "][4 2",
      "[None][For ][If][None][None",
      "][1][0][0 ][0][0][0][0",
      "][None][If][None][If ][None][None]",
      "][None][If ][None][None][For",
      "[0][0][0][0][0 ][0",
      "[1 ][1][3",
      "[1][2][3,1 ][]",
      "[If][None][If ][Return][None]",
      "[0][0 ][3]",
      "[1,2][3][3][4,5 ][][]",
      "[1,2][2][3,4 ][4",
      "[0 ][1][2][0",
      "][1 ][6]",
      "[1 ][1][0][2",
      "[Try][None][Return ][Return]",
      "[1][2,3][4][][5 ,1",
      "][32 ,33",
      "][If][If ][If][If",
      "][For ][For",
      "][None][For ][If][Return",
      "[1][2,3][4,5 ][6",
      "[1,2][2][3,4 ][5,6][7,8",
      "][7 ,6",
      "[2][0 ][1]",
      "[3 ][0][0",
      "][ ][16",
      "][][7 ][8,9",
      "][33 ,34",
      "][1][0][0 ][0][0]",
      "][If][If][None][None ][None][None",
      "[1,2][][3,4][5 ][5][]",
      ",3 8",
      "][If ][Try][None][None",
      "][2 ][1][3",
      "][1][0][0 ][0][0][0",
      "][4 3",
      "[1 2]",
      "[0][0][0 ][1]",
      "][5 ][1]",
      "[0][0][0 ][0]",
      "][ ][2",
      "][6 ,2",
      "[If ][Try",
      "][If][None][If ][None][Return]",
      "][2][2 ][1]",
      "[None][While ][None][Return]",
      "[1,2][2][3,4][4][5,6][6][7,8 ][8][9,10][10][11,12",
      "][1][1 1",
      "[If][None][If][None][If ][None][If][None][Return]",
      "][7][7 ][]",
      "[1 ][4",
      "[1,2][3,2 ][][4",
      "][15 ][15",
      "][None][None][For ][None]",
      "][9][10,11 ][12",
      "][][6,7 ][8,9",
      "[1][2][3,4 ][1][1]",
      "][ ][17,18",
      "[1,2][2 ][3][4",
      "][1][0 ][4",
      "][8 ][8",
      ",3 7",
      "][If][None][None ][If][None][None",
      "][None][If ][Return][Return]",
      "][20 ][21,22",
      "[1,2][3][4,5][][3 ][6,7",
      "][If][Return ][None][None",
      "][10 ][10",
      "][][6 ]",
      "[0 ][1][1][1][1",
      "[If][None][If ][For",
      "][6][7,8 ][9,10",
      "[1,2][3][4,3 ][5,6",
      "][1][0 ][1][0][0]",
      "][ ][16,17",
      "][ ][19,20",
      "[1 ][1][1][1]",
      "][8 ,3",
      "[If][Return ][If][If",
      "[If][None][If][None][If ][None][If][None][If][None][If][None][If",
      "[1][2][3,1 ][4,5",
      "[0 ][1][0][0][0",
      "[If][None][If][None][If ][None][None]",
      "[0][1][0 ][1][0]",
      "[0 ][3][0",
      "[1,2][3,4 ][][5,6",
      "][19 ][20,21",
      "][3 ][6,7",
      "[1 ][1][3]",
      "][7][8,9 ][10,11",
      "[1][2,3][][4 ,5",
      "[0][0 ][3",
      "[1,2][3][4 ][5",
      "[1][2,3][4,1][5,6 ][1",
      "][4 4",
      "[1][2,3][4,5][][5 ][1]",
      "][13 ][13",
      "[If][If][Return ][None][None]",
      "][2 ][3][0",
      "[0][0 ][1][1",
      "[If][None][None][For ][None][Return]",
      "][6,7][8 ,5",
      "[1,2][3][4,3 ][][3]",
      "][4 5",
      "[1 4",
      "[2 ][1][2",
      "][1][1][0 ][1][1]",
      "][9][10,11 ][12,13",
      "][11 ][11",
      "][ ][17",
      "[If ][If][If",
      "[1,2][][3,4][5 ,4",
      "][If][None][None ][None][None]",
      "[0][0 ][1][0][0]",
      "[3 ][1][0]",
      ",6 ][6]",
      "[If][None][None ][If][None][Return]",
      "][][7 ][]",
      "][12][13,14 ][14][15,16",
      "[0][1][0 ][1][1]",
      "][4 ][4]",
      "][5 ][0][0",
      "[1][0 ][1][0]",
      "[0][0 ][1][1]",
      "][2 ][6",
      "[2 ][3",
      "][34 ,35",
      "][35 ,36",
      "[If][None][None ][While",
      "[1,2][2][3][4,5 ][6,3",
      "[If ][If][None][None]",
      "][14 ]",
      "[1,2][3,4][5,6 ][][",
      "][ ][3][]",
      "[0][0][0][0 ][1]",
      "][1][0 ][1][1][1][1",
      "][0][0][0][0 ][0]",
      "][If][If][None][None ][None][None]",
      "][1][0 ][1][1][1]",
      "[0][0 ][2][0",
      "][][7,8 ][9",
      "][][7,8 ][][9,10",
      "][2 ][1][2]",
      "][18,19 ][20,21",
      "[1,2][3][3][4,5 ][5][]",
      "][8 ][0",
      "][14 ][15",
      "][None][Return ][Return]",
      "][1][0 ][3]",
      "][2 ][2][0]",
      "[If ][If][Return][None]",
      "][For ][None][None]",
      "][1][5 ][0",
      "[1][1][1 ][0]",
      "[1,2][3][4,5][][3 ][3]",
      "][5 ,3",
      "[1][2,3 ][3][]",
      "][If][For ][None][If",
      ",4 0",
      "][6 ][3",
      "][7 ,1",
      "][1][1 2",
      "][1][1 ][3]",
      "[1,2][3,4 ][4",
      "[0 ][2][2]",
      "[0][0 ][1][0][0",
      "][1][3 ][0]",
      "][1][1 ][4",
      ",3 9",
      "][If ][Try][Return",
      "[1 ][1][0][1][0",
      "][0][0][0][0 ][0][0",
      "][1 ][8,9",
      "][None][None ][None][For",
      "[1][2,3][4,5][][1 ][6,7",
      "[1,2][3,2 ][][]",
      "[1,2][][3,4][][5 ][]",
      "[0][1][0][0 ][0]",
      "[1][2,3][4,1 ][][2]",
      "][1][2][0 ][1]",
      "][ ][14,15",
      "[If ][If][If][Return",
      "[If][Return ][If][None][None",
      "[1,2][3 ][4][5,6",
      "[1,2][2][3,4][4][5,6][6][7,8 ][8][]",
      "][4 6",
      "[None][For ][Try",
      "[If][None][If ][None][None][Return]",
      "][1][1][0 ][1][0]",
      "][2][2 ][0][0",
      "[1 3]",
      "][18,19 ][20",
      "][6 ,4",
      "[If][Return ][If][None][If][None][If",
      "][1][3 ][0][0",
      "[1,2][3,2 ][][2]",
      "][None][None ][While",
      "[If][None][If][None][If ][None][If",
      "][For ][None]",
      "][22,23 ][24,25",
      "[2 ][0][0][0",
      "[0 ][1][4",
      "][If ][None][Try][None][None",
      "][5 ][5]",
      "][ ][18",
      "][6,7 ][][8",
      "][8 ,1",
      "[1,2][3,4][][ ][5,6",
      "][4 7",
      "[1][2,3 ][3][4,5",
      "][1][0][1][1 ][0]",
      "[If ][If][If][None][Return",
      "[None][For ][If][Return]",
      "[None][For ][If][If][None][If",
      "][5][6,7 ][7][8,9",
      "][2][0][0 ][0]",
      "][][7 ]",
      "[None][While ][If][Return",
      "][None][Try ][None][None]",
      "][][6,7 ][][]",
      "][10,11 ][9",
      "][2 ][1][1][1][1",
      "][None][For ][None][For",
      "[Try ][If][Return",
      ",4 2",
      "][7 ][][8,9",
      "[1,2][ ][3][4][5,6",
      "[1,2][3 ][3][4",
      "][21,22 ][23,24",
      "][3 ][0][0][0",
      "[6 ][0",
      "][1][0 ][2][1]",
      "][15,16 ][17",
      "[1 1",
      "[1][0 ][3]",
      "][13,14 ][15",
      "[1][2][3,4 ][5,6",
      "[1,2][3][][4,5 ][6",
      "[Try ][None][None][For",
      "[1][2,3][4 ,3",
      "][2][2 ][2]",
      "[1,2][3][4,3][5,6 ][3",
      "][0][0][0][0][0][0][0][0 ][0][0][0][0][0][0][0][0",
      "][37 ,38",
      "][If][None][Return ][None]",
      "[1][1][0][2 ][1][1][1]",
      "[1,2][2][3,4][5 ][5][]",
      "][If][None][If ][For",
      "][1][0][0][0][0 ][0]",
      "][3 ][1][1",
      "][22 ][23,24",
      "][][6,7 ][][8,9",
      "[None][For][For ][Return][None]",
      "][11 ][12",
      "[1,2][2][3][4,5 ][3][]",
      "][1][0][0 ][1][1]",
      "[If ][For][Return",
      "][14 ][]",
      "][4 8",
      "][1][0 ][1][0][0][0",
      "][2 ][4]",
      "][If][For ][Return",
      "][8][9,10 ][10][]",
      "][2 ][1][2][0",
      "][None][If ][Return][None]",
      "[None ][None][None]",
      "][7,8 ][][9",
      "][If][If ][For",
      "[1,2][][3,4][5 ][][]",
      "[1,2][2][3,4][5 ,4",
      "[If][None][None ][None][For",
      "][7 ,2",
      "][36 ,37",
      "][1][0][0 ][1][0]",
      "][If][None][If ][None][None][None]",
      "[1,2][][3,4][4][5,6 ][6][7,8",
      "][5 ][0]",
      "][][5 ][]",
      "][None][Return ][None][None]",
      "[2 ][2][0",
      "[If][None][If][None][If ][None]",
      "][3 ][2][0",
      "][5,6][7 ,1",
      "[1][2][3][4 ,1",
      "[If ][None][For][None]",
      "][6 ][0][0",
      "[0][0 ][2][0]",
      ",4 1",
      "][1][0 ][2][0]",
      "][1][0 ][3][0",
      "][17,18 ][19",
      "[None][For ][If][None][Return]",
      "[1][0 ][1][1]",
      "][10][11,12 ][13",
      "][5 ][8,9",
      "][5 ][2]",
      "[If][Return][None][For ][None][Return]",
      "[1,2][3,4][5 ][4",
      "[1 5",
      "][1][0 ][1][3",
      "[1 ][1][0][1]",
      "][7,8 ][3",
      "][None][If][None][None ][Return]",
      "[If][None][If][None][If ][Return",
      "[1,2][3][4,5 ][][3][]",
      "][3 ][1][2",
      "[0 ][1][2][0]",
      "][None][If ][If][If][None][None",
      "][7 ][7][8,9",
      ",7 ][7]",
      "][1][1][0 ][1][1",
      "][16 ]",
      "[1][2 ][2]",
      "][13 ][]",
      "][22,23 ][24",
      "][2 ][1][1][1]",
      "][15 ]",
      "][1][1][1][1 ][0]",
      "[1,2][3,4][ ][2][2]",
      "][][7,8 ][][]",
      "[1,2][3][][4,5 ][][]",
      "[1,2][3,4][5 ,4",
      "[1,2][][3,4 ][5][6,7",
      "][8][9,10 ][11,12",
      "][If][None][Return ][Return]",
      "[1,2][3,4][][4 ][]",
      "][None][None][For ][None][None]",
      "][3 ][8,9",
      "[If ][Try][None][None",
      "[If][Return ][Try][None][Return",
      "[1,2][][3,4 ][4",
      "[0][0][0 ][1][0]",
      "[If ][If][If][Return][Return",
      "][None][None][For ][For",
      "[2 ][2]",
      "[2 ][2][0]",
      "][][7 ,3",
      "][12,13 ][14",
      "][5][6,7 ][7][]",
      "][1][2 ][1][1]",
      "][None][None][For ][None][Return]",
      "][1][0][1][1 ][0][0",
      "][If][None][None ][None][None",
      "[If][None][None][For ][If][Return",
      "[1][2,3][4,1][][5 ,1",
      "[1][0 ][1][1",
      "][If][None][None ][None][For",
      "[1 ][0]",
      "[2 ][1][2]",
      "][4 ][3]",
      "][1][0 ][2][2",
      "][3][0 ][1]",
      "[1,2][][3,4][][5,6][][7,8][][9,10 ][][11,12][][13,14",
      "][2][1][1 ][0]",
      "[If][If][Return ][Return][Return]",
      "[1 ][3]",
      "][16 ][17",
      "][None][If ][None][For",
      "][2][0 ][1][1",
      "[1,2][3][3][4,5][6 ][6][]",
      "][6 ][6]",
      "][1][0][1][0 ][1][1]",
      "][21,22 ][23",
      "[1,2][3,4][5 ][5",
      "][If ][None][Return][For",
      "[1 ][1][4",
      "][4 9",
      ",4 4",
      "[1,2][2][3,4][5 ,2",
      "][5 0",
      "[If][Return ][If][None][None]",
      "[1][0 ][1][0][0]",
      "][None][None ][None][Return]",
      "[If ][If][Return][Return]",
      "][6 ][7][8,9",
      "][If][If ][If][None][If",
      "][If ][While",
      "[None][For ][If][None][None][For",
      "][1][2 ][1][1",
      "[3 ][1][1]",
      "][1][0 ][2][0][0",
      "[2 ][1][0][0",
      "][9][10,11 ][11][12,13",
      "][5][6,7][8 ,5",
      "][If][If ][None][For",
      "[1,2][3,4][5,6 ][7][7",
      "[If ][Try][If][None][None",
      "][7,8 ][5",
      "[1][0][0 ][0]",
      "[1][2,3][4,5 ][][6,7",
      "][1 ][7]",
      "][4 ][2]",
      "[None][For ][None][For][None]",
      "][If][If][None][None ][Return]",
      "[0][3 ][0]",
      "[1,2][][3,4 ][5,6][7",
      "[1][0 ][3",
      "[3 ][0][0]",
      "][16 ][]",
      "][None][None ][If][None][None]",
      "[1][1][1 ][1][1]",
      "[If][None][If ][None][Try][None][None",
      "][18 ][18",
      "[1,2][3][][4 ,2",
      "][38 ,39",
      "[1][2,3][4,5][][ ][1]",
      "][7 ,5",
      "][8 ,6",
      "[4 ][0][0",
      "][7][8 ,7",
      "][5 1",
      ",4 3",
      "[1][2 ][3][]",
      "][7 ][1]",
      "[1][0 ][1][0][0",
      "][17 ][17",
      "][2][0 ][1][1]",
      "[1 ][3][0",
      "][6][7 ][]",
      "][25,26 ][27,28",
      "[None][For][If][Return ][None][If][None]",
      "[2][0 ][2]",
      "[If][Return][If][Return][If][Return ][If][Return][Return]",
      "[1][2][3,4][5 ,2",
      "[1 2",
      "][9 ][0",
      "][][11,12 ][][]",
      "[0][0 ][2",
      "][If ][None][For][None]",
      "][None][None ][If][None]",
      "][None][If ][For][None][None",
      "][39 ,40",
      "][ ][19",
      "][0][0][0][0 ][0][0]",
      "[0][0 ][1][2",
      "][10 ,5",
      "[0][0 ][1][0][1]",
      "[0 ][6",
      "][If][If ][If][Return][Return",
      "[1,2][][3,4 ][5][6,7][8,9",
      "[3 ][1]",
      "][Try][None][None ][None][None]",
      "][12][13,14 ][15",
      "[0][0 ][4]",
      "[1,2][3,4][5,6 ][2][2",
      "][][3 ][3]",
      "[1 ][1][0][0]",
      "][1][1 4",
      "[1,2][3][4,5][6,7 ][3][3",
      "][If][None][None ][If][None]",
      "[1][2,3][4,5 ][6,7][8",
      "[If ][If][None]",
      "[0][0][0 ][1][1]",
      "[1,2][][3,4][][5,6][][7,8][][9,10 ][][]",
      "[14 ]",
      "[1 6",
      "[1 ][1][2][0",
      "][2][0 ][1][0]",
      "[0][0 ][4",
      "][7,8 ][][",
      "[1,2][][3,4][][5,6 ][6][7,8",
      "][21 ][21",
      "][13 ][14",
      "[7 ][0",
      "[1,2][][3,4][4][5,6 ][6][]",
      "][If ][If][Return][Return]",
      "][1][1 3",
      "][2][0 ][1][2",
      "[2 ][2",
      "][If][None][If][None][If ][None]",
      "[If][Return ][None][While",
      "][9 ,3",
      "][7,8 ][][9,10",
      "][1][6 ][0",
      "][13][14,15 ][16,17",
      "[1,2][][3,4][5,2 ][][]",
      "][None][For ][If][None]",
      "][12 ][12",
      "][If][None][If][None][If ][None][If][None][If",
      "[If ][None][Return",
      "][If][None][None ][If][None][None]",
      "][If][If ][If][If][None][None",
      "[0][3 ][1]",
      "[1,2][2][3][4,5 ][6,7",
      "][ ][20",
      "][6 ][9,10",
      "[1 ][0][0][0][0]",
      "[0 ][1][4]",
      "[1][2,3][4,5][ ][1][6",
      "][40 ,41",
      "[If][None][If ][None][None][None]",
      "][1][1][0 ][2]",
      "[0][1][1 ][0][0]",
      "][If][None][If][None][If ][None][None]",
      "[1,2][3,2][4,5 ][2",
      "][1][1][0][0 ][1]",
      "[1,2][2 ][3][4][5,6",
      "[If][Return ][Try][None][None",
      "[0][1][1 ][0][0",
      "][7,8][9,10 ][8",
      "][1][0][0 ][2]",
      "[1,2][3,4][5,6 ][2",
      "][41 ,42",
      "][3 ][1][1]",
      ",4 6",
      "][1][1][1][1 ][1][1][1][1",
      "][][7,8 ][9,10",
      "][3 ][0][0]",
      "][If][If ][If][None][Return",
      ",8 ][8]",
      "[1][2][3,4 ][][5,6",
      "][11][12,13 ][14",
      "][7 ][7]",
      "][Try ][Return][Return]",
      "][5 3",
      "][1][0][0 ][1][1",
      "][][8 ]",
      "][1][2 ][0][0][0",
      "][][5 ][5]",
      "][1][0][1][0 ][1][0]",
      "[1][2,3][4,1][5 ][1",
      "[0 ][7",
      "][5 2",
      "][12,13 ][14,15",
      "][2][0][0 ][1]",
      "[0][1][1 ][1][0]",
      "][None][If ][If][Return",
      "[None][For ][If][None][If",
      "][25,26 ][27",
      "[If][None][If ][If][If][None][None",
      "][18 ][19",
      "[If][None][None][For ][None]",
      "][ ][23,24",
      "[If ][If][None][None][None]",
      "][15,16 ][17,18",
      "[2 ][4",
      "[1][2][3,4 ][2][]",
      "[1,2][3,4][5,6 ][][][][]",
      "][6 ,1][1]",
      "][][6 ][7,8",
      "[1][2][3,1 ][2]",
      "[1][2,3][4,5][][6 ,1",
      "][3 ][2",
      "][1][0 ][5",
      "][23 ][24,25",
      "[If][Return][None][For ][If][Return",
      "[1][2,3][1][4,5 ][3][]",
      "[1][2,3][4,5][][5 ][6,7",
      "][If ][Try][If][None][None",
      "][9 ,4",
      "][6,7][8,9 ][10",
      "][26,27 ][28,29",
      "][ ][18,19",
      "[1][2 ][0][0",
      "[1][2,3][4,1 ][5,6][7,8",
      "[None][For][If][Return ][None][If][None][None]",
      "][None][If][Return ][None][None]",
      "][ ][20,21",
      "[1][0 ][2][0",
      "[0][0][0][0][0 ][0]",
      "][If ][If][Return][If][Return",
      "[1 ][5",
      "][3 ][1][0]",
      "][0][0][0][0 ][0][0][0",
      "][2][1][1 ][0][0",
      "[0][1][0][0 ][1]",
      "[None][For ][Try][None][None]",
      "][6 ][6][]",
      "[If][Return ][If][None][If][Return",
      "[3 ][1][1",
      "[None][For][For ][None]",
      "[1 ][1][0][0][0",
      "][5 ,3][3]",
      ",4 5",
      "[None][For][If][Return ][If][None]",
      "][3 ][1][0][0",
      "][][ ][8,9",
      "][5 4",
      "][7 ][][]",
      "][][9 ]",
      "[1][0][0 ][1]",
      "[1,2][2][3,4][][5,6 ][][]",
      "][12][13,14][14][15,16 ][16][17,18",
      "[0][0][0][0][0 ][0][0]",
      "[1][2,3][4,1][][5 ,1][1]",
      "][5 ][6][]",
      "][Try][Return ][None][None]",
      "][1][1][0][0 ][0]",
      "[1][1][0 ][1][1]",
      "[0][0 ][1][1][0]",
      "][10,11 ][3",
      "][If][None][If][None][If ][None][None",
      "][If ]",
      "[0 ][3]",
      "][None][Try ][Return",
      "[1 3",
      "][7 ,3",
      "][10 ][0",
      "][][8 ][]",
      "][][10,11 ][12",
      "][13][14,15 ][16",
      "[1][2][3,4 ][1",
      "[1][2][3 ][1]",
      "][26 ][27,28",
      "][2 ][1][0][1]",
      "[2 ][2][1]",
      "][1][10 ,11",
      "[If][None][None ][If][None][None",
      "[2 ][1][3",
      "[Try ][None]",
      "][15 ][]",
      "[1][0 ][2][0]",
      "][10][11,12 ][13,14",
      "[1,2][3][][4,5 ][6,3",
      "[1,2,3 ][4",
      "[If][If][Return ][Return",
      "][][15,16 ][][17,18",
      "[1,2][][3][4,5][6,3 ][][3]",
      "][ ][21,22",
      "][1][1 ][1][3",
      "][17 ]",
      "[None][While ][Try",
      "[If][Return][If][Return][If][Return ][None]",
      "[0 ][4][0",
      "][1][0 ][1][2][0",
      "][9 ,8",
      "][If][Return][If][Return ][None]",
      "][18 ]",
      "][1][1 ][1][2]",
      "][1][2 ][1][0]",
      "][2 ][5,6",
      ",4 7",
      "[1][1][0 ][1][0]",
      "[1 ][3][0]",
      "[0 ][0]",
      "[1,2][3 ][3][4][]",
      "[2 ][1][1][0",
      "[1][2][3,4 ][4][5,6",
      "][1][4 ][1]",
      "[1][1][1 ][1][0]",
      "[1 ][1][4]",
      "[If][None][If][None][If][None][If][None][If ][None][Return]",
      "[None ][If][None][Return]",
      "][None][If][None][If ][None][Return]",
      "[1][1][1 ][0][0",
      "][5 5",
      "][None][If][None][If ][None][None",
      "][][9,10 ][11",
      "[If][None][If ][None][For",
      "][If][If][None][None ][None][Return]",
      "[If][None][If][None][If ][None][None",
      "[1 ][6",
      "][6,7 ][4",
      "[1][0 ][1][0][1]",
      "[1,2][3,2 ][][1]",
      "[1][2,3][4,5][][6 ][6][1]",
      "[1,2][3][4,5][6,7][3 ][8,9",
      "][43 ,44",
      "][1][1 ][2][2",
      "[1,2][2][3,4 ][][5",
      "[If][Return][If][Return][If][Return ][If][Return][If][Return][If][Return][If][Return",
      "[0 ][1][2][1]",
      "][8 ][1]",
      "[1][2][3,1][4 ,1",
      "][5 ][3",
      "][2][1][1 ][2]",
      "][If][If][None][Return ][Return]",
      "[If][Return ][If][Return]",
      "[If][Return ][If][None][None][For",
      "[1][2][3 ][2]",
      "[1,2][3][4,5][][3][6,7 ][3][8,9",
      "][1 ][8]",
      "][2 ][7",
      "[0][0 ][2][1]",
      "[1][2,3][4 ][5",
      "][Try][None][None ][None][None",
      "][1][1][1][1 ][1][1]",
      "[If][Return ][If][None]",
      "][None][If ][Return]",
      "[None][For ][If][None][None][None]",
      "[1,2][3,4][][4 ][5,6",
      "][5 7",
      "][2 ][1][0][2",
      "][][ ][3]",
      "][None][If ][None][Return",
      "[1,2][][3,4][5 ][6,5",
      "][3 ][10",
      "][None][If ][If][None][None]",
      "][5 6",
      "[If][None][If ][If][Return",
      "][ ][21",
      "][6][7 ,6",
      "][8,9][10 ,7",
      "][None][If ][If][None][None][None]",
      "[None ][None][None",
      "][6 ][5]",
      "][6 ,4][4]",
      "[If][Return ][If][None][None][Return]",
      "[0][0 ][1][0",
      "][][9 ][]",
      "[1,2][][3,4][5 ][5][6,7",
      "][15 ][16",
      "[1,2][3][][4,5 ][3][]",
      "][2 ][1][4",
      "[1,2][ ][3][4][]",
      ",9 ][9]",
      "][1][0][0][0][0 ][1]",
      "][42 ,43",
      "[1][2,3][4][][5,1 ][4]",
      "][If][None][If ][None][Return",
      "][None][Try][None][None ][None]",
      "[If][If][Return ][None][Return]",
      "][1][1 5",
      ",4 8",
      "][9 ,1",
      "[3 ][3",
      "][None][If][None][If][None][If][None][If ][None][If][None][If][None][If][None][If",
      "][For ][If][None]",
      "][7,4 ][8,9",
      "[1 7",
      "][1][1 ][0][0][0][0",
      "][6][7,8][9 ,6",
      "[None][For][Try][Return ][None][None]",
      "][5 8",
      "][7 ][3",
      "][9,10 ][7",
      "][None][Try ][If][None][None",
      "][If][If][Return ][Return][Return]",
      "[1][2][3,4][5 ,1",
      "[If ][Try][None][None][None]",
      "][1][1][0 ][1][1][0",
      "[1][2,3][4,1][][5 ,2",
      "[1][2,3][4,5][6,7 ][5",
      "[2 ][1][0",
      "][11 ,6",
      "[1][0 ][1][1][1]",
      "][26,27 ][28",
      "][0][0][0][0][0][0][0][0 ]",
      "][6][7 ,1",
      ",4 9",
      "][9 ,7",
      "[1][2,3][4 ][4][]",
      "][6,7][8,9 ][10,11",
      "[1,2][3][3][4,5][6 ][6][7,8",
      "][2 ][1][0][0][0",
      "][4 ][3",
      "[0][1][1 ][1][1]",
      "[1][2,3][1][4,5 ][5][]",
      "[1][2,3][4][][5,6 ][4][1]",
      "][1 ][7,8",
      "[If ][If][If][None][If][None][If",
      "][If][Return ][For",
      "][8 ][8]",
      "][10 ,9",
      "][3][0 ][3][0",
      "[1][2][3,4 ][5,6][7,8",
      "[1,2][3][4,5 ][][6",
      "][11][12,13 ][14,15",
      "[None ][If][None][None]",
      "][][3 1",
      "][7 ][0][0",
      "][8 ,7",
      "][If][If ][For][None][None",
      "[0][0 ][1][1][0",
      "][Try][None][Return ][Return]",
      "[0 ][8",
      "][If][If ][If][None][If][None][None",
      "[1,2][3][3][4,5 ][6,7",
      "[3][0 ][1]",
      "[1 ][0][0][0][0][0",
      "][][ ][][",
      "[None][For ][If][If][None][None]",
      "[If][None][None ][If][Return][Return]",
      "][][4 ][4]",
      "[None][For][For][Return ][If][None]",
      "][5 ][6][7,8",
      "][6 ][3]",
      "][If][Return ][If][Return]",
      "[3 ][1][2",
      "][1][3 ][2]",
      "[If][None][If][None][If ][None][If][None][None]",
      "[1][2][3,4 ][4][1]",
      "[0][1][1 ][2]",
      "][22 ][22",
      "[Try][None][None ][If][None][Return]",
      "[1,2][][3][4,5 ][6",
      "][25 ][25",
      "[1,2][][3,4][5,6 ][][",
      "[1,2][3,4][][ ][2]",
      "[15 ]",
      "[1 8",
      "][11,12 ][10",
      "][None][None][For ][If][Return",
      "][19 ][20",
      "][1][4 ][0][0",
      "[1,2][3][4,5 ][6",
      "[1,2][2][3,4][4][5,6][6][7,8 ][8][9,10][10][]",
      "[1,2][][3,4][][5 ][6,7",
      "][29,30 ][31,32",
      "[If][Return][Try ][Return][Return]",
      "[If ][None][While",
      "][None][For ][If][None][None]",
      "[Try ][For",
      "][If][None][If ][If][None][If",
      "[None][For][If][Return ][If][None][None]",
      "][19 ]",
      "[Try][None][None ][Try][None][None",
      "][If][If][None][If ][None][None]",
      "[1,2][][3,4][5,6 ][][][]",
      "][2 ][8",
      "[If ][If][None][Return",
      "[2 ][1][1][1]",
      "[5 ][0][0",
      "][][11,12 ][13",
      "[1,2][2][3,4][4 ][5][]",
      "][1][0 ][1][3]",
      "][5 ][4]",
      "][2][0 ][1][0][0",
      "[2 ][0][0][0][0",
      "][12 ,7",
      "[1,2][][3,4][][5,6 ][6][]",
      "[0][1][0][0 ][0][0",
      ",5 0",
      "[2 ][2][2",
      "][1][0][1][1 ][1][1]",
      "[1,2][3][][4 ][]",
      "][19,20 ][21",
      "[1][2,3][1][4][5,6 ][4][]",
      "[1,2][][3,4][][5,6 ][7,8][9,10",
      "[None][While ][None]",
      "][][3 0",
      "[1][2,3][4,1][][5 ,2][2]",
      "[1][0][0][0 ][1]",
      "[1,2][3][4][5 ,4",
      "][2 ][1][0][1][0",
      "][3 ][1][1][0",
      "[0 ][1][3][0",
      "[0 ][1][1][0][1]",
      "][2][0 ][2][0]",
      "[1,2][2][3,4 ][5][6,7",
      "[If][None][None ][If][None][If",
      "[1,2][][3,4][4][5,6 ][][]",
      "][4][5 ,1",
      "[1][2,3][4,5][6,7 ][1][1",
      "][9 ,6",
      "][None][If][None][If ][None][If][None][None]",
      "][Try ][Return][None]",
      "][None][For ][None][None",
      "[1,2][2][3,4 ][5,6][7",
      "][17 ][18",
      "[1,2][3,4][5,6 ][][7",
      "][If][If][If][None][None ][None][None",
      "[1,2][][3,4][5,6 ][][7",
      "[If][Return][If][None][If ][None][Return]",
      "[1,2][3,2][][4 ,5",
      "][6 ][4",
      "[0][1][0 ][1][2]",
      "[1,2][3,4][ ][2][]",
      "][6 ][0]",
      "][16 ][16",
      "][1][1][1][1 ][0][0",
      "][][8 ][9,10",
      "][None][Return][For ][None]",
      "][None][If][None][None ][None][None]",
      "[If][Return][None][For ][If][Return][None]",
      "][ ][24",
      "[0 ][2][1][1",
      "[3 ][0][0][0",
      "[1,2,3 ][][][]",
      "[1,2][3,4][5,6 ][][7,8",
      "[1,2][3,2 ][4",
      "[If][For ][Return][None]",
      "][1][7 ][0",
      "][1][1 ][1][0][1][0",
      "][For ][None][Return",
      "][1][0 ][2][1][1",
      "][1][2 ][3",
      "][3][0 ][2]",
      "][20 ][20",
      "[1,2][3][][4,5 ][6,7",
      "[1][2,3][4,1][5,6 ][1][7",
      "][2 ][4][0",
      "][1][1 ][2][1]",
      "][5 9",
      "[If][None][If ][None][Try",
      "][][8,9 ][10",
      "[None][For][None][Return][For ][None]",
      "][7,6 ][8,9",
      "][1][1 6",
      "][44 ,45",
      "][If ][If][Return][None]",
      "[1 ][1][2][0]",
      "[1 ][1][1][0][1]",
      "[1 ][1][0][0][1]",
      "][2][0 ][3",
      "[1][2,3][4 ][5,6][7,8",
      "[0][0][0 ][2]",
      "][12][13,14 ][15,16",
      "][][10 ]",
      "][If][Return][If][Return ][If][Return][Return]",
      "[1,2][2][3,4][4][5,6 ][][]",
      "][16,17 ][18",
      "][7 ][10,11",
      "[1,2,3 ][4,5",
      "][4 ][0][0][0",
      "[None ][If][Return",
      "[4 ][1][0]",
      "[1,2][2 ][3][2]",
      "[1][0 ][1][2",
      "[0][0][0 ][1][2]",
      "[1,2][3][][4 ][5,6",
      "][][10,11 ][12,13",
      "][9 ,5",
      "[1,2][3][4,5 ][6][3",
      "[If][None][None][For ][If][Return][None]",
      "[1,2,3 ,4",
      "][6 ][][]",
      "][6 ][2]",
      ",5 1",
      "][None][If][None][If ][None][If][None]",
      "[0][1][0 ][2]",
      "][46 ,47",
      ",5 2",
      "][1][1][0 ][1][0][0",
      "[1][0 ][4]",
      "[1 ][3][1]",
      "][Return ][If][Return][Return]",
      "][None][For ][If][If",
      "[Try ][While",
      "[1][2,3][4,1 ][5,6][7,1",
      "[1,2][3,4][5][5 ][5][]",
      "[1][2][3,4][1 ][5,6",
      "][1][1 ][2][0]",
      "][1][1 ][3][0",
      "][1][2 ][2][0",
      "[If][None][None ][None][Return]",
      "[If][None][None ][If][None][None][Return]",
      "[1][0][0 ][1][1]",
      "][45 ,46",
      "][2 ][0][0][0][0][0",
      "][1][1 ][1][0][1]",
      "][If][None][None ][None][Return]",
      "[1][2,3][1 ][4][3]",
      "[1,2][3,4][][5 ][5][]",
      "[If][If][None][None ][None][Return]",
      "[If][Return][For ][If][Return][Return]",
      "[1][2,3][4][][5,6 ][7,4",
      "][10,11 ][][12,13",
      "[If][None][If][None][If ][Return][Return]",
      "][If][None][None][For ][None]",
      "][][10,11 ][][12,13",
      "][1][12 ,13",
      "][6 2",
      "][1][0][0][0 ][1][0]",
      "][1][1 ][5",
      "][1][0 ][1][4",
      "][6 0",
      "[1,2][ ][3][2]",
      "[1,2][3][4,5 ][6,7][8",
      "][If][If][None][If ][None]",
      "][7][8,9][10 ,7",
      "[1][2,3][4,5][6 ][5",
      "[Try][None][None ][None][Return]",
      "[None][While ][None][None]",
      "][If][If][Return ][None][None]",
      "[0][2 ][1][0]",
      "][7,8][9 ,6",
      "[1][2,3][4,5][][1][6 ,1][1]",
      "[None][For ][If][None][If][None]",
      "[0][0 ][1][1][1]",
      ",10 ][10]",
      "[1,2][2][3,4 ][4][5",
      "[1][0 ][1][0][1][0",
      "[1][2,3][1 ][4][5",
      "[1,2][3,4][5,6 ][][2",
      "[1][2,3][1][4,5 ][][]",
      "][2][0][2][0 ][2][0][2][0",
      "[None][For][None][For ][None][Return]",
      "[1][2][3][4,1 ][3]",
      "][ ][27,28",
      "][4 ][7,8",
      "][9 ][1]",
      "[0][0 ][3][0",
      "[1,2][][3][4,5 ][6,7][8,9",
      "][ ][22",
      "][ ][23",
      "[0 ][1][5",
      "[4 ][1][1]",
      "][9 ][9]",
      "[2 ][1][1][1][1",
      "[0][0 ][1][2]",
      "[1][2,3][1 ][4][]",
      "][1][2][0 ][2]",
      "][13][14,15 ][15][16,17",
      "][2 ][5]",
      "[None][For ][None][If][None][Return]",
      "][2][0 ][2][1]",
      "[2 ][0]",
      "][7,8 ][][][]",
      "][If][None][If ][If][If][None][None",
      "[If][None][If][None][If ][None][None][For",
      "[2][0 ][1][0]",
      "[If][None][None][For ][For",
      "[0][0][0][0 ][2]",
      "[If][None][For ][If][Return",
      "[1,2][][3][4 ][3]",
      "[16 ]",
      "[1 ][1][5",
      "][9,10 ][5",
      "][2][2 ][2][2",
      "[0][1][0][0 ][0][0]",
      "[0][3 ][0][0",
      "][2 ][1][0][1][1",
      "][7 ][][8",
      "[If][None][None][For ][None][None]",
      "][6,3 ][3]",
      "[0][0][0][0][0][0 ][1]",
      "][1][0][0 ][1][1][0",
      "[2 ][1][1][0]",
      "][None][For ][If][Return][None]",
      "[1,2][2][3,4 ][2][]",
      "][2][0][0 ][2]",
      "[1,2][3,4][][4 ][2]",
      "][ ][24,25",
      "][Return ][If][Return",
      "[None ][If][Return][Return]",
      "[1,2][2][3,4 ][5][6,7][8,9",
      "[8 ][0",
      "[1][0][0 ][1][0]",
      "][If][None][None ][If][For",
      "][1][2 ][0][0]",
      "[1][2][3 ][4][5,6",
      "][29,30 ][31",
      "][If][None][If ][Return][None]",
      "[1][2,3][4,5 ][][6,7][8,9",
      "][If][If][Return ][None][None",
      "][27 ][28,29",
      "0 ]",
      "][2 1]",
      "][2 ][0][0][0][0]",
      "[0][0 ][2][0][0]",
      "[Try ][None][Return][For",
      "][][3 3",
      "[1,2][2][3,4][5 ][6,5",
      "][7,8][9,10 ][11",
      "[None][For][None][Return][For ][None][None]",
      "][3 ][1][3",
      "[1][0 ][1][1][0]",
      "][8][9 ][]",
      "][1][11 ,12",
      ",5 3",
      "][10 ,1",
      "[1][0 ][1][0",
      "[0][0][0][0][0 ][0][0][0][0]",
      "[0][2 ][0][0]",
      "][10][11 ,10",
      "][Return ][Return][Return]",
      "][2][0 ][2][2",
      "[2 ][1][3]",
      "][5][6,7 ][5][]",
      "[1,2][3][3][4,5 ][6,7][8,9",
      "][2][1][1 ][1][1]",
      "[If][None][If][Return ][None][If][None][None]",
      "[1][2][3][4,5 ][6,3",
      "[1 ][4]",
      "][None][If ][If][If][None][If",
      "][][6 ][6]",
      "][18 ][]",
      "][24 ][25,26",
      "][2][3 ][0][0",
      "[If][None][For ][None][Return]",
      "][][10 ][]",
      "][14][15,16 ][17",
      "][1 ][9,10",
      "[1 ][4][0",
      "[0][0 ][5",
      "[If][None][Try][None][None ][Return]",
      "][ ][25",
      "][If ][Try][None][None]",
      "][If][If ][Try",
      "][9 ][0][0",
      "][10 ,6",
      "[1][0 ][1][1][0",
      "][10,11 ][][12",
      "][12][13,14][14][15,16][16][17,18 ][18][19,20",
      "][ ][10][11,12",
      "][1][1 ][1][0][1][1",
      "][][ ][11,12",
      "][1][2 ][1][2]",
      "[1][0 ][4",
      "[If][None][If][None][If ][None][If][None]",
      "[1,2][][3][4,5 ][3",
      "][9,10][11,12 ][10",
      "][48 ,49",
      "][][15,16][][17,18 ][][19,20",
      "][1][0 ][4][0",
      "][8 ,4",
      "[1,2][2 ][3][4][]",
      "][10 ,4",
      "][11 ][0",
      "][None][For ][If][If][None][None",
      "][13,14 ][12",
      "][If][If][None][Return ][None]",
      "][If][If][None][If][None][If ][None][None",
      "][None][If ][For][Return",
      "][2][0 ][1][1][0",
      "][0][0][0 ][2]",
      "][20 ][21",
      "[1,2][2][3][4,5 ][3",
      "[0][4 ][0]",
      "][Return ][If][None]",
      "[None ][None][For][None][Return]",
      "[2 ][2][2]",
      "][1][2 ][3]",
      "][If][If][None][None ][If][If][None][None",
      "][If][For ][For",
      "[0][0][0][0][0 ][0][0][0][0][0][0][0][0",
      "][ ][25,26",
      "][6 4",
      "][10,11 ][][",
      "[None][For][If][Return ][None][None][None]",
      "[0][0][0][0][0 ][0][0",
      "][None][If ][While",
      "][8 ][3]",
      "[1][2,3][4,1 ][][3]",
      "][17 ][]",
      "][47 ,48",
      "][5 ,2",
      "][6 1",
      ",5 5",
      "][2][0 ][4",
      "][If][For ][None][None]",
      "][5][6,7 ][][]",
      "][2][1][0 ][2]",
      "][15][16,17 ][18",
      "][17][18,19 ][20,21",
      "[1 9",
      "[1 ][1][2][1]",
      "[1 ][1][0][0][0]",
      "[None][For ][None][If][For",
      "][If][If ][If][None][None]",
      "][2][0 ][3][0",
      "][0][0][0][0 ][1]",
      "][12 ,11",
      ",11 ][11]",
      "][10,11 ][5",
      "][If][If][If][None][None ][None][None]",
      "][10,11][12,13 ][14",
      "][10,11][12 ,9",
      "][2 ][9",
      "][2 ][1][2][1]",
      "][6 ][6][7,8",
      "][1][0][0 ][3",
      "[If][Return ][None][Return]",
      "][10 ,8",
      "][10,11 ][8",
      "][1][4 ][0]",
      "[0][2][0 ][1]",
      "[None][For ][If][None][For",
      "][][5 ][8,9",
      "][19,20 ][21,22",
      "][29 ][30,31",
      "][Return ][None][None",
      "][6 6",
      "[3 ][1][2]",
      "[1,2][][3,4][][5,6 ][][7][]",
      "[1][2][3,4 ][1][5",
      "][8][9,10 ][11,12][13,14",
      "][26 ][26",
      "][2][3 ][1]",
      "[1][2,3][1][4,5 ][6,3",
      "][9,10][11,12 ][13",
      "][16][17,18 ][19",
      "][2 ][1][3]",
      "][None][If ][Try",
      "[0 ][5][0",
      "[None ][None][None][For",
      "][If][Return ][Return][Return]",
      "][If][None][If][None][If ][None][Return]",
      "][None][Return][For ][None][None]",
      "[0][2 ][3]",
      "][9][10,11 ][11][]",
      "[0][3 ][2]",
      "][If][None][If][Return ][None][None]",
      "[1,2][][3,4][][5 ][6,7][8,5",
      "][If ][None][While",
      "][1][1 ][1][2][0",
      "][1][0 ][6",
      "][2][0 ][1][2]",
      "[6 ][0][0",
      "[1][2][3,4 ][][5",
      "[1][2][3,4 ][1][]",
      "[Try][If][Return ][Return][Return]",
      "][2 ][1][0][0]",
      "][1][1 7",
      "][1][1 ][2][1][1",
      "[If ][If][None][None][Return]",
      "][7 ][12,13",
      ",5 4",
      "][None][For ][None][None][For",
      "[0][0 ][5]",
      "][7,8 ][4",
      "][If][If][None][If ][If][None][None",
      "[If][For ][For",
      "[1,2][3][3][4,5][6 ][6][7,8][9",
      "[If][Try][Return ][None][None]",
      "[1][2,3][4,5][][1][6,7 ][1][8,9",
      "][10 ,3",
      "][11 ][14,15",
      "[If][None][None ][If][None][None]"
    ]
  }
}