{
  "version": "1.0",
  "truncation": null,
  "padding": null,
  "added_tokens": [
    {
      "id": 0,
      "content": "[UNK]",
      "single_word": false,
      "lstrip": false,
      "rstrip": false,
      "normalized": false,
      "special": true
    },
    {
      "id": 1,
      "content": "[CLS]",
      "single_word": false,
      "lstrip": false,
      "rstrip": false,
      "normalized": false,
      "special": true
    },
    {
      "id": 2,
      "content": "[SEP]",
      "single_word": false,
      "lstrip": false,
      "rstrip": false,
      "normalized": false,
      "special": true
    },
    {
      "id": 3,
      "content": "[PAD]",
      "single_word": false,
      "lstrip": false,
      "rstrip": false,
      "normalized": false,
      "special": true
    },
    {
      "id": 4,
      "content": "[MASK]",
      "single_word": false,
      "lstrip": false,
      "rstrip": false,
      "normalized": false,
      "special": true
    }
  ],
  "normalizer": null,
  "pre_tokenizer": {
    "type": "Sequence",
    "pretokenizers": [
      {
        "type": "Split",
        "pattern": {
          "String": "[SEP1]"
        },
        "behavior": "Isolated",
        "invert": false
      },
      {
        "type": "Split",
        "pattern": {
          "String": "[SEP2]"
        },
        "behavior": "Isolated",
        "invert": false
      },
      {
        "type": "Split",
        "pattern": {
          "String": "[SEP3]"
        },
        "behavior": "Isolated",
        "invert": false
      }
    ]
  },
  "post_processor": null,
  "decoder": null,
  "model": {
    "type": "BPE",
    "dropout": null,
    "unk_token": "[UNK]",
    "continuing_subword_prefix": null,
    "end_of_word_suffix": null,
    "fuse_unk": false,
    "byte_fallback": false,
    "ignore_merges": false,
    "vocab": {
      "[UNK]": 0,
      "[CLS]": 1,
      "[SEP]": 2,
      "[PAD]": 3,
      "[MASK]": 4,
      ",": 5,
      "0": 6,
      "1": 7,
      "2": 8,
      "3": 9,
      "4": 10,
      "5": 11,
      "6": 12,
      "7": 13,
      "8": 14,
      "9": 15,
      "E": 16,
      "F": 17,
      "I": 18,
      "N": 19,
      "P": 20,
      "R": 21,
      "S": 22,
      "T": 23,
      "W": 24,
      "[": 25,
      "]": 26,
      "e": 27,
      "f": 28,
      "h": 29,
      "i": 30,
      "l": 31,
      "n": 32,
      "o": 33,
      "r": 34,
      "t": 35,
      "u": 36,
      "y": 37,
      "][": 38,
      "EP": 39,
      "SEP": 40,
      "[SEP": 41,
      "][1": 42,
      "No": 43,
      "ne": 44,
      "None": 45,
      "][None": 46,
      "][0": 47,
      "If": 48,
      "2]": 49,
      "1]": 50,
      "3]": 51,
      "][If": 52,
      "Re": 53,
      "rn": 54,
      "tu": 55,
      "Retu": 56,
      "Return": 57,
      "[SEP2]": 58,
      "[SEP1]": 59,
      "[SEP3]": 60,
      "][2": 61,
      "[1": 62,
      "][Return": 63,
      "][3": 64,
      "][0][0": 65,
      "][None][None": 66,
      ",2": 67,
      "][1][1": 68,
      "][][": 69,
      "[1,2": 70,
      "[If": 71,
      "][4": 72,
      ",1": 73,
      "][None][If": 74,
      "[2]": 75,
      "Fo": 76,
      "For": 77,
      "][For": 78,
      "[1]": 79,
      "[0": 80,
      "][Return]": 81,
      "][1][0": 82,
      "][]": 83,
      "][5": 84,
      "[]": 85,
      "[None": 86,
      ",4": 87,
      "][1]": 88,
      "][None]": 89,
      "][6": 90,
      "[3]": 91,
      "][3,4": 92,
      "[1][2": 93,
      "][][]": 94,
      ",3": 95,
      "[Return": 96,
      "[Return]": 97,
      "][If][Return": 98,
      "][7": 99,
      "Tr": 100,
      "Try": 101,
      "][None][Return]": 102,
      "][None][None]": 103,
      ",6": 104,
      ",5": 105,
      "][8": 106,
      "[None][For": 107,
      "][If][If": 108,
      "[4": 109,
      "][1][0][0": 110,
      "[1][2,3": 111,
      "][2]": 112,
      "[1,2][2": 113,
      "[If][Return": 114,
      "[1,2][": 115,
      "][2][0": 116,
      "][9": 117,
      "][None][If][None][If": 118,
      "[4]": 119,
      "][10": 120,
      "][Try": 121,
      "][4,5": 122,
      "[1,2][3": 123,
      "][1][1]": 124,
      ",7": 125,
      "[1,2][][3,4": 126,
      ",8": 127,
      "[2": 128,
      "[1,2][][]": 129,
      "][11": 130,
      "][5,6": 131,
      "][If][None][None": 132,
      "][0][0][0][0": 133,
      "][1][2": 134,
      "][None][For": 135,
      "][1][0]": 136,
      "][][5": 137,
      "][12": 138,
      "[If][None][If": 139,
      "][0]": 140,
      "[None]": 141,
      "[5": 142,
      "][6,7": 143,
      "[0][0": 144,
      ",9": 145,
      "][3]": 146,
      "][13": 147,
      ",10": 148,
      "][None][Return": 149,
      "][7,8": 150,
      "[1,2][2][3,4": 151,
      "[Try": 152,
      "[If][None][Return]": 153,
      "[5]": 154,
      "][14": 155,
      "][1][1][0": 156,
      "[If][None][None": 157,
      "][If][None][If": 158,
      "[1][2,3][4": 159,
      "[1,2][2][]": 160,
      "][15": 161,
      "[1,2][3,4": 162,
      "[1][0": 163,
      "][8,9": 164,
      ",11": 165,
      "][0][0][0": 166,
      ",12": 167,
      "][3][4,5": 168,
      "][9,10": 169,
      "[3": 170,
      "][3][]": 171,
      "][1][0][1][0": 172,
      "][][5,6": 173,
      "][16": 174,
      "[If][Return][Return]": 175,
      "][1][3": 176,
      "[1][2,3][1": 177,
      "][0][0]": 178,
      "][10,11": 179,
      "][11,12": 180,
      "[1][2,3][4,1": 181,
      "][4][5,6": 182,
      "[6": 183,
      "][Try][None][None": 184,
      "][][7": 185,
      "Wh": 186,
      "il": 187,
      "][Wh": 188,
      "ile": 189,
      "][While": 190,
      "][17": 191,
      "][][6": 192,
      "][If][If][None][None": 193,
      "][If][None]": 194,
      "][2][0]": 195,
      "[0]": 196,
      "][1][2]": 197,
      "][2][2": 198,
      "[None][For][If][Return": 199,
      "][If][Return][If][Return": 200,
      "][4]": 201,
      ",13": 202,
      "][1][1][1][1": 203,
      "][][4": 204,
      "[1][]": 205,
      "[1][2,3][4,5": 206,
      "[If][None][If][None][If": 207,
      ",14": 208,
      "][18": 209,
      "[6]": 210,
      "][If][None][None]": 211,
      "][None][None][For": 212,
      "[1][2,3][1][]": 213,
      "][12,13": 214,
      "][13,14": 215,
      "][19": 216,
      "[1,2][][3,4][][5,6": 217,
      "][3][0": 218,
      "[If][None][None]": 219,
      "[0][0][0": 220,
      "[1,2][][3,4][][]": 221,
      ",15": 222,
      "][Return][Return]": 223,
      "][4][]": 224,
      "][1][1][1]": 225,
      "][If][Return][Return]": 226,
      "][6][7,8": 227,
      ",16": 228,
      "][20": 229,
      "][][9": 230,
      "[7": 231,
      "][5]": 232,
      "][If][For": 233,
      "][5][6,7": 234,
      "][2][1]": 235,
      "][1][0][0][0": 236,
      "[None][For][None][Return]": 237,
      "][Return][None]": 238,
      "[0][1][0": 239,
      "][1][0][0]": 240,
      "][][7,8": 241,
      "][21": 242,
      "][None][None][None]": 243,
      "[1][2][3,4": 244,
      "][14,15": 245,
      "[1][2][3": 246,
      "][15,16": 247,
      "][][8": 248,
      "][2][0][0": 249,
      "][1][2][0": 250,
      "][1][4": 251,
      "][1][0][1][1": 252,
      "[1,2][3][3][]": 253,
      "[0][1][1": 254,
      "[2][0": 255,
      ",17": 256,
      "[1,2][3][4,5": 257,
      "][22": 258,
      "][1][0][1]": 259,
      "][None][Try": 260,
      ",18": 261,
      "[1,2][2][3,4][4][5,6": 262,
      "[7]": 263,
      "[If][None]": 264,
      "[1,2][3,4][5,6": 265,
      "[Try][None][None": 266,
      "][If][None][Return]": 267,
      "][If][If][None][If": 268,
      "][23": 269,
      "[None][While": 270,
      "[1][2][1]": 271,
      "[1][1][1": 272,
      "[1,2][3][3][4,5": 273,
      "][5][]": 274,
      "][2][2]": 275,
      "][16,17": 276,
      "][6]": 277,
      "][If][Return][None]": 278,
      "[0][0][0][0][0": 279,
      "][8][9,10": 280,
      "[1,2][3][][4": 281,
      "][None][Try][None][None": 282,
      "[1,2][][3,4][5": 283,
      "][][1]": 284,
      "[If][None][None][For": 285,
      "][1][3]": 286,
      "][2][1][1": 287,
      "][If][None][If][None][If": 288,
      "][24": 289,
      "][][][]": 290,
      "[1,2][][3][4,5": 291,
      "][17,18": 292,
      "][6][]": 293,
      "][7][8,9": 294,
      ",19": 295,
      "][If][If][Return": 296,
      "][][3": 297,
      "[1][2][3,1": 298,
      "[8": 299,
      "][If][None][None][None]": 300,
      "[1][0][0": 301,
      "[1,2][2][3,4][5": 302,
      "][None][Return][For": 303,
      ",20": 304,
      "][25": 305,
      "][None][If][None]": 306,
      "[If][None][If][None][Return]": 307,
      "][1][0][2": 308,
      "][4][0": 309,
      "][Try][Return": 310,
      "][][6,7": 311,
      "[None][For][None]": 312,
      "][][9,10": 313,
      "[If][None][None][Return]": 314,
      "[0][2": 315,
      "][None][If][None][None]": 316,
      "[0][1][0][0": 317,
      "][18,19": 318,
      "[0][1][1]": 319,
      "][26": 320,
      "][19,20": 321,
      "][If][None][Return": 322,
      "][None][If][None][None": 323,
      "[If][None][If][Return": 324,
      "[1,2][3,2": 325,
      "][10][11,12": 326,
      "][27": 327,
      ",21": 328,
      "][1][1][0][0": 329,
      "][1][1][0]": 330,
      "][If][Return]": 331,
      "][7]": 332,
      ",22": 333,
      "][1][5": 334,
      "[1,2][3][4": 335,
      "][3][3": 336,
      "[8]": 337,
      "[1,2][3][][4,5": 338,
      "][0][0][0][0][0][0][0][0": 339,
      "[If][If][Return": 340,
      "[If][Return][If][Return][If][Return": 341,
      "[0][1][0]": 342,
      "[If][Return][If][Return][Return]": 343,
      "[1,2][2][3,4][4][]": 344,
      "[None][For][If][Return][None]": 345,
      "[1][2,3][4,1][][1]": 346,
      "][5,6][7,8": 347,
      "][None][None][Return]": 348,
      "[1][1][1]": 349,
      "[0][0][0][0": 350,
      "][6,3": 351,
      "][For][Return": 352,
      "[1,2][][3,4][][5,6][][7,8": 353,
      "[9": 354,
      "][None][For][None]": 355,
      "][9][10,11": 356,
      "][28": 357,
      "[0][3": 358,
      "[1][1][0": 359,
      "][3][4": 360,
      "][29": 361,
      "][None][If][None][If][None][If][None][If": 362,
      "][21,22": 363,
      "][6][7": 364,
      "][20,21": 365,
      "[1,2][2][3][4,5": 366,
      "][If][None][None][For": 367,
      "][1][0][0][0][0": 368,
      ",23": 369,
      "][][8,9": 370,
      "][1][2][1]": 371,
      "[1,2][3,4][5": 372,
      "[3][0": 373,
      "][1][6": 374,
      ",24": 375,
      "][6,7][8": 376,
      "][2][3": 377,
      "][1][2][0]": 378,
      "[If][Return][None][For": 379,
      "[1][1][0]": 380,
      "][][11,12": 381,
      "][8]": 382,
      "][None][If][None][Return]": 383,
      "[If][None][Try][None][None": 384,
      ",1][1]": 385,
      "][8][]": 386,
      "[If][None][For": 387,
      "][None][While": 388,
      "][1][0][1][1]": 389,
      "][For][None][None": 390,
      "][7][7": 391,
      "[1][2,3][4,5][": 392,
      "[1][2][]": 393,
      "][6,7][8,9": 394,
      "[0][0][1]": 395,
      "[1,2][][3,4][][5,6][][]": 396,
      "][12][13,14": 397,
      "][1][3][0": 398,
      "][3][0]": 399,
      "[1,2][3][][]": 400,
      "[1,2][][3,4][4][5,6": 401,
      "][][3]": 402,
      "][11][12,13": 403,
      "][If][None][For": 404,
      "][None][If][Return": 405,
      "][3][1]": 406,
      "][22,23": 407,
      "[If][Return][None]": 408,
      "[If][Return][If][Return": 409,
      "][23,24": 410,
      "][30": 411,
      "][If][If][If][None][None": 412,
      "][If][If][None][Return": 413,
      "][2][1][0": 414,
      "][3][0][0": 415,
      "[1,2][2][3,4][4][5,6][6][7,8": 416,
      "][Try][If][None][None": 417,
      "][7,8][9,10": 418,
      "][1][4]": 419,
      "[If][None][If][None][None]": 420,
      "[Try][None][Return": 421,
      "[9]": 422,
      "][][10": 423,
      "[10": 424,
      ",25": 425,
      "][5][0": 426,
      "[1][2,3][1][4,5": 427,
      "[If][For": 428,
      "][If][None][None][Return]": 429,
      "[0][1][2": 430,
      ",26": 431,
      "[1,2][][3][]": 432,
      "[1][2,3][4,1][][]": 433,
      "][][6][]": 434,
      "][2][0][2][0": 435,
      "][1][1][2": 436,
      "][31": 437,
      "][If][None][If][None][None": 438,
      "][1][0][0][0]": 439,
      "[None][For][For": 440,
      "][0][0][0][0]": 441,
      "][1][7": 442,
      "][0][0][0][0][0": 443,
      "][9]": 444,
      "][1][1][0][1]": 445,
      "][5,6][7": 446,
      "[None][Return]": 447,
      "[0][1][2]": 448,
      "[1][0][1]": 449,
      "[1][2,3][4,1][][5": 450,
      "][][2]": 451,
      "][1][0][1][0]": 452,
      "[None][None]": 453,
      "][3][4][5,6": 454,
      "][Try][None][None]": 455,
      "][2][1][2": 456,
      "[0][2][0": 457,
      "][If][If][None][None]": 458,
      "[1][2,3][4,5][][6": 459,
      "][24,25": 460,
      "[1,2][3][4,3": 461,
      "][][10,11": 462,
      "][32": 463,
      "[None][For][If][None]": 464,
      "][1][0][1][0][0": 465,
      "[Try][Return][Return]": 466,
      "[2][0][0": 467,
      "][None][If][For": 468,
      "[If][If][If][None][None": 469,
      "][7,8][9": 470,
      "][Try][None][Return": 471,
      "][25,26": 472,
      "[1,2][3][4,5][6,7": 473,
      ",28": 474,
      "[Try][None][None][Return]": 475,
      "][4][1]": 476,
      "][1][1][1][1]": 477,
      "][If][None][If][None]": 478,
      ",27": 479,
      "][7][]": 480,
      "][][13,14": 481,
      "[1][1]": 482,
      "][5][6,7][8,9": 483,
      "][If][None][If][None][None]": 484,
      "[1][2][3,1][1]": 485,
      "[1,2][][3,4][4][]": 486,
      "[0][1][1][0": 487,
      "[0][1][0][1][0": 488,
      "[1][2][3,4][5": 489,
      "][8][9": 490,
      "][33": 491,
      "][14][15,16": 492,
      "][13][14,15": 493,
      "[If][None][If][None][None": 494,
      "][If][None][If][Return": 495,
      "][1][0][0][1]": 496,
      "[If][None][If][None]": 497,
      "][][11": 498,
      "][0][0][0]": 499,
      "][4][5": 500,
      "][If][Return][None][None]": 501,
      "][3][2]": 502,
      "][3][3]": 503,
      "][9,10][11,12": 504,
      "][2][0][0][0": 505,
      "][None][None][None][None": 506,
      "[1,2][3,4][][5": 507,
      "[1,2][2][3,4][5][][6][]": 508,
      "[None][For][None][For": 509,
      "[0][0][0]": 510,
      "[None][For][None][None]": 511,
      "][34": 512,
      "[1,2][2][3,4][][]": 513,
      "[If][None][Try][None][None][If][None]": 514,
      "][If][Return][Return": 515,
      "[1,2][][3,4][][5": 516,
      "[If][None][Try": 517,
      "[1][1][2": 518,
      "][1][0][2]": 519,
      "][27,28": 520,
      "[If][None][If][None][If][None][Return]": 521,
      "][5][6,7][8": 522,
      "][2][2][0": 523,
      "[None][For][If][If": 524,
      "][2][0][0]": 525,
      "[4][0": 526,
      "][10,11][12,13": 527,
      "[1,2][][3,4][5,6": 528,
      "][35": 529,
      "[10]": 530,
      "][1][0][2][0": 531,
      "][None][If][If][None][None": 532,
      "][1][0][1][2": 533,
      "[0][0][2]": 534,
      "[If][None][None][None]": 535,
      "[If][If][None][None": 536,
      "[1][2,3][4,1][5,6": 537,
      "[None][For][If][Return][Return]": 538,
      "[1][2,3][4,5][][5": 539,
      "[1][0][0][0": 540,
      "[1][0][0]": 541,
      "[1,2][2][3,4][][5,6": 542,
      "][26,27": 543,
      ",29": 544,
      "][10][]": 545,
      "[1,2][3][4,5][][3": 546,
      "][1][1][2]": 547,
      ",2][2]": 548,
      "][7,4": 549,
      "][1][8": 550,
      "][10][11": 551,
      "[1,2][3,4][][][]": 552,
      ",30": 553,
      "][10,11][12": 554,
      "][10]": 555,
      "[None][For][If][Return][None][None]": 556,
      "[0][4": 557,
      "][2][]": 558,
      "[1][1][0][1][1": 559,
      "][9][]": 560,
      "][11]": 561,
      "[1,2][][3,4][][5,6][][7,8][][9,10": 562,
      "][6,1": 563,
      "[If][None][If][None][If][None][If][None][If": 564,
      "[1][1][0][0": 565,
      "[None][For][If][For": 566,
      "][If][If][Return][Return": 567,
      "][6,5": 568,
      "][Try][None][None][None]": 569,
      "][1][0][1][0][1][0][1][0": 570,
      "[1][1][2]": 571,
      "[If][Return][For": 572,
      "][7][8": 573,
      ",3][3]": 574,
      "][1][0][3": 575,
      "][If][If][None][If][None][If": 576,
      "][36": 577,
      "[1][2,3][4,5][6,7": 578,
      "][][12": 579,
      "][None][Return][None]": 580,
      "[1,2][2][3][]": 581,
      "[1,2,3": 582,
      "[None][For][None][Return][For": 583,
      "[2][1][0]": 584,
      "][1][]": 585,
      "][9,10][11": 586,
      "][2][1][1]": 587,
      "][2][4": 588,
      "][6][0": 589,
      "[1][2][3][4,5": 590,
      "[1][3": 591,
      "[1,2][3,4][][4": 592,
      "][6][7,8][9": 593,
      "[1,2][][3,4][5,6][7,8": 594,
      "][][][][]": 595,
      "][If][Return][If][Return][If][Return][If][Return": 596,
      "][][12,13": 597,
      "][1][1][1][2": 598,
      "][8][9,10][10][11,12": 599,
      "[0][1]": 600,
      "[Try][None][None]": 601,
      ",31": 602,
      "[1,2][3,4][][": 603,
      "[1,2][3,2][4,5": 604,
      "][28,29": 605,
      "][29,30": 606,
      "[1][2][0": 607,
      "][2][0][1]": 608,
      "][1][0][1][1][0": 609,
      "[0][2][0]": 610,
      "][37": 611,
      "[1,2][3][3][4,5][6": 612,
      "][15][16,17": 613,
      "[1][2,3][4,1][][5,6": 614,
      "[1][2,3][4,5][][1][1]": 615,
      "][][15,16": 616,
      "][16][17,18": 617,
      "[1,2][][3][4,5][6,3": 618,
      "][4][4": 619,
      "[None][For][None][None][For": 620,
      "][2][1][0][0": 621,
      ",32": 622,
      "][1][2][0][0": 623,
      "][1][5]": 624,
      "[2][1][1": 625,
      "][None][For][None][Return]": 626,
      "[1,2][2][3,4][4][5,6][6][]": 627,
      "[1][1][1][0": 628,
      "][If][If][None][None][None]": 629,
      "[None][None][Return]": 630,
      "][38": 631,
      "[If][Return][If][None][Return]": 632,
      "[If][None][If][Return][Return]": 633,
      "][8,9][10": 634,
      "][12]": 635,
      "][1][4][0": 636,
      "[If][Return][If][None][If": 637,
      "[Try][Return][None]": 638,
      "][13,14][15,16": 639,
      "][39": 640,
      "[0][1][3": 641,
      "][2][1][0]": 642,
      "[1][0][2]": 643,
      "][][13": 644,
      "[1][2,3][][]": 645,
      "][1][1][3": 646,
      "[If][None][If][If][None][None": 647,
      "[1,2][3,4][": 648,
      "[1][2,3][4,1][5": 649,
      "[1][1][1][1][1": 650,
      "[1][2,3][4][][5,6": 651,
      "[2][1]": 652,
      "[1,2][3,4][5,6][4": 653,
      "][4][0]": 654,
      "][5][5": 655,
      "[Try][Return": 656,
      "][None][None][None][None]": 657,
      "][1][1][1][0]": 658,
      "][14,15][16,17": 659,
      "][If][Try": 660,
      "][1][1][0][0][0": 661,
      "[If][Return][If][Return][If][Return][Return]": 662,
      "][0][0][1]": 663,
      "][6][6": 664,
      "][][5]": 665,
      "[1][2]": 666,
      "][1][10": 667,
      "][None][For][For": 668,
      "][2][0][0][0][0": 669,
      "][2][3]": 670,
      "[0][0][0][0][0]": 671,
      "[2][1][1]": 672,
      "][][4]": 673,
      ",33": 674,
      "[If][None][If][None][None][For": 675,
      "[1][1][0][1][1][1][1]": 676,
      "][][14": 677,
      "][1][1][1][0": 678,
      "][If][None][If][If][None][None": 679,
      "[1][0][0][0][0": 680,
      "][If][None][Try": 681,
      "[None][For][If][None][None]": 682,
      "][2][5": 683,
      ",34": 684,
      "][4][0][0": 685,
      "[0][1][1][0]": 686,
      "[0][2][1]": 687,
      "][9][9": 688,
      "[1][2,3][][4": 689,
      "][For][None][If": 690,
      "[If][Return]": 691,
      "][12][]": 692,
      "][40": 693,
      "][If][If][None][If][None][None": 694,
      "][7][8,9][10": 695,
      "[2][0][0]": 696,
      "[11]": 697,
      "[1,2][3][3][4][5,6": 698,
      "][1][1][1][0][0": 699,
      "][2][1][1][0": 700,
      "][17][18,19": 701,
      "][If][For][None][None": 702,
      "[1,2][][3][4,5][3][]": 703,
      "[None][For][If][If][None][None": 704,
      "[0][0][1][0]": 705,
      "][1][1][1][1][1]": 706,
      "][8][9,10][11": 707,
      "[If][Return][If][Return][None]": 708,
      "[1][2,3][4][][5": 709,
      "][None][For][None][None]": 710,
      "][3][4][]": 711,
      "][1][9": 712,
      "[1][2,3][1][4][5,6": 713,
      "[1,2][][3][4": 714,
      "][If][If][If][Return": 715,
      "[1,2][2][3,4][5,6": 716,
      "[None][For][Try][Return": 717,
      "[None][For][For][Return": 718,
      "[1,2][][3,4][][5,6][][7,8][][]": 719,
      "[1,2][][3][4,5][6,7": 720,
      "][None][If][None][None][None]": 721,
      "][14,15][16": 722,
      "][11][]": 723,
      "][12][13": 724,
      "][Return][For": 725,
      "[1][2][0]": 726,
      "][0][0][0][1]": 727,
      "[If][None][Return][For": 728,
      "[1][2][3,1][4": 729,
      "][30,31": 730,
      "][1][1][1][1][0": 731,
      "][1][2][1][2": 732,
      ",4][4]": 733,
      ",2][]": 734,
      "][11,12][13": 735,
      "[0][1][3]": 736,
      "[None][None][For": 737,
      "[Try][If][None][None": 738,
      "][6][1]": 739,
      "][If][If][None]": 740,
      "[5][0": 741,
      "][1][0][1][0][1]": 742,
      "[1][2,3][4,5][][": 743,
      "][18][19,20": 744,
      "[If][Return][Try": 745,
      "][13]": 746,
      "][Return][Return": 747,
      ",1][]": 748,
      "[1,2][3][4,5][6,7][3": 749,
      "][31,32": 750,
      ",36": 751,
      "][2][0][2]": 752,
      "][9][10": 753,
      "][11,12][13,14": 754,
      "][1][1][0][0]": 755,
      "[If][Try][Return": 756,
      ",5][5]": 757,
      "][1][3][1]": 758,
      "[0][5": 759,
      ",35": 760,
      "][If][Return][If][Return][Return]": 761,
      "[0][1][1][1]": 762,
      "][1][0][0][0][1]": 763,
      "[1][2][3][4": 764,
      "][41": 765,
      "][][6,7][8": 766,
      "][7][0": 767,
      "][1][0][0][1][0][0": 768,
      "[0][2]": 769,
      "][17,18][19,20": 770,
      "[If][If][If][None][If": 771,
      "][14][14": 772,
      "][None][If][None][If][None]": 773,
      "[0][1][0][1]": 774,
      "][][15": 775,
      "][Return][None][None]": 776,
      "[1][2,3][4,5][][1": 777,
      "][1][2][2]": 778,
      "][Try][None][None][Return]": 779,
      "[0][1][0][0]": 780,
      "[If][None][If][Return][None][None]": 781,
      "][1][1][2][0": 782,
      "[0][2][2": 783,
      "][1][0][1][2]": 784,
      "[0][2][0][0": 785,
      "][][11,12][][13,14": 786,
      "[1,2][][3,4][5,2": 787,
      "[Try][None][None][None]": 788,
      "][42": 789,
      "[None][For][If][None][None": 790,
      "][1][0][0][0][0][0][0": 791,
      "][None][If][None][If][None][None]": 792,
      "][None][If][None][None][For": 793,
      "[0][0][0][0][0][0": 794,
      "[1][1][3": 795,
      "[1][2][3,1][]": 796,
      "[If][None][If][Return][None]": 797,
      "[0][0][3]": 798,
      "[1,2][3][3][4,5][][]": 799,
      "[1,2][2][3,4][4": 800,
      "[0][1][2][0": 801,
      "][1][6]": 802,
      "[1][1][0][2": 803,
      "[Try][None][Return][Return]": 804,
      "[1][2,3][4][][5,1": 805,
      "][32,33": 806,
      "][If][If][If][If": 807,
      "][For][For": 808,
      "][None][For][If][Return": 809,
      "[1][2,3][4,5][6": 810,
      "[1,2][2][3,4][5,6][7,8": 811,
      "][7,6": 812,
      "[2][0][1]": 813,
      "[3][0][0": 814,
      "][][16": 815,
      "][][7][8,9": 816,
      "][33,34": 817,
      "][1][0][0][0][0]": 818,
      "][If][If][None][None][None][None": 819,
      "[1,2][][3,4][5][5][]": 820,
      ",38": 821,
      "][If][Try][None][None": 822,
      "][2][1][3": 823,
      "][1][0][0][0][0][0": 824,
      "][43": 825,
      "[12]": 826,
      "[0][0][0][1]": 827,
      "][5][1]": 828,
      "[0][0][0][0]": 829,
      "][][2": 830,
      "][6,2": 831,
      "[If][Try": 832,
      "][If][None][If][None][Return]": 833,
      "][2][2][1]": 834,
      "[None][While][None][Return]": 835,
      "[1,2][2][3,4][4][5,6][6][7,8][8][9,10][10][11,12": 836,
      "][1][11": 837,
      "[If][None][If][None][If][None][If][None][Return]": 838,
      "][7][7][]": 839,
      "[1][4": 840,
      "[1,2][3,2][][4": 841,
      "][15][15": 842,
      "][None][None][For][None]": 843,
      "][9][10,11][12": 844,
      "][][6,7][8,9": 845,
      "[1][2][3,4][1][1]": 846,
      "][][17,18": 847,
      "[1,2][2][3][4": 848,
      "][1][0][4": 849,
      "][8][8": 850,
      ",37": 851,
      "][If][None][None][If][None][None": 852,
      "][None][If][Return][Return]": 853,
      "][20][21,22": 854,
      "[1,2][3][4,5][][3][6,7": 855,
      "][If][Return][None][None": 856,
      "][10][10": 857,
      "][][6]": 858,
      "[0][1][1][1][1": 859,
      "[If][None][If][For": 860,
      "][6][7,8][9,10": 861,
      "[1,2][3][4,3][5,6": 862,
      "][1][0][1][0][0]": 863,
      "][][16,17": 864,
      "][][19,20": 865,
      "[1][1][1][1]": 866,
      "][8,3": 867,
      "[If][Return][If][If": 868,
      "[If][None][If][None][If][None][If][None][If][None][If][None][If": 869,
      "[1][2][3,1][4,5": 870,
      "[0][1][0][0][0": 871,
      "[If][None][If][None][If][None][None]": 872,
      "[0][1][0][1][0]": 873,
      "[0][3][0": 874,
      "[1,2][3,4][][5,6": 875,
      "][19][20,21": 876,
      "][3][6,7": 877,
      "[1][1][3]": 878,
      "][7][8,9][10,11": 879,
      "[1][2,3][][4,5": 880,
      "[0][0][3": 881,
      "[1,2][3][4][5": 882,
      "[1][2,3][4,1][5,6][1": 883,
      "][44": 884,
      "[1][2,3][4,5][][5][1]": 885,
      "][13][13": 886,
      "[If][If][Return][None][None]": 887,
      "][2][3][0": 888,
      "[0][0][1][1": 889,
      "[If][None][None][For][None][Return]": 890,
      "][6,7][8,5": 891,
      "[1,2][3][4,3][][3]": 892,
      "][45": 893,
      "[14": 894,
      "[2][1][2": 895,
      "][1][1][0][1][1]": 896,
      "][9][10,11][12,13": 897,
      "][11][11": 898,
      "][][17": 899,
      "[If][If][If": 900,
      "[1,2][][3,4][5,4": 901,
      "][If][None][None][None][None]": 902,
      "[0][0][1][0][0]": 903,
      "[3][1][0]": 904,
      ",6][6]": 905,
      "[If][None][None][If][None][Return]": 906,
      "][][7][]": 907,
      "][12][13,14][14][15,16": 908,
      "[0][1][0][1][1]": 909,
      "][4][4]": 910,
      "][5][0][0": 911,
      "[1][0][1][0]": 912,
      "[0][0][1][1]": 913,
      "][2][6": 914,
      "[2][3": 915,
      "][34,35": 916,
      "][35,36": 917,
      "[If][None][None][While": 918,
      "[1,2][2][3][4,5][6,3": 919,
      "[If][If][None][None]": 920,
      "][14]": 921,
      "[1,2][3,4][5,6][][": 922,
      "][][3][]": 923,
      "[0][0][0][0][1]": 924,
      "][1][0][1][1][1][1": 925,
      "][0][0][0][0][0]": 926,
      "][If][If][None][None][None][None]": 927,
      "][1][0][1][1][1]": 928,
      "[0][0][2][0": 929,
      "][][7,8][9": 930,
      "][][7,8][][9,10": 931,
      "][2][1][2]": 932,
      "][18,19][20,21": 933,
      "[1,2][3][3][4,5][5][]": 934,
      "][8][0": 935,
      "][14][15": 936,
      "][None][Return][Return]": 937,
      "][1][0][3]": 938,
      "][2][2][0]": 939,
      "[If][If][Return][None]": 940,
      "][For][None][None]": 941,
      "][1][5][0": 942,
      "[1][1][1][0]": 943,
      "[1,2][3][4,5][][3][3]": 944,
      "][5,3": 945,
      "[1][2,3][3][]": 946,
      "][If][For][None][If": 947,
      ",40": 948,
      "][6][3": 949,
      "][7,1": 950,
      "][1][12": 951,
      "][1][1][3]": 952,
      "[1,2][3,4][4": 953,
      "[0][2][2]": 954,
      "[0][0][1][0][0": 955,
      "][1][3][0]": 956,
      "][1][1][4": 957,
      ",39": 958,
      "][If][Try][Return": 959,
      "[1][1][0][1][0": 960,
      "][0][0][0][0][0][0": 961,
      "][1][8,9": 962,
      "][None][None][None][For": 963,
      "[1][2,3][4,5][][1][6,7": 964,
      "[1,2][3,2][][]": 965,
      "[1,2][][3,4][][5][]": 966,
      "[0][1][0][0][0]": 967,
      "[1][2,3][4,1][][2]": 968,
      "][1][2][0][1]": 969,
      "][][14,15": 970,
      "[If][If][If][Return": 971,
      "[If][Return][If][None][None": 972,
      "[1,2][3][4][5,6": 973,
      "[1,2][2][3,4][4][5,6][6][7,8][8][]": 974,
      "][46": 975,
      "[None][For][Try": 976,
      "[If][None][If][None][None][Return]": 977,
      "][1][1][0][1][0]": 978,
      "][2][2][0][0": 979,
      "[13]": 980,
      "][18,19][20": 981,
      "][6,4": 982,
      "[If][Return][If][None][If][None][If": 983,
      "][1][3][0][0": 984,
      "[1,2][3,2][][2]": 985,
      "][None][None][While": 986,
      "[If][None][If][None][If][None][If": 987,
      "][For][None]": 988,
      "][22,23][24,25": 989,
      "[2][0][0][0": 990,
      "[0][1][4": 991,
      "][If][None][Try][None][None": 992,
      "][5][5]": 993,
      "][][18": 994,
      "][6,7][][8": 995,
      "][8,1": 996,
      "[1,2][3,4][][][5,6": 997,
      "][47": 998,
      "[1][2,3][3][4,5": 999,
      "][1][0][1][1][0]": 1000,
      "[If][If][If][None][Return": 1001,
      "[None][For][If][Return]": 1002,
      "[None][For][If][If][None][If": 1003,
      "][5][6,7][7][8,9": 1004,
      "][2][0][0][0]": 1005,
      "][][7]": 1006,
      "[None][While][If][Return": 1007,
      "][None][Try][None][None]": 1008,
      "][][6,7][][]": 1009,
      "][10,11][9": 1010,
      "][2][1][1][1][1": 1011,
      "][None][For][None][For": 1012,
      "[Try][If][Return": 1013,
      ",42": 1014,
      "][7][][8,9": 1015,
      "[1,2][][3][4][5,6": 1016,
      "[1,2][3][3][4": 1017,
      "][21,22][23,24": 1018,
      "][3][0][0][0": 1019,
      "[6][0": 1020,
      "][1][0][2][1]": 1021,
      "][15,16][17": 1022,
      "[11": 1023,
      "[1][0][3]": 1024,
      "][13,14][15": 1025,
      "[1][2][3,4][5,6": 1026,
      "[1,2][3][][4,5][6": 1027,
      "[Try][None][None][For": 1028,
      "[1][2,3][4,3": 1029,
      "][2][2][2]": 1030,
      "[1,2][3][4,3][5,6][3": 1031,
      "][0][0][0][0][0][0][0][0][0][0][0][0][0][0][0][0": 1032,
      "][37,38": 1033,
      "][If][None][Return][None]": 1034,
      "[1][1][0][2][1][1][1]": 1035,
      "[1,2][2][3,4][5][5][]": 1036,
      "][If][None][If][For": 1037,
      "][1][0][0][0][0][0]": 1038,
      "][3][1][1": 1039,
      "][22][23,24": 1040,
      "][][6,7][][8,9": 1041,
      "[None][For][For][Return][None]": 1042,
      "][11][12": 1043,
      "[1,2][2][3][4,5][3][]": 1044,
      "][1][0][0][1][1]": 1045,
      "[If][For][Return": 1046,
      "][14][]": 1047,
      "][48": 1048,
      "][1][0][1][0][0][0": 1049,
      "][2][4]": 1050,
      "][If][For][Return": 1051,
      "][8][9,10][10][]": 1052,
      "][2][1][2][0": 1053,
      "][None][If][Return][None]": 1054,
      "[None][None][None]": 1055,
      "][7,8][][9": 1056,
      "][If][If][For": 1057,
      "[1,2][][3,4][5][][]": 1058,
      "[1,2][2][3,4][5,4": 1059,
      "[If][None][None][None][For": 1060,
      "][7,2": 1061,
      "][36,37": 1062,
      "][1][0][0][1][0]": 1063,
      "][If][None][If][None][None][None]": 1064,
      "[1,2][][3,4][4][5,6][6][7,8": 1065,
      "][5][0]": 1066,
      "][][5][]": 1067,
      "][None][Return][None][None]": 1068,
      "[2][2][0": 1069,
      "[If][None][If][None][If][None]": 1070,
      "][3][2][0": 1071,
      "][5,6][7,1": 1072,
      "[1][2][3][4,1": 1073,
      "[If][None][For][None]": 1074,
      "][6][0][0": 1075,
      "[0][0][2][0]": 1076,
      ",41": 1077,
      "][1][0][2][0]": 1078,
      "][1][0][3][0": 1079,
      "][17,18][19": 1080,
      "[None][For][If][None][Return]": 1081,
      "[1][0][1][1]": 1082,
      "][10][11,12][13": 1083,
      "][5][8,9": 1084,
      "][5][2]": 1085,
      "[If][Return][None][For][None][Return]": 1086,
      "[1,2][3,4][5][4": 1087,
      "[15": 1088,
      "][1][0][1][3": 1089,
      "[1][1][0][1]": 1090,
      "][7,8][3": 1091,
      "][None][If][None][None][Return]": 1092,
      "[If][None][If][None][If][Return": 1093,
      "[1,2][3][4,5][][3][]": 1094,
      "][3][1][2": 1095,
      "[0][1][2][0]": 1096,
      "][None][If][If][If][None][None": 1097,
      "][7][7][8,9": 1098,
      ",7][7]": 1099,
      "][1][1][0][1][1": 1100,
      "][16]": 1101,
      "[1][2][2]": 1102,
      "][13][]": 1103,
      "][22,23][24": 1104,
      "][2][1][1][1]": 1105,
      "][15]": 1106,
      "][1][1][1][1][0]": 1107,
      "[1,2][3,4][][2][2]": 1108,
      "][][7,8][][]": 1109,
      "[1,2][3][][4,5][][]": 1110,
      "[1,2][3,4][5,4": 1111,
      "[1,2][][3,4][5][6,7": 1112,
      "][8][9,10][11,12": 1113,
      "][If][None][Return][Return]": 1114,
      "[1,2][3,4][][4][]": 1115,
      "][None][None][For][None][None]": 1116,
      "][3][8,9": 1117,
      "[If][Try][None][None": 1118,
      "[If][Return][Try][None][Return": 1119,
      "[1,2][][3,4][4": 1120,
      "[0][0][0][1][0]": 1121,
      "[If][If][If][Return][Return": 1122,
      "][None][None][For][For": 1123,
      "[2][2]": 1124,
      "[2][2][0]": 1125,
      "][][7,3": 1126,
      "][12,13][14": 1127,
      "][5][6,7][7][]": 1128,
      "][1][2][1][1]": 1129,
      "][None][None][For][None][Return]": 1130,
      "][1][0][1][1][0][0": 1131,
      "][If][None][None][None][None": 1132,
      "[If][None][None][For][If][Return": 1133,
      "[1][2,3][4,1][][5,1": 1134,
      "[1][0][1][1": 1135,
      "][If][None][None][None][For": 1136,
      "[1][0]": 1137,
      "[2][1][2]": 1138,
      "][4][3]": 1139,
      "][1][0][2][2": 1140,
      "][3][0][1]": 1141,
      "[1,2][][3,4][][5,6][][7,8][][9,10][][11,12][][13,14": 1142,
      "][2][1][1][0]": 1143,
      "[If][If][Return][Return][Return]": 1144,
      "[1][3]": 1145,
      "][16][17": 1146,
      "][None][If][None][For": 1147,
      "][2][0][1][1": 1148,
      "[1,2][3][3][4,5][6][6][]": 1149,
      "][6][6]": 1150,
      "][1][0][1][0][1][1]": 1151,
      "][21,22][23": 1152,
      "[1,2][3,4][5][5": 1153,
      "][If][None][Return][For": 1154,
      "[1][1][4": 1155,
      "][49": 1156,
      ",44": 1157,
      "[1,2][2][3,4][5,2": 1158,
      "][50": 1159,
      "[If][Return][If][None][None]": 1160,
      "[1][0][1][0][0]": 1161,
      "][None][None][None][Return]": 1162,
      "[If][If][Return][Return]": 1163,
      "][6][7][8,9": 1164,
      "][If][If][If][None][If": 1165,
      "][If][While": 1166,
      "[None][For][If][None][None][For": 1167,
      "][1][2][1][1": 1168,
      "[3][1][1]": 1169,
      "][1][0][2][0][0": 1170,
      "[2][1][0][0": 1171,
      "][9][10,11][11][12,13": 1172,
      "][5][6,7][8,5": 1173,
      "][If][If][None][For": 1174,
      "[1,2][3,4][5,6][7][7": 1175,
      "[If][Try][If][None][None": 1176,
      "][7,8][5": 1177,
      "[1][0][0][0]": 1178,
      "[1][2,3][4,5][][6,7": 1179,
      "][1][7]": 1180,
      "][4][2]": 1181,
      "[None][For][None][For][None]": 1182,
      "][If][If][None][None][Return]": 1183,
      "[0][3][0]": 1184,
      "[1,2][][3,4][5,6][7": 1185,
      "[1][0][3": 1186,
      "[3][0][0]": 1187,
      "][16][]": 1188,
      "][None][None][If][None][None]": 1189,
      "[1][1][1][1][1]": 1190,
      "[If][None][If][None][Try][None][None": 1191,
      "][18][18": 1192,
      "[1,2][3][][4,2": 1193,
      "][38,39": 1194,
      "[1][2,3][4,5][][][1]": 1195,
      "][7,5": 1196,
      "][8,6": 1197,
      "[4][0][0": 1198,
      "][7][8,7": 1199,
      "][51": 1200,
      ",43": 1201,
      "[1][2][3][]": 1202,
      "][7][1]": 1203,
      "[1][0][1][0][0": 1204,
      "][17][17": 1205,
      "][2][0][1][1]": 1206,
      "[1][3][0": 1207,
      "][6][7][]": 1208,
      "][25,26][27,28": 1209,
      "[None][For][If][Return][None][If][None]": 1210,
      "[2][0][2]": 1211,
      "[If][Return][If][Return][If][Return][If][Return][Return]": 1212,
      "[1][2][3,4][5,2": 1213,
      "[12": 1214,
      "][9][0": 1215,
      "][][11,12][][]": 1216,
      "[0][0][2": 1217,
      "][If][None][For][None]": 1218,
      "][None][None][If][None]": 1219,
      "][None][If][For][None][None": 1220,
      "][39,40": 1221,
      "][][19": 1222,
      "][0][0][0][0][0][0]": 1223,
      "[0][0][1][2": 1224,
      "][10,5": 1225,
      "[0][0][1][0][1]": 1226,
      "[0][6": 1227,
      "][If][If][If][Return][Return": 1228,
      "[1,2][][3,4][5][6,7][8,9": 1229,
      "[3][1]": 1230,
      "][Try][None][None][None][None]": 1231,
      "][12][13,14][15": 1232,
      "[0][0][4]": 1233,
      "[1,2][3,4][5,6][2][2": 1234,
      "][][3][3]": 1235,
      "[1][1][0][0]": 1236,
      "][1][14": 1237,
      "[1,2][3][4,5][6,7][3][3": 1238,
      "][If][None][None][If][None]": 1239,
      "[1][2,3][4,5][6,7][8": 1240,
      "[If][If][None]": 1241,
      "[0][0][0][1][1]": 1242,
      "[1,2][][3,4][][5,6][][7,8][][9,10][][]": 1243,
      "[14]": 1244,
      "[16": 1245,
      "[1][1][2][0": 1246,
      "][2][0][1][0]": 1247,
      "[0][0][4": 1248,
      "][7,8][][": 1249,
      "[1,2][][3,4][][5,6][6][7,8": 1250,
      "][21][21": 1251,
      "][13][14": 1252,
      "[7][0": 1253,
      "[1,2][][3,4][4][5,6][6][]": 1254,
      "][If][If][Return][Return]": 1255,
      "][1][13": 1256,
      "][2][0][1][2": 1257,
      "[2][2": 1258,
      "][If][None][If][None][If][None]": 1259,
      "[If][Return][None][While": 1260,
      "][9,3": 1261,
      "][7,8][][9,10": 1262,
      "][1][6][0": 1263,
      "][13][14,15][16,17": 1264,
      "[1,2][][3,4][5,2][][]": 1265,
      "][None][For][If][None]": 1266,
      "][12][12": 1267,
      "][If][None][If][None][If][None][If][None][If": 1268,
      "[If][None][Return": 1269,
      "][If][None][None][If][None][None]": 1270,
      "][If][If][If][If][None][None": 1271,
      "[0][3][1]": 1272,
      "[1,2][2][3][4,5][6,7": 1273,
      "][][20": 1274,
      "][6][9,10": 1275,
      "[1][0][0][0][0]": 1276,
      "[0][1][4]": 1277,
      "[1][2,3][4,5][][1][6": 1278,
      "][40,41": 1279,
      "[If][None][If][None][None][None]": 1280,
      "][1][1][0][2]": 1281,
      "[0][1][1][0][0]": 1282,
      "][If][None][If][None][If][None][None]": 1283,
      "[1,2][3,2][4,5][2": 1284,
      "][1][1][0][0][1]": 1285,
      "[1,2][2][3][4][5,6": 1286,
      "[If][Return][Try][None][None": 1287,
      "[0][1][1][0][0": 1288,
      "][7,8][9,10][8": 1289,
      "][1][0][0][2]": 1290,
      "[1,2][3,4][5,6][2": 1291,
      "][41,42": 1292,
      "][3][1][1]": 1293,
      ",46": 1294,
      "][1][1][1][1][1][1][1][1": 1295,
      "][][7,8][9,10": 1296,
      "][3][0][0]": 1297,
      "][If][If][If][None][Return": 1298,
      ",8][8]": 1299,
      "[1][2][3,4][][5,6": 1300,
      "][11][12,13][14": 1301,
      "][7][7]": 1302,
      "][Try][Return][Return]": 1303,
      "][53": 1304,
      "][1][0][0][1][1": 1305,
      "][][8]": 1306,
      "][1][2][0][0][0": 1307,
      "][][5][5]": 1308,
      "][1][0][1][0][1][0]": 1309,
      "[1][2,3][4,1][5][1": 1310,
      "[0][7": 1311,
      "][52": 1312,
      "][12,13][14,15": 1313,
      "][2][0][0][1]": 1314,
      "[0][1][1][1][0]": 1315,
      "][None][If][If][Return": 1316,
      "[None][For][If][None][If": 1317,
      "][25,26][27": 1318,
      "[If][None][If][If][If][None][None": 1319,
      "][18][19": 1320,
      "[If][None][None][For][None]": 1321,
      "][][23,24": 1322,
      "[If][If][None][None][None]": 1323,
      "][15,16][17,18": 1324,
      "[2][4": 1325,
      "[1][2][3,4][2][]": 1326,
      "[1,2][3,4][5,6][][][][]": 1327,
      "][6,1][1]": 1328,
      "][][6][7,8": 1329,
      "[1][2][3,1][2]": 1330,
      "[1][2,3][4,5][][6,1": 1331,
      "][3][2": 1332,
      "][1][0][5": 1333,
      "][23][24,25": 1334,
      "[If][Return][None][For][If][Return": 1335,
      "[1][2,3][1][4,5][3][]": 1336,
      "[1][2,3][4,5][][5][6,7": 1337,
      "][If][Try][If][None][None": 1338,
      "][9,4": 1339,
      "][6,7][8,9][10": 1340,
      "][26,27][28,29": 1341,
      "][][18,19": 1342,
      "[1][2][0][0": 1343,
      "[1][2,3][4,1][5,6][7,8": 1344,
      "[None][For][If][Return][None][If][None][None]": 1345,
      "][None][If][Return][None][None]": 1346,
      "][][20,21": 1347,
      "[1][0][2][0": 1348,
      "[0][0][0][0][0][0]": 1349,
      "][If][If][Return][If][Return": 1350,
      "[1][5": 1351,
      "][3][1][0]": 1352,
      "][0][0][0][0][0][0][0": 1353,
      "][2][1][1][0][0": 1354,
      "[0][1][0][0][1]": 1355,
      "[None][For][Try][None][None]": 1356,
      "][6][6][]": 1357,
      "[If][Return][If][None][If][Return": 1358,
      "[3][1][1": 1359,
      "[None][For][For][None]": 1360,
      "[1][1][0][0][0": 1361,
      "][5,3][3]": 1362,
      ",45": 1363,
      "[None][For][If][Return][If][None]": 1364,
      "][3][1][0][0": 1365,
      "][][][8,9": 1366,
      "][54": 1367,
      "][7][][]": 1368,
      "][][9]": 1369,
      "[1][0][0][1]": 1370,
      "[1,2][2][3,4][][5,6][][]": 1371,
      "][12][13,14][14][15,16][16][17,18": 1372,
      "[0][0][0][0][0][0][0]": 1373,
      "[1][2,3][4,1][][5,1][1]": 1374,
      "][5][6][]": 1375,
      "][Try][Return][None][None]": 1376,
      "][1][1][0][0][0]": 1377,
      "[1][1][0][1][1]": 1378,
      "[0][0][1][1][0]": 1379,
      "][10,11][3": 1380,
      "][If][None][If][None][If][None][None": 1381,
      "][If]": 1382,
      "[0][3]": 1383,
      "][None][Try][Return": 1384,
      "[13": 1385,
      "][7,3": 1386,
      "][10][0": 1387,
      "][][8][]": 1388,
      "][][10,11][12": 1389,
      "][13][14,15][16": 1390,
      "[1][2][3,4][1": 1391,
      "[1][2][3][1]": 1392,
      "][26][27,28": 1393,
      "][2][1][0][1]": 1394,
      "[2][2][1]": 1395,
      "][1][10,11": 1396,
      "[If][None][None][If][None][None": 1397,
      "[2][1][3": 1398,
      "[Try][None]": 1399,
      "][15][]": 1400,
      "[1][0][2][0]": 1401,
      "][10][11,12][13,14": 1402,
      "[1,2][3][][4,5][6,3": 1403,
      "[1,2,3][4": 1404,
      "[If][If][Return][Return": 1405,
      "][][15,16][][17,18": 1406,
      "[1,2][][3][4,5][6,3][][3]": 1407,
      "][][21,22": 1408,
      "][1][1][1][3": 1409,
      "][17]": 1410,
      "[None][While][Try": 1411,
      "[If][Return][If][Return][If][Return][None]": 1412,
      "[0][4][0": 1413,
      "][1][0][1][2][0": 1414,
      "][9,8": 1415,
      "][If][Return][If][Return][None]": 1416,
      "][18]": 1417,
      "][1][1][1][2]": 1418,
      "][1][2][1][0]": 1419,
      "][2][5,6": 1420,
      ",47": 1421,
      "[1][1][0][1][0]": 1422,
      "[1][3][0]": 1423,
      "[0][0]": 1424,
      "[1,2][3][3][4][]": 1425,
      "[2][1][1][0": 1426,
      "[1][2][3,4][4][5,6": 1427,
      "][1][4][1]": 1428,
      "[1][1][1][1][0]": 1429,
      "[1][1][4]": 1430,
      "[If][None][If][None][If][None][If][None][If][None][Return]": 1431,
      "[None][If][None][Return]": 1432,
      "][None][If][None][If][None][Return]": 1433,
      "[1][1][1][0][0": 1434,
      "][55": 1435,
      "][None][If][None][If][None][None": 1436,
      "][][9,10][11": 1437,
      "[If][None][If][None][For": 1438,
      "][If][If][None][None][None][Return]": 1439,
      "[If][None][If][None][If][None][None": 1440,
      "[1][6": 1441,
      "][6,7][4": 1442,
      "[1][0][1][0][1]": 1443,
      "[1,2][3,2][][1]": 1444,
      "[1][2,3][4,5][][6][6][1]": 1445,
      "[1,2][3][4,5][6,7][3][8,9": 1446,
      "][43,44": 1447,
      "][1][1][2][2": 1448,
      "[1,2][2][3,4][][5": 1449,
      "[If][Return][If][Return][If][Return][If][Return][If][Return][If][Return][If][Return": 1450,
      "[0][1][2][1]": 1451,
      "][8][1]": 1452,
      "[1][2][3,1][4,1": 1453,
      "][5][3": 1454,
      "][2][1][1][2]": 1455,
      "][If][If][None][Return][Return]": 1456,
      "[If][Return][If][Return]": 1457,
      "[If][Return][If][None][None][For": 1458,
      "[1][2][3][2]": 1459,
      "[1,2][3][4,5][][3][6,7][3][8,9": 1460,
      "][1][8]": 1461,
      "][2][7": 1462,
      "[0][0][2][1]": 1463,
      "[1][2,3][4][5": 1464,
      "][Try][None][None][None][None": 1465,
      "][1][1][1][1][1][1]": 1466,
      "[If][Return][If][None]": 1467,
      "][None][If][Return]": 1468,
      "[None][For][If][None][None][None]": 1469,
      "[1,2][3,4][][4][5,6": 1470,
      "][57": 1471,
      "][2][1][0][2": 1472,
      "][][][3]": 1473,
      "][None][If][None][Return": 1474,
      "[1,2][][3,4][5][6,5": 1475,
      "][3][10": 1476,
      "][None][If][If][None][None]": 1477,
      "][56": 1478,
      "[If][None][If][If][Return": 1479,
      "][][21": 1480,
      "][6][7,6": 1481,
      "][8,9][10,7": 1482,
      "][None][If][If][None][None][None]": 1483,
      "[None][None][None": 1484,
      "][6][5]": 1485,
      "][6,4][4]": 1486,
      "[If][Return][If][None][None][Return]": 1487,
      "[0][0][1][0": 1488,
      "][][9][]": 1489,
      "[1,2][][3,4][5][5][6,7": 1490,
      "][15][16": 1491,
      "[1,2][3][][4,5][3][]": 1492,
      "][2][1][4": 1493,
      "[1,2][][3][4][]": 1494,
      ",9][9]": 1495,
      "][1][0][0][0][0][1]": 1496,
      "][42,43": 1497,
      "[1][2,3][4][][5,1][4]": 1498,
      "][If][None][If][None][Return": 1499,
      "][None][Try][None][None][None]": 1500,
      "[If][If][Return][None][Return]": 1501,
      "][1][15": 1502,
      ",48": 1503,
      "][9,1": 1504,
      "[3][3": 1505,
      "][None][If][None][If][None][If][None][If][None][If][None][If][None][If][None][If": 1506,
      "][For][If][None]": 1507,
      "][7,4][8,9": 1508,
      "[17": 1509,
      "][1][1][0][0][0][0": 1510,
      "][6][7,8][9,6": 1511,
      "[None][For][Try][Return][None][None]": 1512,
      "][58": 1513,
      "][7][3": 1514,
      "][9,10][7": 1515,
      "][None][Try][If][None][None": 1516,
      "][If][If][Return][Return][Return]": 1517,
      "[1][2][3,4][5,1": 1518,
      "[If][Try][None][None][None]": 1519,
      "][1][1][0][1][1][0": 1520,
      "[1][2,3][4,1][][5,2": 1521,
      "[1][2,3][4,5][6,7][5": 1522,
      "[2][1][0": 1523,
      "][11,6": 1524,
      "[1][0][1][1][1]": 1525,
      "][26,27][28": 1526,
      "][0][0][0][0][0][0][0][0]": 1527,
      "][6][7,1": 1528,
      ",49": 1529,
      "][9,7": 1530,
      "[1][2,3][4][4][]": 1531,
      "][6,7][8,9][10,11": 1532,
      "[1,2][3][3][4,5][6][6][7,8": 1533,
      "][2][1][0][0][0": 1534,
      "][4][3": 1535,
      "[0][1][1][1][1]": 1536,
      "[1][2,3][1][4,5][5][]": 1537,
      "[1][2,3][4][][5,6][4][1]": 1538,
      "][1][7,8": 1539,
      "[If][If][If][None][If][None][If": 1540,
      "][If][Return][For": 1541,
      "][8][8]": 1542,
      "][10,9": 1543,
      "][3][0][3][0": 1544,
      "[1][2][3,4][5,6][7,8": 1545,
      "[1,2][3][4,5][][6": 1546,
      "][11][12,13][14,15": 1547,
      "[None][If][None][None]": 1548,
      "][][31": 1549,
      "][7][0][0": 1550,
      "][8,7": 1551,
      "][If][If][For][None][None": 1552,
      "[0][0][1][1][0": 1553,
      "][Try][None][Return][Return]": 1554,
      "[0][8": 1555,
      "][If][If][If][None][If][None][None": 1556,
      "[1,2][3][3][4,5][6,7": 1557,
      "[3][0][1]": 1558,
      "[1][0][0][0][0][0": 1559,
      "][][][][": 1560,
      "[None][For][If][If][None][None]": 1561,
      "[If][None][None][If][Return][Return]": 1562,
      "][][4][4]": 1563,
      "[None][For][For][Return][If][None]": 1564,
      "][5][6][7,8": 1565,
      "][6][3]": 1566,
      "][If][Return][If][Return]": 1567,
      "[3][1][2": 1568,
      "][1][3][2]": 1569,
      "[If][None][If][None][If][None][If][None][None]": 1570,
      "[1][2][3,4][4][1]": 1571,
      "[0][1][1][2]": 1572,
      "][22][22": 1573,
      "[Try][None][None][If][None][Return]": 1574,
      "[1,2][][3][4,5][6": 1575,
      "][25][25": 1576,
      "[1,2][][3,4][5,6][][": 1577,
      "[1,2][3,4][][][2]": 1578,
      "[15]": 1579,
      "[18": 1580,
      "][11,12][10": 1581,
      "][None][None][For][If][Return": 1582,
      "][19][20": 1583,
      "][1][4][0][0": 1584,
      "[1,2][3][4,5][6": 1585,
      "[1,2][2][3,4][4][5,6][6][7,8][8][9,10][10][]": 1586,
      "[1,2][][3,4][][5][6,7": 1587,
      "][29,30][31,32": 1588,
      "[If][Return][Try][Return][Return]": 1589,
      "[If][None][While": 1590,
      "][None][For][If][None][None]": 1591,
      "[Try][For": 1592,
      "][If][None][If][If][None][If": 1593,
      "[None][For][If][Return][If][None][None]": 1594,
      "][19]": 1595,
      "[Try][None][None][Try][None][None": 1596,
      "][If][If][None][If][None][None]": 1597,
      "[1,2][][3,4][5,6][][][]": 1598,
      "][2][8": 1599,
      "[If][If][None][Return": 1600,
      "[2][1][1][1]": 1601,
      "[5][0][0": 1602,
      "][][11,12][13": 1603,
      "[1,2][2][3,4][4][5][]": 1604,
      "][1][0][1][3]": 1605,
      "][5][4]": 1606,
      "][2][0][1][0][0": 1607,
      "[2][0][0][0][0": 1608,
      "][12,7": 1609,
      "[1,2][][3,4][][5,6][6][]": 1610,
      "[0][1][0][0][0][0": 1611,
      ",50": 1612,
      "[2][2][2": 1613,
      "][1][0][1][1][1][1]": 1614,
      "[1,2][3][][4][]": 1615,
      "][19,20][21": 1616,
      "[1][2,3][1][4][5,6][4][]": 1617,
      "[1,2][][3,4][][5,6][7,8][9,10": 1618,
      "[None][While][None]": 1619,
      "][][30": 1620,
      "[1][2,3][4,1][][5,2][2]": 1621,
      "[1][0][0][0][1]": 1622,
      "[1,2][3][4][5,4": 1623,
      "][2][1][0][1][0": 1624,
      "][3][1][1][0": 1625,
      "[0][1][3][0": 1626,
      "[0][1][1][0][1]": 1627,
      "][2][0][2][0]": 1628,
      "[1,2][2][3,4][5][6,7": 1629,
      "[If][None][None][If][None][If": 1630,
      "[1,2][][3,4][4][5,6][][]": 1631,
      "][4][5,1": 1632,
      "[1][2,3][4,5][6,7][1][1": 1633,
      "][9,6": 1634,
      "][None][If][None][If][None][If][None][None]": 1635,
      "][Try][Return][None]": 1636,
      "][None][For][None][None": 1637,
      "[1,2][2][3,4][5,6][7": 1638,
      "][17][18": 1639,
      "[1,2][3,4][5,6][][7": 1640,
      "][If][If][If][None][None][None][None": 1641,
      "[1,2][][3,4][5,6][][7": 1642,
      "[If][Return][If][None][If][None][Return]": 1643,
      "[1,2][3,2][][4,5": 1644,
      "][6][4": 1645,
      "[0][1][0][1][2]": 1646,
      "[1,2][3,4][][2][]": 1647,
      "][6][0]": 1648,
      "][16][16": 1649,
      "][1][1][1][1][0][0": 1650,
      "][][8][9,10": 1651,
      "][None][Return][For][None]": 1652,
      "][None][If][None][None][None][None]": 1653,
      "[If][Return][None][For][If][Return][None]": 1654,
      "][][24": 1655,
      "[0][2][1][1": 1656,
      "[3][0][0][0": 1657,
      "[1,2,3][][][]": 1658,
      "[1,2][3,4][5,6][][7,8": 1659,
      "[1,2][3,2][4": 1660,
      "[If][For][Return][None]": 1661,
      "][1][7][0": 1662,
      "][1][1][1][0][1][0": 1663,
      "][For][None][Return": 1664,
      "][1][0][2][1][1": 1665,
      "][1][2][3": 1666,
      "][3][0][2]": 1667,
      "][20][20": 1668,
      "[1,2][3][][4,5][6,7": 1669,
      "[1][2,3][4,1][5,6][1][7": 1670,
      "][2][4][0": 1671,
      "][1][1][2][1]": 1672,
      "][59": 1673,
      "[If][None][If][None][Try": 1674,
      "][][8,9][10": 1675,
      "[None][For][None][Return][For][None]": 1676,
      "][7,6][8,9": 1677,
      "][1][16": 1678,
      "][44,45": 1679,
      "][If][If][Return][None]": 1680,
      "[1][1][2][0]": 1681,
      "[1][1][1][0][1]": 1682,
      "[1][1][0][0][1]": 1683,
      "][2][0][3": 1684,
      "[1][2,3][4][5,6][7,8": 1685,
      "[0][0][0][2]": 1686,
      "][12][13,14][15,16": 1687,
      "][][10]": 1688,
      "][If][Return][If][Return][If][Return][Return]": 1689,
      "[1,2][2][3,4][4][5,6][][]": 1690,
      "][16,17][18": 1691,
      "][7][10,11": 1692,
      "[1,2,3][4,5": 1693,
      "][4][0][0][0": 1694,
      "[None][If][Return": 1695,
      "[4][1][0]": 1696,
      "[1,2][2][3][2]": 1697,
      "[1][0][1][2": 1698,
      "[0][0][0][1][2]": 1699,
      "[1,2][3][][4][5,6": 1700,
      "][][10,11][12,13": 1701,
      "][9,5": 1702,
      "[1,2][3][4,5][6][3": 1703,
      "[If][None][None][For][If][Return][None]": 1704,
      "[1,2,3,4": 1705,
      "][6][][]": 1706,
      "][6][2]": 1707,
      ",51": 1708,
      "][None][If][None][If][None][If][None]": 1709,
      "[0][1][0][2]": 1710,
      "][46,47": 1711,
      ",52": 1712,
      "][1][1][0][1][0][0": 1713,
      "[1][0][4]": 1714,
      "[1][3][1]": 1715,
      "][Return][If][Return][Return]": 1716,
      "][None][For][If][If": 1717,
      "[Try][While": 1718,
      "[1][2,3][4,1][5,6][7,1": 1719,
      "[1,2][3,4][5][5][5][]": 1720,
      "[1][2][3,4][1][5,6": 1721,
      "][1][1][2][0]": 1722,
      "][1][1][3][0": 1723,
      "][1][2][2][0": 1724,
      "[If][None][None][None][Return]": 1725,
      "[If][None][None][If][None][None][Return]": 1726,
      "[1][0][0][1][1]": 1727,
      "][45,46": 1728,
      "][2][0][0][0][0][0": 1729,
      "][1][1][1][0][1]": 1730,
      "][If][None][None][None][Return]": 1731,
      "[1][2,3][1][4][3]": 1732,
      "[1,2][3,4][][5][5][]": 1733,
      "[If][If][None][None][None][Return]": 1734,
      "[If][Return][For][If][Return][Return]": 1735,
      "[1][2,3][4][][5,6][7,4": 1736,
      "][10,11][][12,13": 1737,
      "[If][None][If][None][If][Return][Return]": 1738,
      "][If][None][None][For][None]": 1739,
      "][][10,11][][12,13": 1740,
      "][1][12,13": 1741,
      "][62": 1742,
      "][1][0][0][0][1][0]": 1743,
      "][1][1][5": 1744,
      "][1][0][1][4": 1745,
      "][60": 1746,
      "[1,2][][3][2]": 1747,
      "[1,2][3][4,5][6,7][8": 1748,
      "][If][If][None][If][None]": 1749,
      "][7][8,9][10,7": 1750,
      "[1][2,3][4,5][6][5": 1751,
      "[Try][None][None][None][Return]": 1752,
      "[None][While][None][None]": 1753,
      "][If][If][Return][None][None]": 1754,
      "[0][2][1][0]": 1755,
      "][7,8][9,6": 1756,
      "[1][2,3][4,5][][1][6,1][1]": 1757,
      "[None][For][If][None][If][None]": 1758,
      "[0][0][1][1][1]": 1759,
      ",10][10]": 1760,
      "[1,2][2][3,4][4][5": 1761,
      "[1][0][1][0][1][0": 1762,
      "[1][2,3][1][4][5": 1763,
      "[1,2][3,4][5,6][][2": 1764,
      "[1][2,3][1][4,5][][]": 1765,
      "][2][0][2][0][2][0][2][0": 1766,
      "[None][For][None][For][None][Return]": 1767,
      "[1][2][3][4,1][3]": 1768,
      "][][27,28": 1769,
      "][4][7,8": 1770,
      "][9][1]": 1771,
      "[0][0][3][0": 1772,
      "[1,2][][3][4,5][6,7][8,9": 1773,
      "][][22": 1774,
      "][][23": 1775,
      "[0][1][5": 1776,
      "[4][1][1]": 1777,
      "][9][9]": 1778,
      "[2][1][1][1][1": 1779,
      "[0][0][1][2]": 1780,
      "[1][2,3][1][4][]": 1781,
      "][1][2][0][2]": 1782,
      "][13][14,15][15][16,17": 1783,
      "][2][5]": 1784,
      "[None][For][None][If][None][Return]": 1785,
      "][2][0][2][1]": 1786,
      "[2][0]": 1787,
      "][7,8][][][]": 1788,
      "][If][None][If][If][If][None][None": 1789,
      "[If][None][If][None][If][None][None][For": 1790,
      "[2][0][1][0]": 1791,
      "[If][None][None][For][For": 1792,
      "[0][0][0][0][2]": 1793,
      "[If][None][For][If][Return": 1794,
      "[1,2][][3][4][3]": 1795,
      "[16]": 1796,
      "[1][1][5": 1797,
      "][9,10][5": 1798,
      "][2][2][2][2": 1799,
      "[0][1][0][0][0][0]": 1800,
      "[0][3][0][0": 1801,
      "][2][1][0][1][1": 1802,
      "][7][][8": 1803,
      "[If][None][None][For][None][None]": 1804,
      "][6,3][3]": 1805,
      "[0][0][0][0][0][0][1]": 1806,
      "][1][0][0][1][1][0": 1807,
      "[2][1][1][0]": 1808,
      "][None][For][If][Return][None]": 1809,
      "[1,2][2][3,4][2][]": 1810,
      "][2][0][0][2]": 1811,
      "[1,2][3,4][][4][2]": 1812,
      "][][24,25": 1813,
      "][Return][If][Return": 1814,
      "[None][If][Return][Return]": 1815,
      "[1,2][2][3,4][5][6,7][8,9": 1816,
      "[8][0": 1817,
      "[1][0][0][1][0]": 1818,
      "][If][None][None][If][For": 1819,
      "][1][2][0][0]": 1820,
      "[1][2][3][4][5,6": 1821,
      "][29,30][31": 1822,
      "][If][None][If][Return][None]": 1823,
      "[1][2,3][4,5][][6,7][8,9": 1824,
      "][If][If][Return][None][None": 1825,
      "][27][28,29": 1826,
      "0]": 1827,
      "][21]": 1828,
      "][2][0][0][0][0]": 1829,
      "[0][0][2][0][0]": 1830,
      "[Try][None][Return][For": 1831,
      "][][33": 1832,
      "[1,2][2][3,4][5][6,5": 1833,
      "][7,8][9,10][11": 1834,
      "[None][For][None][Return][For][None][None]": 1835,
      "][3][1][3": 1836,
      "[1][0][1][1][0]": 1837,
      "][8][9][]": 1838,
      "][1][11,12": 1839,
      ",53": 1840,
      "][10,1": 1841,
      "[1][0][1][0": 1842,
      "[0][0][0][0][0][0][0][0][0]": 1843,
      "[0][2][0][0]": 1844,
      "][10][11,10": 1845,
      "][Return][Return][Return]": 1846,
      "][2][0][2][2": 1847,
      "[2][1][3]": 1848,
      "][5][6,7][5][]": 1849,
      "[1,2][3][3][4,5][6,7][8,9": 1850,
      "][2][1][1][1][1]": 1851,
      "[If][None][If][Return][None][If][None][None]": 1852,
      "[1][2][3][4,5][6,3": 1853,
      "[1][4]": 1854,
      "][None][If][If][If][None][If": 1855,
      "][][6][6]": 1856,
      "][18][]": 1857,
      "][24][25,26": 1858,
      "][2][3][0][0": 1859,
      "[If][None][For][None][Return]": 1860,
      "][][10][]": 1861,
      "][14][15,16][17": 1862,
      "][1][9,10": 1863,
      "[1][4][0": 1864,
      "[0][0][5": 1865,
      "[If][None][Try][None][None][Return]": 1866,
      "][][25": 1867,
      "][If][Try][None][None]": 1868,
      "][If][If][Try": 1869,
      "][9][0][0": 1870,
      "][10,6": 1871,
      "[1][0][1][1][0": 1872,
      "][10,11][][12": 1873,
      "][12][13,14][14][15,16][16][17,18][18][19,20": 1874,
      "][][10][11,12": 1875,
      "][1][1][1][0][1][1": 1876,
      "][][][11,12": 1877,
      "][1][2][1][2]": 1878,
      "[1][0][4": 1879,
      "[If][None][If][None][If][None][If][None]": 1880,
      "[1,2][][3][4,5][3": 1881,
      "][9,10][11,12][10": 1882,
      "][48,49": 1883,
      "][][15,16][][17,18][][19,20": 1884,
      "][1][0][4][0": 1885,
      "][8,4": 1886,
      "[1,2][2][3][4][]": 1887,
      "][10,4": 1888,
      "][11][0": 1889,
      "][None][For][If][If][None][None": 1890,
      "][13,14][12": 1891,
      "][If][If][None][Return][None]": 1892,
      "][If][If][None][If][None][If][None][None": 1893,
      "][None][If][For][Return": 1894,
      "][2][0][1][1][0": 1895,
      "][0][0][0][2]": 1896,
      "][20][21": 1897,
      "[1,2][2][3][4,5][3": 1898,
      "[0][4][0]": 1899,
      "][Return][If][None]": 1900,
      "[None][None][For][None][Return]": 1901,
      "[2][2][2]": 1902,
      "][1][2][3]": 1903,
      "][If][If][None][None][If][If][None][None": 1904,
      "][If][For][For": 1905,
      "[0][0][0][0][0][0][0][0][0][0][0][0][0": 1906,
      "][][25,26": 1907,
      "][64": 1908,
      "][10,11][][": 1909,
      "[None][For][If][Return][None][None][None]": 1910,
      "[0][0][0][0][0][0][0": 1911,
      "][None][If][While": 1912,
      "][8][3]": 1913,
      "[1][2,3][4,1][][3]": 1914,
      "][17][]": 1915,
      "][47,48": 1916,
      "][5,2": 1917,
      "][61": 1918,
      ",55": 1919,
      "][2][0][4": 1920,
      "][If][For][None][None]": 1921,
      "][5][6,7][][]": 1922,
      "][2][1][0][2]": 1923,
      "][15][16,17][18": 1924,
      "][17][18,19][20,21": 1925,
      "[19": 1926,
      "[1][1][2][1]": 1927,
      "[1][1][0][0][0]": 1928,
      "[None][For][None][If][For": 1929,
      "][If][If][If][None][None]": 1930,
      "][2][0][3][0": 1931,
      "][0][0][0][0][1]": 1932,
      "][12,11": 1933,
      ",11][11]": 1934,
      "][10,11][5": 1935,
      "][If][If][If][None][None][None][None]": 1936,
      "][10,11][12,13][14": 1937,
      "][10,11][12,9": 1938,
      "][2][9": 1939,
      "][2][1][2][1]": 1940,
      "][6][6][7,8": 1941,
      "][1][0][0][3": 1942,
      "[If][Return][None][Return]": 1943,
      "][10,8": 1944,
      "][10,11][8": 1945,
      "][1][4][0]": 1946,
      "[0][2][0][1]": 1947,
      "[None][For][If][None][For": 1948,
      "][][5][8,9": 1949,
      "][19,20][21,22": 1950,
      "][29][30,31": 1951,
      "][Return][None][None": 1952,
      "][66": 1953,
      "[3][1][2]": 1954,
      "[1,2][][3,4][][5,6][][7][]": 1955,
      "[1][2][3,4][1][5": 1956,
      "][8][9,10][11,12][13,14": 1957,
      "][26][26": 1958,
      "][2][3][1]": 1959,
      "[1][2,3][1][4,5][6,3": 1960,
      "][9,10][11,12][13": 1961,
      "][16][17,18][19": 1962,
      "][2][1][3]": 1963,
      "][None][If][Try": 1964,
      "[0][5][0": 1965,
      "[None][None][None][For": 1966,
      "][If][Return][Return][Return]": 1967,
      "][If][None][If][None][If][None][Return]": 1968,
      "][None][Return][For][None][None]": 1969,
      "[0][2][3]": 1970,
      "][9][10,11][11][]": 1971,
      "[0][3][2]": 1972,
      "][If][None][If][Return][None][None]": 1973,
      "[1,2][][3,4][][5][6,7][8,5": 1974,
      "][If][None][While": 1975,
      "][1][1][1][2][0": 1976,
      "][1][0][6": 1977,
      "][2][0][1][2]": 1978,
      "[6][0][0": 1979,
      "[1][2][3,4][][5": 1980,
      "[1][2][3,4][1][]": 1981,
      "[Try][If][Return][Return][Return]": 1982,
      "][2][1][0][0]": 1983,
      "][1][17": 1984,
      "][1][1][2][1][1": 1985,
      "[If][If][None][None][Return]": 1986,
      "][7][12,13": 1987,
      ",54": 1988,
      "][None][For][None][None][For": 1989,
      "[0][0][5]": 1990,
      "][7,8][4": 1991,
      "][If][If][None][If][If][None][None": 1992,
      "[If][For][For": 1993,
      "[1,2][3][3][4,5][6][6][7,8][9": 1994,
      "[If][Try][Return][None][None]": 1995,
      "[1][2,3][4,5][][1][6,7][1][8,9": 1996,
      "][10,3": 1997,
      "][11][14,15": 1998,
      "[If][None][None][If][None][None]": 1999,
      "[1][2,3][4,1][5,6][7": 2000,
      "][12][13,14][14][]": 2001,
      "][7,8][9,10][11,12": 2002,
      "][][11][]": 2003,
      "[If][None][If][None][If][None][If][None][If][None][If][None][Return]": 2004,
      "][8,5": 2005,
      "[4][0][0]": 2006,
      ",8][12": 2007,
      "][None][Return][While": 2008,
      "[1][2][3][4][5": 2009,
      "[1,2][][3,4][5][5][6,7][8": 2010,
      "][][11][12,13": 2011,
      "][Return][None][Return]": 2012,
      "][8][0][0": 2013,
      "[1,2][][3,4,5": 2014,
      "][Try][None][None][Try][None][None": 2015,
      "][None][If][None][None][None][None": 2016,
      "[If][Return][If][Return][If][Return][If][Return][If][Return][Return]": 2017,
      "][Try][None][Return][None]": 2018,
      "][3][2][2": 2019,
      ",56": 2020,
      "][1][0][0][1][2": 2021,
      "[Try][If][None][Return": 2022,
      "][11,12][9": 2023,
      "][1][0][0][0][1][1]": 2024,
      "[1,2][][3][4,5][3][6,7": 2025,
      "[1][2,3][4,1][5,6][3": 2026,
      "[1][2,3][4,5][6][1][1": 2027,
      "[1][7": 2028,
      "[1][0][0][0][0][0][0][0][0": 2029,
      ",57": 2030,
      "][11,7": 2031,
      "][12][0": 2032,
      "][21][22,23": 2033,
      "][None][Try][None][None][Return]": 2034,
      "][0][0][0][0][0][1]": 2035,
      "[None][For][If][If][None]": 2036,
      "][1][0][1][0][1][0][1][0][1][0][1][0][1][0][1][0": 2037,
      "][][11]": 2038,
      "][1][9]": 2039,
      "[0][1][5]": 2040,
      "][1][0][4]": 2041,
      "[None][If][None]": 2042,
      "][If][If][If][None][If][None][If": 2043,
      "][14,13": 2044,
      "][][32": 2045,
      "[If][None][If][Return][If][Return][Return]": 2046,
      "[1,2][3,4][][][5,6][][]": 2047,
      "][22]": 2048,
      "][5][6][7": 2049,
      "[2][1][0][1][0": 2050,
      "][14,9": 2051,
      "][1][1][0][3": 2052,
      "[None][For][If][Return][None][If": 2053,
      "][1][1][1][1][2]": 2054,
      "[1][2,3][4,5][6][7": 2055,
      "[0][0][0][1][0][0": 2056,
      "[1][2][3,4][][1]": 2057,
      "][2][0][0][1][1]": 2058,
      "][1][][]": 2059,
      "[1][1][3][0": 2060,
      "][6][9": 2061,
      "][8,2": 2062,
      "][If][If][If][None][None][None]": 2063,
      "[If][Return][If][If][If][Return": 2064,
      "][5][6,7][5": 2065,
      "][1][0][0][0][1][0][0": 2066,
      "][23][24": 2067,
      "][8][9,10][][]": 2068,
      "][10,11][12,13][14,15": 2069,
      "[None][For][None][None][For][None][Return]": 2070,
      "[1][2][3,1][4,1][1]": 2071,
      "[1,2][2][3][4][3]": 2072,
      "][20][21,22][22][23,24": 2073,
      "][Return][If][Return]": 2074,
      "][7][4]": 2075,
      "][7][8][9": 2076,
      "][10,7": 2077,
      "][3][0][3": 2078,
      "][30][31,32": 2079,
      "][][13,14][15": 2080,
      "][10,11][3][12,13": 2081,
      "][][14,15][16,17": 2082,
      "[2][5": 2083,
      "][If][If][None][If][None][Return": 2084,
      "[None][For][If][If][None][None][Return]": 2085,
      "][33,34][35,36": 2086,
      "[None][None][While": 2087,
      "][7][2]": 2088,
      "][0][0][0][1][0][0": 2089,
      "[3][2][0": 2090,
      "][16,17][18,19": 2091,
      "[1,2][][3,4][][5,6][][7,8][][9,10][][11,12][][]": 2092,
      "][If][Return][If][Return][If][Return][If][Return][If][Return][If][Return][If][Return][If][Return": 2093,
      "[1][2,3][4,1][5,6][1][][]": 2094,
      "][If][Return][None][None][None]": 2095,
      "][None][For][If][None][None": 2096,
      "][1][1][0][1][1][1]": 2097,
      "[1,2][][3,4][][5,6][7][7][]": 2098,
      "][20]": 2099,
      "][][35": 2100,
      "][4][0][1]": 2101,
      "[1][2,3][4,5][][5][6,1][1]": 2102,
      "[1][2][3,1][4,2": 2103,
      "[0][4]": 2104,
      "][1][0][2][2]": 2105,
      ",3][]": 2106,
      "][8,3][3]": 2107,
      "[If][Return][If][If][Return": 2108,
      "][12,6": 2109,
      "[If][None][If][For][None][None": 2110,
      "][6,7][][8,9": 2111,
      "][1][1][0][1][2": 2112,
      "[1][2,3][4][4][5,6": 2113,
      "[3][1][0][0": 2114,
      "[1][2][3,4][][]": 2115,
      "[1,2][][3,4][5][][6,7][8": 2116,
      "][Try][Return][None][None": 2117,
      "[9][0": 2118,
      ",4][]": 2119,
      ",58": 2120,
      "][][7][3]": 2121,
      "[0][1][0][1][0][0": 2122,
      "[If][None][Try][None][None]": 2123,
      "[1,2][][3][4,5][6,7][][8": 2124,
      "[If][Return][Try][None][Return][Return]": 2125,
      "][][26": 2126,
      "][][22,23": 2127,
      "][2][6]": 2128,
      "][4][1][1": 2129,
      "[None][For][Try][None][None": 2130,
      "][][7][7]": 2131,
      "][19][19": 2132,
      "][5][6,7][][8,9": 2133,
      "[0][1][0][1][1": 2134,
      "[1,2][][3,4][5][][6,7": 2135,
      "][][9,10][11,12": 2136,
      "][1][1][0][0][1][1]": 2137,
      "][5,6][7,4": 2138,
      "[1,2][][3,4][][5][6,7][8,9": 2139,
      "[1,2][][3,4][5,6][7,8][][": 2140,
      "][33,34][35": 2141,
      "[1,2][3,4][4][4][]": 2142,
      "][If][Return][None][Return]": 2143,
      "][11,1": 2144,
      "[0][0][1][0][1][0": 2145,
      "[1,2][][3,4][][5,6][7][][8,9": 2146,
      "[1,2][2][3][4,5][6,7][8,9": 2147,
      "][None][If][If][None][If": 2148,
      "[If][Return][If][None][For": 2149,
      "][None][For][If][For": 2150,
      "[0][1][0][0][1][0]": 2151,
      "][3][1][1][1]": 2152,
      "][If][Return][None][If][None][None]": 2153,
      "[2][3]": 2154,
      "][If][If][None][None][If][None][None]": 2155,
      "][For][Return][If][None]": 2156,
      "[1][2,3][4,3][][1]": 2157,
      "][49,50": 2158,
      "][4][1][2": 2159,
      "][63": 2160,
      "[1,2][][3,4][2][]": 2161,
      "[2][3][0": 2162,
      "[2][0][0][0][0]": 2163,
      "[If][None][If][If][None][If": 2164,
      "[Try][If][Return][Return": 2165,
      "[3][2][0]": 2166,
      "[If][None][For][If][None]": 2167,
      "[1,2][3][3][4][5,6][4][]": 2168,
      "][10,11][9][12,13": 2169,
      "][4][2][0": 2170,
      "][None][If][If][None][If][None][None": 2171,
      "][65": 2172,
      "][If][Return][If][None][None]": 2173,
      "[None][For][Try][If][None][None": 2174,
      "[1][2,3][3": 2175,
      "[2][1][0][1]": 2176,
      "[0][0][2][0][0": 2177,
      "[Try][If][None][None][Return]": 2178,
      "][If][If][None][None][For": 2179,
      "][None][None][For][None][None][For": 2180,
      "][][9,10][][]": 2181,
      "][][10,11][][]": 2182,
      "][8][9,8": 2183,
      "[1][3][0][0": 2184,
      "][If][Return][If][None][None": 2185,
      "[If][None][If][If][If][None][If": 2186,
      ",12][12]": 2187,
      "[None][For][For][For": 2188,
      "][11,5": 2189,
      "[If][None][None][If][None]": 2190,
      "[None][While][If][Return][None]": 2191,
      "[1,2][2][3][4,5][6": 2192,
      "][23,24][25": 2193,
      "][None][If][If][None][Return": 2194,
      ",3][3": 2195,
      ",59": 2196,
      "][11][11]": 2197,
      "][0][0][0][0][0][0][0]": 2198,
      "][0][0][0][1][1]": 2199,
      "][0][0][0][1][0]": 2200,
      "][1][3][1][1": 2201,
      "[If][None][If][None][If][If][None][None": 2202,
      "][9,10][11,12][13,14": 2203,
      "[1][2,3][4,5][6,7][1][8,9": 2204,
      "][51,52": 2205,
      "[1][1][5]": 2206,
      "][1][0][3][1]": 2207,
      "[None][If][None][None": 2208,
      "][68": 2209,
      ",61": 2210,
      "][9][9][]": 2211,
      "[Try][If][None][None]": 2212,
      "[If][None][If][None][If][None][None][Return]": 2213,
      "][3][0][3]": 2214,
      "[1][1][1][2]": 2215,
      "[If][Return][If][Return][For": 2216,
      "][17][18,19][20": 2217,
      "[1,2][2][3,4][5,6][][7": 2218,
      "[1,2][3][4,5][][3][6,7][3][8,9][3": 2219,
      "][If][If][None][Return]": 2220,
      "][1][2][1][0][0": 2221,
      "][1][2][2][2": 2222,
      "[0][0][3][0]": 2223,
      "][13,8": 2224,
      "[2][0][2][0]": 2225,
      "[1,2][3][4,5][6,2": 2226,
      "[0][1][2][0][0": 2227,
      "][1][1][2][1][1]": 2228,
      "][1][8][0": 2229,
      "[1,2][3,4][5,6][4][2": 2230,
      "[1][2,3][][4,5][][]": 2231,
      "][][1][1]": 2232,
      "][3][5": 2233,
      "[0][1][6": 2234,
      "[0][2][0][2][0": 2235,
      "][7,5][5]": 2236,
      "[4][1]": 2237,
      "[If][Return][If][For": 2238,
      "][Try][If][None][Return": 2239,
      "][1][1][0][2][0": 2240,
      "][If][None][If][Return][Return]": 2241,
      "][][6,2": 2242,
      "[1][2,3][4,5][][6,7][8": 2243,
      "[0][1][0][1][3]": 2244,
      "][1][0][1][1][2]": 2245,
      "][20,21][22": 2246,
      "][][11,12][13,14": 2247,
      "[0][1][0][1][0][1][1]": 2248,
      "[0][1][3][0]": 2249,
      "[1][2,3][][4][]": 2250,
      "][9][10,9": 2251,
      "][23]": 2252,
      "][1][18": 2253,
      "][1][0][1][0][0][0][0": 2254,
      "][70": 2255,
      "[None][For][If][If][None][None][None]": 2256,
      "][Try][For][None][None": 2257,
      "][11,9": 2258,
      "[If][None][If][For][None][If": 2259,
      "[Try][None][If][Return": 2260,
      "][1][0][1][0][1][0][1]": 2261,
      "[0][2][1][1]": 2262,
      "][][7,8][9,6": 2263,
      "][50,51": 2264,
      "][If][Try][None][None][None]": 2265,
      "][1][1][1][0][2": 2266,
      "][6][8,9": 2267,
      "][10][10]": 2268,
      "][12,5": 2269,
      "][If][None][If][If][None][None]": 2270,
      "][1][3][1][3": 2271,
      "][][9][10,11": 2272,
      "[None][While][If][Return][None][None]": 2273,
      "][10][11,12][13,14][15,16": 2274,
      "[0][0][0][0][1][0]": 2275,
      "][2][3][0]": 2276,
      "[1,2][3][][4,2][3]": 2277,
      "][][21,22][][23,24": 2278,
      "[1][2,3][4,1][5,6][1][7,3": 2279,
      "][3][1][2]": 2280,
      "][1][1][4]": 2281,
      "][4][0][0]": 2282,
      "][1][0][1][2][1]": 2283,
      "][6][][": 2284,
      "][2][0][2][2]": 2285,
      "[2][0][1][1]": 2286,
      "][24][24": 2287,
      "[If][For][None][None]": 2288,
      "][1][0][1][0][0][1]": 2289,
      "[None][For][None][For][None][None]": 2290,
      "][32,33][34": 2291,
      "[1][2,3][4,5][][1][6,7][1][1]": 2292,
      "][][14,15][16": 2293,
      "][2][10": 2294,
      "][Return][If][None][None]": 2295,
      "][3][14,15": 2296,
      "][4][1][0][0": 2297,
      "[0][3][3": 2298,
      "[0][0][1][0][0][0]": 2299,
      "][13][16,17": 2300,
      "[If][None][None][None][None]": 2301,
      "][1][2][0][1][0]": 2302,
      "[1][1][1][1][2]": 2303,
      "[If][For][None]": 2304,
      "][7,8][9,1": 2305,
      "][2][0][0][0][1]": 2306,
      "][][31,32": 2307,
      "[None][For][If][None][If][None][None]": 2308,
      "][11,3": 2309,
      "[0][0][2][2": 2310,
      "[If][None][None][For][If][Return][None][None]": 2311,
      "][None][If][None][None][If][None][None]": 2312,
      "[If][Return][If][Return][If][Return][If][Return][If][Return": 2313,
      "][If][None][For][None][None]": 2314,
      "][10][11][]": 2315,
      "][3][6": 2316,
      "][1][1][1][0][0][0": 2317,
      "][Try][If][None][None][None]": 2318,
      "[If][None][If][For][Return": 2319,
      "[None][For][If][Return][For": 2320,
      "][None][None][For][If][None][None]": 2321,
      "[0][0][0][1][0][0]": 2322,
      "][1][0][1][1][1][0]": 2323,
      "[1,2][3,4][5,6][7": 2324,
      "][][3][8,9": 2325,
      "][None][If][None][None][If][None]": 2326,
      "[1][2,3][4,5][][6,5": 2327,
      "[1][2,3][1][4][5,6][4": 2328,
      "[If][If][For": 2329,
      "][7][4": 2330,
      "[None][For][None][If][None]": 2331,
      "][12,1": 2332,
      "[Try][If][None][None][None]": 2333,
      "[3][2]": 2334,
      "][1][3][1][0]": 2335,
      "][If][If][None][None][If][None]": 2336,
      "[If][If][Return][None][If][None]": 2337,
      "][20,21][22,23": 2338,
      "[1][2,3][1][4][5,6][7,4": 2339,
      "[1,2][][3,4][][5,6][][7,8][][9,10][][11,12][][13,14][][15,16][][17,18][][19,20": 2340,
      "[1,2,3][4][][": 2341,
      "][][12]": 2342,
      "][4][1][1]": 2343,
      "][7,8][8": 2344,
      "][15,16][14": 2345,
      "][][34": 2346,
      "][1][0][2][0][0]": 2347,
      "[If][Return][If][Return][None][For": 2348,
      "][32,33][34,35": 2349,
      "[1,2][2][3][4,5][6,3][][3]": 2350,
      "[18]": 2351,
      "][1][1][2][0][0": 2352,
      "][2][0][1][0][1][0": 2353,
      "][Try][If][If][None][None": 2354,
      "][12,10": 2355,
      "][13][0": 2356,
      "[3][1][1][0": 2357,
      "[3][2][2": 2358,
      "][While][None][None": 2359,
      "][1][2][0][1][1]": 2360,
      "][If][If][None][If][Return": 2361,
      "][1][0][2][1][0]": 2362,
      "[1,2][3][4][4][]": 2363,
      "][0][0][0][0][0][0][0][0][0": 2364,
      "][2][1][0][1][0]": 2365,
      "][3][0][0][0]": 2366,
      "[1,2][][3][4,5][6,7][][3][3]": 2367,
      "][54,55": 2368,
      "][1][1][6": 2369,
      "[If][Try][None][None]": 2370,
      "][5][6": 2371,
      "[None][For][If][If][If][None][None": 2372,
      "][If][If][Return]": 2373,
      "][If][If][If][Return][If][Return": 2374,
      "[2][3][0]": 2375,
      "][If][None][None][Return": 2376,
      "[0][0][1][0][0][0": 2377,
      "[None][For][If][Return][None][If][None][If": 2378,
      "][1][1][0][0][1][0]": 2379,
      "[0][4][0][0": 2380,
      "[1][2,3][4,1][][5,6][1][1]": 2381,
      "][][15,16][][]": 2382,
      "][17][18,19][19][20,21": 2383,
      "[1,2][2][3,4][4][5,6][6][7,8][8][9,10][10][11,12][12][]": 2384,
      "][52,53": 2385,
      "][3][4]": 2386,
      "][If][Return][None][If][None]": 2387,
      "][1][2][1][1][0": 2388,
      "][None][Return][If][None]": 2389,
      "][7,8][][8": 2390,
      "][1][3][3]": 2391,
      "][19][]": 2392,
      "][3][0][1][1]": 2393,
      "[1,2][3][3][4,5][6,3": 2394,
      "[1,2][3][3][4,5][5][6,7][7][8,9": 2395,
      "[0][0][0][0][0][0][0][0]": 2396,
      "][][36": 2397,
      "][If][None][Return][None][None]": 2398,
      "][3][3][3]": 2399,
      "[1,2][3][4,3][5": 2400,
      "][6,1][]": 2401,
      "[1,2][][3,4][5][6,7][8,9][5": 2402,
      "][If][Try][None][Return": 2403,
      "][3][7": 2404,
      "][1][1][1][4": 2405,
      "][8][4": 2406,
      "[If][Return][Try][None][None][Return]": 2407,
      "][10][1]": 2408,
      "[0][0][6]": 2409,
      "[1][2,3][4][5,6][7,1": 2410,
      "[0][0][0][1][1][1]": 2411,
      "[If][None][Try][None][None][None]": 2412,
      "][7,8][9,8": 2413,
      "][1][0][2][0][1]": 2414,
      "][1][14,15": 2415,
      "[17]": 2416,
      "[1][1][0][0][0][0": 2417,
      "][][][1]": 2418,
      "][][][5]": 2419,
      "][7,8][2": 2420,
      "][14,7": 2421,
      "[1][0][5": 2422,
      "][None][None][For][If][None]": 2423,
      "[0][0][0][2][0]": 2424,
      "][][9,5": 2425,
      "[2][0][3]": 2426,
      "[1,2][2][3][4,5][3][6,7": 2427,
      "[1][2,3][1][4,5][3][6,7": 2428,
      "][None][If][Try][None][None": 2429,
      "][None][If][If][None]": 2430,
      "[None][None][For][None]": 2431,
      "][8,6][6]": 2432,
      "][13,7": 2433,
      "][14,8": 2434,
      "[3][4": 2435,
      "][10,11][4": 2436,
      "][8][9,10][11,12][13": 2437,
      "[0][2][2][0]": 2438,
      "[If][Return][If][Return][If][Return][If][Return][None]": 2439,
      "][9][10,11][11": 2440,
      "[None][For][If][For][None][None]": 2441,
      "][][27": 2442,
      "][][28": 2443,
      "][2][1][3][0": 2444,
      "][3][3][0": 2445,
      "[4][0][0][0": 2446,
      "[1,2][3][][1]": 2447,
      "[0][0][4][0": 2448,
      "][13,12": 2449,
      "][6][7,8][8][]": 2450,
      "[1][1][1][0][0]": 2451,
      "[1][1][0][2]": 2452,
      "][29][29": 2453,
      "[10][0": 2454,
      "[None][For][For][If][None]": 2455,
      "][30,31][32": 2456,
      "[0][2][0][0][0]": 2457,
      "][53,54": 2458,
      "][][28,29": 2459,
      "][7][7][8,9][10": 2460,
      ",63": 2461,
      "[If][Return][If][None][If][None][None]": 2462,
      "[5][1][0]": 2463,
      "[If][None][If][Return][None][If][None]": 2464,
      "[1][2,3][1][4,5][3": 2465,
      "[1][2][3,4][5,4": 2466,
      "[1,2][3][4,5][][3][6,7][3][]": 2467,
      "[1,2][3,4][5,4][4": 2468,
      "][][1": 2469,
      "][2][1][5": 2470,
      "][2][5][0": 2471,
      "[If][If][None][If": 2472,
      "][1][0][1][5": 2473,
      "][1][0][1][1][0][1]": 2474,
      "[1][2][3]": 2475,
      "[2][6": 2476,
      "[2][2][0][0": 2477,
      "[0][0][1][3": 2478,
      "[1][2,3][4][5,6": 2479,
      "][9,10][][11": 2480,
      "[0][1][0][2][0]": 2481,
      "][21][22": 2482,
      "[1,2][][3,4][5][][6": 2483,
      "][17,18][16": 2484,
      "][][37": 2485,
      "[1][2,3][4,1][][5][6,1": 2486,
      "][7,8][9,3": 2487,
      "][][12][]": 2488,
      "[1,2][3][3][4][5,6][7,4": 2489,
      "[1][2][3,1][4,2][2]": 2490,
      "][][2][2]": 2491,
      "[0][10": 2492,
      "[0][1][4][0": 2493,
      "[None][If][None][If": 2494,
      "][Try][For": 2495,
      "][None][Return][None][Return]": 2496,
      "[If][None][None][If][Return": 2497,
      "[1][0][3][0": 2498,
      "][10,11][6": 2499,
      "][13,14][11": 2500,
      "[3][0][2]": 2501,
      "[If][Return][If][Return][If][None][Return]": 2502,
      "[1,2][3][4,3][][]": 2503,
      "[0][1][0][1][0][1]": 2504,
      "][1][8,1": 2505,
      "][10,11][12][12": 2506,
      "][15][16,17][18,19": 2507,
      "[1][0][0][0][0][0]": 2508,
      "[1,2][2][3,4][4][5,6][6][7,8][8][9,10][10][11,12][12][13,14][14][15,16][16][17,18][18][19,20": 2509,
      "][2][11": 2510,
      "[1][1][6": 2511,
      "][5,2][2]": 2512,
      "[None][Try][None][None": 2513,
      "[None][If][None][None][Return]": 2514,
      "][10][][]": 2515,
      "[2][1][2][0": 2516,
      "][12][12]": 2517,
      "[3][1][3": 2518,
      "][If][None][If][None][If][None][If][None][If][None][If][None][If": 2519,
      "][1][7,1": 2520,
      "[2][0][0][1]": 2521,
      "[If][If][If][None][None][None][Return]": 2522,
      "[1,2][3][4,5][][3][6,3][3]": 2523,
      "[1,2][2][3,4][4][5][6,7][8,9": 2524,
      "][][17,18][19,20": 2525,
      "][1][0][3][0]": 2526,
      "][1][0][1][0][0][0]": 2527,
      "][7][0]": 2528,
      "][1][0][0][1][0][1]": 2529,
      "[1,2][3][][2]": 2530,
      "][If][None][None][None][None][None]": 2531,
      "][15][18,19": 2532,
      "[1][0][1][2]": 2533,
      "[1][0][5]": 2534,
      "[1][0][2][1]": 2535,
      "[3][0]": 2536,
      "[3][2][1]": 2537,
      "[1][2,3][4,5][6,7][8,9": 2538,
      "[1][2][3,4][4][5": 2539,
      "[1,2][3][4,5][][][]": 2540,
      "[1,2][3,4][5,6][7][8,9": 2541,
      "[1,2][][3][4,5][][]": 2542,
      "][24,25][26": 2543,
      "][9,10][11,12][][": 2544,
      "][2][1][2][0]": 2545,
      "][2][1][0][1][1]": 2546,
      "][3][0][0][0][0": 2547,
      "[If][While": 2548,
      "][5,2][]": 2549,
      "][If][If][If][For": 2550,
      "][13,9": 2551,
      "[1][0][2][0][0": 2552,
      "][6][7,8][6][]": 2553,
      "][][9,4": 2554,
      "[1][2][3,4][4][]": 2555,
      "][If][None][If][None][If][None][If][None][None]": 2556,
      "][][6,7][][8": 2557,
      "[1][2,3][4,5][][6][7,8": 2558,
      "[1,2][3,4][][5,4": 2559,
      "[Try][Return][None][Return]": 2560,
      "[If][If][If][Return][Return][Return][Return]": 2561,
      "][56,57": 2562,
      "[1,2][][3,4][][5][6,7][5][]": 2563,
      "][5][0][0][0": 2564,
      "][67": 2565,
      "][69": 2566,
      "][8][11,12": 2567,
      "][1][0][0][2][0": 2568,
      "][1][3][1][1]": 2569,
      "][Try][If][None][None][None][None": 2570,
      "][7,8][9,4": 2571,
      "[If][None][Try][Return][None]": 2572,
      "][5][6,7][8,7": 2573,
      "][13,14][15,16][17": 2574,
      "[If][None][If][None][None][For][None][Return]": 2575,
      "][8][9,10][11,8": 2576,
      "][][6,7][][8,9][][]": 2577,
      "][1][13,14": 2578,
      "][If][If][None][Try": 2579,
      "][None][If][None][If][For": 2580,
      "][Try][None][If][None][None": 2581,
      "[If][None][If][If][None][None][None]": 2582,
      "][13,11": 2583,
      "[If][None][If][None][If][Return][None]": 2584,
      "][12,13][10": 2585,
      "][6][7,8][8][9,10][10][11,12": 2586,
      "[Try][None][None][None][For": 2587,
      "[1,2][3][3][4,5][6,5": 2588,
      "[2][0][0][0]": 2589,
      "[1,2][][3][4,5][6,3][7,8][3": 2590,
      "[1][2,3][4][][5,6][7,8": 2591,
      ",1]": 2592,
      "][0][0][1][0][0": 2593,
      "][4][2][2": 2594,
      "][8,5][5]": 2595,
      "[4][1][2": 2596,
      "[2][1][0][0]": 2597,
      "][11,10": 2598,
      "][][7][8,9][10,7": 2599,
      ",13][13]": 2600,
      "][1][0][0][0][2]": 2601,
      "[0][1][0][1][2": 2602,
      "[1][2][3,4][5,6][7": 2603,
      "[0][3][3]": 2604,
      "[If][Return][None][For][If][Return][None][None]": 2605,
      "[If][Return][If][Return][If][Return]": 2606,
      "[0][1][0][1][0][1][0][1][0": 2607,
      "][None][If][If][None][None][None][None]": 2608,
      "[1,2][][3,4][5,4][][]": 2609,
      "4]": 2610,
      "[1][4][0]": 2611,
      "[0][11": 2612,
      "[2][1][0][1][1]": 2613,
      "][1][1][0][1][0][1]": 2614,
      "][15,10": 2615,
      "[1,2][2][3,4][4][5,6][7][8": 2616,
      "][If][If][Return][None][Return]": 2617,
      "][][39": 2618,
      "[1,2][2][3,4][5][][]": 2619,
      "][6,7][8,3": 2620,
      "[If][None][For][If][None][None]": 2621,
      "][1][3][0][1]": 2622,
      "[If][None][If][None][None][While": 2623,
      "][16][17,18][19,20": 2624,
      "[If][Return][If][If][If][Return][Return": 2625,
      "][][14,15][][16,17": 2626,
      "][58,59": 2627,
      "][For][Return][None]": 2628,
      "[0][9": 2629,
      "][1][0][7": 2630,
      "[1][2][0][0]": 2631,
      "][If][If][If][None]": 2632,
      "][Try][Try][None][None": 2633,
      "[1,2][3,4][4][5,6": 2634,
      "][20][]": 2635,
      "][9][10,11][9": 2636,
      "[0][2][0][2]": 2637,
      "[1,2][3][4,5][6,7][3][8,3": 2638,
      "][60,61": 2639,
      "][][33,34": 2640,
      "][2][3][3": 2641,
      "][7][8][9,10": 2642,
      ",60": 2643,
      "[2][1][4": 2644,
      "][][7,4": 2645,
      "[None][For][If][Return][If][Return]": 2646,
      "][1][1][1][1][1][1][1]": 2647,
      "][6][7,8][9,10][11": 2648,
      "][If][If][None][If][None][None][None]": 2649,
      "][If][None][If][None][If][None][If][None]": 2650,
      "][24]": 2651,
      "[0][2][0][0][0": 2652,
      "][If][None][Return][Return": 2653,
      "[0][1][2][1][0]": 2654,
      "[1][2,3][4,1][][5,1][]": 2655,
      "[4][0][1]": 2656,
      "[1,2][][3,4][4][5][]": 2657,
      "][55,56": 2658,
      "][][29,30": 2659,
      "][5][3]": 2660,
      "][6][11,12": 2661,
      ",6][6": 2662,
      "][Try][None]": 2663,
      "[2][1][1][1][1]": 2664,
      "[1][0][2][2": 2665,
      "][1][3][1][2": 2666,
      "][1][1][1][1][1][0]": 2667,
      "[1,2][][3,4][][5,6][7][8,9": 2668,
      "[1,2][][3,4][][5,6][7,4": 2669,
      "][3][0][1][0]": 2670,
      "[1,2][2][3,4][4][5,6][7][7][]": 2671,
      "][4][0][2]": 2672,
      "[1,2][3][4][][5,6": 2673,
      "[1,2][3][][4,5][5][]": 2674,
      "][6,7][8,7": 2675,
      "[Try][None][Return][If][Return][Return]": 2676,
      "][If][None][If][None][None][None][None]": 2677,
      "][14][15,16][17,18": 2678,
      "[1,2,3][4][4": 2679,
      "][If][None][Try][None][None]": 2680,
      "[If][None][Return][For][None][Return]": 2681,
      "][9][10,11][12,9": 2682,
      ",65": 2683,
      "][8][7]": 2684,
      "][2][0][3]": 2685,
      "[1,2][][3,4][4][5": 2686,
      "][12,3": 2687,
      "][9,10][4": 2688,
      "][If][If][None][None][Return": 2689,
      "][23][23": 2690,
      "][28][29,30": 2691,
      "][If][None][None][For][None][None]": 2692,
      "[1,2][3,4][5][6][6": 2693,
      "][2][3][2]": 2694,
      "][If][None][For][None][None": 2695,
      "][][10,6": 2696,
      "[0][1][1][0][1][0]": 2697,
      "[1,2][3,2][4,5][6,1": 2698,
      "][][13][]": 2699,
      "][5,3][]": 2700,
      "][][29": 2701,
      "][4][1][1][0": 2702,
      "][1][0][1][2][0]": 2703,
      "][72": 2704,
      "][1][0][0][2][0]": 2705,
      "][None][If][None][If][None][None][None]": 2706,
      "][11,4": 2707,
      "][6,7][5][]": 2708,
      "][13,1": 2709,
      "][2][2][1][2": 2710,
      "][][4][]": 2711,
      "][1][0][0][0][1][0][0][0": 2712,
      "[1,2][][3][4,5][6,7][8": 2713,
      "][If][None][None][For][None][Return]": 2714,
      "[1][2,3][4,1][5][6,1": 2715,
      "[1][2,3][4,5][][][6,7": 2716,
      "][][12][13,14": 2717,
      "[If][None][Return][None]": 2718,
      "][4][1][0]": 2719,
      "][None][If][If][If": 2720,
      "][7][5": 2721,
      "][13,6": 2722,
      "][1][0][1][0][2]": 2723,
      ",14][14]": 2724,
      "[1,2][][3,4][][5,6][][7][8,9": 2725,
      "][5][6,7][5][8,9": 2726,
      "[1,2][][3,4][5][][6,7][][]": 2727,
      "][1][0][2][1][1]": 2728,
      "[1,2][3][4][][]": 2729,
      "[If][If][Return][Return][None]": 2730,
      "[If][Return][If][Return][If][Return][If][Return": 2731,
      "][2][1][2][2]": 2732,
      "[1,2][][3,4][5,6][7,8][6": 2733,
      "][Return][For][None]": 2734,
      "[If][None][Return][For][None]": 2735,
      "][1][0][0][0][0][0][0][0]": 2736,
      "[1][3][2]": 2737,
      "[None][None][If][None][Return]": 2738,
      "][9,2": 2739,
      "][10][11][12,13": 2740,
      "[2][2][1][1": 2741,
      "][12,8": 2742,
      "][If][None][If][None][None][For": 2743,
      "][][8][8]": 2744,
      "][2][0][0][1][0]": 2745,
      "[None][While][If][None]": 2746,
      "][1][0][2][1][2": 2747,
      "][10][11,12][10": 2748,
      "[1,2][][3,4][][5,6][][7,8][9": 2749,
      "][If][None][If][None][None][None][None": 2750,
      "[1,2][3,4][][5,1": 2751,
      "[If][Return][For][If][Return": 2752,
      "][][15,16][17": 2753,
      "[0][1][2][0][1]": 2754,
      "[1][2,3][4][][5,1][6,4": 2755,
      "][None][If][If][For": 2756,
      "[0][1][6]": 2757,
      "][8][3": 2758,
      "[4][3": 2759,
      "[If][Return][Try][Return": 2760,
      "[If][None][If][If][None][None]": 2761,
      "][7,8][6": 2762,
      "[3][0][0][0][0": 2763,
      "][15,16][17,18][19,20": 2764,
      "][None][Try][Return][None][None]": 2765,
      "[None][While][Try][None][None": 2766,
      "[0][0][0][0][0][1]": 2767,
      "[1][0][0][1][0][0]": 2768,
      "][25][26": 2769,
      "[If][None][If][Return][If][Return": 2770,
      "[1,2][3][4][][5": 2771,
      "][3][0][0][1]": 2772,
      "][13][13][]": 2773,
      "[1][2,3][4,1][5,6][7,2": 2774,
      "][1][6,7": 2775,
      "][1][1][1][0][0]": 2776,
      "[If][If][If][None][If][None][None": 2777,
      "[0][0][1][0][1][1": 2778,
      "[1,2][2][3,4,5": 2779,
      "[If][None][None][If][None][If][None][If": 2780,
      "][1][0][1][0][1][0][0": 2781,
      "][16,11": 2782,
      "[0][0][0][2][1]": 2783,
      "[1,2][3][3][4,5][][6,7": 2784,
      "[1][0][0][2]": 2785,
      "][0][0][0][0][0][0][0][0][0]": 2786,
      "][14][14]": 2787,
      "[1,2][3][][4,5][6][][]": 2788,
      "[1,2][2][3,4][4][5,6][7][8][8][]": 2789,
      "][1][1][1][3]": 2790,
      "][1][0][1][3][0": 2791,
      "][8][2]": 2792,
      "[1][2,3][3][4][]": 2793,
      "][2][0][1][0][1]": 2794,
      "][10,2": 2795,
      "[2][3][1]": 2796,
      "][14,11": 2797,
      "[If][None][None][None][For][None][Return]": 2798,
      "[None][For][If][Return][None][None": 2799,
      "][6][7,8][][9,10": 2800,
      "[7][0][0": 2801,
      "[None][While][If][None][None]": 2802,
      "[0][1][0][0][1][1]": 2803,
      "][1][5][1]": 2804,
      "][9][10,11][][12,13": 2805,
      "][6][7,3": 2806,
      "][][11,12][13,14][15,16": 2807,
      "[1,2][][3,4][4][5,6][][7,8": 2808,
      "[None][For][If][For][None][None": 2809,
      "[1,2][3][4,5][][3][6,7][3][3]": 2810,
      "[1,2][3,4][4][4][5,6": 2811,
      "][7][8,7][9,10][7": 2812,
      "][][30,31": 2813,
      "][2][1][0][0][0][0": 2814,
      "][1][19": 2815,
      "[0][1][0][0][0][1]": 2816,
      "[None][None][None][None][None": 2817,
      ",4][4": 2818,
      "][7][6]": 2819,
      "][2][0][2][0][0": 2820,
      "][10][0][0": 2821,
      "][1][2][4": 2822,
      "[If][None][If][If][If][None][Return": 2823,
      "[0][0][1][1][1][1": 2824,
      "][15,11": 2825,
      "[0][1][1][3]": 2826,
      "[1,2][3][3][4,5][5][6,7][7][]": 2827,
      "][Try][Return][None][None][None]": 2828,
      "[1,2][2][3][4,5][6,7][][8": 2829,
      "][None][While][None][Return]": 2830,
      "[If][If][If][None][None][None][None": 2831,
      "[If][If][If][None][None][None]": 2832,
      "[1][2,3][4,1][5,6][1][6][]": 2833,
      "][12][13,14][14][15,16][16][]": 2834,
      "[If][None][If][None][Try][None][None][None][Return]": 2835,
      "[1][2,3][4][5][6,1": 2836,
      "][57,58": 2837,
      "][][26,27": 2838,
      "][3][16,17": 2839,
      "][1][1][2][2]": 2840,
      "][1][1][2][1][0": 2841,
      "][][][4]": 2842,
      "[0][4][1]": 2843,
      "[None][None][None][None]": 2844,
      "[1][2][1][0]": 2845,
      "][71": 2846,
      "][8][11": 2847,
      "][None][If][None][If][If][None][None": 2848,
      "[2][1][4]": 2849,
      "[If][None][If][Try][None][None": 2850,
      "[Try][None][If][None][None]": 2851,
      "[1][0][1][0][0][0": 2852,
      "][1][3][0][0][0": 2853,
      "][10,11][11": 2854,
      "][][6,2][]": 2855,
      "][If][If][None][None][None][For": 2856,
      "][2][2][1][1]": 2857,
      "][][41": 2858,
      "[0][1][0][1][1][0": 2859,
      "][2][1][1][1][2": 2860,
      "][7][8,9][7": 2861,
      "[If][If][Return][None][If][None][None]": 2862,
      "][6][7][8][9": 2863,
      "][1][6][0][0": 2864,
      "[Try][None][Return][None]": 2865,
      "][1][1][2][1][0]": 2866,
      "[0][1][1][0][2]": 2867,
      "[1,2][][3][4,5][6,3][][]": 2868,
      "][][6,7][8,5": 2869,
      "][][13]": 2870,
      "][1][1][1][0][1][1]": 2871,
      "[None][None][None][Return]": 2872,
      "][None][If][None][If][None][If][None][Return]": 2873,
      "][If][None][None][While": 2874,
      "[0][0][2][1][0]": 2875,
      "][10,11][7": 2876,
      "][If][If][None][None][None][None][None]": 2877,
      "[1][2][3][4][]": 2878,
      "[1,2][3][4,5][6,7][8,9": 2879,
      "][22][23": 2880,
      "][If][If][None][If][None][None][None][None": 2881,
      "[0][0][0][0][0][0][0][0": 2882,
      "[If][None][For][For": 2883,
      "[Try][None][Return][If][Return": 2884,
      "[None][For][None][For][For": 2885,
      "][10,11][12,13][11": 2886,
      "[1][0][0][0][2]": 2887,
      "[1][2][3][4,5][6,7": 2888,
      "[None][For][Try][Return][None][None][None]": 2889,
      "][37,38][39": 2890,
      "[1,2,3][4,5][][": 2891,
      "][][][12,13": 2892,
      "][1][0][1][4]": 2893,
      "[1][2][1][2": 2894,
      ",64": 2895,
      "][1][0][0][1][0][0][0": 2896,
      "][1][0][0][0][0][0][0]": 2897,
      "[1,2][][3,4][5][6,7][8": 2898,
      "[2][1][0][1][0]": 2899,
      "[1][0][1][0][2]": 2900,
      "[1][0][1][0][1][0][0]": 2901,
      "][11,12][7": 2902,
      "[If][None][If][None][If][For": 2903,
      "[If][None][If][None][If][None][If][None][None": 2904,
      "[0][1][1][0][0][0]": 2905,
      "[If][None][None][For][None][None][For": 2906,
      "][1][0][2][0][0][0": 2907,
      "][27][28": 2908,
      "][3][3][0]": 2909,
      "][If][None][For][For": 2910,
      "][3][0][0][2][0]": 2911,
      "][7,8][9,10][][": 2912,
      "[0][1][1][0][1][1]": 2913,
      "][8,9][10][10": 2914,
      "[If][None][If][If][None][None][None][Return]": 2915,
      "[1][2,3][4,5][][1][6,1": 2916,
      "][2][8,9": 2917,
      "][None][If][None][Return][None]": 2918,
      "][6][][7,8": 2919,
      "[1][2][1][1]": 2920,
      "][7][3]": 2921,
      "[1][2,3][3][4][5,6": 2922,
      "[0][0][6": 2923,
      "][If][None][If][For][None][None": 2924,
      "][9,10][3": 2925,
      "][2][2][0][0][0": 2926,
      "[1][2][3,4,5": 2927,
      "[Try][None][None][None][None]": 2928,
      "[Try][None][None][If][Return][Return]": 2929,
      "[None][While][If][None][Return]": 2930,
      "[0][2][1][2": 2931,
      "[1,2][3][][4,5][][6,7][][]": 2932,
      "][None][If][None][If][None][If][None][If][None][None]": 2933,
      "][1][6][1]": 2934,
      "[1][2][3,4][5][5][1]": 2935,
      "[If][None][Try][If][None][None": 2936,
      "[1][2,3][4,5][][5][6,1": 2937,
      "[1][2,3][4,1][5][1][]": 2938,
      "[1,2][2][3,4][5,6][7,8][6": 2939,
      "][7,4][8,9][4": 2940,
      "[If][If][None][Return]": 2941,
      "[If][If][If][Return][If][Return": 2942,
      "][1][0][5]": 2943,
      "][If][Return][Return][None]": 2944,
      "][7][8][]": 2945,
      ",67": 2946,
      "][None][If][None][If][Return": 2947,
      "[0][0][2][2]": 2948,
      "][14][0": 2949,
      "][14,12": 2950,
      "][17][20,21": 2951,
      "[None][For][If][Return][If][None][None][None]": 2952,
      "[If][None][If][None][If][None][If][None][None][For": 2953,
      "][3][0][1][2": 2954,
      "][24][25": 2955,
      "][3][3][1]": 2956,
      "][If][None][None][For][For": 2957,
      "][33][34,35": 2958,
      "[1,2][2][3,4][][5,6][][7,8][][9,10": 2959,
      "][6][7,8][9,8": 2960,
      "[If][Return][If][None][If][Return][Return]": 2961,
      "[Try][Return][If][None][Return]": 2962,
      "][2][0][0][0][0][0]": 2963,
      "][11,12][13,14][15": 2964,
      "[1][1][3][0]": 2965,
      "][36,37][38,39": 2966,
      "][][][14,15": 2967,
      "][None][If][None][Try": 2968,
      "[None][For][If][If][None][Return][Return]": 2969,
      "[0][0][1][1][0][0": 2970,
      "[If][None][None][If][None][If][None][Return]": 2971,
      "[If][None][If][None][If][None][None][None]": 2972,
      "[0][0][0][3]": 2973,
      "][If][For][None][If][None]": 2974,
      "][14,15][12": 2975,
      "][15,16][13": 2976,
      "[If][None][None][For][If][If][None][None": 2977,
      "][1][5][0][0": 2978,
      "][If][None][For][If][None]": 2979,
      "][34][35,36": 2980,
      "][1][0][1][2][0][0": 2981,
      "[1,2][3,4][][2][5,6": 2982,
      "][1][1][0][0][0][1]": 2983,
      "[1][0][0][0][0][0][0": 2984,
      "[1,2][][3][4,2": 2985,
      "][12][13][]": 2986,
      "][20][21,22][23": 2987,
      "][14][15,14": 2988,
      "][62,63": 2989,
      "][8][0]": 2990,
      "[None][For][Try][None][None][None]": 2991,
      "[If][Return][Try][None][None]": 2992,
      "[If][None][If][Try": 2993,
      "[0][0][1][0][1][1]": 2994,
      "[0][0][1][0][1][0]": 2995,
      "][13,3": 2996,
      "[1,2][2][3,4][][5][]": 2997,
      "[If][None][None][None][While": 2998,
      "][If][None][If][None][For": 2999,
      "[1][2,3][4][][]": 3000,
      "][15][0": 3001,
      "][18,13": 3002,
      "[0][0][0][1][0][1][0": 3003,
      "][6][7,8][6": 3004,
      "[Try][None][None][Try][None][None][Return]": 3005,
      "][6,7][8,1": 3006,
      "][23,24][25,26": 3007,
      "][30][31": 3008,
      "[1,2][3][4,5][6,7][][": 3009,
      "][6,5][][5]": 3010,
      "][1][2][0][0][1]": 3011,
      "[1,2][3,4][][1][]": 3012,
      "[Try][If][None][None][None][Return]": 3013,
      "[1,2][3][4,5][6,7][3][][8": 3014,
      "[1,2][2][3,4][4][5][6,7][8,5": 3015,
      "[1,2][][3,4][5,4][6,7": 3016,
      "[1][2,3][4,5][6,7][8,1": 3017,
      "[1,2][3][4,5][6,7][3][8,9][7": 3018,
      "][][35,36": 3019,
      "][Return][Return][None]": 3020,
      "][1][0][2][0][2][0": 3021,
      "][5][1][2": 3022,
      "][6][0][0][0": 3023,
      "][If][Return][If][None]": 3024,
      "][If][If][For][Return": 3025,
      "][1][0][0][0][0][0][0][0": 3026,
      "[If][Return][If][If][If][None][None": 3027,
      "[If][Return][If][Try": 3028,
      "][2][0][1][3": 3029,
      "][2][0][1][2][0": 3030,
      "[2][1][1][0][0": 3031,
      "[2][0][0][0][0][0": 3032,
      "[0][0][2][0][1]": 3033,
      "][14,5": 3034,
      "][14,10": 3035,
      "][1][1][0][1][1][0]": 3036,
      "][If][None][If][For][None][If": 3037,
      "[1][0][2][0][0]": 3038,
      "][1][1][1][1][1][2": 3039,
      "][2][0][0][1][2": 3040,
      "[1,2][3][3][4,5][][6,7][][]": 3041,
      "[1,2][][3,4][5][5][6,7][8,9": 3042,
      "[0][2][3": 3043,
      "[1][1][0][1][2]": 3044,
      "[1,2][3,4][5][][": 3045,
      "[If][None][For][If][Return][None]": 3046,
      "[1][2,3][4,5][][1][]": 3047,
      "[1][2,3][4,5][][6][6][7,8": 3048,
      "][7][8,4": 3049,
      "[0][1][3][1]": 3050,
      "[1,2][3,4][][2][5": 3051,
      "][2][0][0][0][0][0][0": 3052,
      "][36,37][38": 3053,
      "][2][6][0": 3054,
      "[1][5]": 3055,
      "][1][1][4][0": 3056,
      "][1][0][3][0][0": 3057,
      "[4][2][0]": 3058,
      "[2][1][2][0]": 3059,
      "][6,7][][]": 3060,
      "][13,5": 3061,
      "][8,9][6": 3062,
      "[1][2,3][4,5,6": 3063,
      "][][9][9]": 3064,
      "[0][1][0][2][1]": 3065,
      "[1,2][2][3,4][4][5,6][7,8][9,10": 3066,
      "[1,2][3][3][4,5][6][7,8": 3067,
      "][7][8,9][9][]": 3068,
      "[1][2][3,1][4][5,6": 3069,
      "][6,7][8,2": 3070,
      "[1,2][2][3,4][4][5,6][6][7,8][8][9,10": 3071,
      "[0][1][2][2]": 3072,
      "[0][2][0][1][0]": 3073,
      "[If][None][If][None][If][None][If][None][If][None]": 3074,
      "][6,5][7,8][5": 3075,
      "[1][2,3][4,5][6,7][5][8,9": 3076,
      "[2][1][1][1][0]": 3077,
      "][If][Try][None][If][None][None": 3078,
      "[1][0][0][0][0][0][0]": 3079,
      "[1,2][2][3,4][5,6][][6": 3080,
      "][30,31][32,33": 3081,
      "[1,2][3,4][4][][]": 3082,
      "][6,4][]": 3083,
      "[1,2][][3,4][][5,6][][7,8][][9,10][][11,12][][13,14][][]": 3084,
      "][2][7]": 3085,
      "][3][1][0][0][0": 3086,
      "[If][If][If][None][None]": 3087,
      "][5][4": 3088,
      "][5][][]": 3089,
      "][0][0][0][0][2]": 3090,
      "][1][20": 3091,
      "][None][Return][If][None][None]": 3092,
      "[If][None][None][If][For": 3093,
      "][If][None][If][If][Return": 3094,
      "][If][None][If][None][None][Return]": 3095,
      "[1][0][3][0]": 3096,
      "[1][2,3][4,1][5][6,7][8,9": 3097,
      "[If][None][If][None][If][If][If][None][None": 3098,
      "[0][1][0][1][1][1]": 3099,
      "][1][4][2]": 3100,
      "][2][1][1][1][0]": 3101,
      "][3][3][0][0": 3102,
      "][6][7,4": 3103,
      "][7,8][9][9": 3104,
      "[1,2][][3][4,2][]": 3105,
      "[If][Return][Try][Return][None]": 3106,
      "][37,38][39,40": 3107,
      "][7,6][8,9][6": 3108,
      "][2][5][]": 3109,
      "][8][5]": 3110,
      "][7,8][][]": 3111,
      "[1][0][1][3": 3112,
      "[3][1][1][1]": 3113,
      "[0][0][0][1][1][0]": 3114,
      "[2][0][3": 3115,
      "[1,2][3][4,5][][": 3116,
      "[1,2][2][3,4][4][5,6][][7,8": 3117,
      "][None][If][None][If][None][If][None][If][None]": 3118,
      "][6,7][8,9][7": 3119,
      "[0][1][2][1][1]": 3120,
      "[1][2,3][4,1][][5,2][]": 3121,
      "[If][If][If][None][None][None][None]": 3122,
      "[1,2][3][4,5][6,7][5": 3123,
      "][If][Return][Return][If][Return]": 3124,
      "][][14]": 3125,
      "][1][9][0": 3126,
      "[1][2][3,4][5,2][][2]": 3127,
      "][][25,26][][27,28": 3128,
      "][64,65": 3129,
      "][][32,33": 3130,
      "][][18,19][20,21": 3131,
      "][2][12": 3132,
      "][5][6,2": 3133,
      ",5][]": 3134,
      "][1][0][0][2][1]": 3135,
      "][9][5": 3136,
      "[2][1][2][1]": 3137,
      "][If][None][None][If][None][None][None]": 3138,
      "[0][0][1][2][0]": 3139,
      "[None][For][If][Return][None][If][None][If][None]": 3140,
      "][3][0][4": 3141,
      "][1][5][0]": 3142,
      "[0][0][0][0][1][1]": 3143,
      "[If][None][For][None][None]": 3144,
      "][22,23][21": 3145,
      "][2][1][0][3": 3146,
      "][5][0][5][0": 3147,
      "][None][If][For][None][If": 3148,
      "[If][None][Try][Return][Return]": 3149,
      "][27,28][29": 3150,
      "][If][If][Return][Return][Return][Return]": 3151,
      "[None][For][None][None][For][None]": 3152,
      "][11][12,11": 3153,
      "[1][2][3,4][1][5,1][1]": 3154,
      "[1][5][0": 3155,
      "][][][13,14": 3156,
      "[None][For][None][If][None][None]": 3157,
      "][1][0][0][1][0][1][0": 3158,
      "[If][Return][If][None][If][None]": 3159,
      "][2][0][1][1][1]": 3160,
      "[2][1][0][0][0": 3161,
      "[5][1][1]": 3162,
      "[0][0][1][0][2": 3163,
      "[0][0][1][0][2]": 3164,
      "[0][0][1][1][2]": 3165,
      "[1,2][2][3,4][5][6,7][8": 3166,
      "[Try][None][If": 3167,
      "[Try][If][None][Return][Return]": 3168,
      "[1][0][3][1]": 3169,
      "][][7][8,9][10": 3170,
      "[1,2][][3,4][][5,6][7][][]": 3171,
      "][If][For][None][None][None]": 3172,
      "][1][4][4]": 3173,
      "[1,2][2][3,4][4][5,6][7][7][8,9": 3174,
      "[Try][None][None][If][None][None]": 3175,
      "[0][1][0][0][2]": 3176,
      "[0][1][0][0][0][0][0]": 3177,
      "][28][28": 3178,
      "[2][0][0][1][0]": 3179,
      "[0][1][0][1][0][1][2]": 3180,
      "[If][None][If][None][None][None][For": 3181,
      "[If][None][If][None][None][If][None][Return]": 3182,
      "[1,2][2][3,4][][5,6][][7,8": 3183,
      "][7,4][4]": 3184,
      "][1][0][1][0][1][0][1][0][1][0][1][0": 3185,
      "[1][2][3][4,5][3][1]": 3186,
      "[1][2][3,1][4,5][1][1]": 3187,
      "[11][0": 3188,
      "[1][2,3][4,1][5][1][6,7][8,5": 3189,
      "[1,2][3][4,5][6][3][3": 3190,
      "][1][16,17": 3191,
      "[19]": 3192,
      "[1][2,3][3,1][]": 3193,
      "][][14][15,16": 3194,
      "][2][1][6": 3195,
      "][2][1][0][0][1]": 3196,
      "][1][1][2][3": 3197,
      "][5][14,15": 3198,
      "][6][2": 3199,
      ",62": 3200,
      ",6][]": 3201,
      "][1][0][0][3]": 3202,
      "][1][0][0][1][1][0]": 3203,
      "][10,8][8]": 3204,
      "[If][None][If][If][None][None][Return]": 3205,
      "[0][0][7": 3206,
      "[Try][Return]": 3207,
      "][While][None][None]": 3208,
      "[If][None][If][None][If][None][If][Return": 3209,
      "][6][7,8][][]": 3210,
      "[0][1][1][1][2]": 3211,
      "][If][None][If][None][If][None][If": 3212,
      "[1,2][2][3,4][5][5][6,7": 3213,
      "][25][26,27": 3214,
      "[1,2][3][][4,5][3][2]": 3215,
      "][7,8][9][8": 3216,
      "[1][1][2][0][0": 3217,
      "[1,2][2][3,4][][5,6][6][]": 3218,
      "[1,2][3,4][][][5][]": 3219,
      "][8][9,10][11,10": 3220,
      "][6][9,10][8": 3221,
      "][2][1][4]": 3222,
      "][][][10,11": 3223,
      "[0][6][0": 3224,
      "][8][9][10,11][12,13": 3225,
      "[If][Return][If][If][Return][Return]": 3226,
      "][9,7][7]": 3227,
      "][If][None][None][If][None][Return]": 3228,
      "][12,4": 3229,
      "[5][0][0]": 3230,
      "[3][1][1][0]": 3231,
      "][17,12": 3232,
      "][][6,5": 3233,
      "[1,2][][3,4][][5,6][7,6": 3234,
      "[0][0][0][1][1][0": 3235,
      "][6][7,8][9,10][11,12": 3236,
      "][15,16][17,18][19": 3237,
      "[2][0][2][1]": 3238,
      "[1,2][2][3,4][4][5,6][6][7][]": 3239,
      "[0][0][0][0][0][0][0][0][0][0][0][0][0][0][0][0][0][0][0][0][0": 3240,
      "][11][12,13][14,15][16,17": 3241,
      "[None][For][None][Return][For][If][None]": 3242,
      "][9,10][11][11": 3243,
      "[If][Try][Return][Return][None]": 3244,
      "[1][2,3][4][][5,1][6,4][4]": 3245,
      "[1,2][3][4][5,2": 3246,
      "[1][2,3][3][4,5][5][]": 3247,
      "[1][2,3][4][][5,6][7,4][8,1": 3248,
      "][24][25,26][26][27,28": 3249,
      "][2][1][1][0][1]": 3250,
      "[1][8": 3251,
      "[1][4][1]": 3252,
      "[None][For][None][If][None][If": 3253,
      "][If][If][If][If][Return": 3254,
      "[4][2][0": 3255,
      "][1][0][0][1][1][0][0": 3256,
      "][1][0][0][0][0][0][0][0][0][0][0": 3257,
      "][2][0][5": 3258,
      "][9,6][6]": 3259,
      "][Try][If][Return": 3260,
      "[2][2][1][2": 3261,
      "][1][2][0][0][0][0": 3262,
      "[If][None][None][Try][None][None": 3263,
      "[If][None][None][If][None][None][None]": 3264,
      "[1][2,3][4][][1]": 3265,
      "][9,10][][": 3266,
      "][1][3][3": 3267,
      "][][7,5": 3268,
      "][While][None]": 3269,
      "][][6,4": 3270,
      "[If][None][If][None][If][Return][None][None]": 3271,
      "[1][2][3,4][5][6,7": 3272,
      "[2][0][1][0][0]": 3273,
      "[1,2][3][4,5][][5": 3274,
      "[1,2][3][3][4,5][5][6,7": 3275,
      "][9][10,11][][]": 3276,
      "][13][14,15][15": 3277,
      "][None][None][None][None][None][None]": 3278,
      "][2][2][0][1]": 3279,
      "][2][2][0][2]": 3280,
      "][9,10][11,8": 3281,
      "[None][For][None][None][For][For": 3282,
      "][13,14][15,16][17,18": 3283,
      "][12][13,12": 3284,
      "[1,2][3,2][][4,1": 3285,
      "[1,2,3][4][][][]": 3286,
      "[1][2][3,1][4,1][5": 3287,
      "][59,60": 3288,
      "[1,2][3][4,5][][3][6,7][3][8,9][3][10,11][3][12,13": 3289,
      "[1][2,3][4,5][][6,7][8,1": 3290,
      "][][18,19][20": 3291,
      "][4][5][]": 3292,
      "][6][11": 3293,
      "][6][7][8,9][10,7": 3294,
      "][75": 3295,
      "[None][For][If][None][If][None][If": 3296,
      "][If][If][If][If][If][None][None": 3297,
      "][1][0][0][1][0][0]": 3298,
      "[2][1][0][1][1": 3299,
      "[2][4][0": 3300,
      "][None][Return][None][None": 3301,
      "][1][1][0][2][1]": 3302,
      "[If][None][None][Return][For": 3303,
      "[0][0][0][1][2": 3304,
      "[0][1][0][2][0": 3305,
      "[1,2][3][4,5][][6,7": 3306,
      "[None][While][None][For": 3307,
      "[None][While][Try][Return": 3308,
      "[1,2][3][3][4,5][6][7,6": 3309,
      "[0][0][0][0][0][0][0][0][0": 3310,
      "[1,2][3][][4][5,6][7,8": 3311,
      "][If][None][If][None][If][None][If][None][None": 3312,
      "][6][7,2": 3313,
      "][][8,9][][]": 3314,
      "][None][While][None][None]": 3315,
      "[0][1][2][0][0]": 3316,
      "][2][1][2][0][0": 3317,
      "[1,2][3,4][][5][5][2]": 3318,
      "[1][2,3][4,5][6,7][1][8,1": 3319,
      "][2][4][0][0": 3320,
      "][1][0][1][1][0][1][1]": 3321,
      "[1,2][3,4][5,6][4][7,2": 3322,
      "][If][While][None][None": 3323,
      "[1,2][3,4][5,6][][7,2": 3324,
      "[1,2][][3,4][][5,6][][7,8][][9,10][][11,12][][13,14][][15,16][][17,18][][19,20][][21,22][][23,24": 3325,
      "][74": 3326,
      "][1][0][0][4": 3327,
      "][1][0][0][1][1][1]": 3328,
      "][9][3": 3329,
      ",8][]": 3330,
      "][None][For][None][For][None]": 3331,
      "[If][None][If][If][None][Return": 3332,
      "][1][1][0][1][0][1][0": 3333,
      "[If][None][None][None][For][If][Return": 3334,
      "[1][0][1][0][1][1": 3335,
      "][][7,3][3]": 3336,
      "[0][0][0][1][0][1][0]": 3337,
      ",16][16]": 3338,
      "[0][1][0][3": 3339,
      "[1,2][3][][4][5,6][7,4": 3340,
      "][][38": 3341,
      "[1,2][2][3,4][5][][6,7": 3342,
      "[If][None][If][Return][If][None][Return]": 3343,
      "][21,22][20": 3344,
      "][1][0][0][0][0][1][0]": 3345,
      "][If][None][If][None][None][If][None]": 3346,
      "][1][0][1][0][0][0][0]": 3347,
      "][5][6,7][8][8][]": 3348,
      "[1,2][][3,4][5,6][7,8][][9,10": 3349,
      "][28,29][30": 3350,
      "[1][2,3][4,1][5][6,2": 3351,
      "[If][None][If][None][If][None][If][None][If][None][If][None][If][None][Return]": 3352,
      "][22,23][24,25][26": 3353,
      "][11][12,13][14,11": 3354,
      "[1,2][][3,4][5][6,5][][5]": 3355,
      "[1][2,3][4,5][6,7][5][8,1": 3356,
      "[0][12": 3357,
      "][73": 3358,
      "][7][14,15": 3359,
      "][If][If][If][If][None][If": 3360,
      "][If][If][If][None][If][If][None][None": 3361,
      "][Try][None][Return]": 3362,
      "[If][None][If][If][Return][None]": 3363,
      "][1][1][0][2][0]": 3364,
      "[None][For][If][Return][None][For": 3365,
      "][][43": 3366,
      "][12,13][14,15][16,17": 3367,
      "[1][1][1][1][2": 3368,
      "[If][None][None][For][If][None]": 3369,
      "][25]": 3370,
      "[0][2][4]": 3371,
      "][7,8][9,10][][11": 3372,
      "[0][2][0][1][1]": 3373,
      "[None][For][If][If][None][If][None][If": 3374,
      "[None][For][None][Return][For][If][None][None]": 3375,
      "[1,2][][3,4][5,6][7,8][][][][]": 3376,
      "[If][Try][Return][Return][Return]": 3377,
      "][19][20,21][22": 3378,
      "[If][For][Return][If][None]": 3379,
      "][10][11,12][13,10": 3380,
      "[1][2,3][4,1][][5,1][6,7": 3381,
      "][9][10,11][11][12,13][13][14,15][15][16,17": 3382,
      "][12][13,14][15,12": 3383,
      "][1][1][0][0][0][0][0": 3384,
      "[0][1][7": 3385,
      "][1][0][8": 3386,
      "][1][0][5][0": 3387,
      "][77": 3388,
      "[If][Return][Try][If][None][None": 3389,
      "[If][Return][If][None][Try": 3390,
      "][12,9": 3391,
      "[If][None][If][Return]": 3392,
      "[0][0][1][2][0": 3393,
      "[0][0][1][3]": 3394,
      "[1,2][2][3,4][2][5,6": 3395,
      "[1][0][1][1][1][1": 3396,
      "[1][0][1][1][0][0": 3397,
      "][If][Return][If][Return][If][Return": 3398,
      "][None][None][For][None][None": 3399,
      "[0][1][0][3]": 3400,
      "[1,2][3,4][5,6][1": 3401,
      "[Try][None][None][If][None]": 3402,
      "[None][While][None][Return][For": 3403,
      "[1][1][1][0][0][0": 3404,
      "[1,2][3][3][4,5][6,7][8": 3405,
      "][26]": 3406,
      "[0][1][0][1][0][1][0]": 3407,
      "[1,2][3,4][][5][][]": 3408,
      "][None][If][If][None][None][None][Return]": 3409,
      "[1,2][2][3,4][][5,6][][7,8][][]": 3410,
      "[If][None][If][None][If][None][If][None][If][None][None]": 3411,
      "][1][0][0][0][0][0][0][0][0": 3412,
      "[1,2][2][3][4,2": 3413,
      "[If][None][If][None][If][None][If][None][If][None][If][None][If][None][If][None][If][None][If][None][If": 3414,
      "[None][For][If][If][None][If][None][Return": 3415,
      "[1,2][][3,4][4][5,6][6][7,8][8][]": 3416,
      "][1][15,16": 3417,
      "][66,67": 3418,
      "][2][][]": 3419,
      "][Return][If][Return][None]": 3420,
      "[If][If][Return]": 3421,
      "][4][7": 3422,
      "][None][If]": 3423,
      "][5][6][7,8][9,6": 3424,
      "][8][15": 3425,
      "][8][4]": 3426,
      "][8][8][]": 3427,
      "[If][Return][None][For][None]": 3428,
      "][Try][If][None][None]": 3429,
      ",7,8": 3430,
      "[2][4]": 3431,
      "[2][1][1][2": 3432,
      "[20]": 3433,
      "[0][0][1][2][1]": 3434,
      "[0][0][3][1]": 3435,
      "[0][0][1][0][0][0][0]": 3436,
      "][14,1": 3437,
      "][2][2][3": 3438,
      "][12,13][9": 3439,
      "][13,14][10": 3440,
      "[0][0][0][1][0][1]": 3441,
      "][If][For][None][If][None][None": 3442,
      "[0][1][0][1][0][0][0": 3443,
      "][2][0][0][3": 3444,
      "][22][]": 3445,
      "][1][0][2][1][1][0": 3446,
      "][3][3][3": 3447,
      "[1,2][3,4][5][][5][]": 3448,
      "][13][14,15][15][]": 3449,
      "][None][None][None][None][None][None": 3450,
      "][None][If][If][None][None][None][None": 3451,
      "][36][36": 3452,
      "[1,2][3,4][][][5,2][]": 3453,
      "[None][For][None][None][For][None][None]": 3454,
      "][18][19,20][21": 3455,
      "[1,2][2][3,4][4][5,6][6][7,8][8][9,10][10][11,12][12][13,14][14][]": 3456,
      "][][7,8][][9,10][][]": 3457,
      "[1,2][][3,4][4][5,6][6][7,8][8][9,10][10][11,12": 3458,
      "][7,8][][][9,10": 3459,
      "][40,41][42,43": 3460,
      "][41,42][43,44": 3461,
      "][2][0][0][0][0][0][0][0][0": 3462,
      "[1][1][7": 3463,
      "][1][1][1][2][1]": 3464,
      "][4][10": 3465,
      "[None][If][None][If][None][If": 3466,
      "][8][7": 3467,
      "[If][Return][If][None][If][None][None": 3468,
      "][9][3]": 3469,
      "][If][None][None][If][If][None][None": 3470,
      "[If][None][If][If][Return][None][None]": 3471,
      "][6,7][3": 3472,
      "][16,1": 3473,
      "][16,9": 3474,
      "[6][1][0]": 3475,
      "][][45": 3476,
      "][3][0][1][0][0": 3477,
      "][1][2][0][1][2": 3478,
      "[If][If][Return][None][None][None]": 3479,
      "][6][7,1][1]": 3480,
      "[2][0][0][1][1]": 3481,
      "][None][If][For][For": 3482,
      "[1][1][0][0][1][0]": 3483,
      "][9,10][11,6": 3484,
      "[1][1][1][1][1][1]": 3485,
      "[1][1][1][1][1][1][1]": 3486,
      "[1,2][2][3,4][5,6][][": 3487,
      "[1][2,3][4,5][][][6,1][]": 3488,
      "[0][5][0][0": 3489,
      "][][16,17][18": 3490,
      "][7,1][8,9": 3491,
      "[1][2][3][4,1][5,6": 3492,
      "[1,2][][3,4][5][5][6,7][][]": 3493,
      "][3,1": 3494,
      "[If][If][None][If][None]": 3495,
      "[If][None][Return][Return]": 3496,
      "][5][6][7,8][9,10": 3497,
      "[None][For][If][If][None][Return": 3498,
      "][If][If][If][If][None][Return": 3499,
      "][1][0][0][1][2]": 3500,
      "[If][Return][If][Try][Return": 3501,
      "][11][1]": 3502,
      "][1][1][0][3]": 3503,
      "][1][1][0][1][1][1][1": 3504,
      "[If][None][None][Try": 3505,
      "[1,2][3,4,5": 3506,
      "][11,12][8": 3507,
      "][2][2][2][0": 3508,
      "][2][2][2][2]": 3509,
      "[None][For][If][Return][None][If][None][If][None][None]": 3510,
      "][13,14][9": 3511,
      "[1,2][][3,4][][5,6][7][8,9][10,11": 3512,
      "[0][0][0][3": 3513,
      "[0][1][1][1][2": 3514,
      "[1][1][1][3": 3515,
      "[1][1][1][3]": 3516,
      "[1,2][3][][4][3]": 3517,
      "[1,2][][3,4][5][][6,7][8,9": 3518,
      "][27]": 3519,
      "][][10,11][9": 3520,
      "[1][2][3][4,5][3][]": 3521,
      "[1,2][][3,4][5,6][7,8][9][9": 3522,
      "][][12,13][14,15": 3523,
      "][][14][]": 3524,
      "[None][For][If][None][None][None][For": 3525,
      "][][37,38": 3526,
      "][][39,40": 3527,
      "[1][1][0][1][0][1]": 3528,
      "][1][1][5]": 3529,
      "][6][13": 3530,
      "][If][If][Try][None][None": 3531,
      "][10][10][11,12": 3532,
      "[2][1][0][2": 3533,
      "[2][1][0][2]": 3534,
      "[Try][None][If][Return][None][None]": 3535,
      "[1][2,3][4,1][5][6,7": 3536,
      "][][42": 3537,
      "][If][For][None]": 3538,
      "][2][0][0][2][0]": 3539,
      "][1][2][0][2][1]": 3540,
      "[2][0][4]": 3541,
      "][None][Try][None][Return": 3542,
      "][None][Try][Return][None]": 3543,
      "[1,2][3,4][5,6][][7,8][][9,10": 3544,
      "[1,2][3][3][4,5][6][7,8][9,10": 3545,
      "][17,18][][19,20": 3546,
      "][7][8,9][7][]": 3547,
      "][If][If][Return][If][If][Return": 3548,
      "[1][0][0][2][0]": 3549,
      "[1,2][3][4][4][5,6": 3550,
      "[1,2][3][][4,5][6,7][8,9": 3551,
      "[1][1][0][2][0]": 3552,
      "[1,2][3,4][5][6": 3553,
      "[3][0][1][1]": 3554,
      "][2][3][3]": 3555,
      "][12][13,14][15,16][17": 3556,
      "][None][If][For][None][Return": 3557,
      "[If][None][Try][None]": 3558,
      "[1][1][2][2]": 3559,
      "[1,2][][3,4][5,6][][6": 3560,
      "[If][If][None][None][None][None]": 3561,
      "][14,15][16,17][18": 3562,
      "[1][2,3][4][][5,1][6,7": 3563,
      "][If][None][Try][None][None][None]": 3564,
      "[1,2][2][3,4][5,4][6,7][4": 3565,
      "[1,2][][3,4][4][5][6,7][8,9": 3566,
      "[1][2,3][4,5][][5][6,7][7][8,9": 3567,
      "[1][2,3][1][4][5][4]": 3568,
      "][2][13": 3569,
      "][Return][If][None][Return]": 3570,
      "[None][None][If][Return": 3571,
      "[None][For][None][If][Return": 3572,
      "[None][For][None][None][While": 3573,
      "[4][1][2]": 3574,
      "][9][10][]": 3575,
      "[2][2][1][1]": 3576,
      "][If][None][None][If][None][If][None][If": 3577,
      "][None][For][None][If][None]": 3578,
      "[0][0][1][4": 3579,
      "[0][0][7]": 3580,
      "[Try][None][Return]": 3581,
      "][If][None][If][If][None][None][None]": 3582,
      "][15,9": 3583,
      "[3][3][0": 3584,
      "[3][1][4": 3585,
      "][If][If][None][None][None][If": 3586,
      ",15][15]": 3587,
      "][][8,4": 3588,
      "[2][0][4": 3589,
      "[2][0][1][0][1]": 3590,
      "][23][]": 3591,
      "][24][]": 3592,
      "[If][None][If][Return][If][Return][None]": 3593,
      "[If][None][If][Return][None][If][None][If][None][None]": 3594,
      "[1,2][2][3][4,5][6,7][8": 3595,
      "[If][Return][None][For][None][None]": 3596,
      "][2][0][2][0][2]": 3597,
      "][1][0][1][0][0][0][0][0": 3598,
      "][][13,14][15,16": 3599,
      "[1][1][0][0][1][1]": 3600,
      "][8][9,10][11][11][12,13": 3601,
      "[1,2][][3][4][5,3": 3602,
      "][11,12][13,10": 3603,
      "][][15]": 3604,
      "[1,2][3,2][][4,1][]": 3605,
      "][15][15][]": 3606,
      "][][7,3][6]": 3607,
      "[1][2,3][4,5][][5][6,7][7][1]": 3608,
      "[1,2][2][3,4][5][6,5][7,8][5": 3609,
      "][3][2][1][1": 3610,
      "][None][None][If][None][Return]": 3611,
      "][][][][][]": 3612,
      "[None][None][If][None][None": 3613,
      "][6][10": 3614,
      "[4][4": 3615,
      ",7][7": 3616,
      "][11][0][0": 3617,
      "][1][21": 3618,
      "[0][0][2][1][1]": 3619,
      "][16,14": 3620,
      "][2][2][0][0]": 3621,
      "[None][For][If][Return][Return][None]": 3622,
      "][12,13][][14": 3623,
      "[0][1][0][1][0][0]": 3624,
      "[1,2][3][3][4,5][5][6,7][8,9": 3625,
      "[0][0][0][0][0][1][0]": 3626,
      "][8][9,10][][11,12": 3627,
      "[1,2][][3,4][][5,6][][7,8][8][]": 3628,
      "[1,2][3,4][5][][6,7": 3629,
      "[1][2,3][1][4,5][6": 3630,
      "][1][0][2][0][2]": 3631,
      "[1][0][0][0][1][0]": 3632,
      "[If][Return][For][None]": 3633,
      "[If][Return][For][None][Return]": 3634,
      "][7][8,3": 3635,
      "[1][2,3][4,1][][5,6][6][1]": 3636,
      "][1][10]": 3637,
      "[None][For][If][If][None][None][None][Return]": 3638,
      "[If][Return][If][If][If][None][Return": 3639,
      "[None][While][If][Return][Return][None]": 3640,
      "[1,2][3][][4,5][6][6][]": 3641,
      "][7][8,7][][7]": 3642,
      "[1][2,3][4,5][][6][7,8][1][6": 3643,
      "][][1][]": 3644,
      "][Return][None][None][None]": 3645,
      "][][][9,10": 3646,
      "][][][16,17": 3647,
      "][5][2][0": 3648,
      "[None][If][None][None][For": 3649,
      ",66": 3650,
      "[4][1][1": 3651,
      "[4][3][0": 3652,
      "][9][11,12": 3653,
      "[2][0][0][0][1]": 3654,
      "[If][None][If][For][For": 3655,
      "][13][13]": 3656,
      "][While][Return": 3657,
      "][3][0][2][0": 3658,
      "][2][0][0][2][0": 3659,
      "[0][1][1][2][0]": 3660,
      "[2][0][1][0][0": 3661,
      "[2][0][1][2": 3662,
      "[0][0][0][0][0][0][0][0][0][0][0]": 3663,
      "[1,2][2][3,4][5][5][6,7][7][]": 3664,
      "[1,2][3][][4,5][][6,7][][8,9": 3665,
      "[If][None][For][If][Return][Return]": 3666,
      "][5][0][1]": 3667,
      "[If][If][If][None][None][None][None][Return]": 3668,
      "][][11,7": 3669,
      "][10,11][12,6": 3670,
      "][If][Return][If][Return][If][Return][If][Return][Return]": 3671,
      "][37][38,39": 3672,
      "[0][2][0][0][1]": 3673,
      "][20][21,22][23,24": 3674,
      "[1][2,3][4,3][][5": 3675,
      "][10,11][5][12,13": 3676,
      "[1][2][3,4][4][5,1][1]": 3677,
      "][][21,22][23,24": 3678,
      "[1][9": 3679,
      "[1][1][6]": 3680,
      "][1][1][1][3][0": 3681,
      "][7][][9": 3682,
      "][8][][]": 3683,
      "[None][For][None][If": 3684,
      "[None][For][None][None][None]": 3685,
      "][9][10][11": 3686,
      "[2][1][0][0][1]": 3687,
      "[0][0][1][1][0][0]": 3688,
      "][14,3": 3689,
      "[1][0][1][2][1]": 3690,
      "][8,9][10,11": 3691,
      "][1][0][1][0][1][2": 3692,
      "][2][2][1][2]": 3693,
      "[1,2][][3,4][][5,6][7][7][8,9": 3694,
      "[0][0][0][2][0": 3695,
      "[0][1][0][1][3": 3696,
      "[0][1][0][1][1][0]": 3697,
      "][21][]": 3698,
      "][1][2][0][2][0]": 3699,
      "][1][0][1][1][0][0][0": 3700,
      "[1,2][][3,4][5][5][6,7][7][]": 3701,
      "[1,2][][3][4,5][6,5": 3702,
      "[1,2][2][3,4][5][5][6,7][8,9": 3703,
      "][None][Return][For][If][None]": 3704,
      "][None][Return][For][If][None][None]": 3705,
      "[0][2][2][0": 3706,
      "][19,20][18": 3707,
      "][None][If][None][None][None][Return]": 3708,
      "][If][None][None][For][If][None]": 3709,
      "[If][If][If][None][None][Return]": 3710,
      "][27,28][29,30": 3711,
      "[1,2][][3,4][5,6][][6][]": 3712,
      "[1,2][][3,4][][5,6][][7,8][][9,10][][11,12": 3713,
      "[1][2][0][1]": 3714,
      "][13,14][15,16][14": 3715,
      "][11,12][13,14][12": 3716,
      "][14][14][]": 3717,
      "[0][1][1][1][1][0]": 3718,
      "[1,2][3,4][5,4][6,1": 3719,
      "][13][14,15][16,17][18,19": 3720,
      "][40,41][42": 3721,
      "[1,2][2][3,4][4][5,6][6][7,8][8][9,10][10][11,12][12][13,14][14][15,16][16][17,18][18][19,20][20][21,22][22][23,24": 3722,
      "][][41,42": 3723,
      "][][][7]": 3724,
      "][5][][": 3725,
      "[1][2][4]": 3726,
      ",69": 3727,
      "][8][5": 3728,
      "[None][For][If][None][If][For": 3729,
      "][9][][]": 3730,
      "][9][4]": 3731,
      "[2][2][1][0": 3732,
      "][None][For][Return": 3733,
      "[If][None][If][If][None][If][Return": 3734,
      "[3][1][3]": 3735,
      "][If][If][None][None][None][If][None][If": 3736,
      "][2][2][1][0]": 3737,
      "][][47": 3738,
      "][][49": 3739,
      "[1,2][][3,4][][5,6][7,8": 3740,
      "[0][1][1][0][0][0": 3741,
      "][8][9,10][8][]": 3742,
      "][1][0][2][3": 3743,
      "][7][7][1]": 3744,
      "][][10][10": 3745,
      "][1][1][2][0][0]": 3746,
      "[None][For][For][None][None]": 3747,
      "[1,2][][3][4,5][6,3][][7,8": 3748,
      "[Try][Return][None][None]": 3749,
      "[If][None][Return][For][None][None]": 3750,
      "[1,2][3,2][][4,1][1]": 3751,
      "][5][6,7][7][8,9][9][]": 3752,
      "[1,2][2][3,4][5,4][][4]": 3753,
      "[1,2][][3,4][5][6,7][][5][5]": 3754,
      "][12,13][14,11": 3755,
      "[1,2][2][3,4][5,2][][]": 3756,
      "][][18,19][][20,21": 3757,
      "][][5][8,9][5": 3758,
      "[1][10": 3759,
      "][1][1][3][1]": 3760,
      "[If][If][None][None][For": 3761,
      "[0][1][1][1][1][1]": 3762,
      "[0][7][0": 3763,
      "[None][Try": 3764,
      ",71": 3765,
      "][1][22": 3766,
      "][1][2][1][1][1]": 3767,
      "][None][For][None][If": 3768,
      "[5][3": 3769,
      "[5][1]": 3770,
      "[0][0][2][1][1": 3771,
      "][13,4": 3772,
      "][16,15": 3773,
      "][][6,3": 3774,
      "][][6,3][3]": 3775,
      "[1,2][3][4,5][6][7": 3776,
      "[1,2][3][4,5][][6,7][8,9": 3777,
      "[If][None][None][For][If][None][None]": 3778,
      "[1,2][3][][4,5][3": 3779,
      "[1,2][3,4][5][2][2": 3780,
      "][][11,12][10": 3781,
      "][For][None][None][None][None]": 3782,
      "][32][33,34": 3783,
      "[0][1][1][0][3][0][0][2][0]": 3784,
      "[1,2][3,4][][5,2": 3785,
      "[0][4][2]": 3786,
      "][2][0][0][0][0][1]": 3787,
      "][1][1][1][0][1][1][1]": 3788,
      "[1][0][0][0][0][1]": 3789,
      "][22,23][24,25][26,27": 3790,
      "][][7,3][8,9": 3791,
      "[12][0": 3792,
      "[1,2][][3,4][][5,6][6][7,8][8][]": 3793,
      "][41,42][43": 3794,
      "][1][10,11][1][12,13": 3795,
      "][][36,37": 3796,
      "[1,2][3,4][][2][5,2][2]": 3797,
      "][][1][1": 3798,
      "][2][1][0][0][0]": 3799,
      "[1][4][0][0": 3800,
      "][31]": 3801,
      "[If][If][Try][None][None": 3802,
      "][4][1][4": 3803,
      "][5][1][1][0": 3804,
      "][8][9][10,11": 3805,
      "[4][2]": 3806,
      "[2][7": 3807,
      "[2][1][5]": 3808,
      "][11][16,17": 3809,
      "][11][11][]": 3810,
      "][1][2][1][3": 3811,
      "[If][None][If][If][None][If][None][If": 3812,
      "[If][None][If][If][If][Return": 3813,
      "[0][0][4][0]": 3814,
      "][14,6": 3815,
      "][1][1][0][1][2]": 3816,
      "[If][None][None][If][None][None][If][None][None": 3817,
      "[1][2,3][4][5][6,7][8,9": 3818,
      "][15,1": 3819,
      "][15,14": 3820,
      "[1][0][4][0": 3821,
      "[3][2][2]": 3822,
      "][1][0][1][0][1][2]": 3823,
      "][16,10": 3824,
      "][Try][None][None][For": 3825,
      "][][7,4][4]": 3826,
      "][][6][9,10": 3827,
      "][If][If][None][None][None][None][Return]": 3828,
      "[None][For][If][Return][If][If][None][None]": 3829,
      "[0][0][0][1][0][0][0": 3830,
      "][If][For][None][Return": 3831,
      "[1,2][2][3,4][4][5,6][7,8][9,10][8": 3832,
      "][If][If][None][If][Return][Return": 3833,
      "[1][1][1][2][1]": 3834,
      "[1,2][3][3][4,5][3][]": 3835,
      "[0][0][0][0][0][0][0][0][0][0]": 3836,
      "][8][9,10][7": 3837,
      "][2][1][1][0][0][0": 3838,
      "][7][8,9][10,11][12,13": 3839,
      "[8][0][0": 3840,
      "[1][0][0][1][0][0": 3841,
      "][10][11,12][12][]": 3842,
      "[If][Return][If][Return][If][Return][If][Return][If][Return][If][Return][Return]": 3843,
      "[1][1][0][3][1][1][1]": 3844,
      "[1,2][][3,4][5,6][7][7": 3845,
      "[1][1][0][0][2]": 3846,
      "][None][For][For][For": 3847,
      "][If][None][If][If][None][None][None][None": 3848,
      "[1,2][3][3][4][5,6][4": 3849,
      "[None][None][For][If][Return": 3850,
      "][17,18][19,20][21": 3851,
      "[1,2][3,4][5,6][][][][7,8][][]": 3852,
      "[1,2][3,4][4][1][]": 3853,
      "[1][2,3][4,5][][6,1][1][1]": 3854,
      "][3][6]": 3855,
      "][1][1][7": 3856,
      "][1][1][0][0][0][0]": 3857,
      "[0][1][8": 3858,
      "][1][0][9": 3859,
      "[1][2][1][1][1]": 3860,
      "[1][2][2][1]": 3861,
      "[None][For][None][If][Return][Return]": 3862,
      "[1][2,3][3][4": 3863,
      "[If][Return][None][None": 3864,
      "[If][Return][None][None]": 3865,
      "][9,4][4]": 3866,
      "[2][1][0][1][2": 3867,
      "[5][0][0][0": 3868,
      "][If][None][If][Return]": 3869,
      "][If][None][If][If][None]": 3870,
      "[1][0][1][0][1][0]": 3871,
      "[1][0][2][0][1]": 3872,
      "][16,7": 3873,
      "][11,12][12": 3874,
      "][While][None][Return]": 3875,
      "][If][Return][If][Return][If][Return]": 3876,
      "][][40": 3877,
      "[1][2,3][4,5][][3": 3878,
      "[2][0][2][0": 3879,
      "[1,2][3][4,5][6,5": 3880,
      "][If][If][None][If][None][None][None][None]": 3881,
      "[1,2][3][3][4,5][][6,7][][8,9": 3882,
      "][16,17][14": 3883,
      "[1,2][3][][4,5][][6,7": 3884,
      "[If][Return][If][Return][If][Return][If][Return][If][Return][None]": 3885,
      "][6][7][6]": 3886,
      "][12][13,14][12": 3887,
      "][11][12,13][14,15][16": 3888,
      "][7,8][9,10][11][11": 3889,
      "][1][1][2][0][0][0": 3890,
      "][If][None][If][None][None][If][None][None]": 3891,
      "][24,25][26,27": 3892,
      "][None][If][For][None][None]": 3893,
      "][8][9,3": 3894,
      "[1,2][3,4][][5][6,7": 3895,
      "[If][None][Try][None][Return": 3896,
      "][9,10][11,10": 3897,
      "][16][17,18][18][19,20": 3898,
      "[1][1][1][0][2]": 3899,
      "[1][1][1][0][1][0]": 3900,
      "][][13][13": 3901,
      "[1,2][3,4][5,6][4][7,8": 3902,
      "][If][If][If][Return][None][None": 3903,
      "][15][15]": 3904,
      "[If][For][Return][If][Return]": 3905,
      "[1,2][3,4][5][4][5][]": 3906,
      "][13][14,13": 3907,
      "][6][7,1][8,9": 3908,
      "6]": 3909,
      "[1][1][4][0": 3910,
      "][Return][If][None][None": 3911,
      "[If][If][Try": 3912,
      "[1][2][0][0][0": 3913,
      "][If][Return][None][Return": 3914,
      "[None][For][If][If][None][If][None][None": 3915,
      "][If][If][None][If][None][If][None][If][None][If": 3916,
      "][If][If][If][None][If][Return": 3917,
      ",8][8": 3918,
      "[2][3][0][0": 3919,
      "[If][None][If][If][None]": 3920,
      "][If][None][If][For][Return": 3921,
      "[1][2,3][4][5][6,7": 3922,
      "][15,7": 3923,
      "][15,8": 3924,
      "][15,13": 3925,
      "[1][0][1][1][2]": 3926,
      "[3][1][1][1][1": 3927,
      "][17,16": 3928,
      "][2][2][4": 3929,
      "][2][2][3]": 3930,
      "[If][None][If][None][If][None][If][Return][Return]": 3931,
      "][12,13][14,15][16": 3932,
      "[0][0][0][1][0][0][0]": 3933,
      "][][7,8][][9": 3934,
      "][1][0][1][1][0][0]": 3935,
      "[1,2][3,4][5,6][7,1": 3936,
      "[Try][None][None][If][Return": 3937,
      "[None][While][If][None][None": 3938,
      "[None][While][If][Return]": 3939,
      "[1][1][0][1][0][0": 3940,
      "][If][None][None][For][If][None][None]": 3941,
      "][1][0][0][0][0][1][1]": 3942,
      "[3][0][3]": 3943,
      "][30][30": 3944,
      "][Try][If][None][None][None][None]": 3945,
      "][1][1][2][1][2": 3946,
      "[1][2,3][4,5][][6,2": 3947,
      "][][10,11][][12": 3948,
      "][33][33": 3949,
      "[If][None][If][None][None][If][None]": 3950,
      "][1][8,1][1]": 3951,
      "][7][8,1": 3952,
      "][15][16,17][18,19][20,21": 3953,
      "][8,9][10,5": 3954,
      "[0][2][2][1]": 3955,
      "[1,2][][3,4][5,6][7,6": 3956,
      "][7,5][8,9": 3957,
      "][2][2][0][2][0": 3958,
      "][3][1][1][1][1": 3959,
      "][1][0][1][1][1][1][1]": 3960,
      "][6][4]": 3961,
      "][6][7][8,9][10,11": 3962,
      "][78": 3963,
      "][79": 3964,
      "][1][0][0][2][0][0": 3965,
      "[2][2][3": 3966,
      "][None][For][If][None][None][None]": 3967,
      "[Try][Try][None][None": 3968,
      "][1][1][0][1][0][0]": 3969,
      "[3][5": 3970,
      "[3][3]": 3971,
      "][1][3][0][0]": 3972,
      "][1][1][1][1][1][1][1][1]": 3973,
      "][18,17": 3974,
      "[1][2][3,4][5,6][7,1": 3975,
      "[2][0][1][1][1]": 3976,
      "][4][0][4][0": 3977,
      "[0][2][1][2]": 3978,
      "][21,22][18": 3979,
      "][][8,9][10,11": 3980,
      "][None][None][None][None][None][None][None][None": 3981,
      "[1][0][0][0][1][1]": 3982,
      "][2][4][0]": 3983,
      "[1][1][1][0][1][1]": 3984,
      "[If][Return][If][None][If][Return][None]": 3985,
      "[Try][Return][If][Return][None]": 3986,
      "][None][For][For][None]": 3987,
      "][If][None][Try][If][None][None": 3988,
      "[1,2][][3][4][5,3][3]": 3989,
      "[1,2][2][3,4][5,6][][][]": 3990,
      "][][15][]": 3991,
      "][1][0][0][0][0][0][0][0][0]": 3992,
      "[1][2,3][4,5][6][1": 3993,
      "[If][None][If][None][If][None][If][None][If][None][If][None][If][None][If][None][Return]": 3994,
      "[1,2][3,4][4][][5,6": 3995,
      "][][14,15][][]": 3996,
      "][If][None][Try][None][None][Return]": 3997,
      "[1,2][][3,4][5][6,7][][5][]": 3998,
      "][7,5][]": 3999,
      "[1,2][3,2][4,5][2][5][]": 4000,
      "[1,2][3][][4,5][6,3][][3]": 4001,
      "][3][16,17][3": 4002,
      "0][0": 4003,
      "][][13][14,15": 4004,
      "][2][6,7": 4005,
      "[1][3][3]": 4006,
      "][3][9": 4007,
      "][3][2][0]": 4008,
      "[If][If][Try][Return": 4009,
      "[0][1][5][0": 4010,
      "[None][None][None][None][Return]": 4011,
      ",68": 4012,
      "[4][1][0][0": 4013,
      "[If][Return][If][If][None][None": 4014,
      "[If][Return][None][None][Return]": 4015,
      "][Try][None][If": 4016,
      "[2][1][3][0": 4017,
      "][11,8": 4018,
      "][1][2][2][1]": 4019,
      "][13,10": 4020,
      "][1][1][0][1][0][1][1]": 4021,
      "[1][0][1][0][2": 4022,
      "[3][1][0][1]": 4023,
      "[None][For][If][Return][If][If][None][None": 4024,
      "][18,11": 4025,
      "][1][4][1][1]": 4026,
      "[0][1][1][0][0][1]": 4027,
      "[2][0][1][2]": 4028,
      "[1,2][3,4][5,6][7,8": 4029,
      "[Try][None][None][If][None][If": 4030,
      "[1,2][3][3][4,5][6,7][][8": 4031,
      "[1][0][0][3": 4032,
      "[1,2][][3,4][][5,6][][7,8][][9][]": 4033,
      "][28][29": 4034,
      "][For][None][None][None][None": 4035,
      "[1][2,3][1][4,5][6,5": 4036,
      "][1][7,1][1]": 4037,
      "[0][1][0][1][0][1][3]": 4038,
      "[If][None][If][None][None][If][None][None]": 4039,
      "][2][0][0][0][2]": 4040,
      "][10,11][12][11": 4041,
      "][38][39,40": 4042,
      "][14,15][16,17][18,19": 4043,
      "[0][5][0]": 4044,
      "[1,2][2][3,4][5,6][7,8][4][4": 4045,
      "[1,2][2][3,4][5,2][][2]": 4046,
      "[1][2,3][4,5][][6,1][7,1": 4047,
      "][63,64": 4048,
      "][][29,30][][31,32": 4049,
      "[1,2][][3,4][][5,6][7,4][][]": 4050,
      "5]": 4051,
      "[1][1][8": 4052,
      "][1][1][3][0][0": 4053,
      "][1][1][1][0][0][0]": 4054,
      "][1][1][1][0][3": 4055,
      "][][][3": 4056,
      "][5][6,3": 4057,
      "][6][12": 4058,
      "[1][2][2][0]": 4059,
      "[None][For][If][Try": 4060,
      "[4][2][1]": 4061,
      "][9][][10": 4062,
      "[21": 4063,
      "][If][None][None][None][If][None][None]": 4064,
      "][1][23": 4065,
      "[0][0][2][1][2": 4066,
      "[Try][None][If][None]": 4067,
      "[3][2][3": 4068,
      "[3][0][0][0]": 4069,
      "][1][0][1][0][1][0][1][1]": 4070,
      "][1][1][1][1][0][0][0": 4071,
      "][13,14][][15,16": 4072,
      "][1][0][0][0][1][0][0]": 4073,
      "[1][2][3,4][2][5": 4074,
      "][15,16][10": 4075,
      "[1,2][3,4][5,6][7][7][8,9": 4076,
      "[1][1][1][2][0]": 4077,
      "[1,2][3][][4][5,6][7": 4078,
      "[1][2][3,1][4][5,1": 4079,
      "][None][If][None][None][None][For": 4080,
      "[If][None][If][Return][None][For": 4081,
      "[If][If][Return][None][None][Return]": 4082,
      "[0][3][0][0][0": 4083,
      "][6][7,5": 4084,
      "][None][While][None]": 4085,
      "[1,2][3][4,3][5][3": 4086,
      "[1][1][2][1][1]": 4087,
      "[None][For][If][If][If][None][Return": 4088,
      "[1][2,3][4,1][5,6][][": 4089,
      "][10,11][12,7": 4090,
      "][10,11][12,11": 4091,
      "[None][For][Try][Return][None][None": 4092,
      "[None][None][For][If][Return][None]": 4093,
      "[1][2][3][4,2": 4094,
      "][17,18][19,20][18": 4095,
      "][][11,12][][13,14][][]": 4096,
      "][None][If][None][None][For][None]": 4097,
      "][][16,17][18,19": 4098,
      "[1,2][2][3][4,5][6,3][7,8][3": 4099,
      "[1,2][][3,4][4][5][6,7][8,5": 4100,
      "[If][Return][If][Return][If][Return][If][Return][If][Return][If][Return][If][Return][Return]": 4101,
      "[1][1][0][0][0][1]": 4102,
      "][3][2][1]": 4103,
      "][3][1][3]": 4104,
      "][None][If][If][If][Return": 4105,
      "[1][2][2][0": 4106,
      "][7,2][2]": 4107,
      "][If][If][If][None][For": 4108,
      "[If][Return][If][None][None][None]": 4109,
      "[If][Return][If][If][Return][Return][Return]": 4110,
      "][2][0][1][0][2": 4111,
      "][Try][None][If][None][None]": 4112,
      "[2][1][1][2]": 4113,
      "][11,2": 4114,
      "][1][2][1][1][1][1": 4115,
      "[0][0][8": 4116,
      "][15,6": 4117,
      "[1][0][6": 4118,
      "][9,10][10": 4119,
      "[3][2": 4120,
      "][1][0][1][0][1][0][0]": 4121,
      "][16,6": 4122,
      "][2][2][1][0][0": 4123,
      "[None][For][If][Return][None][None][For": 4124,
      "][If][Return][If][Return][If][Return][None]": 4125,
      "][None][None][For][If][Return][None]": 4126,
      "[1,2][3,4][5,6][7,8][9,10": 4127,
      "][None][Try][None][None][None][None]": 4128,
      "][2][1][1][2][1]": 4129,
      "][None][Return][For][None][Return]": 4130,
      "][Try][Return][None][Return]": 4131,
      "[0][0][0][0][3]": 4132,
      "[1,2][][3,4][][5,6][][7,8][][9": 4133,
      "[1][1][0][1][2": 4134,
      "][If][If][None][Return][None][None]": 4135,
      "][][10][10]": 4136,
      "[1,2][3][4,3][][5,6": 4137,
      "][8][9,5": 4138,
      "[1][1][2][1][0]": 4139,
      "][1][0][1][0][1][0][1][0][1]": 4140,
      "][8][9,10][11][11][]": 4141,
      "[None][For][For][Return][If][Return]": 4142,
      "[1,2][][3][4,5][6,7][][3][8,9": 4143,
      "[If][None][Return][For][If][None]": 4144,
      "][9][10,11][12,13][14,15": 4145,
      "[If][None][None][While][None][Return]": 4146,
      "[Try][If][Return][None][Return]": 4147,
      "[1,2][3][3][4][3]": 4148,
      "[1][2,3][4,3][5,6": 4149,
      "[1,2][][3,4][5][6,5][7,8][5": 4150,
      "][44,45][46,47": 4151,
      "][][34,35": 4152,
      "[1,2][][3,4][][5,6][][7,8][][9,10][][11,12][][13,14][][15,16][][17,18][][19,20][][21,22][][23,24][][25,26][][27,28": 4153,
      "][If][If][Return][If][Return][Return]": 4154,
      "][4][6": 4155,
      "][4][1][3": 4156,
      "][For][None][None][None]": 4157,
      "[0][6][0][0": 4158,
      "][5][10": 4159,
      "][5][0][0]": 4160,
      "[None][None][If][None][If": 4161,
      "[None][If][None][None][None]": 4162,
      "][1][0][0][3][0": 4163,
      "][9][][": 4164,
      ",70": 4165,
      "[2][2][3]": 4166,
      "][If][None][None][If][None][If": 4167,
      "[If][None][If][If][None][If][None][None": 4168,
      "][14][19": 4169,
      "[If][None][None][If][None][None][For": 4170,
      "][15,4": 4171,
      "][9,10][][][11,12": 4172,
      "[1][2,3][1][4": 4173,
      "][11,12][13,14][15,16": 4174,
      "][2][2][2][0]": 4175,
      "][][44": 4176,
      "][][9][5]": 4177,
      "][1][2][0][2][0": 4178,
      "[2][0][1][1][0]": 4179,
      "[1,2][3][4,5][][][3]": 4180,
      "][If][If][None][If][If][If][None][None": 4181,
      "][17,18][15": 4182,
      "[1][0][0][1][1][0]": 4183,
      "[0][1][0][0][1][0][0]": 4184,
      "[0][3][0][0]": 4185,
      "][3][4][0][0": 4186,
      "[1,2][][3,4][4][5,6][7][7][]": 4187,
      "[1,2][3][4,3][][5": 4188,
      "][2][0][0][0][1][0]": 4189,
      "][10][11,5": 4190,
      "[None][For][If][For][None][If][Return][None]": 4191,
      "[1][2][3][4,5][3": 4192,
      "[1][2,3][4,1][5][1][3]": 4193,
      "][7][8,9][10,9": 4194,
      "][2][1][1][0][1][1]": 4195,
      "[If][If][If][None][Return][None]": 4196,
      "[1,2][][3,4][4][5][6,7][5][]": 4197,
      "[1][2,3][4,1][][5,1][6,1": 4198,
      "[1,2][3][][4,2][5,6": 4199,
      "[1,2][3][4][5,4][][3]": 4200,
      "[1,2][3][][4][5,6][4][]": 4201,
      "][1][17,18": 4202,
      "[1,2][][3,4][5][][6,7][8][][]": 4203,
      "[1][2,3][3,1": 4204,
      "[1,2,3][4][4][4][]": 4205,
      "[1][1][7]": 4206,
      "][][][12": 4207,
      "[If][If][Return][If][Return": 4208,
      "[If][For][None][None": 4209,
      "][4][8": 4210,
      "][4][3][0": 4211,
      "][4][5]": 4212,
      "][1][0][1][4][0": 4213,
      "][5][6][7,8][9": 4214,
      "][76": 4215,
      "][7][16,17": 4216,
      "[None][For][None][None": 4217,
      "[None][For][None][If][For][Return": 4218,
      "][If][If][If][If][None][If][None][If": 4219,
      "][2][0][4][0": 4220,
      "[2][1][5": 4221,
      "[2][1][0][0][0]": 4222,
      "[24]": 4223,
      "][If][None][None][If][For][None][None": 4224,
      "[If][None][If][None][For][None]": 4225,
      "[0][0][1][1][1][0]": 4226,
      "][9,10][6": 4227,
      "][9,10][][11,12": 4228,
      "][16][16]": 4229,
      "][][6][7,8][9,10": 4230,
      "][][6][7,8][9,6": 4231,
      "[None][For][If][Return][If][None][If][None]": 4232,
      "[If][None][If][None][If][None][If][If][None][None": 4233,
      "[1][1][1][1][1][0": 4234,
      "[1,2][][3,4][5][5][6][7,8": 4235,
      "[1][0][0][2][1]": 4236,
      "][26][27": 4237,
      "][0][0][0][0][0][0][0][0][0][0]": 4238,
      "][1][0][0][0][0][2]": 4239,
      "][If][None][For][If][None][For": 4240,
      "[Try][None][Return][None][For": 4241,
      "][][10,9": 4242,
      "[2][0][0][2]": 4243,
      "][][11][11]": 4244,
      "[1,2][][3,4][5,6][7,8][4": 4245,
      "][1][1][1][2][0][0": 4246,
      "[1,2][][3][4,5][6,7][][][3]": 4247,
      "[5][0][1]": 4248,
      "][31,32][33": 4249,
      "][][16]": 4250,
      "[1,2][3,2][][4,2": 4251,
      "[1,2][2][3][4,2][2]": 4252,
      "[If][Return][If][None][If][None][If][None][Return]": 4253,
      "[1,2][][3,4][][5,6][][7,8][][9,10][][11,12][][13,14][][15,16][][]": 4254,
      "[1,2][3][][4,2][5,3][3]": 4255,
      "[1,2][3,4][5,6][2][7,2": 4256,
      "[1][2][3,1][4,1][5,6": 4257,
      "[1,2][2][3,4][5][6,5][][5]": 4258,
      "[1,2][3][3][4,5][6][6][7,8][9][9][]": 4259,
      "][68,69": 4260,
      "][1][1][1][0][1][0][0": 4261,
      "][][][2]": 4262,
      "][][][10": 4263,
      "[If][If][If][If][None][None": 4264,
      "[If][If][None][If][None][None]": 4265,
      "][4][0][0][0][0": 4266,
      "[None][If][None][If][Return": 4267,
      "][If][Return][None][If][None][If": 4268,
      "][7][10": 4269,
      "[None][For][None][Return][While": 4270,
      "][If][If][If][If][None][None][None][None": 4271,
      "[4][2][2": 4272,
      "][Try][None][If][Return": 4273,
      "[2][1][1][0][1]": 4274,
      "[2][2][2][0": 4275,
      "][If][None][None][If][None][If][None]": 4276,
      "][1][2][2][0]": 4277,
      "[5][2][0": 4278,
      "[0][0][8]": 4279,
      "[0][0][3][0][0": 4280,
      "[0][0][1][1][2": 4281,
      "[0][0][1][0][1][0][0": 4282,
      "[Try][For][Return": 4283,
      "][15,5": 4284,
      "[1][0][1][2][0": 4285,
      "[1][0][1][0][0][0]": 4286,
      "][16,12": 4287,
      "][10,11][7][12,13": 4288,
      "][17,11": 4289,
      "[1][2,3][4,5][6,7][8,9][10,11": 4290,
      "[If][None][If][None][If][If][None][None][None]": 4291,
      "][1][0][0][0][2][0": 4292,
      "][14,15][10": 4293,
      "][None][Try][For][None][None": 4294,
      "[1,2][3][3][4,5][6][7": 4295,
      "][8][9,10][10": 4296,
      "][If][If][Return][Return][None]": 4297,
      "[0][2][4": 4298,
      "][1][1][0][0][2]": 4299,
      "[1][1][0][1][1][1]": 4300,
      "][29]": 4301,
      "[1,2][3,4][5][][5": 4302,
      "][If][If][None][Return][None][None": 4303,
      "][2][1][0][2][1]": 4304,
      "[1,2][2][3,4][4][5,6][6][7,8][][]": 4305,
      "[1][2,3][1][4,5][6][6][]": 4306,
      "][31][32,33": 4307,
      "[1][2,3][4,1][][5][6,7": 4308,
      "][1][0][1][2][2]": 4309,
      "[If][If][None][None][If][None]": 4310,
      "[1,2][3,4][][4][5,2][2]": 4311,
      "][28,29][30,31": 4312,
      "[1,2][3][3][4,5][6][][]": 4313,
      "[0][1][3][0][0": 4314,
      "[1,2][][3][4,5][6,7][][7][3]": 4315,
      "][9][10,11][12,11": 4316,
      "[1,2][3][4,5][][3][6,7][3": 4317,
      "][6,7][8,9][10,1": 4318,
      "][26,27][28,29][30,31": 4319,
      "[If][Return][If][None][If][Return][None][None]": 4320,
      "[1][2][3,4][][5,1][]": 4321,
      "][2][1][4][0": 4322,
      "[1][6]": 4323,
      "[1][6][0": 4324,
      "][1][1][8": 4325,
      "][1][1][1][5": 4326,
      "][1][1][3][0]": 4327,
      "][For][None][If][None]": 4328,
      "][1][0][3][2]": 4329,
      "][1][0][4][0]": 4330,
      "][1][0][1][0][0][0][1]": 4331,
      "][6][8": 4332,
      "[1][2][0][0][0]": 4333,
      ",3][4]": 4334,
      "[If][Return][If][None][Return][For": 4335,
      "[2][1][6": 4336,
      "][11][][12,13": 4337,
      "][If][None][None][None][If][None][If": 4338,
      "][If][None][None][If][None][If][None][None]": 4339,
      "][0][0][0][0][1][0]": 4340,
      "[0][0][1][0][1][0][0]": 4341,
      "][7,8][1": 4342,
      "][1][1][0][3][0": 4343,
      "[1,2][3,4][4][5,1": 4344,
      "[1][0][1][0][1][1]": 4345,
      "[1][0][1][1][0][0]": 4346,
      "[3][3][0]": 4347,
      "][16][0": 4348,
      "][Try][None][None][If][None]": 4349,
      "][][7,1": 4350,
      "][If][If][None][None][If][None][None][None]": 4351,
      "][12,13][8": 4352,
      "[1,2][][3,4][][5,6][7,8][9": 4353,
      "[0][0][0][2][2]": 4354,
      "][1][0][0][0][1][1][0": 4355,
      "][][8,1": 4356,
      "[0][1][1][1][0][0]": 4357,
      "[1,2][3][3][4,5][][6,7][8": 4358,
      "[If][None][None][For][None][Return][For": 4359,
      "[1,2][][3][4,5][5][]": 4360,
      "[0][2][1][0][1]": 4361,
      "[0][1][0][0][0][0][0": 4362,
      "[1,2][3][][4,5][3][6,7": 4363,
      "[1][1][0][4": 4364,
      "[1,2][3,4][5][1": 4365,
      "[1,2][3,4][5][6][6][7,8": 4366,
      "][12][13,14][][]": 4367,
      "][Try][If][None][None][Try][If][None][None": 4368,
      "[1,2][3][4,5][6,7][][8,9": 4369,
      "[If][None][Try][None][Return][Return]": 4370,
      "[4][0][2]": 4371,
      "[1][1][0][0][0][0]": 4372,
      "[1,2][3,2][4,5][][6,5": 4373,
      "[1][2][0][2]": 4374,
      "[1,2][3,4][5,6][4][][][]": 4375,
      "][If][None][If][If][None][None][None][None]": 4376,
      "[1,2][2][3,4][4][5,6][6][7,8][8][9,10][10][11,12][12][13,14][14][15,16][16][]": 4377,
      "][][17,18][19": 4378,
      "][35,36][37": 4379,
      "[1][2,3][4,5][][6,7][1": 4380,
      "][][9,10][11,8": 4381,
      "[1,2][][3,4][5][5][6,7][8][8][]": 4382,
      "][21][22,23][23][24,25": 4383,
      "][1][18,19": 4384,
      "][][21,22][23": 4385,
      "][2][14": 4386,
      "][2][8]": 4387,
      "[1][3][3": 4388,
      "][Return][While": 4389,
      "][3][1][2][0": 4390,
      "][1][1][9": 4391,
      "][][][15,16": 4392,
      "[If][If][If][If][If": 4393,
      "][None][If][None][For][None]": 4394,
      "][None][If][If][If][None][None][None][None": 4395,
      "[0][5]": 4396,
      "[4][0]": 4397,
      "[4][1][3": 4398,
      "][1][0][0][1][3": 4399,
      "[If][Return][Try][None][None][None]": 4400,
      ",72": 4401,
      "][If][None][None][None][If][None]": 4402,
      "][12][1]": 4403,
      "[If][None][If][While": 4404,
      "[0][0][5][0": 4405,
      "[0][0][1][1][1][1]": 4406,
      "][11,12][][": 4407,
      "][17][20": 4408,
      "][2][2][2][1]": 4409,
      "[None][For][If][Return][Return": 4410,
      "][13,14][][15": 4411,
      "[1,2][][3,4][][5,6][7,8][][][]": 4412,
      "][3][0][1][2]": 4413,
      "][][7,8][9,10][11,12": 4414,
      "[1][2][3,4][4][5,1": 4415,
      "][2][0][0][1][0][0": 4416,
      "][1][2][0][1][2][0": 4417,
      "][1][0][1][1][3]": 4418,
      "[0][1][1][3": 4419,
      "[0][1][1][1][0][1]": 4420,
      "[1,2][2][3,4][4][5,6][6][7][8,9": 4421,
      "[Try][None][None][If][None][None": 4422,
      "[Try][None][None][Try][None][None]": 4423,
      "[1,2][][3,4][5][][6,7][][8,9": 4424,
      "][2][1][1][2][0": 4425,
      "][1][0][2][1][2]": 4426,
      "][1][0][2][1][1][1]": 4427,
      "][10][11,12][13,14][15": 4428,
      "][2][3][1][2": 4429,
      "][12][13,14][14][15": 4430,
      "][8][9,4": 4431,
      "][14][15,16][14": 4432,
      "[None][For][None][For][If][None][None]": 4433,
      "][6,1][5]": 4434,
      "[1][2,3][4,5][6,7][1": 4435,
      "[1,2][3,2][4,5][1": 4436,
      "][38][38": 4437,
      "][1][10,1": 4438,
      "][1][9,1": 4439,
      "[1,2][][3][4,5][6,7][][8,9": 4440,
      "[None][For][If][None][None][If][For": 4441,
      "][1][11,1": 4442,
      "][9][10,11][12,13][9": 4443,
      "][18,19][20][20": 4444,
      "[0][1][4][0]": 4445,
      "][21,22][23,24][25": 4446,
      "[1,2][3][4,3][5,6][3][6][]": 4447,
      "[1,2][3,4][5,4][1": 4448,
      "][25,26][27,28][29,30": 4449,
      "[1][2][3,4][5,1][1][3]": 4450,
      "[1,2][3][3][4,5][6][6][7,8][][]": 4451,
      "[If][If][If][None][If][None][If][None][None": 4452,
      "][1][20,21": 4453,
      "][][15][16,17": 4454,
      "][2][1][7": 4455,
      "][1][1][1][0][1][0]": 4456,
      "][1][1][1][0][2]": 4457,
      "][None][If][None][Try][None][None": 4458,
      "[0][13": 4459,
      "][5][2][2": 4460,
      "[None][If][None][If][None][None": 4461,
      "[None][If][None][If][None][None]": 4462,
      "[1][2][1][2]": 4463,
      "[1][2][1][0][1]": 4464,
      "[1][2][0][0][1]": 4465,
      "][7][][": 4466,
      "][9][7": 4467,
      "][9][6]": 4468,
      ",74": 4469,
      ",7][][]": 4470,
      ",7][8,9": 4471,
      "][None][For][If][If][None][None]": 4472,
      "][][51": 4473,
      "[If][None][If][Try][If][None][None": 4474,
      "][15][18": 4475,
      "[1][0][1][2][0]": 4476,
      "][11,12][][13": 4477,
      "[6][1][1]": 4478,
      "[1][2,3][4,5][6][7,8": 4479,
      "][None][None][For][If][None][None][None]": 4480,
      "][None][None][For][For][None][None": 4481,
      "][13,14][6": 4482,
      "[0][0][0][4]": 4483,
      "[0][1][0][2][2]": 4484,
      "][1][0][1][1][1][2": 4485,
      "][None][Try][For": 4486,
      "[1][1][1][1][3]": 4487,
      "[1][0][0][1][2]": 4488,
      "[0][2][1][0][0]": 4489,
      "[If][If][Return][None][None": 4490,
      "][28]": 4491,
      "[3][0][1][0]": 4492,
      "[If][Return][If][Return][Try][None][Return": 4493,
      "][2][1][0][1][2": 4494,
      "][31][31": 4495,
      "[1][2,3][4,5][][6][7,6": 4496,
      "][][13,14][][]": 4497,
      "][9,10][11,5": 4498,
      "[1,2][3,2][4,5][6,2": 4499,
      "][None][For][For][None][None]": 4500,
      "[1,2][][3][4,2][2]": 4501,
      "[None][For][For][Return][If][None][None]": 4502,
      "][11,12][13][13": 4503,
      "][9][10,5": 4504,
      "[If][Try][Return][None][None][None]": 4505,
      "[0][2][2][0][0": 4506,
      "][5,3][6,7": 4507,
      "][22,23][24][24": 4508,
      "[If][Try][None][None][None][Return]": 4509,
      "[1,2][3,4][5,6][2][2][6][]": 4510,
      "[1][2,3][4,1][5,6][7,8][6": 4511,
      "][][15,16][][17,18][][]": 4512,
      "][43,44][45": 4513,
      "[1,2][2][3,4][5][6,7][8,9][5": 4514,
      "][61,62": 4515,
      "][][43,44": 4516,
      ",2]": 4517,
      "][][2][]": 4518,
      "][][18][19,20": 4519,
      "[1][1][2][0][1]": 4520,
      "][32]": 4521,
      "][3][4][0": 4522,
      "][1][1][5][0": 4523,
      "][5][11": 4524,
      "][2][0][1][1][0]": 4525,
      "][9][16,17": 4526,
      ",76": 4527,
      "[22": 4528,
      "][11][16": 4529,
      "][6,7][][": 4530,
      "[0][0][6][0": 4531,
      "][7,8][][4][4]": 4532,
      "[3][2][0][0": 4533,
      "[3][3][1]": 4534,
      "[3][0][0][1]": 4535,
      "[6][0][0]": 4536,
      "][13,14][7": 4537,
      "][13,14][15][15": 4538,
      "[1,2][][3,4][][5,6][7,6][8,9": 4539,
      "][If][For][None][None][For": 4540,
      "[1][2][3,4][2": 4541,
      "[1,2][2][3,4][4][5,6][7,6": 4542,
      "[1,2][3,4][5,6][7,8][9": 4543,
      "[0][0][0][0][0][0][0][0][1]": 4544,
      "][8][9,10][3": 4545,
      "][18,19][3": 4546,
      "][18,19][16": 4547,
      "][26][]": 4548,
      "][1][1][0][0][1][1][0": 4549,
      "][][10,5": 4550,
      "[1][2,3][1][4,5][6,7": 4551,
      "[If][For][None][None][Return]": 4552,
      "][][13,14][][15,16": 4553,
      "][If][None][If][Return][Return": 4554,
      "][10,11][12,5": 4555,
      "][1][0][1][0][1][0][1][0][1][1]": 4556,
      "[1][2][3][4,5][6": 4557,
      "][40][40": 4558,
      "][Return][For][None][None]": 4559,
      "[1,2][2][3,4][5,6][7,8][9][9": 4560,
      "][][16][]": 4561,
      "[1,2][3,4][][5,6][][][]": 4562,
      "[1,2][3,4][5,6][][][7,8][][][]": 4563,
      "[1][2,3][4][][5,6][7,4][1][4]": 4564,
      "[1][2,3][4,1][5,6][1][7,3][][3]": 4565,
      "[1,2,3][4][][][5,6": 4566,
      "][3][2][0][0": 4567,
      "][1][1][1][0][1][2": 4568,
      "][][][11": 4569,
      "][4][1][2]": 4570,
      "[0][1][7]": 4571,
      "][8][][9": 4572,
      "[1][2,3,4": 4573,
      "][9][4": 4574,
      "][Try][Try": 4575,
      "[20": 4576,
      "[2][1][1][1][2": 4577,
      "][None][For][For][None][None": 4578,
      "[5][4": 4579,
      "][7,8][][4": 4580,
      "[If][None][None][None][None": 4581,
      "][If][None][If][If][None][If][None][If": 4582,
      "[1][2,3][4][5,6][7": 4583,
      "[1][0][2][1][1]": 4584,
      "[3][0][0][0][0]": 4585,
      "][16,8": 4586,
      "][16][21": 4587,
      "][1][3][1][2]": 4588,
      "][11,12][6": 4589,
      "][Try][None][None][None][None][None]": 4590,
      "[None][For][If][Return][If][If": 4591,
      "][6][7,8][8][9": 4592,
      "[0][1][0][3][0": 4593,
      "][][8,5": 4594,
      "][1][2][0][1][2]": 4595,
      "][1][0][1][1][1][0][0": 4596,
      "[0][1][1][2][1]": 4597,
      ",18][18]": 4598,
      "[None][While][None][While": 4599,
      "[0][1][0][0][3]": 4600,
      "][19,20][17": 4601,
      "[If][None][If][Return][For": 4602,
      "][27][27": 4603,
      "[1,2][3][][4,5][][6,7][8": 4604,
      "[1,2][3][][4,5][6,7][][8": 4605,
      "[If][None][Try][None][None][Try][None][None][Return]": 4606,
      "[If][Return][If][Return][If][None][None][Return]": 4607,
      "[Try][None][Return][If][None][Return]": 4608,
      "[If][For][If][If][Return": 4609,
      "][1][1][2][1][1][0": 4610,
      "][0][0][0][0][0][2]": 4611,
      "][32][33": 4612,
      "][None][If][For][None][None][None]": 4613,
      "][25,26][24": 4614,
      "][][13,14][12": 4615,
      "[1,2][][3,4][][5][6,7][8": 4616,
      "[1][2,3][4,1][5,6][2": 4617,
      "][7][8,1][1]": 4618,
      "][6][7,8][9][9][]": 4619,
      "[1,2][3,2][4,5][][][]": 4620,
      "][1][0][1][1][0][1][0]": 4621,
      "][1][1][0][0][0][1][0]": 4622,
      "[If][None][If][None][None][For][If][Return": 4623,
      "][14,15][16,13": 4624,
      "][9][10,4": 4625,
      "][11,12][13,14][][": 4626,
      "[If][If][If][None][If][None][Return": 4627,
      "[1,2][2][3,4][4][5,6][6][7,8][8][9,10][10][11,12][12][13,14][14][15,16][16][17,18": 4628,
      "][][7,8][9,8": 4629,
      "][18,19][20,21][22": 4630,
      "][25,26][27,28][29": 4631,
      "[1,2][][3,4][5][6,7][8,9][5][5": 4632,
      "][13][14,15][16,13": 4633,
      "[If][If][Return][Return][If][Return][Return]": 4634,
      "][70,71": 4635,
      "][3][14,15][3][16,17][3": 4636,
      "][2][7][0": 4637,
      "][3][5]": 4638,
      "][1][1][1][0][0][1]": 4639,
      "][1][0][1][6": 4640,
      "][1][0][4][0][0": 4641,
      "][5][1][0][0": 4642,
      "][7][7][8,9][10,11": 4643,
      "][84": 4644,
      "][8][][": 4645,
      "][8][12": 4646,
      "[4][1][4": 4647,
      "][10,7][7]": 4648,
      ",78": 4649,
      "[0][0][1][0][0][1]": 4650,
      "[Try][None][If][If][None][None": 4651,
      "[Try][None][If][Return][None]": 4652,
      "][1][1][0][4": 4653,
      "][If][None][If]": 4654,
      "[1][2,3][4][4": 4655,
      "[1,2][3,4][5][6,7][5": 4656,
      "[1][0][6]": 4657,
      "[1][0][1][1][0][1]": 4658,
      "[1][0][1][0][1][0][0": 4659,
      "][9,10][][][]": 4660,
      "[3][1][0][1][1]": 4661,
      "][Try][None][None][None][Return]": 4662,
      "][If][If][None][None][If][None][None": 4663,
      "][1][1][1][1][1][2]": 4664,
      "][12,13][11": 4665,
      "][19,13": 4666,
      "[1,2][][3,4][][5,6][][7": 4667,
      "[0][0][0][1][0][1][1]": 4668,
      "][1][0][0][0][1][0][1][0": 4669,
      "[0][1][1][1][1][0": 4670,
      "[1,2][3,4][5,6][7][8,7": 4671,
      "[Try][None][None][If][None][If][None][Return]": 4672,
      "][If][If][None][If][For": 4673,
      "[1][1][1][0][0][1]": 4674,
      "][8][9,10][8": 4675,
      "][2][1][1][3": 4676,
      "][7][8,9][][]": 4677,
      "[0][0][0][0][1][0][1]": 4678,
      "[If][Return][None][For][If][Return][Return]": 4679,
      "[If][None][Try][None][None][If][None][Return]": 4680,
      "][12][13,14][14": 4681,
      "[If][Return][If][Return][If][None][None]": 4682,
      "[If][Return][If][Return][If][None][If][Return": 4683,
      "[If][Return][If][Return][Try][Return][Return]": 4684,
      "][23,24][22": 4685,
      "][2][1][0][1][2]": 4686,
      "][3][0][0][2]": 4687,
      "][7,8][9,10][3": 4688,
      "][][11,6": 4689,
      "[None][For][None][For][If][None]": 4690,
      "][10,11][12,13][9": 4691,
      "][10][11,7": 4692,
      "][1][0][3][0][0]": 4693,
      "[1][2,3][4][][5,6][4": 4694,
      "[1,2][3][4,5][6,7][3][][][]": 4695,
      "][If][Return][None][None][If][None]": 4696,
      "][][17]": 4697,
      "[If][If][If][Return][Return][Return]": 4698,
      "][][18]": 4699,
      "[If][None][If][None][Try][None][None][Return]": 4700,
      "][If][If][If][Return][Return][Return": 4701,
      "[If][Return][None][While][None][Return]": 4702,
      "][15,16][17,18][16": 4703,
      "[1][2,3][4][5,4": 4704,
      "[1,2][3][4,5][][6,3": 4705,
      "[1,2,3,4][][][][]": 4706,
      "[1][2][3,4][1][5,6][1][7,8": 4707,
      "[1,2][3,4][5,4][4][][4]": 4708,
      "7]": 4709,
      "][][10][11,12][13,14": 4710,
      "][3][1][0][1][0": 4711,
      "[None][If][Return][If][Return][Return]": 4712,
      "[None][None][None][For][None][Return]": 4713,
      "][6][1][1]": 4714,
      "][6][14": 4715,
      "][If][Return][None][For": 4716,
      "][7][12": 4717,
      "[None][For][None][Return][None]": 4718,
      "[4][1][3]": 4719,
      "[If][Return][None][If][Return": 4720,
      "[If][Return][If][If][Return][Return": 4721,
      "][Try][None][If][None]": 4722,
      "][11][9": 4723,
      "][1][2][4]": 4724,
      "][1][2][0][0][0]": 4725,
      "[0][0][2][1][0][0": 4726,
      "[0][0][2][0][0][0][0": 4727,
      "][7,8][][6][6]": 4728,
      "[1,2][3,4][4][5": 4729,
      "[1][0][1][3]": 4730,
      "][][7,6": 4731,
      "][][7][5]": 4732,
      "][17][22": 4733,
      "][][6,2][2]": 4734,
      "[None][For][If][Return][If][None][If][None][None]": 4735,
      "[None][For][If][Return][If][If][None]": 4736,
      "[None][For][If][Return][Return][If][Return]": 4737,
      "][2][0][0][2][0][0": 4738,
      "[1,2][3,4][5,6][7,4": 4739,
      "[1,2][3,4][5,6][7,8][][": 4740,
      "][8][9,10][10][11": 4741,
      "[1,2][][3,4][5][5][6][]": 4742,
      "][If][None][If][None][If][Return": 4743,
      "][7][8,9][10,11][12": 4744,
      "[0][2][0][0][0][0": 4745,
      "[0][2][1][1][1]": 4746,
      "][19,20][21,22][23": 4747,
      "][3][3][2]": 4748,
      "[1,2][3][][4,5][6,7][8": 4749,
      "][0][0][0][0][0][0][0][0][0][0": 4750,
      "][For][Return][If][Return]": 4751,
      "[1][1][0][2][1]": 4752,
      "[1,2][3,4][5][][][]": 4753,
      "][1][7][1]": 4754,
      "[0][1][0][1][0][1][0][1][1]": 4755,
      "[1][2][3,4][5][5": 4756,
      "][34]": 4757,
      "[If][If][None][None][If][None][None]": 4758,
      "[1][2,3][4,1][5,6][][][]": 4759,
      "][10][11,4": 4760,
      "][9,10][11,4": 4761,
      "[If][None][If][If][None][None][None][None]": 4762,
      "[1][2,3][4,1][5][2": 4763,
      "[If][None][If][None][None][For][None]": 4764,
      "[If][None][Return][For][If][None][None]": 4765,
      "][41][42,43": 4766,
      "[1,2][2][3,4][4][5][6,7][5][]": 4767,
      "[1,2][3][4,3][5,6][3][][]": 4768,
      "][22][23,24][25": 4769,
      "][17][17]": 4770,
      "][12][13,14][15,14": 4771,
      "[If][None][Return][While": 4772,
      "[1,2][2][3][4,5][6,7][][3][3]": 4773,
      "][][6][7,8][6][]": 4774,
      "][][][8,9][][]": 4775,
      "][7,3][8,9": 4776,
      "][][10,11][12,9": 4777,
      "[1,2][2][3,4][][5][6,7][8,9": 4778,
      "[If][None][If][If][Return][None][Return]": 4779,
      "[1,2][3][3][4,5][6][6][7,8][9][9][10,11][12": 4780,
      "][0][1]": 4781,
      "[1][5][0][0": 4782,
      "][3][7]": 4783,
      "][None][None][Return": 4784,
      "][None][If][Try][If][None][None": 4785,
      "[None][None][For][None][None]": 4786,
      "][6][2][0": 4787,
      "][6][7][8,9][10": 4788,
      "[None][For][If][If][Return": 4789,
      "][If][If][None][Try][None][None": 4790,
      "][If][If][Try][Return": 4791,
      "][None][If][None][If][None][If][None][None": 4792,
      "][10][12,13": 4793,
      "][10][10][]": 4794,
      "][Try][If][Return][None][None": 4795,
      "[21]": 4796,
      "[2][8": 4797,
      "][11,9][9]": 4798,
      "][1][2][1][4": 4799,
      "][1][2][2][2]": 4800,
      "][7,8][6][]": 4801,
      "][1][1][0][1][3": 4802,
      "[If][None][None][If][None][If][None][None]": 4803,
      "[If][None][None][If][None][If][Return": 4804,
      "[3][1][0][1][1": 4805,
      "[3][1][0][1][0]": 4806,
      "][1][0][1][0][1][0][1][0]": 4807,
      "][10,11][3][3]": 4808,
      "][Try][None][None][If][None][None]": 4809,
      "][17,6": 4810,
      "][][6,3][]": 4811,
      "[0][0][0][2][0][0": 4812,
      "][If][For][If][None][None": 4813,
      "][If][For][None][For": 4814,
      "][If][For][None][None][None][None": 4815,
      "[0][1][0][1][4]": 4816,
      "[1][2][3,4][5][6,7][8,9": 4817,
      "][][8,3": 4818,
      "[2][0][1][1][0": 4819,
      "[2][0][2][0][0]": 4820,
      ",17][17]": 4821,
      "][2][1][1][0][0]": 4822,
      "[1,2][2][3,4][5][5][6,7][8": 4823,
      "][1][0][2][1][0][0": 4824,
      "[0][2][3][0]": 4825,
      "[If][None][If][Return][None][Return]": 4826,
      "[1][1][0][1][1][0": 4827,
      "[1][1][0][1][0][0]": 4828,
      "[3][0][2][0]": 4829,
      "][6,7][8,4": 4830,
      "[If][Return][None][For][If][None]": 4831,
      "][2][1][0][2][0": 4832,
      "][1][1][2][3]": 4833,
      "][1][7][0][0": 4834,
      "][1][7][]": 4835,
      "][13][14,15][13": 4836,
      "[If][None][If][None][None][If][None][None": 4837,
      "][9,10][11,12][][13": 4838,
      "][If][Return][Return][Return][Return]": 4839,
      "][1][8][0][0": 4840,
      "][1][0][3][1][1]": 4841,
      "][2][4][2]": 4842,
      "[1,2][][3,4][5,6][7,8][][9": 4843,
      "[1,2][][3,4][5,6][7,8][4][4": 4844,
      "][8][9,10][10][11,12][12][]": 4845,
      "[1][2,3][4,1][][5,6][1][7,8": 4846,
      "][][15,16][17,18": 4847,
      "][8,9][10,3": 4848,
      "][1][4][0][1]": 4849,
      "[If][Return][If][None][If][If][None][None": 4850,
      "][If][Try][None][None][None][None]": 4851,
      "][34,35][36": 4852,
      "[1,2][3][4][5,6][7,8][3": 4853,
      "[1,2][3][3][4][5][]": 4854,
      "[1,2][3][3][4][5][4]": 4855,
      "[1,2][2][3,4][5,2][6,7": 4856,
      "][8,6][9,10": 4857,
      "[1,2][2][3][4,5][6,7][][7][3]": 4858,
      "[0][7][0][0": 4859,
      "[1,2][3][4,5][][3][6,7][3][8,9][3][3]": 4860,
      "][45,46][47": 4861,
      "[1][2,3][1][4,5][6,3][][3]": 4862,
      "[1][2,3][1][4][5,6][7,4][][4]": 4863,
      "][2][15": 4864,
      "[1][11": 4865,
      "][3][1][1][0]": 4866,
      "][][][9": 4867,
      "][][][9]": 4868,
      "[If][If][If][If][Return": 4869,
      "][5][12": 4870,
      "][8][9][10,11][12,9": 4871,
      "][If][If][If][If][Return][Return": 4872,
      "][9][6": 4873,
      "][9][2]": 4874,
      "[2][2][0][0]": 4875,
      "][11][11][12,13": 4876,
      "][None][For][Return][None]": 4877,
      "][12][0][0": 4878,
      "[Try][If][Return][None][None": 4879,
      "[Try][If][None][Return][None]": 4880,
      "][14][14][15,16": 4881,
      "][If][None][If][None][Try": 4882,
      "][15,3": 4883,
      "][15][20": 4884,
      "[1,2][3,4][5][6,7][8,9": 4885,
      "[1][0][2": 4886,
      "[1][0][2][1][0]": 4887,
      "[3][6": 4888,
      "[3][1][2][0": 4889,
      "][1][0][1][0][2][1]": 4890,
      "][1][3][1][0][0": 4891,
      "][][7][8,3": 4892,
      "][If][If][None][None][None][If][None]": 4893,
      "[If][None][If][None][If][None][For": 4894,
      "[1,2][][3,4][][5,6][7,8][][": 4895,
      "][If][For][If][None]": 4896,
      "][If][For][None][If][If][None][None": 4897,
      "[1][2][3,4][4": 4898,
      "][If][If][None][If][None][Return][None]": 4899,
      "[None][While][For": 4900,
      "][2][1][1][1][2]": 4901,
      "[1][0][0][2][0": 4902,
      "[1][0][0][1][0][1]": 4903,
      "][1][0][2][3]": 4904,
      "][4][0][1][0][0": 4905,
      "[9][0][0": 4906,
      "[1,2][3,4][5][2": 4907,
      "[1,2][3,4][5][][6": 4908,
      "][1][3][0][2]": 4909,
      "][22,23][][24,25": 4910,
      "][Try][If][None][None][None][Return]": 4911,
      "[Try][None][Return][None][Return]": 4912,
      "][][10,4": 4913,
      "][2][0][2][0][2][0": 4914,
      "][32][32": 4915,
      "][8][9,1": 4916,
      "[If][None][Try][Return": 4917,
      "][10][11,6": 4918,
      "[If][None][If][None][If][None][If][None][If][None][If][None]": 4919,
      "[If][Return][For][If][Return]": 4920,
      "[1,2][3,2][4,5][1][6": 4921,
      "[1][2][0][1][1]": 4922,
      "][5][5][5]": 4923,
      "][1][1][0][0][0][1][1]": 4924,
      "[1][2,3][][4][5,6": 4925,
      "][1][2][1][2][2]": 4926,
      "[1,2][][3,4][5,2][][2]": 4927,
      "][If][Try][None][None][None][None": 4928,
      "][][17,18][][19,20": 4929,
      "[1,2][][3,4][5,4][6,7][4": 4930,
      "[1,2][3][4][5,6][][3": 4931,
      "[1,2][][3,4][4][5,6][6][7,8][][]": 4932,
      "][10,9][11,12][9": 4933,
      "][17][18,17": 4934,
      "][][45,46": 4935,
      ",3]": 4936,
      "1][0": 4937,
      "][][16][17,18": 4938,
      "][][19][20,21": 4939,
      "][3][1][4": 4940,
      "][3][1][0][1]": 4941,
      "][1][1][1][0][1][1][0": 4942,
      "][][][18,19": 4943,
      "][4][1][2][0": 4944,
      "][None][If][If][None][If][None][If": 4945,
      "][1][0][4][1]": 4946,
      "][5][1][1]": 4947,
      "[1][2][1][0][0": 4948,
      "[1][2][1][1][0]": 4949,
      "][If][Return][None][If][None][None": 4950,
      "][7][0][0][0": 4951,
      "][7][8][9,10][11": 4952,
      "][7][3][8,9": 4953,
      "][7][][8][]": 4954,
      "][81": 4955,
      "[None][For][None][If][None][None][For": 4956,
      "[None][For][If][None][For][None]": 4957,
      "[If][Return][While": 4958,
      "][6,7][5": 4959,
      "[0][0][2][0][0][0": 4960,
      "][7,8][][8][9,10": 4961,
      "[Try][If][None][If": 4962,
      "][14][0][0": 4963,
      "][14,4": 4964,
      "[If][None][None][None][For][None]": 4965,
      "[If][None][None][If][If][If][None][None": 4966,
      "[If][None][None][None][None][For][If][Return": 4967,
      "][15][20,21": 4968,
      "][9,10][2": 4969,
      "][9,10][8": 4970,
      "][][7][][]": 4971,
      "][17,1": 4972,
      "][17,13": 4973,
      "][If][If][None][None][None][None][None][None]": 4974,
      "[1][2,3][4,5][6][7,1": 4975,
      "][12,13][14][14": 4976,
      "][3][0][2][0]": 4977,
      "][][9,6": 4978,
      "][][7,8][9,10][11": 4979,
      "[1][2][3,4][2][5,6": 4980,
      "][15,16][3": 4981,
      "[0][1][1][2][0": 4982,
      "[1,2][3,4][5,6][7,2": 4983,
      "[Try][None][None][If][None][If][None][If": 4984,
      "[None][While][Try][None][None]": 4985,
      "[If][None][None][For][None][For": 4986,
      "[If][None][None][For][None][If][None][Return]": 4987,
      "][2][1][1][3]": 4988,
      "][4][0][4": 4989,
      "[0][1][0][0][1][0][1]": 4990,
      "][If][None][Return][None][None": 4991,
      "][10][11,12][10][]": 4992,
      "[1,2][3][4][1][2]": 4993,
      "[0][0][0][0][1][0][0]": 4994,
      "[1,2][2][3][4,5][][]": 4995,
      "][1][3][0][1][0]": 4996,
      "][None][If][Return][For": 4997,
      "][None][If][Return][If][None]": 4998,
      "][30]": 4999
    },
    "merges": [
      "] [",
      "E P",
      "S EP",
      "[ SEP",
      "][ 1",
      "N o",
      "n e",
      "No ne",
      "][ None",
      "][ 0",
      "I f",
      "2 ]",
      "1 ]",
      "3 ]",
      "][ If",
      "R e",
      "r n",
      "t u",
      "Re tu",
      "Retu rn",
      "[SEP 2]",
      "[SEP 1]",
      "[SEP 3]",
      "][ 2",
      "[ 1",
      "][ Return",
      "][ 3",
      "][0 ][0",
      "][None ][None",
      ", 2",
      "][1 ][1",
      "][ ][",
      "[1 ,2",
      "[ If",
      "][ 4",
      ", 1",
      "][None ][If",
      "[ 2]",
      "F o",
      "Fo r",
      "][ For",
      "[ 1]",
      "[ 0",
      "][Return ]",
      "][1 ][0",
      "][ ]",
      "][ 5",
      "[ ]",
      "[ None",
      ", 4",
      "][1 ]",
      "][None ]",
      "][ 6",
      "[ 3]",
      "][3 ,4",
      "[1 ][2",
      "][][ ]",
      ", 3",
      "[ Return",
      "[Return ]",
      "][If ][Return",
      "][ 7",
      "T r",
      "Tr y",
      "][None ][Return]",
      "][None][None ]",
      ", 6",
      ", 5",
      "][ 8",
      "[None ][For",
      "][If ][If",
      "[ 4",
      "][1 ][0][0",
      "[1][2 ,3",
      "][ 2]",
      "[1,2 ][2",
      "[If ][Return",
      "[1,2 ][",
      "][2 ][0",
      "][ 9",
      "][None][If ][None][If",
      "[4 ]",
      "][1 0",
      "][ Try",
      "][4 ,5",
      "[1,2 ][3",
      "][1][1 ]",
      ", 7",
      "[1,2][ ][3,4",
      ", 8",
      "[ 2",
      "[1,2 ][][]",
      "][1 1",
      "][5 ,6",
      "][If ][None][None",
      "][0][0 ][0][0",
      "][1 ][2",
      "][None ][For",
      "][1][0 ]",
      "][][ 5",
      "][1 2",
      "[If ][None][If",
      "][0 ]",
      "[None ]",
      "[ 5",
      "][6 ,7",
      "[0 ][0",
      ", 9",
      "][ 3]",
      "][1 3",
      ",1 0",
      "][None ][Return",
      "][7 ,8",
      "[1,2][2 ][3,4",
      "[ Try",
      "[If ][None][Return]",
      "[5 ]",
      "][1 4",
      "][1][1 ][0",
      "[If ][None][None",
      "][If ][None][If",
      "[1][2,3 ][4",
      "[1,2][2 ][]",
      "][1 5",
      "[1,2 ][3,4",
      "[1 ][0",
      "][8 ,9",
      ",1 1",
      "][0][0 ][0",
      ",1 2",
      "][3 ][4,5",
      "][9 ,10",
      "[ 3",
      "][3 ][]",
      "][1][0 ][1][0",
      "][][5 ,6",
      "][1 6",
      "[If][Return ][Return]",
      "][1 ][3",
      "[1][2,3 ][1",
      "][0][0 ]",
      "][10 ,11",
      "][11 ,12",
      "[1][2,3][4 ,1",
      "][4 ][5,6",
      "[ 6",
      "][Try ][None][None",
      "][][ 7",
      "W h",
      "i l",
      "][ Wh",
      "il e",
      "][Wh ile",
      "][1 7",
      "][][ 6",
      "][If][If ][None][None",
      "][If ][None]",
      "][2][0 ]",
      "[0 ]",
      "][1 ][2]",
      "][2 ][2",
      "[None][For ][If][Return",
      "][If][Return ][If][Return",
      "][4 ]",
      ",1 3",
      "][1][1 ][1][1",
      "][][ 4",
      "[1 ][]",
      "[1][2,3 ][4,5",
      "[If ][None][If][None][If",
      ",1 4",
      "][1 8",
      "[6 ]",
      "][If ][None][None]",
      "][None][None ][For",
      "[1][2,3][1 ][]",
      "][12 ,13",
      "][13 ,14",
      "][1 9",
      "[1,2][][3,4 ][][5,6",
      "][3 ][0",
      "[If ][None][None]",
      "[0 ][0][0",
      "[1,2][][3,4 ][][]",
      ",1 5",
      "][Return ][Return]",
      "][4 ][]",
      "][1][1 ][1]",
      "][If][Return ][Return]",
      "][6 ][7,8",
      ",1 6",
      "][2 0",
      "][][ 9",
      "[ 7",
      "][5 ]",
      "][If ][For",
      "][5 ][6,7",
      "][2 ][1]",
      "][1][0][0 ][0",
      "[None][For ][None][Return]",
      "][Return ][None]",
      "[0 ][1][0",
      "][1][0][0 ]",
      "][][7 ,8",
      "][2 1",
      "][None][None ][None]",
      "[1][2 ][3,4",
      "][14 ,15",
      "[1][2 ][3",
      "][15 ,16",
      "][][ 8",
      "][2 ][0][0",
      "][1 ][2][0",
      "][1 ][4",
      "][1][0 ][1][1",
      "[1,2][3 ][3][]",
      "[0 ][1][1",
      "[2 ][0",
      ",1 7",
      "[1,2][3 ][4,5",
      "][2 2",
      "][1][0 ][1]",
      "][None ][Try",
      ",1 8",
      "[1,2][2][3,4 ][4][5,6",
      "[7 ]",
      "[If ][None]",
      "[1,2][3,4 ][5,6",
      "[Try ][None][None",
      "][If ][None][Return]",
      "][If][If ][None][If",
      "][2 3",
      "[None ][While",
      "[1][2 ][1]",
      "[1 ][1][1",
      "[1,2][3 ][3][4,5",
      "][5 ][]",
      "][2 ][2]",
      "][16 ,17",
      "][6 ]",
      "][If][Return ][None]",
      "[0 ][0][0][0][0",
      "][8 ][9,10",
      "[1,2][3 ][][4",
      "][None ][Try][None][None",
      "[1,2][][3,4 ][5",
      "][ ][1]",
      "[If][None][None ][For",
      "][1 ][3]",
      "][2 ][1][1",
      "][If ][None][If][None][If",
      "][2 4",
      "][][ ][]",
      "[1,2][ ][3][4,5",
      "][17 ,18",
      "][6 ][]",
      "][7 ][8,9",
      ",1 9",
      "][If ][If][Return",
      "][ ][3",
      "[1][2][3 ,1",
      "[ 8",
      "][If][None][None ][None]",
      "[1 ][0][0",
      "[1,2][2][3,4 ][5",
      "][None][Return ][For",
      ",2 0",
      "][2 5",
      "][None][If ][None]",
      "[If][None][If ][None][Return]",
      "][1][0 ][2",
      "][4 ][0",
      "][Try ][Return",
      "][][6 ,7",
      "[None][For ][None]",
      "][][9 ,10",
      "[If][None][None ][Return]",
      "[0 ][2",
      "][None][If ][None][None]",
      "[0 ][1][0][0",
      "][18 ,19",
      "[0 ][1][1]",
      "][2 6",
      "][19 ,20",
      "][If ][None][Return",
      "][None][If ][None][None",
      "[If][None][If ][Return",
      "[1,2][3 ,2",
      "][10 ][11,12",
      "][2 7",
      ",2 1",
      "][1][1 ][0][0",
      "][1][1 ][0]",
      "][If ][Return]",
      "][7 ]",
      ",2 2",
      "][1 ][5",
      "[1,2][3 ][4",
      "][3 ][3",
      "[8 ]",
      "[1,2][3][][4 ,5",
      "][0][0][0][0 ][0][0][0][0",
      "[If ][If][Return",
      "[If][Return ][If][Return][If][Return",
      "[0 ][1][0]",
      "[If][Return ][If][Return][Return]",
      "[1,2][2][3,4 ][4][]",
      "[None][For][If][Return ][None]",
      "[1][2,3][4,1 ][][1]",
      "][5,6 ][7,8",
      "][None][None ][Return]",
      "[1 ][1][1]",
      "[0 ][0][0][0",
      "][6 ,3",
      "][For ][Return",
      "[1,2][][3,4][][5,6 ][][7,8",
      "[ 9",
      "][None][For ][None]",
      "][9 ][10,11",
      "][2 8",
      "[0 ][3",
      "[1 ][1][0",
      "][3 ][4",
      "][2 9",
      "][None][If][None][If ][None][If][None][If",
      "][21 ,22",
      "][6 ][7",
      "][20 ,21",
      "[1,2][2 ][3][4,5",
      "][If][None][None ][For",
      "][1][0][0 ][0][0",
      ",2 3",
      "][][8 ,9",
      "][1][2 ][1]",
      "[1,2][3,4 ][5",
      "[3 ][0",
      "][1 ][6",
      ",2 4",
      "][6,7 ][8",
      "][2 ][3",
      "][1 ][2][0]",
      "[If][Return ][None][For",
      "[1 ][1][0]",
      "][ ][11,12",
      "][8 ]",
      "][None][If ][None][Return]",
      "[If ][None][Try][None][None",
      ",1 ][1]",
      "][8 ][]",
      "[If ][None][For",
      "][None ][While",
      "][1][0 ][1][1]",
      "][For ][None][None",
      "][7 ][7",
      "[1][2,3][4,5 ][",
      "[1][2 ][]",
      "][6,7 ][8,9",
      "[0][0 ][1]",
      "[1,2][][3,4][][5,6 ][][]",
      "][12 ][13,14",
      "][1][3 ][0",
      "][3 ][0]",
      "[1,2][3 ][][]",
      "[1,2][][3,4 ][4][5,6",
      "][][ 3]",
      "][11 ][12,13",
      "][If ][None][For",
      "][None][If ][Return",
      "][3 ][1]",
      "][22 ,23",
      "[If][Return ][None]",
      "[If][Return ][If][Return",
      "][23 ,24",
      "][3 0",
      "][If][If ][If][None][None",
      "][If][If ][None][Return",
      "][2 ][1][0",
      "][3 ][0][0",
      "[1,2][2][3,4][4][5,6 ][6][7,8",
      "][Try ][If][None][None",
      "][7,8 ][9,10",
      "][1 ][4]",
      "[If][None][If ][None][None]",
      "[Try ][None][Return",
      "[9 ]",
      "][ ][10",
      "[1 0",
      ",2 5",
      "][5 ][0",
      "[1][2,3][1 ][4,5",
      "[If ][For",
      "][If][None][None ][Return]",
      "[0 ][1][2",
      ",2 6",
      "[1,2][ ][3][]",
      "[1][2,3][4,1 ][][]",
      "][][6 ][]",
      "][2][0 ][2][0",
      "][1][1 ][2",
      "][3 1",
      "][If][None][If ][None][None",
      "][1][0][0 ][0]",
      "[None][For ][For",
      "][0][0][0][0 ]",
      "][1 ][7",
      "][0][0][0][0 ][0",
      "][9 ]",
      "][1][1][0 ][1]",
      "][5,6 ][7",
      "[None ][Return]",
      "[0 ][1][2]",
      "[1][0 ][1]",
      "[1][2,3][4,1 ][][5",
      "][][ 2]",
      "][1][0 ][1][0]",
      "[None ][None]",
      "][3 ][4][5,6",
      "][Try ][None][None]",
      "][2 ][1][2",
      "[0 ][2][0",
      "][If][If ][None][None]",
      "[1][2,3][4,5 ][][6",
      "][24 ,25",
      "[1,2][3][4 ,3",
      "][ ][10,11",
      "][3 2",
      "[None][For ][If][None]",
      "][1][0 ][1][0][0",
      "[Try ][Return][Return]",
      "[2 ][0][0",
      "][None][If ][For",
      "[If ][If][If][None][None",
      "][7,8 ][9",
      "][Try ][None][Return",
      "][25 ,26",
      "[1,2][3][4,5 ][6,7",
      ",2 8",
      "[Try][None][None ][Return]",
      "][4 ][1]",
      "][1][1 ][1][1]",
      "][If][None][If ][None]",
      ",2 7",
      "][7 ][]",
      "][ ][13,14",
      "[1 ][1]",
      "][5][6,7 ][8,9",
      "][If][None][If ][None][None]",
      "[1][2][3,1 ][1]",
      "[1,2][][3,4 ][4][]",
      "[0 ][1][1][0",
      "[0 ][1][0][1][0",
      "[1][2][3,4 ][5",
      "][8 ][9",
      "][3 3",
      "][14 ][15,16",
      "][13 ][14,15",
      "[If][None][If ][None][None",
      "][If][None][If ][Return",
      "][1][0][0 ][1]",
      "[If][None][If ][None]",
      "][ ][11",
      "][0][0 ][0]",
      "][4 ][5",
      "][If][Return ][None][None]",
      "][3 ][2]",
      "][3 ][3]",
      "][9,10 ][11,12",
      "][2 ][0][0][0",
      "][None][None ][None][None",
      "[1,2][3,4 ][][5",
      "[1,2][2][3,4][5 ][][6][]",
      "[None][For ][None][For",
      "[0 ][0][0]",
      "[None][For ][None][None]",
      "][3 4",
      "[1,2][2][3,4 ][][]",
      "[If][None][Try][None][None ][If][None]",
      "][If][Return ][Return",
      "[1,2][][3,4 ][][5",
      "[If ][None][Try",
      "[1 ][1][2",
      "][1][0 ][2]",
      "][27 ,28",
      "[If][None][If][None][If ][None][Return]",
      "][5][6,7 ][8",
      "][2 ][2][0",
      "[None][For ][If][If",
      "][2 ][0][0]",
      "[4 ][0",
      "][10,11 ][12,13",
      "[1,2][][3,4 ][5,6",
      "][3 5",
      "[10 ]",
      "][1][0 ][2][0",
      "][None][If ][If][None][None",
      "][1][0 ][1][2",
      "[0][0 ][2]",
      "[If][None][None ][None]",
      "[If ][If][None][None",
      "[1][2,3][4,1 ][5,6",
      "[None][For][If][Return ][Return]",
      "[1][2,3][4,5 ][][5",
      "[1 ][0][0][0",
      "[1 ][0][0]",
      "[1,2][2][3,4 ][][5,6",
      "][26 ,27",
      ",2 9",
      "][10 ][]",
      "[1,2][3][4,5 ][][3",
      "][1][1 ][2]",
      ",2 ][2]",
      "][7 ,4",
      "][1 ][8",
      "][10 ][11",
      "[1,2][3,4 ][][][]",
      ",3 0",
      "][10,11 ][12",
      "][10 ]",
      "[None][For][If][Return ][None][None]",
      "[0 ][4",
      "][2 ][]",
      "[1 ][1][0][1][1",
      "][9 ][]",
      "][1 1]",
      "[1,2][][3,4][][5,6][][7,8 ][][9,10",
      "][6 ,1",
      "[If][None][If][None][If ][None][If][None][If",
      "[1 ][1][0][0",
      "[None][For ][If][For",
      "][If][If][Return ][Return",
      "][6 ,5",
      "][Try][None][None ][None]",
      "][1][0][1][0 ][1][0][1][0",
      "[1 ][1][2]",
      "[If][Return ][For",
      "][7 ][8",
      ",3 ][3]",
      "][1][0 ][3",
      "][If][If ][None][If][None][If",
      "][3 6",
      "[1][2,3][4,5 ][6,7",
      "][ ][12",
      "][None][Return ][None]",
      "[1,2][2 ][3][]",
      "[1,2 ,3",
      "[None][For ][None][Return][For",
      "[2 ][1][0]",
      "][1 ][]",
      "][9,10 ][11",
      "][2 ][1][1]",
      "][2 ][4",
      "][6 ][0",
      "[1][2 ][3][4,5",
      "[1 ][3",
      "[1,2][3,4 ][][4",
      "][6][7,8 ][9",
      "[1,2][][3,4 ][5,6][7,8",
      "][][ ][][]",
      "][If][Return][If][Return ][If][Return][If][Return",
      "][ ][12,13",
      "][1][1 ][1][2",
      "][8][9,10 ][10][11,12",
      "[0 ][1]",
      "[Try ][None][None]",
      ",3 1",
      "[1,2][3,4 ][][",
      "[1,2][3,2 ][4,5",
      "][28 ,29",
      "][29 ,30",
      "[1][2 ][0",
      "][2][0 ][1]",
      "][1][0 ][1][1][0",
      "[0 ][2][0]",
      "][3 7",
      "[1,2][3][3][4,5 ][6",
      "][15 ][16,17",
      "[1][2,3][4,1 ][][5,6",
      "[1][2,3][4,5][ ][1][1]",
      "][ ][15,16",
      "][16 ][17,18",
      "[1,2][][3][4,5 ][6,3",
      "][4 ][4",
      "[None][For ][None][None][For",
      "][2 ][1][0][0",
      ",3 2",
      "][1][2 ][0][0",
      "][1 ][5]",
      "[2 ][1][1",
      "][None][For ][None][Return]",
      "[1,2][2][3,4][4][5,6 ][6][]",
      "[1 ][1][1][0",
      "][If][If][None][None ][None]",
      "[None ][None][Return]",
      "][3 8",
      "[If][Return ][If][None][Return]",
      "[If][None][If ][Return][Return]",
      "][8,9 ][10",
      "][1 2]",
      "][1][4 ][0",
      "[If][Return ][If][None][If",
      "[Try ][Return][None]",
      "][13,14 ][15,16",
      "][3 9",
      "[0 ][1][3",
      "][2 ][1][0]",
      "[1][0 ][2]",
      "][ ][13",
      "[1][2,3 ][][]",
      "][1][1 ][3",
      "[If][None][If ][If][None][None",
      "[1,2][3,4 ][",
      "[1][2,3][4,1 ][5",
      "[1 ][1][1][1][1",
      "[1][2,3][4 ][][5,6",
      "[2 ][1]",
      "[1,2][3,4][5,6 ][4",
      "][4 ][0]",
      "][5 ][5",
      "[Try ][Return",
      "][None][None ][None][None]",
      "][1][1 ][1][0]",
      "][14,15 ][16,17",
      "][If ][Try",
      "][1][1 ][0][0][0",
      "[If][Return][If][Return][If][Return ][Return]",
      "][0][0 ][1]",
      "][6 ][6",
      "][][5 ]",
      "[1 ][2]",
      "][1][1 0",
      "][None][For ][For",
      "][2 ][0][0][0][0",
      "][2 ][3]",
      "[0][0][0][0][0 ]",
      "[2 ][1][1]",
      "][][4 ]",
      ",3 3",
      "[If][None][If ][None][None][For",
      "[1][1][0][1][1 ][1][1]",
      "][ ][14",
      "][1][1 ][1][0",
      "][If][None][If ][If][None][None",
      "[1 ][0][0][0][0",
      "][If ][None][Try",
      "[None][For ][If][None][None]",
      "][2 ][5",
      ",3 4",
      "][4 ][0][0",
      "[0][1][1 ][0]",
      "[0 ][2][1]",
      "][9 ][9",
      "[1][2,3 ][][4",
      "][For ][None][If",
      "[If ][Return]",
      "][12 ][]",
      "][4 0",
      "][If][If][None][If ][None][None",
      "][7][8,9 ][10",
      "[2 ][0][0]",
      "[1 1]",
      "[1,2][3 ][3][4][5,6",
      "][1][1 ][1][0][0",
      "][2 ][1][1][0",
      "][17 ][18,19",
      "][If][For ][None][None",
      "[1,2][][3][4,5 ][3][]",
      "[None][For ][If][If][None][None",
      "[0][0 ][1][0]",
      "][1][1][1][1 ][1]",
      "][8][9,10 ][11",
      "[If][Return ][If][Return][None]",
      "[1][2,3][4 ][][5",
      "][None][For ][None][None]",
      "][3 ][4][]",
      "][1 ][9",
      "[1][2,3][1 ][4][5,6",
      "[1,2][ ][3][4",
      "][If][If ][If][Return",
      "[1,2][2][3,4 ][5,6",
      "[None][For ][Try][Return",
      "[None][For ][For][Return",
      "[1,2][][3,4][][5,6][][7,8 ][][]",
      "[1,2][][3][4,5 ][6,7",
      "][None][If ][None][None][None]",
      "][14,15 ][16",
      "][11 ][]",
      "][12 ][13",
      "][Return ][For",
      "[1][2 ][0]",
      "][0][0][0 ][1]",
      "[If ][None][Return][For",
      "[1][2][3,1 ][4",
      "][30 ,31",
      "][1][1 ][1][1][0",
      "][1][2 ][1][2",
      ",4 ][4]",
      ",2 ][]",
      "][11,12 ][13",
      "[0 ][1][3]",
      "[None ][None][For",
      "[Try ][If][None][None",
      "][6 ][1]",
      "][If][If ][None]",
      "[5 ][0",
      "][1][0][1][0 ][1]",
      "[1][2,3][4,5 ][][",
      "][18 ][19,20",
      "[If][Return ][Try",
      "][1 3]",
      "][Return ][Return",
      ",1 ][]",
      "[1,2][3][4,5][6,7 ][3",
      "][31 ,32",
      ",3 6",
      "][2][0 ][2]",
      "][9 ][10",
      "][11,12 ][13,14",
      "][1][1 ][0][0]",
      "[If ][Try][Return",
      ",5 ][5]",
      "][1][3 ][1]",
      "[0 ][5",
      ",3 5",
      "][If][Return][If][Return ][Return]",
      "[0 ][1][1][1]",
      "][1][0][0][0 ][1]",
      "[1][2][3 ][4",
      "][4 1",
      "][][6,7 ][8",
      "][7 ][0",
      "][1][0][0 ][1][0][0",
      "[0 ][2]",
      "][17,18 ][19,20",
      "[If ][If][If][None][If",
      "][14 ][14",
      "][None][If][None][If ][None]",
      "[0][1][0 ][1]",
      "][ ][15",
      "][Return ][None][None]",
      "[1][2,3][4,5][ ][1",
      "][1][2 ][2]",
      "][Try][None][None ][Return]",
      "[0 ][1][0][0]",
      "[If][None][If][Return ][None][None]",
      "][1][1 ][2][0",
      "[0 ][2][2",
      "][1][0 ][1][2]",
      "[0 ][2][0][0",
      "][][11,12 ][][13,14",
      "[1,2][][3,4][5 ,2",
      "[Try ][None][None][None]",
      "][4 2",
      "[None][For ][If][None][None",
      "][1][0][0 ][0][0][0][0",
      "][None][If][None][If ][None][None]",
      "][None][If ][None][None][For",
      "[0][0][0][0][0 ][0",
      "[1 ][1][3",
      "[1][2][3,1 ][]",
      "[If][None][If ][Return][None]",
      "[0][0 ][3]",
      "[1,2][3][3][4,5 ][][]",
      "[1,2][2][3,4 ][4",
      "[0 ][1][2][0",
      "][1 ][6]",
      "[1 ][1][0][2",
      "[Try][None][Return ][Return]",
      "[1][2,3][4][][5 ,1",
      "][32 ,33",
      "][If][If ][If][If",
      "][For ][For",
      "][None][For ][If][Return",
      "[1][2,3][4,5 ][6",
      "[1,2][2][3,4 ][5,6][7,8",
      "][7 ,6",
      "[2][0 ][1]",
      "[3 ][0][0",
      "][ ][16",
      "][][7 ][8,9",
      "][33 ,34",
      "][1][0][0 ][0][0]",
      "][If][If][None][None ][None][None",
      "[1,2][][3,4][5 ][5][]",
      ",3 8",
      "][If ][Try][None][None",
      "][2 ][1][3",
      "][1][0][0 ][0][0][0",
      "][4 3",
      "[1 2]",
      "[0][0][0 ][1]",
      "][5 ][1]",
      "[0][0][0 ][0]",
      "][ ][2",
      "][6 ,2",
      "[If ][Try",
      "][If][None][If ][None][Return]",
      "][2][2 ][1]",
      "[None][While ][None][Return]",
      "[1,2][2][3,4][4][5,6][6][7,8 ][8][9,10][10][11,12",
      "][1][1 1",
      "[If][None][If][None][If ][None][If][None][Return]",
      "][7][7 ][]",
      "[1 ][4",
      "[1,2][3,2 ][][4",
      "][15 ][15",
      "][None][None][For ][None]",
      "][9][10,11 ][12",
      "][][6,7 ][8,9",
      "[1][2][3,4 ][1][1]",
      "][ ][17,18",
      "[1,2][2 ][3][4",
      "][1][0 ][4",
      "][8 ][8",
      ",3 7",
      "][If][None][None ][If][None][None",
      "][None][If ][Return][Return]",
      "][20 ][21,22",
      "[1,2][3][4,5][][3 ][6,7",
      "][If][Return ][None][None",
      "][10 ][10",
      "][][6 ]",
      "[0 ][1][1][1][1",
      "[If][None][If ][For",
      "][6][7,8 ][9,10",
      "[1,2][3][4,3 ][5,6",
      "][1][0 ][1][0][0]",
      "][ ][16,17",
      "][ ][19,20",
      "[1 ][1][1][1]",
      "][8 ,3",
      "[If][Return ][If][If",
      "[If][None][If][None][If ][None][If][None][If][None][If][None][If",
      "[1][2][3,1 ][4,5",
      "[0 ][1][0][0][0",
      "[If][None][If][None][If ][None][None]",
      "[0][1][0 ][1][0]",
      "[0 ][3][0",
      "[1,2][3,4 ][][5,6",
      "][19 ][20,21",
      "][3 ][6,7",
      "[1 ][1][3]",
      "][7][8,9 ][10,11",
      "[1][2,3][][4 ,5",
      "[0][0 ][3",
      "[1,2][3][4 ][5",
      "[1][2,3][4,1][5,6 ][1",
      "][4 4",
      "[1][2,3][4,5][][5 ][1]",
      "][13 ][13",
      "[If][If][Return ][None][None]",
      "][2 ][3][0",
      "[0][0 ][1][1",
      "[If][None][None][For ][None][Return]",
      "][6,7][8 ,5",
      "[1,2][3][4,3 ][][3]",
      "][4 5",
      "[1 4",
      "[2 ][1][2",
      "][1][1][0 ][1][1]",
      "][9][10,11 ][12,13",
      "][11 ][11",
      "][ ][17",
      "[If ][If][If",
      "[1,2][][3,4][5 ,4",
      "][If][None][None ][None][None]",
      "[0][0 ][1][0][0]",
      "[3 ][1][0]",
      ",6 ][6]",
      "[If][None][None ][If][None][Return]",
      "][][7 ][]",
      "][12][13,14 ][14][15,16",
      "[0][1][0 ][1][1]",
      "][4 ][4]",
      "][5 ][0][0",
      "[1][0 ][1][0]",
      "[0][0 ][1][1]",
      "][2 ][6",
      "[2 ][3",
      "][34 ,35",
      "][35 ,36",
      "[If][None][None ][While",
      "[1,2][2][3][4,5 ][6,3",
      "[If ][If][None][None]",
      "][14 ]",
      "[1,2][3,4][5,6 ][][",
      "][ ][3][]",
      "[0][0][0][0 ][1]",
      "][1][0 ][1][1][1][1",
      "][0][0][0][0 ][0]",
      "][If][If][None][None ][None][None]",
      "][1][0 ][1][1][1]",
      "[0][0 ][2][0",
      "][][7,8 ][9",
      "][][7,8 ][][9,10",
      "][2 ][1][2]",
      "][18,19 ][20,21",
      "[1,2][3][3][4,5 ][5][]",
      "][8 ][0",
      "][14 ][15",
      "][None][Return ][Return]",
      "][1][0 ][3]",
      "][2 ][2][0]",
      "[If ][If][Return][None]",
      "][For ][None][None]",
      "][1][5 ][0",
      "[1][1][1 ][0]",
      "[1,2][3][4,5][][3 ][3]",
      "][5 ,3",
      "[1][2,3 ][3][]",
      "][If][For ][None][If",
      ",4 0",
      "][6 ][3",
      "][7 ,1",
      "][1][1 2",
      "][1][1 ][3]",
      "[1,2][3,4 ][4",
      "[0 ][2][2]",
      "[0][0 ][1][0][0",
      "][1][3 ][0]",
      "][1][1 ][4",
      ",3 9",
      "][If ][Try][Return",
      "[1 ][1][0][1][0",
      "][0][0][0][0 ][0][0",
      "][1 ][8,9",
      "][None][None ][None][For",
      "[1][2,3][4,5][][1 ][6,7",
      "[1,2][3,2 ][][]",
      "[1,2][][3,4][][5 ][]",
      "[0][1][0][0 ][0]",
      "[1][2,3][4,1 ][][2]",
      "][1][2][0 ][1]",
      "][ ][14,15",
      "[If ][If][If][Return",
      "[If][Return ][If][None][None",
      "[1,2][3 ][4][5,6",
      "[1,2][2][3,4][4][5,6][6][7,8 ][8][]",
      "][4 6",
      "[None][For ][Try",
      "[If][None][If ][None][None][Return]",
      "][1][1][0 ][1][0]",
      "][2][2 ][0][0",
      "[1 3]",
      "][18,19 ][20",
      "][6 ,4",
      "[If][Return ][If][None][If][None][If",
      "][1][3 ][0][0",
      "[1,2][3,2 ][][2]",
      "][None][None ][While",
      "[If][None][If][None][If ][None][If",
      "][For ][None]",
      "][22,23 ][24,25",
      "[2 ][0][0][0",
      "[0 ][1][4",
      "][If ][None][Try][None][None",
      "][5 ][5]",
      "][ ][18",
      "][6,7 ][][8",
      "][8 ,1",
      "[1,2][3,4][][ ][5,6",
      "][4 7",
      "[1][2,3 ][3][4,5",
      "][1][0][1][1 ][0]",
      "[If ][If][If][None][Return",
      "[None][For ][If][Return]",
      "[None][For ][If][If][None][If",
      "][5][6,7 ][7][8,9",
      "][2][0][0 ][0]",
      "][][7 ]",
      "[None][While ][If][Return",
      "][None][Try ][None][None]",
      "][][6,7 ][][]",
      "][10,11 ][9",
      "][2 ][1][1][1][1",
      "][None][For ][None][For",
      "[Try ][If][Return",
      ",4 2",
      "][7 ][][8,9",
      "[1,2][ ][3][4][5,6",
      "[1,2][3 ][3][4",
      "][21,22 ][23,24",
      "][3 ][0][0][0",
      "[6 ][0",
      "][1][0 ][2][1]",
      "][15,16 ][17",
      "[1 1",
      "[1][0 ][3]",
      "][13,14 ][15",
      "[1][2][3,4 ][5,6",
      "[1,2][3][][4,5 ][6",
      "[Try ][None][None][For",
      "[1][2,3][4 ,3",
      "][2][2 ][2]",
      "[1,2][3][4,3][5,6 ][3",
      "][0][0][0][0][0][0][0][0 ][0][0][0][0][0][0][0][0",
      "][37 ,38",
      "][If][None][Return ][None]",
      "[1][1][0][2 ][1][1][1]",
      "[1,2][2][3,4][5 ][5][]",
      "][If][None][If ][For",
      "][1][0][0][0][0 ][0]",
      "][3 ][1][1",
      "][22 ][23,24",
      "][][6,7 ][][8,9",
      "[None][For][For ][Return][None]",
      "][11 ][12",
      "[1,2][2][3][4,5 ][3][]",
      "][1][0][0 ][1][1]",
      "[If ][For][Return",
      "][14 ][]",
      "][4 8",
      "][1][0 ][1][0][0][0",
      "][2 ][4]",
      "][If][For ][Return",
      "][8][9,10 ][10][]",
      "][2 ][1][2][0",
      "][None][If ][Return][None]",
      "[None ][None][None]",
      "][7,8 ][][9",
      "][If][If ][For",
      "[1,2][][3,4][5 ][][]",
      "[1,2][2][3,4][5 ,4",
      "[If][None][None ][None][For",
      "][7 ,2",
      "][36 ,37",
      "][1][0][0 ][1][0]",
      "][If][None][If ][None][None][None]",
      "[1,2][][3,4][4][5,6 ][6][7,8",
      "][5 ][0]",
      "][][5 ][]",
      "][None][Return ][None][None]",
      "[2 ][2][0",
      "[If][None][If][None][If ][None]",
      "][3 ][2][0",
      "][5,6][7 ,1",
      "[1][2][3][4 ,1",
      "[If ][None][For][None]",
      "][6 ][0][0",
      "[0][0 ][2][0]",
      ",4 1",
      "][1][0 ][2][0]",
      "][1][0 ][3][0",
      "][17,18 ][19",
      "[None][For ][If][None][Return]",
      "[1][0 ][1][1]",
      "][10][11,12 ][13",
      "][5 ][8,9",
      "][5 ][2]",
      "[If][Return][None][For ][None][Return]",
      "[1,2][3,4][5 ][4",
      "[1 5",
      "][1][0 ][1][3",
      "[1 ][1][0][1]",
      "][7,8 ][3",
      "][None][If][None][None ][Return]",
      "[If][None][If][None][If ][Return",
      "[1,2][3][4,5 ][][3][]",
      "][3 ][1][2",
      "[0 ][1][2][0]",
      "][None][If ][If][If][None][None",
      "][7 ][7][8,9",
      ",7 ][7]",
      "][1][1][0 ][1][1",
      "][16 ]",
      "[1][2 ][2]",
      "][13 ][]",
      "][22,23 ][24",
      "][2 ][1][1][1]",
      "][15 ]",
      "][1][1][1][1 ][0]",
      "[1,2][3,4][ ][2][2]",
      "][][7,8 ][][]",
      "[1,2][3][][4,5 ][][]",
      "[1,2][3,4][5 ,4",
      "[1,2][][3,4 ][5][6,7",
      "][8][9,10 ][11,12",
      "][If][None][Return ][Return]",
      "[1,2][3,4][][4 ][]",
      "][None][None][For ][None][None]",
      "][3 ][8,9",
      "[If ][Try][None][None",
      "[If][Return ][Try][None][Return",
      "[1,2][][3,4 ][4",
      "[0][0][0 ][1][0]",
      "[If ][If][If][Return][Return",
      "][None][None][For ][For",
      "[2 ][2]",
      "[2 ][2][0]",
      "][][7 ,3",
      "][12,13 ][14",
      "][5][6,7 ][7][]",
      "][1][2 ][1][1]",
      "][None][None][For ][None][Return]",
      "][1][0][1][1 ][0][0",
      "][If][None][None ][None][None",
      "[If][None][None][For ][If][Return",
      "[1][2,3][4,1][][5 ,1",
      "[1][0 ][1][1",
      "][If][None][None ][None][For",
      "[1 ][0]",
      "[2 ][1][2]",
      "][4 ][3]",
      "][1][0 ][2][2",
      "][3][0 ][1]",
      "[1,2][][3,4][][5,6][][7,8][][9,10 ][][11,12][][13,14",
      "][2][1][1 ][0]",
      "[If][If][Return ][Return][Return]",
      "[1 ][3]",
      "][16 ][17",
      "][None][If ][None][For",
      "][2][0 ][1][1",
      "[1,2][3][3][4,5][6 ][6][]",
      "][6 ][6]",
      "][1][0][1][0 ][1][1]",
      "][21,22 ][23",
      "[1,2][3,4][5 ][5",
      "][If ][None][Return][For",
      "[1 ][1][4",
      "][4 9",
      ",4 4",
      "[1,2][2][3,4][5 ,2",
      "][5 0",
      "[If][Return ][If][None][None]",
      "[1][0 ][1][0][0]",
      "][None][None ][None][Return]",
      "[If ][If][Return][Return]",
      "][6 ][7][8,9",
      "][If][If ][If][None][If",
      "][If ][While",
      "[None][For ][If][None][None][For",
      "][1][2 ][1][1",
      "[3 ][1][1]",
      "][1][0 ][2][0][0",
      "[2 ][1][0][0",
      "][9][10,11 ][11][12,13",
      "][5][6,7][8 ,5",
      "][If][If ][None][For",
      "[1,2][3,4][5,6 ][7][7",
      "[If ][Try][If][None][None",
      "][7,8 ][5",
      "[1][0][0 ][0]",
      "[1][2,3][4,5 ][][6,7",
      "][1 ][7]",
      "][4 ][2]",
      "[None][For ][None][For][None]",
      "][If][If][None][None ][Return]",
      "[0][3 ][0]",
      "[1,2][][3,4 ][5,6][7",
      "[1][0 ][3",
      "[3 ][0][0]",
      "][16 ][]",
      "][None][None ][If][None][None]",
      "[1][1][1 ][1][1]",
      "[If][None][If ][None][Try][None][None",
      "][18 ][18",
      "[1,2][3][][4 ,2",
      "][38 ,39",
      "[1][2,3][4,5][][ ][1]",
      "][7 ,5",
      "][8 ,6",
      "[4 ][0][0",
      "][7][8 ,7",
      "][5 1",
      ",4 3",
      "[1][2 ][3][]",
      "][7 ][1]",
      "[1][0 ][1][0][0",
      "][17 ][17",
      "][2][0 ][1][1]",
      "[1 ][3][0",
      "][6][7 ][]",
      "][25,26 ][27,28",
      "[None][For][If][Return ][None][If][None]",
      "[2][0 ][2]",
      "[If][Return][If][Return][If][Return ][If][Return][Return]",
      "[1][2][3,4][5 ,2",
      "[1 2",
      "][9 ][0",
      "][][11,12 ][][]",
      "[0][0 ][2",
      "][If ][None][For][None]",
      "][None][None ][If][None]",
      "][None][If ][For][None][None",
      "][39 ,40",
      "][ ][19",
      "][0][0][0][0 ][0][0]",
      "[0][0 ][1][2",
      "][10 ,5",
      "[0][0 ][1][0][1]",
      "[0 ][6",
      "][If][If ][If][Return][Return",
      "[1,2][][3,4 ][5][6,7][8,9",
      "[3 ][1]",
      "][Try][None][None ][None][None]",
      "][12][13,14 ][15",
      "[0][0 ][4]",
      "[1,2][3,4][5,6 ][2][2",
      "][][3 ][3]",
      "[1 ][1][0][0]",
      "][1][1 4",
      "[1,2][3][4,5][6,7 ][3][3",
      "][If][None][None ][If][None]",
      "[1][2,3][4,5 ][6,7][8",
      "[If ][If][None]",
      "[0][0][0 ][1][1]",
      "[1,2][][3,4][][5,6][][7,8][][9,10 ][][]",
      "[14 ]",
      "[1 6",
      "[1 ][1][2][0",
      "][2][0 ][1][0]",
      "[0][0 ][4",
      "][7,8 ][][",
      "[1,2][][3,4][][5,6 ][6][7,8",
      "][21 ][21",
      "][13 ][14",
      "[7 ][0",
      "[1,2][][3,4][4][5,6 ][6][]",
      "][If ][If][Return][Return]",
      "][1][1 3",
      "][2][0 ][1][2",
      "[2 ][2",
      "][If][None][If][None][If ][None]",
      "[If][Return ][None][While",
      "][9 ,3",
      "][7,8 ][][9,10",
      "][1][6 ][0",
      "][13][14,15 ][16,17",
      "[1,2][][3,4][5,2 ][][]",
      "][None][For ][If][None]",
      "][12 ][12",
      "][If][None][If][None][If ][None][If][None][If",
      "[If ][None][Return",
      "][If][None][None ][If][None][None]",
      "][If][If ][If][If][None][None",
      "[0][3 ][1]",
      "[1,2][2][3][4,5 ][6,7",
      "][ ][20",
      "][6 ][9,10",
      "[1 ][0][0][0][0]",
      "[0 ][1][4]",
      "[1][2,3][4,5][ ][1][6",
      "][40 ,41",
      "[If][None][If ][None][None][None]",
      "][1][1][0 ][2]",
      "[0][1][1 ][0][0]",
      "][If][None][If][None][If ][None][None]",
      "[1,2][3,2][4,5 ][2",
      "][1][1][0][0 ][1]",
      "[1,2][2 ][3][4][5,6",
      "[If][Return ][Try][None][None",
      "[0][1][1 ][0][0",
      "][7,8][9,10 ][8",
      "][1][0][0 ][2]",
      "[1,2][3,4][5,6 ][2",
      "][41 ,42",
      "][3 ][1][1]",
      ",4 6",
      "][1][1][1][1 ][1][1][1][1",
      "][][7,8 ][9,10",
      "][3 ][0][0]",
      "][If][If ][If][None][Return",
      ",8 ][8]",
      "[1][2][3,4 ][][5,6",
      "][11][12,13 ][14",
      "][7 ][7]",
      "][Try ][Return][Return]",
      "][5 3",
      "][1][0][0 ][1][1",
      "][][8 ]",
      "][1][2 ][0][0][0",
      "][][5 ][5]",
      "][1][0][1][0 ][1][0]",
      "[1][2,3][4,1][5 ][1",
      "[0 ][7",
      "][5 2",
      "][12,13 ][14,15",
      "][2][0][0 ][1]",
      "[0][1][1 ][1][0]",
      "][None][If ][If][Return",
      "[None][For ][If][None][If",
      "][25,26 ][27",
      "[If][None][If ][If][If][None][None",
      "][18 ][19",
      "[If][None][None][For ][None]",
      "][ ][23,24",
      "[If ][If][None][None][None]",
      "][15,16 ][17,18",
      "[2 ][4",
      "[1][2][3,4 ][2][]",
      "[1,2][3,4][5,6 ][][][][]",
      "][6 ,1][1]",
      "][][6 ][7,8",
      "[1][2][3,1 ][2]",
      "[1][2,3][4,5][][6 ,1",
      "][3 ][2",
      "][1][0 ][5",
      "][23 ][24,25",
      "[If][Return][None][For ][If][Return",
      "[1][2,3][1][4,5 ][3][]",
      "[1][2,3][4,5][][5 ][6,7",
      "][If ][Try][If][None][None",
      "][9 ,4",
      "][6,7][8,9 ][10",
      "][26,27 ][28,29",
      "][ ][18,19",
      "[1][2 ][0][0",
      "[1][2,3][4,1 ][5,6][7,8",
      "[None][For][If][Return ][None][If][None][None]",
      "][None][If][Return ][None][None]",
      "][ ][20,21",
      "[1][0 ][2][0",
      "[0][0][0][0][0 ][0]",
      "][If ][If][Return][If][Return",
      "[1 ][5",
      "][3 ][1][0]",
      "][0][0][0][0 ][0][0][0",
      "][2][1][1 ][0][0",
      "[0][1][0][0 ][1]",
      "[None][For ][Try][None][None]",
      "][6 ][6][]",
      "[If][Return ][If][None][If][Return",
      "[3 ][1][1",
      "[None][For][For ][None]",
      "[1 ][1][0][0][0",
      "][5 ,3][3]",
      ",4 5",
      "[None][For][If][Return ][If][None]",
      "][3 ][1][0][0",
      "][][ ][8,9",
      "][5 4",
      "][7 ][][]",
      "][][9 ]",
      "[1][0][0 ][1]",
      "[1,2][2][3,4][][5,6 ][][]",
      "][12][13,14][14][15,16 ][16][17,18",
      "[0][0][0][0][0 ][0][0]",
      "[1][2,3][4,1][][5 ,1][1]",
      "][5 ][6][]",
      "][Try][Return ][None][None]",
      "][1][1][0][0 ][0]",
      "[1][1][0 ][1][1]",
      "[0][0 ][1][1][0]",
      "][10,11 ][3",
      "][If][None][If][None][If ][None][None",
      "][If ]",
      "[0 ][3]",
      "][None][Try ][Return",
      "[1 3",
      "][7 ,3",
      "][10 ][0",
      "][][8 ][]",
      "][][10,11 ][12",
      "][13][14,15 ][16",
      "[1][2][3,4 ][1",
      "[1][2][3 ][1]",
      "][26 ][27,28",
      "][2 ][1][0][1]",
      "[2 ][2][1]",
      "][1][10 ,11",
      "[If][None][None ][If][None][None",
      "[2 ][1][3",
      "[Try ][None]",
      "][15 ][]",
      "[1][0 ][2][0]",
      "][10][11,12 ][13,14",
      "[1,2][3][][4,5 ][6,3",
      "[1,2,3 ][4",
      "[If][If][Return ][Return",
      "][][15,16 ][][17,18",
      "[1,2][][3][4,5][6,3 ][][3]",
      "][ ][21,22",
      "][1][1 ][1][3",
      "][17 ]",
      "[None][While ][Try",
      "[If][Return][If][Return][If][Return ][None]",
      "[0 ][4][0",
      "][1][0 ][1][2][0",
      "][9 ,8",
      "][If][Return][If][Return ][None]",
      "][18 ]",
      "][1][1 ][1][2]",
      "][1][2 ][1][0]",
      "][2 ][5,6",
      ",4 7",
      "[1][1][0 ][1][0]",
      "[1 ][3][0]",
      "[0 ][0]",
      "[1,2][3 ][3][4][]",
      "[2 ][1][1][0",
      "[1][2][3,4 ][4][5,6",
      "][1][4 ][1]",
      "[1][1][1 ][1][0]",
      "[1 ][1][4]",
      "[If][None][If][None][If][None][If][None][If ][None][Return]",
      "[None ][If][None][Return]",
      "][None][If][None][If ][None][Return]",
      "[1][1][1 ][0][0",
      "][5 5",
      "][None][If][None][If ][None][None",
      "][][9,10 ][11",
      "[If][None][If ][None][For",
      "][If][If][None][None ][None][Return]",
      "[If][None][If][None][If ][None][None",
      "[1 ][6",
      "][6,7 ][4",
      "[1][0 ][1][0][1]",
      "[1,2][3,2 ][][1]",
      "[1][2,3][4,5][][6 ][6][1]",
      "[1,2][3][4,5][6,7][3 ][8,9",
      "][43 ,44",
      "][1][1 ][2][2",
      "[1,2][2][3,4 ][][5",
      "[If][Return][If][Return][If][Return ][If][Return][If][Return][If][Return][If][Return",
      "[0 ][1][2][1]",
      "][8 ][1]",
      "[1][2][3,1][4 ,1",
      "][5 ][3",
      "][2][1][1 ][2]",
      "][If][If][None][Return ][Return]",
      "[If][Return ][If][Return]",
      "[If][Return ][If][None][None][For",
      "[1][2][3 ][2]",
      "[1,2][3][4,5][][3][6,7 ][3][8,9",
      "][1 ][8]",
      "][2 ][7",
      "[0][0 ][2][1]",
      "[1][2,3][4 ][5",
      "][Try][None][None ][None][None",
      "][1][1][1][1 ][1][1]",
      "[If][Return ][If][None]",
      "][None][If ][Return]",
      "[None][For ][If][None][None][None]",
      "[1,2][3,4][][4 ][5,6",
      "][5 7",
      "][2 ][1][0][2",
      "][][ ][3]",
      "][None][If ][None][Return",
      "[1,2][][3,4][5 ][6,5",
      "][3 ][10",
      "][None][If ][If][None][None]",
      "][5 6",
      "[If][None][If ][If][Return",
      "][ ][21",
      "][6][7 ,6",
      "][8,9][10 ,7",
      "][None][If ][If][None][None][None]",
      "[None ][None][None",
      "][6 ][5]",
      "][6 ,4][4]",
      "[If][Return ][If][None][None][Return]",
      "[0][0 ][1][0",
      "][][9 ][]",
      "[1,2][][3,4][5 ][5][6,7",
      "][15 ][16",
      "[1,2][3][][4,5 ][3][]",
      "][2 ][1][4",
      "[1,2][ ][3][4][]",
      ",9 ][9]",
      "][1][0][0][0][0 ][1]",
      "][42 ,43",
      "[1][2,3][4][][5,1 ][4]",
      "][If][None][If ][None][Return",
      "][None][Try][None][None ][None]",
      "[If][If][Return ][None][Return]",
      "][1][1 5",
      ",4 8",
      "][9 ,1",
      "[3 ][3",
      "][None][If][None][If][None][If][None][If ][None][If][None][If][None][If][None][If",
      "][For ][If][None]",
      "][7,4 ][8,9",
      "[1 7",
      "][1][1 ][0][0][0][0",
      "][6][7,8][9 ,6",
[...]
