{
  "version": "1.0",
  "truncation": null,
  "padding": null,
  "added_tokens": [
    {
      "id": 0,
      "content": "[UNK]",
      "single_word": false,
      "lstrip": false,
      "rstrip": false,
      "normalized": false,
      "special": true
    },
    {
      "id": 1,
      "content": "[CLS]",
      "single_word": false,
      "lstrip": false,
      "rstrip": false,
      "normalized": false,
      "special": true
    },
    {
      "id": 2,
      "content": "[SEP]",
      "single_word": false,
      "lstrip": false,
      "rstrip": false,
      "normalized": false,
      "special": true
    },
    {
      "id": 3,
      "content": "[PAD]",
      "single_word": false,
      "lstrip": false,
      "rstrip": false,
      "normalized": false,
      "special": true
    },
    {
      "id": 4,
      "content": "[MASK]",
      "single_word": false,
      "lstrip": false,
      "rstrip": false,
      "normalized": false,
      "special": true
    }
  ],
  "normalizer": null,
  "pre_tokenizer": {
    "type": "Whitespace"
  },
  "post_processor": null,
  "decoder": null,
  "model": {
    "type": "BPE",
    "dropout": null,
    "unk_token": "[UNK]",
    "continuing_subword_prefix": null,
    "end_of_word_suffix": null,
    "fuse_unk": false,
    "byte_fallback": false,
    "ignore_merges": false,
    "vocab": {
      "[UNK]": 0,
      "[CLS]": 1,
      "[SEP]": 2,
      "[PAD]": 3,
      "[MASK]": 4,
      "A": 5,
      "B": 6,
      "C": 7,
      "D": 8,
      "E": 9,
      "F": 10,
      "G": 11,
      "H": 12,
      "I": 13,
      "J": 14,
      "K": 15,
      "L": 16,
      "M": 17,
      "N": 18,
      "O": 19,
      "P": 20,
      "Q": 21,
      "R": 22,
      "S": 23,
      "T": 24,
      "U": 25,
      "V": 26,
      "W": 27,
      "X": 28,
      "Y": 29,
      "_": 30,
      "E_": 31,
      "D_": 32,
      "LO": 33,
      "LOA": 34,
      "LOAD_": 35,
      "NA": 36,
      "ME_": 37,
      "NAME_": 38,
      "NAME_LOAD_": 39,
      "ST": 40,
      "_A": 41,
      "RI": 42,
      "CO": 43,
      "NT": 44,
      "TE_": 45,
      "TT": 46,
      "BU": 47,
      "RIBU": 48,
      "TTRIBU": 49,
      "TTRIBUTE_": 50,
      "ANT": 51,
      "NST": 52,
      "CONST": 53,
      "CONSTANT": 54,
      "OR": 55,
      "NAME_LOAD_LOAD_": 56,
      "AL": 57,
      "CAL": 58,
      "CALL": 59,
      "CONSTANT_": 60,
      "TTRIBUTE_NAME_LOAD_LOAD_": 61,
      "STOR": 62,
      "STORE_": 63,
      "N_": 64,
      "_NAME_LOAD_": 65,
      "CALL_A": 66,
      "NAME_STORE_": 67,
      "SI": 68,
      "RG": 69,
      "SSI": 70,
      "SSIG": 71,
      "_ARG": 72,
      "SSIGN_": 73,
      "EX": 74,
      "PR": 75,
      "CALL_ATTRIBUTE_NAME_LOAD_LOAD_": 76,
      "SSIGN_NAME_STORE_": 77,
      "EXPR": 78,
      "EXPR_": 79,
      "ATTRIBUTE_NAME_LOAD_LOAD_": 80,
      "CALL_NAME_LOAD_": 81,
      "SU": 82,
      "SUB": 83,
      "PT": 84,
      "IF": 85,
      "TU": 86,
      "LE_": 87,
      "CRI": 88,
      "SCRI": 89,
      "SUBSCRI": 90,
      "SUBSCRIPT": 91,
      "CONSTANT_A": 92,
      "ASSIGN_NAME_STORE_": 93,
      "COM": 94,
      "_ARG_ARG": 95,
      "IF_": 96,
      "CONSTANT_LOAD_": 97,
      "COMP": 98,
      "CALL_ATTRIBUTE_": 99,
      "CT": 100,
      "NO": 101,
      "MO": 102,
      "ND": 103,
      "EY": 104,
      "KEY": 105,
      "WOR": 106,
      "KEYWOR": 107,
      "KEYWORD_": 108,
      "AR": 109,
      "COMPAR": 110,
      "COMPARE_": 111,
      "SUBSCRIPT_NAME_LOAD_": 112,
      "_CONSTANT_": 113,
      "RE": 114,
      "TUR": 115,
      "RETUR": 116,
      "ENT": 117,
      "MENT": 118,
      "UMENT": 119,
      "_ARGUMENT": 120,
      "_ARGUMENTS": 121,
      "CALL_NAME_LOAD_NAME_LOAD_": 122,
      "CONSTANT_ASSIGN_NAME_STORE_": 123,
      "EF": 124,
      "FU": 125,
      "IO": 126,
      "NCT": 127,
      "NDEF": 128,
      "FUNCT": 129,
      "IONDEF": 130,
      "FUNCTIONDEF": 131,
      "FUNCTIONDEF_ARGUMENTS": 132,
      "DU": 133,
      "MODU": 134,
      "MODULE_": 135,
      "MODULE_FUNCTIONDEF_ARGUMENTS": 136,
      "ATTRIBUTE_NAME_LOAD_LOAD_LOAD_": 137,
      "RETURN_": 138,
      "EXPR_CALL_ATTRIBUTE_NAME_LOAD_LOAD_": 139,
      "LOAD": 140,
      "P_": 141,
      "IF_COMPARE_": 142,
      "_EXPR_": 143,
      "BI": 144,
      "CONSTANT_CONSTANT_": 145,
      "BINO": 146,
      "MODULE_FUNCTIONDEF_ARGUMENTS_ARG_ARG": 147,
      "_ATTRIBUTE_NAME_LOAD_LOAD_": 148,
      "LI": 149,
      "CALL_ATTRIBUTE_ATTRIBUTE_NAME_LOAD_LOAD_LOAD_": 150,
      "PLE_": 151,
      "TUPLE_": 152,
      "NAME_LOAD_NAME_LOAD_": 153,
      "NOT": 154,
      "NAME_LOAD": 155,
      "RY": 156,
      "IS": 157,
      "SUBSCRIPT_NAME_LOAD_CONSTANT_LOAD_": 158,
      "OR_": 159,
      "LIST": 160,
      "EQ": 161,
      "_ATTRIBUTE_": 162,
      "NAME_LOAD_ASSIGN_NAME_STORE_": 163,
      "DD_": 164,
      "NAME_LOAD_STORE_": 165,
      "IF_COMPARE_NAME_LOAD_": 166,
      "BINOP": 167,
      "FOR_": 168,
      "OP_": 169,
      "UNA": 170,
      "RYOP_": 171,
      "UNARYOP_": 172,
      "_ARG_EXPR_": 173,
      "KEYWORD_NAME_LOAD_": 174,
      "N_ATTRIBUTE_": 175,
      "ATTRIBUTE_": 176,
      "CALL_ATTRIBUTE_NAME_LOAD_LOAD_NAME_LOAD_": 177,
      "SSIGN_ATTRIBUTE_": 178,
      "ADD_": 179,
      "SSIGN_ATTRIBUTE_NAME_LOAD_STORE_": 180,
      "DI": 181,
      "FOR_NAME_STORE_": 182,
      "ASSIGN_": 183,
      "SUBSCRIPT_ATTRIBUTE_NAME_LOAD_LOAD_": 184,
      "RA": 185,
      "KEYWORD_CONSTANT_": 186,
      "MODULE_FUNCTIONDEF_ARGUMENTS_ARG_EXPR_": 187,
      "UNARYOP_NOT": 188,
      "BO": 189,
      "OLO": 190,
      "BOOLO": 191,
      "NAME_STORE_NAME_STORE_": 192,
      "BINOP_": 193,
      "DICT": 194,
      "RAIS": 195,
      "CALL_ATTRIBUTE_CONSTANT_LOAD_": 196,
      "RAISE_": 197,
      "LIST_": 198,
      "MODULE_FUNCTIONDEF_ARGUMENTS_ARG_ARG_EXPR_": 199,
      "RETURN_NAME_LOAD": 200,
      "SUBSCRIPT_": 201,
      "ER": 202,
      "TUPLE_NAME_STORE_NAME_STORE_": 203,
      "ATTRIBUTE_ATTRIBUTE_NAME_LOAD_LOAD_LOAD_": 204,
      "CONSTANT_IF_": 205,
      "CONSTANT_STORE_": 206,
      "CALL_ATTRIBUTE_NAME_LOAD_LOAD_CONSTANT_": 207,
      "EXPR_CALL_ATTRIBUTE_NAME_LOAD_LOAD_NAME_LOAD_": 208,
      "ASSIGN_ATTRIBUTE_NAME_LOAD_STORE_": 209,
      "ND_": 210,
      "RAISE_CALL_NAME_LOAD_": 211,
      "IN_": 212,
      "EN": 213,
      "EXPR_CALL_ATTRIBUTE_ATTRIBUTE_NAME_LOAD_LOAD_LOAD_": 214,
      "COMPARE_NAME_LOAD_": 215,
      "IT": 216,
      "TUPLE_NAME_STORE_NAME_STORE_STORE_": 217,
      "IF_NAME_LOAD_": 218,
      "MOD_": 219,
      "P_A": 220,
      "BOOLOP_A": 221,
      "BOOLOP_AND_": 222,
      "AND": 223,
      "CE": 224,
      "HAND": 225,
      "LER": 226,
      "EXCE": 227,
      "PTHAND": 228,
      "EXCEPTHAND": 229,
      "EXCEPTHANDLER": 230,
      "_CONSTANT_ASSIGN_NAME_STORE_": 231,
      "EQ_CONSTANT_": 232,
      "BINOP_NAME_LOAD_": 233,
      "ASSIGN_SUBSCRIPT_NAME_LOAD_": 234,
      "BINOP_CONSTANT_": 235,
      "TRY": 236,
      "MODULE_FUNCTIONDEF_ARGUMENTS_ARG_ARG_ARG_ARG": 237,
      "BINOP_CONSTANT_MOD_": 238,
      "CONSTANT_CONSTANT_CONSTANT_CONSTANT_": 239,
      "CALL_NAME_LOAD_NAME_LOAD_NAME_LOAD_": 240,
      "SUBSCRIPT_NAME_LOAD_NAME_LOAD_LOAD_": 241,
      "EH": 242,
      "ON_": 243,
      "SION_": 244,
      "PREH": 245,
      "COMPREH": 246,
      "ENSION_": 247,
      "COMPREHENSION_": 248,
      "ASSIGN_NAME_STORE_CALL_ATTRIBUTE_NAME_LOAD_LOAD_": 249,
      "CALL_NAME_LOAD_ATTRIBUTE_NAME_LOAD_LOAD_": 250,
      "EXPR_CALL_ATTRIBUTE_NAME_LOAD_LOAD_CONSTANT_": 251,
      "DICT_CONSTANT_": 252,
      "_CONSTANT_EXPR_": 253,
      "NAME_LOAD_LOAD": 254,
      "KEYWORD_NAME_LOAD_KEYWORD_NAME_LOAD_": 255,
      "IF_COMPARE_NAME_LOAD_IS": 256,
      "LIST_LOAD_": 257,
      "_ASSIGN_NAME_STORE_": 258,
      "CONSTANT_ASSIGN_NAME_STORE_CALL_ATTRIBUTE_NAME_LOAD_LOAD_": 259,
      "CONSTANT_ASSIGN_": 260,
      "UNARYOP_NOT_": 261,
      "CONSTANT_RETURN_": 262,
      "CONSTANT_EXPR_": 263,
      "CE_": 264,
      "SLI": 265,
      "SLICE_": 266,
      "COMPREHENSION_NAME_STORE_": 267,
      "KEYWORD_ATTRIBUTE_NAME_LOAD_LOAD_": 268,
      "UG": 269,
      "WIT": 270,
      "WITH": 271,
      "EXCEPTHANDLER_NAME_LOAD_": 272,
      "TUPLE_NAME_LOAD_": 273,
      "IF_COMPARE_ATTRIBUTE_NAME_LOAD_LOAD_": 274,
      "IN": 275,
      "CALL_ATTRIBUTE_ATTRIBUTE_NAME_LOAD_LOAD_LOAD_NAME_LOAD_": 276,
      "SUBSCRIPT_ATTRIBUTE_NAME_LOAD_LOAD_CONSTANT_LOAD_": 277,
      "LISTCOMP": 278,
      "MODULE_FUNCTIONDEF_ARGUMENTS_ARG_EXPR_CONSTANT_ASSIGN_NAME_STORE_": 279,
      "BOOLOP_": 280,
      "CONSTANT_ASSIGN_ATTRIBUTE_NAME_LOAD_STORE_": 281,
      "UNARYOP_NOT_NAME_LOAD_": 282,
      "CONSTANT_ADD_": 283,
      "IF_BOOLOP_AND_": 284,
      "BINOP_NAME_LOAD_ADD_": 285,
      "IN_NAME_LOAD_": 286,
      "UNARYOP_U": 287,
      "UNARYOP_USUB": 288,
      "UGASSIGN_NAME_STORE_": 289,
      "KEYWORD_CONSTANT_KEYWORD_CONSTANT_": 290,
      "AS": 291,
      "ATTRIBUTE_NAME_LOAD_LOAD_ATTRIBUTE_NAME_LOAD_LOAD_": 292,
      "ASSIGN_SUBSCRIPT_NAME_LOAD_CONSTANT_STORE_": 293,
      "ATTRIBUTE_ATTRIBUTE_NAME_LOAD_LOAD_LOAD_LOAD_": 294,
      "FOR_NAME_STORE_NAME_LOAD_": 295,
      "ATTRIBUTE_NAME_LOAD_LOAD_ASSIGN_NAME_STORE_": 296,
      "MODULE_FUNCTIONDEF_ARGUMENTS_ARG_ARG_EXPR_CONSTANT_ASSIGN_NAME_STORE_": 297,
      "MODULE_FUNCTIONDEF_ARGUMENTS_ARG_ARG_ARG_EXPR_": 298,
      "UGASSIGN_NAME_STORE_ADD_": 299,
      "EXPR_CALL_NAME_LOAD_": 300,
      "MODULE_FUNCTIONDEF_ARGUMENTS_ARG_EXPR_CONSTANT_": 301,
      "EQ_": 302,
      "EXPR_CALL_ATTRIBUTE_": 303,
      "NAME_LOAD_ASSIGN_NAME_STORE_CALL_ATTRIBUTE_NAME_LOAD_LOAD_": 304,
      "MODULE_FUNCTIONDEF_ARGUMENTS_ARG_ARG_ARG": 305,
      "CONSTANT_CONSTANT_LOAD_": 306,
      "TRY_ASSIGN_NAME_STORE_": 307,
      "NAME_LOAD_RETURN_": 308,
      "EL": 309,
      "GT": 310,
      "TUPLE_NAME_LOAD_NAME_LOAD_LOAD_": 311,
      "SUBSCRIPT_NAME_LOAD_SLICE_": 312,
      "CONSTANT_ASSIGN_SUBSCRIPT_NAME_LOAD_": 313,
      "FOR_TUPLE_NAME_STORE_NAME_STORE_STORE_": 314,
      "LISTCOMP_": 315,
      "CALL_NAME_LOAD_NAME_LOAD_ASSIGN_NAME_STORE_": 316,
      "BOOLOP_OR_": 317,
      "LIST_CONSTANT_": 318,
      "BINOP_BINOP_": 319,
      "MODULE_FUNCTIONDEF_ARGUMENTS_ARG_ARG_EXPR_CONSTANT_": 320,
      "IF_ATTRIBUTE_NAME_LOAD_LOAD_": 321,
      "EQ_CONSTANT_ASSIGN_NAME_STORE_": 322,
      "EQ_NAME_LOAD_": 323,
      "CALL_ATTRIBUTE_CONSTANT_LOAD_NAME_LOAD_": 324,
      "ISNOT": 325,
      "SUBSCRIPT_ATTRIBUTE_NAME_LOAD_LOAD_NAME_LOAD_LOAD_": 326,
      "SUBSCRIPT_NAME_LOAD_CONSTANT_LOAD_LOAD_": 327,
      "COMPARE_ATTRIBUTE_NAME_LOAD_LOAD_": 328,
      "_WITH": 329,
      "UE_": 330,
      "EXP_": 331,
      "CONSTANT_ATTRIBUTE_NAME_LOAD_LOAD_": 332,
      "EM": 333,
      "ITEM": 334,
      "_WITHITEM": 335,
      "NAME_LOAD_NAME_LOAD_NAME_LOAD_NAME_LOAD_": 336,
      "_CONSTANT_LOAD_": 337,
      "ASSIGN_NAME_STORE_CALL_NAME_LOAD_": 338,
      "IF_UNARYOP_NOT_": 339,
      "CONSTANT_ASSIGN_SUBSCRIPT_NAME_LOAD_CONSTANT_STORE_": 340,
      "DICT_": 341,
      "IF_COMPARE_NAME_LOAD_ISNOT": 342,
      "CONSTANT_EXPR_CALL_ATTRIBUTE_NAME_LOAD_LOAD_": 343,
      "IF_COMPARE_CONSTANT_": 344,
      "_ATTRIBUTE_ATTRIBUTE_NAME_LOAD_LOAD_LOAD_": 345,
      "T_": 346,
      "AUGASSIGN_NAME_STORE_ADD_": 347,
      "MODULE_FUNCTIONDEF_ARGUMENTS_ARG_ARG_CONSTANT_EXPR_": 348,
      "TRY_": 349,
      "CALL_ATTRIBUTE_CALL_ATTRIBUTE_NAME_LOAD_LOAD_": 350,
      "IF_COMPARE_CALL_NAME_LOAD_NAME_LOAD_": 351,
      "WITH_WITHITEM": 352,
      "SUBSCRIPT_SUBSCRIPT_NAME_LOAD_CONSTANT_LOAD_": 353,
      "IF_COMPARE_NAME_LOAD_NOT": 354,
      "CONSTANT_NAME_LOAD_": 355,
      "IN_ATTRIBUTE_NAME_LOAD_LOAD_": 356,
      "ASS": 357,
      "CALL_ATTRIBUTE_NAME_LOAD_LOAD_NAME_LOAD_NAME_LOAD_": 358,
      "CONSTANT_ASSIGN_NAME_STORE_CALL_NAME_LOAD_": 359,
      "IF_UNARYOP_NOT_NAME_LOAD_": 360,
      "ASSIGN_SUBSCRIPT_NAME_LOAD_NAME_LOAD_STORE_": 361,
      "_CONSTANT_CONSTANT_EXPR_": 362,
      "UNARYOP_USUB_CONSTANT_LOAD_": 363,
      "MODULE_FUNCTIONDEF_ARGUMENTS_ARG_ARG_ARG_CONSTANT_EXPR_": 364,
      "ATTRIBUTE_NAME_LOAD_LOAD": 365,
      "WITH_WITHITEM_": 366,
      "CONT": 367,
      "CONTIN": 368,
      "CONTINUE_": 369,
      "KEYWORD_NAME_LOAD": 370,
      "ASSIGN_TUPLE_NAME_STORE_NAME_STORE_STORE_": 371,
      "MODULE_FUNCTIONDEF_ARGUMENTS_ARG_ARG_ARG_ARG_ARG_ARG": 372,
      "TUPLE_NAME_LOAD_NAME_LOAD_": 373,
      "CALL_NAME_LOAD_NAME_LOAD_CONSTANT_": 374,
      "IF_CALL_NAME_LOAD_NAME_LOAD_": 375,
      "RETURN_CALL_NAME_LOAD_": 376,
      "EQ_ATTRIBUTE_NAME_LOAD_LOAD_": 377,
      "IF_COMPARE_NAME_LOAD_IS_CONSTANT_ASSIGN_NAME_STORE_": 378,
      "BINOP_ATTRIBUTE_NAME_LOAD_LOAD_": 379,
      "NAME_LOAD_RETURN_NAME_LOAD": 380,
      "_ALI": 381,
      "_ALIAS": 382,
      "RETURN_CALL_ATTRIBUTE_NAME_LOAD_LOAD_": 383,
      "BINOP_CONSTANT_ADD_": 384,
      "CONSTANT_LOAD_ASSIGN_NAME_STORE_": 385,
      "IEL": 386,
      "YIEL": 387,
      "ISNOT_CONSTANT_": 388,
      "CONSTANT_IF_BOOLOP_AND_": 389,
      "CONSTANT_IF_UNARYOP_NOT_": 390,
      "CONSTANT_LOAD_LOAD_": 391,
      "CALL_NAME_LOAD_NAME_LOAD_NAME_LOAD_NAME_LOAD_": 392,
      "IS_CONSTANT_": 393,
      "CALL_ATTRIBUTE_ATTRIBUTE_ATTRIBUTE_NAME_LOAD_LOAD_LOAD_LOAD_": 394,
      "IF_COMPARE_NAME_LOAD_EQ_CONSTANT_": 395,
      "NAME_LOAD_EXPR_CALL_ATTRIBUTE_NAME_LOAD_LOAD_": 396,
      "SUBSCRIPT_NAME_LOAD_CONSTANT_LOAD_ASSIGN_NAME_STORE_": 397,
      "IF_NAME_LOAD_ASSIGN_NAME_STORE_": 398,
      "ERT_": 399,
      "CALL_NAME_LOAD_CONSTANT_": 400,
      "CALL_ATTRIBUTE_NAME_LOAD_LOAD_ATTRIBUTE_NAME_LOAD_LOAD_": 401,
      "LT": 402,
      "IFEXP_": 403,
      "ASSIGN_SUBSCRIPT_ATTRIBUTE_NAME_LOAD_LOAD_": 404,
      "TOR": 405,
      "IM": 406,
      "POR": 407,
      "DIV": 408,
      "IMPOR": 409,
      "IMPORT": 410,
      "DEL": 411,
      "KEYWORD_ATTRIBUTE_NAME_LOAD_LOAD_KEYWORD_ATTRIBUTE_NAME_LOAD_LOAD_": 412,
      "BINOP_NAME_LOAD_SUB": 413,
      "UNARYOP_NOT_ATTRIBUTE_NAME_LOAD_LOAD_": 414,
      "DICT_CONSTANT_CONSTANT_CONSTANT_": 415,
      "HI": 416,
      "WHI": 417,
      "WHILE_": 418,
      "IF_COMPARE_NAME_LOAD_IS_CONSTANT_": 419,
      "CONSTANT_CONSTANT_CONSTANT_CONSTANT_CONSTANT_CONSTANT_CONSTANT_CONSTANT_": 420,
      "COMPREHENSION_NAME_STORE_NAME_LOAD_": 421,
      "RETURN": 422,
      "_CONSTANT_CONSTANT_CONSTANT_": 423,
      "YIELD_": 424,
      "FOR_NAME_STORE_ATTRIBUTE_NAME_LOAD_LOAD_": 425,
      "ARG": 426,
      "CONSTANT_ASSIGN_NAME_STORE_CALL_ATTRIBUTE_NAME_LOAD_LOAD_NAME_LOAD_": 427,
      "EXPR_CALL_ATTRIBUTE_NAME_LOAD_LOAD_NAME_LOAD_NAME_LOAD_": 428,
      "NAME_LOAD_ASSIGN_NAME_STORE_CALL_ATTRIBUTE_NAME_LOAD_LOAD_NAME_LOAD_": 429,
      "COMPARE_CONSTANT_": 430,
      "CALL_": 431,
      "ASSIGN_NAME_STORE_CALL_ATTRIBUTE_NAME_LOAD_LOAD_NAME_LOAD_": 432,
      "CALL_NAME_LOAD_SUBSCRIPT_NAME_LOAD_CONSTANT_LOAD_": 433,
      "CALL_NAME_LOAD_NAME_LOAD_LOAD_": 434,
      "TUPLE_CONSTANT_CONSTANT_LOAD_": 435,
      "RETURN_NAME_LOAD_": 436,
      "KEYWORD_NAME_LOAD_KEYWORD_": 437,
      "ATTRIBUTE_NAME_LOAD_LOAD_STORE_": 438,
      "NAME_STORE_STORE_": 439,
      "EXPR_CALL_ATTRIBUTE_ATTRIBUTE_NAME_LOAD_LOAD_LOAD_NAME_LOAD_": 440,
      "KEYWORD_CONSTANT_KEYWORD_": 441,
      "RAISE_CALL_NAME_LOAD_BINOP_CONSTANT_MOD_": 442,
      "CONSTANT_ASSIGN_TUPLE_NAME_STORE_NAME_STORE_STORE_": 443,
      "RETURN_CONSTANT_": 444,
      "BOOLOP_OR": 445,
      "IF_BOOLOP_OR_": 446,
      "PASS": 447,
      "EXPR_CALL_ATTRIBUTE_NAME_LOAD_LOAD_ATTRIBUTE_NAME_LOAD_LOAD_": 448,
      "CALL_NAME_LOAD_CALL_ATTRIBUTE_NAME_LOAD_LOAD_": 449,
      "ERA": 450,
      "GEN": 451,
      "ERATOR": 452,
      "GENERATOR": 453,
      "EXP": 454,
      "MODULE_FUNCTIONDEF_ARGUMENTS_ARG_ARG_ARG_ARG_EXPR_": 455,
      "EXPR_CALL_NAME_LOAD_NAME_LOAD_": 456,
      "AK": 457,
      "BRE": 458,
      "BREAK": 459,
      "FR": 460,
      "OM": 461,
      "FROM": 462,
      "LIST_NAME_LOAD_LOAD_": 463,
      "RAISE_CALL_NAME_LOAD_CONSTANT_": 464,
      "GT_CONSTANT_": 465,
      "EXCEPTHANDLER_": 466,
      "IF_COMPARE_NAME_LOAD_EQ_CONSTANT_ASSIGN_NAME_STORE_": 467,
      "CONSTANT_ASSIGN_NAME_STORE_CALL_NAME_LOAD_NAME_LOAD_": 468,
      "LIST_LOAD_ASSIGN_NAME_STORE_": 469,
      "CALL_ATTRIBUTE_ATTRIBUTE_NAME_LOAD_LOAD_LOAD_ATTRIBUTE_NAME_LOAD_LOAD_": 470,
      "ED": 471,
      "EXPR_YIELD_": 472,
      "AM": 473,
      "A_ARGUMENTS": 474,
      "BD": 475,
      "LAM": 476,
      "BDA_ARGUMENTS": 477,
      "LAMBDA_ARGUMENTS": 478,
      "NOTEQ_CONSTANT_": 479,
      "NAME_LOAD_ASSIGN_NAME_STORE_CALL_NAME_LOAD_": 480,
      "NAME_LOAD_ASSIGN_ATTRIBUTE_NAME_LOAD_STORE_": 481,
      "COMPARE_CALL_NAME_LOAD_NAME_LOAD_": 482,
      "SUBSCRIPT_NAME_LOAD_NAME_LOAD_LOAD_LOAD_": 483,
      "CONSTANT_ASSIGN_NAME_STORE_CONSTANT_": 484,
      "CALL_ATTRIBUTE_NAME_LOAD_LOAD": 485,
      "EXPR_CALL_ATTRIBUTE_NAME_LOAD_LOAD_CALL_ATTRIBUTE_CONSTANT_LOAD_": 486,
      "CONSTANT_AUGASSIGN_NAME_STORE_ADD_": 487,
      "_NAME_LOAD_ARG": 488,
      "SUBSCRIPT_SUBSCRIPT_NAME_LOAD_CONSTANT_LOAD_CONSTANT_LOAD_": 489,
      "SUBSCRIPT_SUBSCRIPT_NAME_LOAD_NAME_LOAD_LOAD_": 490,
      "TUPLE_ATTRIBUTE_NAME_LOAD_LOAD_": 491,
      "MODULE_FUNCTIONDEF_ARGUMENTS_ARG_ARG_ARG_ARG_ARG": 492,
      "CALL_ATTRIBUTE_SUBSCRIPT_NAME_LOAD_CONSTANT_LOAD_LOAD_": 493,
      "BIT": 494,
      "CALL_ATTRIBUTE_ATTRIBUTE_NAME_LOAD_LOAD_LOAD_CONSTANT_": 495,
      "CALL_ATTRIBUTE_ATTRIBUTE_NAME_LOAD_LOAD_LOAD_NAME_LOAD_NAME_LOAD_": 496,
      "DICT_CONSTANT_CONSTANT_": 497,
      "KEYWORD_NAME_LOAD_KEYWORD_NAME_LOAD_KEYWORD_NAME_LOAD_KEYWORD_NAME_LOAD_": 498,
      "NAME_LOAD_ASSIGN_NAME_STORE_CALL_NAME_LOAD_NAME_LOAD_": 499,
      "TUPLE_NAME_STORE_NAME_STORE_NAME_STORE_STORE_": 500,
      "IF_COMPARE_SUBSCRIPT_NAME_LOAD_CONSTANT_LOAD_": 501,
      "MODULE_FUNCTIONDEF_ARGUMENTS_ARG": 502,
      "ATTRIBUTE_ATTRIBUTE_ATTRIBUTE_NAME_LOAD_LOAD_LOAD_LOAD_": 503,
      "UNARYOP_USUB_CONSTANT_": 504,
      "MODULE_FUNCTIONDEF_ARGUMENTS_EXPR_": 505,
      "GTE_": 506,
      "CALL_ATTRIBUTE_CALL_ATTRIBUTE_NAME_LOAD_LOAD_LOAD_": 507,
      "IMPORTFROM": 508,
      "IMPORTFROM_ALIAS": 509,
      "LISTCOMP_NAME_LOAD_": 510,
      "BINOP_CONSTANT_MOD_NAME_LOAD_": 511,
      "RETURN_ATTRIBUTE_": 512,
      "CONSTANT_IF_CALL_NAME_LOAD_NAME_LOAD_": 513,
      "BINOP_ATTRIBUTE_NAME_LOAD_LOAD_ADD_": 514,
      "GENERATOREXP_": 515,
      "IFEXP": 516,
      "FOR_NAME_STORE_CALL_ATTRIBUTE_NAME_LOAD_LOAD_": 517,
      "RETURN_CONSTANT": 518,
      "CONSTANT_IF_UNARYOP_NOT_NAME_LOAD_": 519,
      "LTE_": 520,
      "ASSIGN_NAME_STORE_CALL_NAME_LOAD_NAME_LOAD_": 521,
      "ASSIGN_NAME_STORE_CONSTANT_": 522,
      "LIST_NAME_LOAD_": 523,
      "DICT_CONSTANT_CONSTANT_CONSTANT_CONSTANT_CONSTANT_": 524,
      "IF_CALL_ATTRIBUTE_NAME_LOAD_LOAD_": 525,
      "_NAME_LOAD_EXPR_": 526,
      "MODULE_FUNCTIONDEF_ARGUMENTS_ARG_EXPR_CONSTANT_ASSIGN_NAME_STORE_CALL_ATTRIBUTE_NAME_LOAD_LOAD_": 527,
      "SUBSCRIPT_NAME_LOAD_CONSTANT_LOAD_SUBSCRIPT_NAME_LOAD_CONSTANT_LOAD_": 528,
      "BOOLOP_OR_NAME_LOAD_": 529,
      "RAISE_CALL_NAME_LOAD_CALL_ATTRIBUTE_CONSTANT_LOAD_": 530,
      "LAMBDA_ARGUMENTS_ARG": 531,
      "LOAD_LOAD_": 532,
      "CONSTANT_LOAD": 533,
      "CALL_ATTRIBUTE_NAME_LOAD_LOAD_CONSTANT_CONSTANT_": 534,
      "MODULE_FUNCTIONDEF_ARGUMENTS_ARG_ARG_ARG_EXPR_CONSTANT_ASSIGN_NAME_STORE_": 535,
      "IF_BOOLOP_AND_COMPARE_NAME_LOAD_": 536,
      "IF_COMPARE_NAME_LOAD_ISNOT_CONSTANT_": 537,
      "NAME_LOAD_ADD_": 538,
      "MODULE_FUNCTIONDEF_ARGUMENTS_ARG_ARG_ARG_EXPR_CONSTANT_": 539,
      "_CONSTANT_ASSIGN_SUBSCRIPT_NAME_LOAD_CONSTANT_STORE_": 540,
      "RETURN_CALL_NAME_LOAD_NAME_LOAD_": 541,
      "FOR_NAME_STORE_NAME_LOAD_ASSIGN_NAME_STORE_": 542,
      "RETURN_CONSTANT_RETURN_": 543,
      "IF_CALL_NAME_LOAD_NAME_LOAD_NAME_LOAD_": 544,
      "MODULE_FUNCTIONDEF_ARGUMENTS_ARG_ARG_ARG_CONSTANT_CONSTANT_EXPR_": 545,
      "_CONSTANT_CONSTANT_CONSTANT_EXPR_": 546,
      "TUPLE_NAME_LOAD_NAME_LOAD_LOAD": 547,
      "SS": 548,
      "EXPR_CALL_ATTRIBUTE_NAME_LOAD_LOAD": 549,
      "_ASSIGN_": 550,
      "SUBSCRIPT_ATTRIBUTE_ATTRIBUTE_NAME_LOAD_LOAD_LOAD_": 551,
      "SSIGN_ATTRIBUTE_ATTRIBUTE_NAME_LOAD_LOAD_STORE_": 552,
      "IF_COMPARE_NAME_LOAD_IN_": 553,
      "ATTRIBUTE_NAME_LOAD_LOAD_LOAD": 554,
      "ATTRIBUTE_NAME_LOAD_LOAD_ASSIGN_ATTRIBUTE_NAME_LOAD_STORE_": 555,
      "NAME_LOAD_NAME_LOAD_NAME_LOAD_": 556,
      "FOR_TUPLE_NAME_STORE_NAME_STORE_STORE_CALL_ATTRIBUTE_NAME_LOAD_LOAD_": 557,
      "COMPARE_SUBSCRIPT_NAME_LOAD_CONSTANT_LOAD_": 558,
      "PASS_": 559,
      "COMPREHENSION_TUPLE_NAME_STORE_NAME_STORE_STORE_": 560,
      "EXPR_CALL_ATTRIBUTE_NAME_LOAD_LOAD_CONSTANT_NAME_LOAD_": 561,
      "BREAK_": 562,
      "CONSTANT_ASS": 563,
      "MODULE_FUNCTIONDEF_ARGUMENTS_ARG_ARG_CONSTANT_EXPR_CONSTANT_": 564,
      "CONSTANT_ASSIGN_NAME_STORE_CONSTANT_ASSIGN_NAME_STORE_": 565,
      "EXPR_CALL_ATTRIBUTE_NAME_LOAD_LOAD_BINOP_CONSTANT_MOD_": 566,
      "MODULE_FUNCTIONDEF_ARGUMENTS_ARG_ARG_EXPR_CONSTANT_ASSIGN_NAME_STORE_CALL_ATTRIBUTE_NAME_LOAD_LOAD_": 567,
      "TUPLE_CONSTANT_": 568,
      "DICT_ASSIGN_NAME_STORE_": 569,
      "NAME_LOAD_LOAD_ASSIGN_NAME_STORE_": 570,
      "NOTIN_NAME_LOAD_": 571,
      "RETURN_ATTRIBUTE_NAME_LOAD_LOAD": 572,
      "LAMBDA_ARGUMENTS_ARG_": 573,
      "ETE_": 574,
      "DELETE_": 575,
      "IF_COMPARE_CONSTANT_IN_NAME_LOAD_": 576,
      "LIST_CONSTANT_CONSTANT_LOAD_": 577,
      "ASSIGN_SUBSCRIPT_ATTRIBUTE_NAME_LOAD_LOAD_NAME_LOAD_STORE_": 578,
      "FOR_NAME_STORE_CALL_NAME_LOAD_": 579,
      "SUB_": 580,
      "ASSERT_": 581,
      "CONSTANT_ASSERT_": 582,
      "_ARG_ARG_ARG_ARG": 583,
      "IFEXP_NAME_LOAD_": 584,
      "EXPR_CALL_ATTRIBUTE_NAME_LOAD_LOAD_NAME_LOAD": 585,
      "EXPR_CALL_ATTRIBUTE_NAME_LOAD_LOAD_NAME_LOAD_RETURN_NAME_LOAD": 586,
      "RETURN_CALL_ATTRIBUTE_NAME_LOAD_LOAD_NAME_LOAD_": 587,
      "COMPARE_NAME_LOAD_EQ_CONSTANT_": 588,
      "NAME_LOAD_LOAD_LOAD_": 589,
      "AND_": 590,
      "BITAND_": 591,
      "CONSTANT_RETURN_NAME_LOAD": 592,
      "AUG": 593,
      "CONSTANT_ASSIGN_NAME_STORE_CALL_ATTRIBUTE_NAME_LOAD_LOAD_CONSTANT_": 594,
      "COMPARE_NAME_LOAD_IS_CONSTANT_": 595,
      "SUBSCRIPT_ATTRIBUTE_NAME_LOAD_LOAD_CONSTANT_LOAD_LOAD_": 596,
      "CONSTANT_IF_BOOLOP_OR_": 597,
      "CALL_NAME_LOAD_NAME_LOAD": 598,
      "ASSIGN_NAME_STORE_CALL_ATTRIBUTE_ATTRIBUTE_NAME_LOAD_LOAD_LOAD_": 599,
      "MA": 600,
      "IF_BOOLOP_AND_NAME_LOAD_": 601,
      "FOR": 602,
      "CALL_NAME_LOAD_NAME_LOAD_NAME_LOAD_LOAD_": 603,
      "VAL": 604,
      "TTED": 605,
      "MATTED": 606,
      "FORMATTED": 607,
      "VALUE_": 608,
      "FORMATTEDVALUE_": 609,
      "ASSIGN_SUBSCRIPT_NAME_LOAD_CONSTANT_STORE_NAME_LOAD_": 610,
      "IF_COMPARE_NAME_LOAD_EQ_": 611,
      "BINOP_BINOP_CONSTANT_ADD_": 612,
      "SUBSCRIPT_NAME_LOAD_SLICE_CONSTANT_LOAD_": 613,
      "CONSTANT_EXPR_CALL_NAME_LOAD_": 614,
      "CALL_ATTRIBUTE_NAME_LOAD_LOAD_CALL_ATTRIBUTE_NAME_LOAD_LOAD_": 615,
      "TUPLE_SLICE_": 616,
      "IF_COMPARE_CONSTANT_IN_": 617,
      "CONSTANT_CONSTANT_CONSTANT_LOAD_": 618,
      "BINOP_NAME_LOAD_ADD_CONSTANT_": 619,
      "CALL_ATTRIBUTE_CONSTANT_LOAD_NAME_LOAD_NAME_LOAD_": 620,
      "BINOP_CALL_NAME_LOAD_NAME_LOAD_": 621,
      "NOTEQ_": 622,
      "KEYWORD_SUBSCRIPT_NAME_LOAD_CONSTANT_LOAD_": 623,
      "MODULE_FUNCTIONDEF_ARGUMENTS_ARG_ARG_ARG_ARG_CONSTANT_EXPR_": 624,
      "CONSTANT_ASSIGN_NAME_STORE_CALL_ATTRIBUTE_ATTRIBUTE_NAME_LOAD_LOAD_LOAD_": 625,
      "TRY_EXPR_": 626,
      "LIST_CONSTANT_LOAD_": 627,
      "CONSTANT_EXPR_CALL_ATTRIBUTE_ATTRIBUTE_NAME_LOAD_LOAD_LOAD_": 628,
      "SUBSCRIPT_CALL_ATTRIBUTE_NAME_LOAD_LOAD_": 629,
      "EXPR_CALL_ATTRIBUTE_NAME_LOAD_LOAD_CONSTANT_CONSTANT_": 630,
      "MODULE_FUNCTIONDEF_ARGUMENTS_ARG_EXPR_CONSTANT_RETURN_": 631,
      "CALL_NAME_LOAD_NAME_LOAD_ATTRIBUTE_NAME_LOAD_LOAD_": 632,
      "MODULE_FUNCTIONDEF_ARGUMENTS_ARG_ARG_ARG_ARG_CONSTANT_CONSTANT_EXPR_": 633,
      "SUBSCRIPT_NAME_LOAD_UNARYOP_USUB_CONSTANT_LOAD_": 634,
      "CALL_NAME_LOAD_NAME_LOAD_CONSTANT_NAME_STORE_": 635,
      "IF_COMPARE_ATTRIBUTE_NAME_LOAD_LOAD_EQ_CONSTANT_": 636,
      "IF_COMPARE_NAME_LOAD_IN_NAME_LOAD_": 637,
      "ASSIGN_NAME_STORE_CALL_ATTRIBUTE_NAME_LOAD_LOAD_NAME_LOAD_NAME_LOAD_": 638,
      "LT_CONSTANT_": 639,
      "EXPR_CALL_ATTRIBUTE_NAME_LOAD_LOAD_CALL_ATTRIBUTE_NAME_LOAD_LOAD_": 640,
      "LIST_LOAD_FOR_NAME_STORE_": 641,
      "CONSTANT_IF_NAME_LOAD_": 642,
      "RETURN_TUPLE_": 643,
      "RETURN_ASSIGN_NAME_STORE_": 644,
      "LT_NAME_LOAD_": 645,
      "CALL_ATTRIBUTE_CALL_ATTRIBUTE_ATTRIBUTE_NAME_LOAD_LOAD_LOAD_": 646,
      "LT_": 647,
      "EXPR_CALL_ATTRIBUTE_NAME_LOAD_LOAD_NAME_LOAD_EXPR_CALL_ATTRIBUTE_NAME_LOAD_LOAD_NAME_LOAD_": 648,
      "KEYWORD_NAME_LOAD_KEYWORD_NAME_LOAD_KEYWORD_NAME_LOAD_": 649,
      "EXCEPTHANDLER_ATTRIBUTE_NAME_LOAD_LOAD_": 650,
      "SUBSCRIPT_SUBSCRIPT_ATTRIBUTE_NAME_LOAD_LOAD_NAME_LOAD_LOAD_": 651,
      "RAISE_CALL_ATTRIBUTE_NAME_LOAD_LOAD_": 652,
      "CONSTANT_ASSIGN_ATTRIBUTE_NAME_LOAD_STORE_CONSTANT_ASSIGN_ATTRIBUTE_NAME_LOAD_STORE_": 653,
      "BINOP_NAME_LOAD_SUB_NAME_LOAD_": 654,
      "EXPR_CALL_ATTRIBUTE_NAME_LOAD_LOAD_NAME_LOAD_ASSIGN_NAME_STORE_": 655,
      "SUBSCRIPT_ATTRIBUTE_NAME_LOAD_LOAD_NAME_LOAD_LOAD_LOAD_": 656,
      "COMPARE_CONSTANT_IN_NAME_LOAD_": 657,
      "ASSIGN_ATTRIBUTE_ATTRIBUTE_NAME_LOAD_LOAD_STORE_": 658,
      "IF_COMPARE_NAME_LOAD_EQ_NAME_LOAD_": 659,
      "MODULE_FUNCTIONDEF_ARGUMENTS_ARG_EXPR_CONSTANT_IF_": 660,
      "ATTRIBUTE_NAME_LOAD_LOAD_NAME_LOAD_": 661,
      "IMPORT_ALIAS": 662,
      "_CONSTANT_CONSTANT_CONSTANT_CONSTANT_CONSTANT_": 663,
      "KEYWORD_NAME_LOAD_ASSIGN_NAME_STORE_": 664,
      "GT_": 665,
      "SUBSCRIPT_NAME_LOAD_ATTRIBUTE_NAME_LOAD_LOAD_LOAD_": 666,
      "IF_COMPARE_NAME_LOAD_ISNOT_CONSTANT_ASSIGN_NAME_STORE_": 667,
      "COMPREHENSION_NAME_STORE_ATTRIBUTE_NAME_LOAD_LOAD_": 668,
      "GT_CONSTANT_ASSIGN_NAME_STORE_": 669,
      "SUBSCRIPT_CALL_ATTRIBUTE_NAME_LOAD_LOAD_CONSTANT_": 670,
      "COMPARE_NAME_LOAD_ISNOT_CONSTANT_": 671,
      "KEYWORD_CONSTANT_KEYWORD_CONSTANT_KEYWORD_CONSTANT_": 672,
      "WITH_WITHITEM_CALL_NAME_LOAD_NAME_LOAD_CONSTANT_NAME_STORE_": 673,
      "CONSTANT_IF_COMPARE_NAME_LOAD_IS_CONSTANT_ASSIGN_NAME_STORE_": 674,
      "CALL_NAME_LOAD_CALL_NAME_LOAD_": 675,
      "EXCEPTHANDLER_TUPLE_NAME_LOAD_NAME_LOAD_LOAD_": 676,
      "BINOP_CALL_ATTRIBUTE_NAME_LOAD_LOAD_": 677,
      "RETURN_ATTRIBUTE_NAME_LOAD_LOAD_": 678,
      "ATTRIBUTE_NAME_LOAD_LOAD_ASSIGN_NAME_STORE_CALL_ATTRIBUTE_NAME_LOAD_LOAD_": 679,
      "DIV_": 680,
      "IF_COMPARE_NAME_LOAD_NOTIN_NAME_LOAD_": 681,
      "KEYWORD_CONSTANT": 682,
      "CALL_NAME_LOAD_ATTRIBUTE_NAME_LOAD_LOAD_NAME_LOAD_": 683,
      "MODULE_FUNCTIONDEF_ARGUMENTS_ARG_EXPR_CONSTANT_IF_COMPARE_ATTRIBUTE_NAME_LOAD_LOAD_": 684,
      "BINOP_CONSTANT_MOD_TUPLE_": 685,
      "SUBSCRIPT_ATTRIBUTE_NAME_LOAD_LOAD_SLICE_": 686,
      "NOTIN_": 687,
      "IF_COMPARE_CALL_ATTRIBUTE_NAME_LOAD_LOAD_": 688,
      "BINOP_BINOP_NAME_LOAD_ADD_": 689,
      "MODULE_FUNCTIONDEF_ARGUMENTS_ARG_EXPR_CONSTANT_ASSIGN_NAME_STORE_CALL_NAME_LOAD_": 690,
      "ATTRIBUTE_NAME_LOAD_LOAD_ATTRIBUTE_NAME_LOAD_LOAD_ATTRIBUTE_NAME_LOAD_LOAD_ATTRIBUTE_NAME_LOAD_LOAD_": 691,
      "CALL_ATTRIBUTE_NAME_LOAD_LOAD_LOAD_": 692,
      "CALL_ATTRIBUTE_NAME_LOAD_LOAD_ASSIGN_NAME_STORE_": 693,
      "CONSTANT_ASSIGN_SUBSCRIPT_ATTRIBUTE_NAME_LOAD_LOAD_": 694,
      "_CONSTANT_ASSIGN_ATTRIBUTE_NAME_LOAD_STORE_": 695,
      "ASSIGN_SUBSCRIPT_ATTRIBUTE_NAME_LOAD_LOAD_CONSTANT_STORE_": 696,
      "DICTCOMP": 697,
      "LIST_LOAD_FOR_NAME_STORE_NAME_LOAD_": 698,
      "TRY_ASSIGN_NAME_STORE_CALL_NAME_LOAD_NAME_LOAD_": 699,
      "SUBSCRIPT_SUBSCRIPT_ATTRIBUTE_NAME_LOAD_LOAD_CONSTANT_LOAD_": 700,
      "LIST_ATTRIBUTE_NAME_LOAD_LOAD_": 701,
      "RETURN_CONSTANT_RETURN_CONSTANT": 702,
      "RETURN_TUPLE_NAME_LOAD_NAME_LOAD_LOAD": 703,
      "MODULE_FUNCTIONDEF_ARGUMENTS_ARG_ARG_CONSTANT_EXPR_CONSTANT_ASSIGN_NAME_STORE_": 704,
      "NOTEQ_NAME_LOAD_": 705,
      "ADD_CONSTANT_": 706,
      "NAME_LOAD_NAME_LOAD": 707,
      "CALL_NAME_LOAD_CALL_NAME_LOAD_NAME_LOAD_": 708,
      "CALL_ATTRIBUTE_CALL_ATTRIBUTE_": 709,
      "ADD_CONSTANT_ADD_": 710,
      "KEYWORD_CONSTANT_KEYWORD_CONSTANT_KEYWORD_CONSTANT_KEYWORD_CONSTANT_": 711,
      "IF_COMPARE_NAME_LOAD_IN_ATTRIBUTE_NAME_LOAD_LOAD_": 712,
      "SUB_CONSTANT_": 713,
      "GT_NAME_LOAD_": 714,
      "CONSTANT_ATTRIBUTE_": 715,
      "MODULE_FUNCTIONDEF_ARGUMENTS_ARG_ARG_ARG_ARG_ARG_EXPR_": 716,
      "DICT_CONSTANT_CONSTANT_CONSTANT_CONSTANT_": 717,
      "EXPR_CALL_ATTRIBUTE_NAME_LOAD_LOAD_EXPR_CALL_ATTRIBUTE_NAME_LOAD_LOAD_": 718,
      "EXPR_CALL_ATTRIBUTE_ATTRIBUTE_ATTRIBUTE_NAME_LOAD_LOAD_LOAD_LOAD_": 719,
      "DEL_": 720,
      "FOR_TUPLE_NAME_STORE_NAME_STORE_STORE_CALL_NAME_LOAD_NAME_LOAD_": 721,
      "CALL_ATTRIBUTE_NAME_LOAD_LOAD_NAME_LOAD": 722,
      "JO": 723,
      "STR": 724,
      "INED": 725,
      "JOINED": 726,
      "JOINEDSTR": 727,
      "_CONSTANT_CONSTANT_CONSTANT_CONSTANT_EXPR_": 728,
      "CALL_ATTRIBUTE_CALL_NAME_LOAD_NAME_LOAD_NAME_LOAD_LOAD_": 729,
      "EXPR_CALL_NAME_LOAD_NAME_LOAD_NAME_LOAD_": 730,
      "SUB_NAME_LOAD_": 731,
      "NAME_LOAD_IF_NAME_LOAD_": 732,
      "IF_UNARYOP_NOT_ATTRIBUTE_NAME_LOAD_LOAD_": 733,
      "EXPR_CALL_NAME_LOAD_CONSTANT_": 734,
      "CALL_ATTRIBUTE_CONSTANT_LOAD_ATTRIBUTE_NAME_LOAD_LOAD_": 735,
      "IF_COMPARE_NAME_LOAD_ISNOT_CONSTANT_ASSIGN_SUBSCRIPT_NAME_LOAD_CONSTANT_STORE_": 736,
      "NAME_LOAD_CONSTANT_": 737,
      "EXCEPTHANDLER_NAME_LOAD_ASSIGN_NAME_STORE_": 738,
      "RETURN_CALL_ATTRIBUTE_NAME_LOAD_LOAD_NAME_LOAD": 739,
      "RAISE_CALL_NAME_LOAD_CALL_ATTRIBUTE_CONSTANT_LOAD_NAME_LOAD_": 740,
      "IMPORTFROM_ALIAS_": 741,
      "TUPLE_ATTRIBUTE_NAME_LOAD_LOAD_ATTRIBUTE_NAME_LOAD_LOAD_LOAD_": 742,
      "SUBSCRIPT_NAME_LOAD_SLICE_UNARYOP_USUB_CONSTANT_LOAD_": 743,
      "NAME_LOAD_ASSIGN_NAME_STORE_CONSTANT_": 744,
      "KEYWORD_NAME_LOAD_KEYWORD_CONSTANT_": 745,
      "EXPR_CALL_ATTRIBUTE_NAME_LOAD_LOAD_NAME_LOAD_EXPR_CALL_ATTRIBUTE_NAME_LOAD_LOAD_": 746,
      "LIST_CONSTANT_CONSTANT_CONSTANT_LOAD_": 747,
      "KEYWORD_NAME_LOAD_KEYWORD_NAME_LOAD": 748,
      "KEYWORD_CONSTANT_ASSIGN_NAME_STORE_": 749,
      "RAISE_CALL_NAME_LOAD_CONSTANT_ASSIGN_NAME_STORE_": 750,
      "RAISE_CALL_NAME_LOAD_NAME_LOAD_": 751,
      "BINOP_CONSTANT_MOD_TUPLE_NAME_LOAD_NAME_LOAD_LOAD_": 752,
      "HIF": 753,
      "SHIF": 754,
      "MODULE_FUNCTIONDEF_ARGUMENTS_ARG_ARG_EXPR_CONSTANT_RETURN_": 755,
      "CALL_ATTRIBUTE_ATTRIBUTE_NAME_LOAD_LOAD_LOAD_NAME_LOAD_ASSIGN_NAME_STORE_": 756,
      "TUPLE_NAME_STORE_NAME_STORE_NAME_STORE_NAME_STORE_": 757,
      "_NAME_LOAD_ARG_NAME_LOAD_ARG": 758,
      "IF_COMPARE_NAME_LOAD_EQ_ATTRIBUTE_NAME_LOAD_LOAD_": 759,
      "IF_NAME_LOAD_EXPR_CALL_ATTRIBUTE_NAME_LOAD_LOAD_": 760,
      "ASSIGN_ATTRIBUTE_NAME_LOAD_STORE_ADD_": 761,
      "ASSIGN_NAME_STORE_ATTRIBUTE_NAME_LOAD_LOAD_": 762,
      "SUBSCRIPT_NAME_LOAD_CONSTANT_LOAD": 763,
      "TRY_ASSIGN_NAME_STORE_CALL_ATTRIBUTE_NAME_LOAD_LOAD_": 764,
      "IF_COMPARE_ATTRIBUTE_NAME_LOAD_LOAD_ISNOT": 765,
      "CALL_NAME_LOAD_SUBSCRIPT_NAME_LOAD_NAME_LOAD_LOAD_": 766,
      "IF_COMPARE_ATTRIBUTE_NAME_LOAD_LOAD_ISNOT_CONSTANT_": 767,
      "EXCEPTHANDLER_NAME_LOAD_PASS_": 768,
      "IF_COMPARE_CALL_NAME_LOAD_NAME_LOAD_EQ_CONSTANT_": 769,
      "KEYWORD_ATTRIBUTE_NAME_LOAD_LOAD_KEYWORD_": 770,
      "EXPR_CALL_ATTRIBUTE_ATTRIBUTE_NAME_LOAD_LOAD_LOAD_CONSTANT_": 771,
      "RETURN_NAME_LOAD_RETURN_": 772,
      "CALL_NAME_LOAD_GENERATOREXP_": 773,
      "LISTCOMP_NAME_LOAD_COMPREHENSION_NAME_STORE_NAME_LOAD_": 774,
      "CONSTANT_ASSIGN_SUBSCRIPT_NAME_LOAD_NAME_LOAD_STORE_": 775,
      "FOR_NAME_STORE_CALL_NAME_LOAD_NAME_LOAD_": 776,
      "DIV_NAME_LOAD_": 777,
      "MODULE_FUNCTIONDEF_ARGUMENTS_ARG_ARG_ARG_CONSTANT_EXPR_CONSTANT_": 778,
      "EXPR_CALL_ATTRIBUTE_NAME_LOAD_LOAD_CALL_ATTRIBUTE_CONSTANT_LOAD_NAME_LOAD_": 779,
      "CALL_ATTRIBUTE_CALL_NAME_LOAD_NAME_LOAD_LOAD_": 780,
      "EXPR_CALL_ATTRIBUTE_ATTRIBUTE_NAME_LOAD_LOAD_LOAD_NAME_LOAD": 781,
      "MODULE_FUNCTIONDEF_ARGUMENTS_ARG_ARG_ARG_ARG_ARG_ARG_ARG_ARG": 782,
      "IF_COMPARE_NAME_LOAD_NOTIN_ATTRIBUTE_NAME_LOAD_LOAD_": 783,
      "ATTRIBUTE_ATTRIBUTE_NAME_LOAD_LOAD_LOAD_ASSIGN_NAME_STORE_": 784,
      "LISTCOMP_CALL_NAME_LOAD_NAME_LOAD_": 785,
      "TUPLE_NAME_LOAD_NAME_LOAD_NAME_LOAD_LOAD_": 786,
      "RETURN_CALL_NAME_LOAD_NAME_LOAD": 787,
      "NAME_LOAD_NAME_LOAD_LOAD_": 788,
      "SUBSCRIPT_NAME_LOAD_CONSTANT_LOAD_ASSIGN_SUBSCRIPT_NAME_LOAD_CONSTANT_STORE_": 789,
      "MODULE_FUNCTIONDEF_ARGUMENTS_ARG_ARG_ARG_ARG_CONSTANT_CONSTANT_CONSTANT_EXPR_": 790,
      "_ASSIGN_ATTRIBUTE_NAME_LOAD_STORE_": 791,
      "CONSTANT_CONSTANT_CONSTANT_": 792,
      "EXPR_CALL_ATTRIBUTE_ATTRIBUTE_NAME_LOAD_LOAD_LOAD_ATTRIBUTE_NAME_LOAD_LOAD_": 793,
      "ATTRIBUTE_NAME_LOAD_STORE_": 794,
      "CALL_SUBSCRIPT_NAME_LOAD_CONSTANT_LOAD_": 795,
      "ASSIGN_TUPLE_NAME_STORE_NAME_STORE_NAME_STORE_STORE_": 796,
      "EXPR_CALL_ATTRIBUTE_NAME_LOAD_LOAD_CONSTANT_EXPR_CALL_ATTRIBUTE_NAME_LOAD_LOAD_": 797,
      "ATTRIBUTE_ATTRIBUTE_ATTRIBUTE_NAME_LOAD_LOAD_LOAD_LOAD_LOAD_": 798,
      "CALL_ATTRIBUTE_NAME_LOAD_LOAD_CONSTANT_NAME_LOAD_": 799,
      "UNARYOP_USUB_": 800,
      "CALL_NAME_LOAD_NAME_LOAD_ASSIGN_NAME_STORE_CALL_NAME_LOAD_NAME_LOAD_": 801,
      "TRY_ASSIGN_NAME_STORE_CALL_ATTRIBUTE_NAME_LOAD_LOAD_NAME_LOAD_": 802,
      "CONSTANT_CONSTANT_CONSTANT_CONSTANT_LOAD_": 803,
      "MODULE_FUNCTIONDEF_ARGUMENTS_ARG_ARG_ARG_CONSTANT_EXPR_CONSTANT_ASSIGN_NAME_STORE_": 804,
      "CALL_ATTRIBUTE_CALL_ATTRIBUTE_NAME_LOAD_LOAD_NAME_LOAD_LOAD_": 805,
      "SUBSCRIPT_ATTRIBUTE_": 806,
      "CALL_NAME_LOAD_ATTRIBUTE_NAME_LOAD_LOAD_ATTRIBUTE_NAME_LOAD_LOAD_": 807,
      "IF_ATTRIBUTE_NAME_LOAD_LOAD_ASSIGN_NAME_STORE_": 808,
      "TRY_ASSIGN_": 809,
      "CALL_ATTRIBUTE_NAME_LOAD_LOAD_NAME_LOAD_CONSTANT_": 810,
      "COMPARE_NAME_LOAD_IN_": 811,
      "CONSTANT_ASSIGN_ATTRIBUTE_NAME_LOAD_STORE_NAME_LOAD_": 812,
      "JOINEDSTR_CONSTANT_": 813,
      "CALL_ATTRIBUTE_NAME_LOAD_LOAD_NAME_LOAD_ASSIGN_NAME_STORE_": 814,
      "IF_UNARYOP_NOT_CALL_NAME_LOAD_NAME_LOAD_": 815,
      "EXPR_CALL_ATTRIBUTE_NAME_LOAD_LOAD_CONSTANT_ATTRIBUTE_NAME_LOAD_LOAD_": 816,
      "DICT_CONSTANT_CONSTANT_CONSTANT_CONSTANT_CONSTANT_CONSTANT_CONSTANT_CONSTANT_CONSTANT_": 817,
      "MODULE_FUNCTIONDEF_ARGUMENTS_ARG_ARG_EXPR_CONSTANT_IF_": 818,
      "RETURN_CONSTANT_ASSIGN_NAME_STORE_": 819,
      "CONSTANT_ASSIGN_NAME_STORE_CALL_ATTRIBUTE_NAME_LOAD_LOAD_NAME_LOAD_NAME_LOAD_": 820,
      "BINOP_NAME_LOAD_ADD_CONSTANT_LOAD_": 821,
      "NAME_LOAD_ASSIGN_NAME_STORE_CALL_ATTRIBUTE_NAME_LOAD_LOAD_NAME_LOAD_NAME_LOAD_": 822,
      "ASSIGN_ATTRIBUTE_NAME_LOAD_STORE_CALL_ATTRIBUTE_NAME_LOAD_LOAD_": 823,
      "SUBSCRIPT_SUBSCRIPT_NAME_LOAD_NAME_LOAD_LOAD_CONSTANT_LOAD_": 824,
      "LISTCOMP_NAME_LOAD_COMPREHENSION_NAME_STORE_": 825,
      "KEYWORD_CALL_ATTRIBUTE_NAME_LOAD_LOAD_": 826,
      "SUBSCRIPT_ATTRIBUTE_NAME_LOAD_LOAD_ATTRIBUTE_NAME_LOAD_LOAD_LOAD_": 827,
      "IF_CALL_ATTRIBUTE_NAME_LOAD_LOAD_NAME_LOAD_": 828,
      "SUBSCRIPT_SUBSCRIPT_": 829,
      "LISTCOMP_CALL_ATTRIBUTE_NAME_LOAD_LOAD_": 830,
      "CONSTANT_IF_UNARYOP_NOT_CALL_NAME_LOAD_NAME_LOAD_NAME_LOAD_": 831,
      "JOINEDSTR_CONSTANT_FORMATTEDVALUE_": 832,
      "COMPARE_ATTRIBUTE_NAME_LOAD_LOAD_EQ_CONSTANT_": 833,
      "COMPARE_NAME_LOAD_IN_NAME_LOAD_": 834,
      "SUBSCRIPT_NAME_LOAD_TUPLE_SLICE_": 835,
      "EXPR_CONSTANT_ASSIGN_NAME_STORE_": 836,
      "TRY_EXPR_CALL_ATTRIBUTE_NAME_LOAD_LOAD_": 837,
      "ATTRIBUTE_SUBSCRIPT_NAME_LOAD_CONSTANT_LOAD_LOAD_": 838,
      "IF_COMPARE_ATTRIBUTE_NAME_LOAD_LOAD_EQ_CONSTANT_ASSIGN_NAME_STORE_": 839,
      "CALL_NAME_LOAD_NAME_LOAD_CALL_NAME_LOAD_NAME_LOAD_": 840,
      "CALL_ATTRIBUTE_CALL_NAME_LOAD_": 841,
      "NOTEQ_ATTRIBUTE_NAME_LOAD_LOAD_": 842,
      "SHIFT": 843,
      "ATTRIBUTE_NAME_LOAD_LOAD_ASSIGN_NAME_STORE_ATTRIBUTE_NAME_LOAD_LOAD_ASSIGN_NAME_STORE_": 844,
      "COMPREHENSION_NAME_STORE_NAME_LOAD_ASSIGN_NAME_STORE_": 845,
      "CALL_NAME_LOAD_LOAD_": 846,
      "SUBSCRIPT_NAME_LOAD_NAME_LOAD_LOAD_ASSIGN_NAME_STORE_": 847,
      "BINOP_NAME_LOAD_MOD_": 848,
      "CONSTANT_AUG": 849,
      "IF_COMPARE_NAME_LOAD_NOTIN_": 850,
      "ATTRIBUTE_CALL_ATTRIBUTE_NAME_LOAD_LOAD_": 851,
      "RAISE_CALL_NAME_LOAD_CONSTANT": 852,
      "ATTRIBUTE_NAME_LOAD_LOAD_RETURN_NAME_LOAD": 853,
      "IMPORTFROM_ALIAS_ASSIGN_NAME_STORE_": 854,
      "IF_COMPARE_ATTRIBUTE_ATTRIBUTE_NAME_LOAD_LOAD_LOAD_": 855,
      "DICT_CONSTANT_NAME_LOAD_": 856,
      "BOOLOP_OR_ATTRIBUTE_NAME_LOAD_LOAD_": 857,
      "KEYWORD_CALL_NAME_LOAD_": 858,
      "MODULE_FUNCTIONDEF_ARGUMENTS_ARG_ARG_ARG_ARG_ARG_ARG_ARG": 859,
      "NOTIN_ATTRIBUTE_NAME_LOAD_LOAD_": 860,
      "DICTCOMP_NAME_LOAD_": 861,
      "MODULE_FUNCTIONDEF_ARGUMENTS_ARG_ARG_ARG_ARG_ARG_ARG_ARG_ARG_ARG_ARG": 862,
      "IF_CALL_NAME_LOAD_NAME_LOAD_NAME_LOAD_ASSIGN_NAME_STORE_": 863,
      "DIV_CONSTANT_": 864,
      "ATTRIBUTE_NAME_LOAD_LOAD_RETURN_": 865,
      "COMPARE_CALL_ATTRIBUTE_NAME_LOAD_LOAD_": 866,
      "CONTINUE_ASSIGN_NAME_STORE_": 867,
      "MODULE_FUNCTIONDEF_ARGUMENTS_ARG_ARG_NAME_LOAD_EXPR_": 868,
      "MODULE_FUNCTIONDEF_ARGUMENTS_ARG_ARG_EXPR_CONSTANT_ASSIGN_NAME_STORE_CALL_ATTRIBUTE_NAME_LOAD_LOAD_NAME_LOAD_": 869,
      "SUBSCRIPT_NAME_LOAD_NAME_LOAD_LOAD": 870,
      "MODULE_FUNCTIONDEF_ARGUMENTS_ARG_ARG_ARG_ARG_EXPR_CONSTANT_ASSIGN_NAME_STORE_": 871,
      "CONSTANT_IF_UNARYOP_NOT_CALL_NAME_LOAD_NAME_LOAD_": 872,
      "CONSTANT_RETURN_CALL_ATTRIBUTE_NAME_LOAD_LOAD_": 873,
      "BINOP_NAME_LOAD_SUB_": 874,
      "IF_COMPARE_CONSTANT_IN_ATTRIBUTE_NAME_LOAD_LOAD_": 875,
      "ATTRIBUTE_ATTRIBUTE_NAME_LOAD_LOAD_LOAD_ATTRIBUTE_ATTRIBUTE_NAME_LOAD_LOAD_LOAD_": 876,
      "IF_COMPARE_CALL_NAME_LOAD_ATTRIBUTE_NAME_LOAD_LOAD_": 877,
      "SUBSCRIPT_ATTRIBUTE_NAME_LOAD_LOAD_CONSTANT_LOAD_ASSIGN_NAME_STORE_": 878,
      "AUGASSIGN_NAME_STORE_": 879,
      "MODULE_FUNCTIONDEF_ARGUMENTS_ARG_CONSTANT_EXPR_": 880,
      "CALL_ATTRIBUTE_NAME_LOAD_LOAD_CONSTANT_ASSIGN_NAME_STORE_": 881,
      "EXPR_CALL_ATTRIBUTE_SUBSCRIPT_NAME_LOAD_CONSTANT_LOAD_LOAD_": 882,
      "ATTRIBUTE_NAME_LOAD_LOAD_EXPR_CALL_ATTRIBUTE_NAME_LOAD_LOAD_": 883,
      "BINOP_SUBSCRIPT_NAME_LOAD_CONSTANT_LOAD_": 884,
      "BINOP_NAME_LOAD_ADD_NAME_LOAD_": 885,
      "ASSIGN_ATTRIBUTE_NAME_LOAD_STORE_NAME_LOAD_": 886,
      "BINOP_BINOP_BINOP_BINOP_": 887,
      "CONSTANT_ASSIGN_TUPLE_NAME_STORE_NAME_STORE_NAME_STORE_STORE_": 888,
      "TRY_RETURN_": 889,
      "BITOR": 890,
      "IF_CALL_ATTRIBUTE_NAME_LOAD_LOAD_CONSTANT_": 891,
      "NAME_LOAD_ASSIGN_NAME_STORE_CALL_ATTRIBUTE_NAME_LOAD_LOAD_CONSTANT_": 892,
      "IMPORT_ALIAS_": 893,
      "LOAD_ASSIGN_NAME_STORE_": 894,
      "CALL_NAME_LOAD_ATTRIBUTE_NAME_LOAD_LOAD_ASSIGN_NAME_STORE_": 895,
      "COMPARE_NAME_LOAD_EQ_": 896,
      "EXPR_CONSTANT_": 897,
      "CALL_ATTRIBUTE_ATTRIBUTE_NAME_LOAD_LOAD_LOAD_CONSTANT_NAME_LOAD_": 898,
      "EXPR_CALL_ATTRIBUTE_NAME_LOAD_LOAD_CONSTANT_NAME_LOAD_NAME_LOAD_": 899,
      "SUBSCRIPT_NAME_LOAD_CONSTANT_STORE_": 900,
      "IF_CALL_ATTRIBUTE_ATTRIBUTE_NAME_LOAD_LOAD_LOAD_NAME_LOAD_": 901,
      "RETURN_CALL_ATTRIBUTE_CONSTANT_LOAD_": 902,
      "FOR_NAME_STORE_CALL_ATTRIBUTE_ATTRIBUTE_NAME_LOAD_LOAD_LOAD_": 903,
      "MODULE_FUNCTIONDEF_ARGUMENTS_ARG_ARG_ARG_EXPR_CONSTANT_ASSIGN_NAME_STORE_CALL_ATTRIBUTE_NAME_LOAD_LOAD_": 904,
      "CALL_ATTRIBUTE_SUBSCRIPT_NAME_LOAD_NAME_LOAD_LOAD_LOAD_": 905,
      "AUGASSIGN_ATTRIBUTE_NAME_LOAD_STORE_ADD_": 906,
      "DICT_CONSTANT_CONSTANT_NAME_LOAD_NAME_LOAD_": 907,
      "TUPLE_CONSTANT_CONSTANT_CONSTANT_LOAD_": 908,
      "EXPR_CALL_NAME_LOAD_BINOP_CONSTANT_MOD_": 909,
      "BINOP_CONSTANT_ADD_NAME_LOAD_": 910,
      "FOR_TUPLE_NAME_STORE_NAME_STORE_STORE_CALL_ATTRIBUTE_ATTRIBUTE_NAME_LOAD_LOAD_LOAD_": 911,
      "LIST_NAME_LOAD_NAME_LOAD_LOAD_": 912,
      "KEYWORD_NAME_LOAD_KEYWORD_ATTRIBUTE_NAME_LOAD_LOAD_KEYWORD_ATTRIBUTE_NAME_LOAD_LOAD_": 913,
      "SUBSCRIPT_NAME_LOAD_TUPLE_NAME_LOAD_NAME_LOAD_LOAD_": 914,
      "DICT_NAME_LOAD_": 915,
      "EXPR_CALL_ATTRIBUTE_NAME_LOAD_LOAD_CONSTANT_EXPR_CALL_ATTRIBUTE_NAME_LOAD_LOAD_CONSTANT_": 916,
      "KEYWORD_SUBSCRIPT_NAME_LOAD_CONSTANT_LOAD_KEYWORD_SUBSCRIPT_NAME_LOAD_CONSTANT_LOAD_": 917,
      "IF_NAME_LOAD_ASSIGN_NAME_STORE_CALL_ATTRIBUTE_NAME_LOAD_LOAD_": 918,
      "LISTCOMP_ATTRIBUTE_NAME_LOAD_LOAD_": 919,
      "WITH_WITHITEM_CALL_NAME_LOAD_": 920,
      "DELETE_SUBSCRIPT_NAME_LOAD_": 921,
      "BINOP_CALL_NAME_LOAD_": 922,
      "EXPR_CALL_NAME_LOAD_CALL_ATTRIBUTE_CONSTANT_LOAD_": 923,
      "RETURN_CALL_ATTRIBUTE_ATTRIBUTE_NAME_LOAD_LOAD_LOAD_": 924,
      "IF_UNARYOP_NOT_NAME_LOAD_ASSIGN_NAME_STORE_": 925,
      "GENERATOREXP": 926,
      "EXPR_CALL_NAME_LOAD_NAME_LOAD_NAME_LOAD_NAME_LOAD_": 927,
      "IS_CONSTANT_ASSIGN_ATTRIBUTE_NAME_LOAD_STORE_": 928,
      "BINOP_BINOP_CONSTANT_ADD_NAME_LOAD_ADD_": 929,
      "COMPARE_ATTRIBUTE_ATTRIBUTE_NAME_LOAD_LOAD_LOAD_": 930,
      "EXPR_CALL_ATTRIBUTE_NAME_LOAD_LOAD_CALL_NAME_LOAD_": 931,
      "BINOP_NAME_LOAD_SUB_CONSTANT_": 932,
      "CONSTANT_ATTRIBUTE_ATTRIBUTE_NAME_LOAD_LOAD_LOAD_": 933,
      "IF_COMPARE_ATTRIBUTE_NAME_LOAD_LOAD_EQ_ATTRIBUTE_NAME_LOAD_LOAD_": 934,
      "SUBSCRIPT_NAME_LOAD_CONSTANT_LOAD_ASSIGN_ATTRIBUTE_NAME_LOAD_STORE_": 935,
      "IF_ATTRIBUTE_ATTRIBUTE_NAME_LOAD_LOAD_LOAD_": 936,
      "DICT_ASSIGN_": 937,
      "SUBSCRIPT_NAME_LOAD_SLICE_CONSTANT_CONSTANT_LOAD_": 938,
      "RETURN_CALL_ATTRIBUTE_NAME_LOAD_LOAD": 939,
      "KEYWORD_ATTRIBUTE_ATTRIBUTE_NAME_LOAD_LOAD_LOAD_": 940,
      "MODULE_FUNCTIONDEF_ARGUMENTS_ARG_ARG_EXPR_CONSTANT_ASSIGN_NAME_STORE_CALL_NAME_LOAD_": 941,
      "_SUBSCRIPT_NAME_LOAD_NAME_LOAD_LOAD_": 942,
      "ATTRIBUTE_NAME_LOAD_LOAD_ASSIGN_NAME_STORE_CALL_ATTRIBUTE_NAME_LOAD_LOAD_NAME_LOAD_": 943,
      "EXCEPTHANDLER_NAME_LOAD_PASS": 944,
      "CALL_NAME_LOAD_NAME_LOAD_ASSIGN_NAME_STORE_CALL_NAME_LOAD_": 945,
      "IF_COMPARE_ATTRIBUTE_NAME_LOAD_LOAD_IS_CONSTANT_": 946,
      "WHILE_COMPARE_NAME_LOAD_": 947,
      "SUBSCRIPT_NAME_LOAD_SLICE_NAME_LOAD_LOAD_": 948,
      "IF_COMPARE_CONSTANT_IN_NAME_LOAD_ASSIGN_NAME_STORE_": 949,
      "CONSTANT_ASSIGN_SUBSCRIPT_NAME_LOAD_CONSTANT_STORE_CONSTANT_ASSIGN_SUBSCRIPT_NAME_LOAD_CONSTANT_STORE_": 950,
      "CALL_ATTRIBUTE_ATTRIBUTE_ATTRIBUTE_NAME_LOAD_LOAD_LOAD_LOAD_NAME_LOAD_": 951,
      "ATTRIBUTE_NAME_LOAD_LOAD_ATTRIBUTE_NAME_LOAD_LOAD_ATTRIBUTE_NAME_LOAD_LOAD_": 952,
      "COMPARE_CONSTANT_IN_": 953,
      "KEYWORD_ATTRIBUTE_NAME_LOAD_LOAD": 954,
      "CONSTANT_ASSIGN_SUBSCRIPT_ATTRIBUTE_NAME_LOAD_LOAD_CONSTANT_STORE_": 955,
      "ASSIGN_SUBSCRIPT_NAME_LOAD_NAME_LOAD_STORE_NAME_LOAD_": 956,
      "BINOP_NAME_LOAD_BITAND_": 957,
      "CONSTANT_ASSIGN_ATTRIBUTE_NAME_LOAD_STORE_CALL_ATTRIBUTE_NAME_LOAD_LOAD_": 958,
      "COMPARE_NAME_LOAD_EQ_NAME_LOAD_": 959,
      "EQ_ATTRIBUTE_ATTRIBUTE_NAME_LOAD_LOAD_LOAD_": 960,
      "CONSTANT_EXPR_CALL_ATTRIBUTE_NAME_LOAD_LOAD": 961,
      "IF_COMPARE_NAME_LOAD_IS_CONSTANT_RETURN_": 962,
      "CONSTANT_RETURN_CALL_NAME_LOAD_": 963,
      "ASSIGN_SUBSCRIPT_SUBSCRIPT_NAME_LOAD_CONSTANT_LOAD_": 964,
      "EXPR_CALL_ATTRIBUTE_NAME_LOAD_LOAD_CALL_NAME_LOAD_NAME_LOAD_": 965,
      "EXPR_CALL_ATTRIBUTE_NAME_LOAD_LOAD_NAME_LOAD_NAME_LOAD": 966,
      "CONSTANT_EXPR_CALL_NAME_LOAD_NAME_LOAD_": 967,
      "TUPLE_NAME_STORE_NAME_STORE_NAME_STORE_NAME_STORE_STORE_": 968,
      "NAME_LOAD_ASSIGN_NAME_STORE_CALL_ATTRIBUTE_ATTRIBUTE_NAME_LOAD_LOAD_LOAD_": 969,
      "MODULE_FUNCTIONDEF_ARGUMENTS_ARG_EXPR_CONSTANT_ASSIGN_NAME_STORE_CALL_ATTRIBUTE_ATTRIBUTE_NAME_LOAD_LOAD_LOAD_": 970,
      "IF_COMPARE_NAME_LOAD_NOTEQ_CONSTANT_": 971,
      "MODULE_FUNCTIONDEF_ARGUMENTS_ARG_ARG_ARG_ARG_ARG_CONSTANT_CONSTANT_CONSTANT_EXPR_": 972,
      "ASSIGN_TUPLE_NAME_STORE_NAME_STORE_STORE_CALL_ATTRIBUTE_NAME_LOAD_LOAD_": 973,
      "IS_CONSTANT_ASSIGN_NAME_STORE_": 974,
      "BITOR_": 975,
      "AUGASSIGN_NAME_STORE_ADD_CONSTANT_": 976,
      "TUPLE_CONSTANT_NAME_LOAD_LOAD_": 977,
      "COMPREHENSION_NAME_STORE_NAME_LOAD": 978,
      "ASSIGN_NAME_STORE_CALL_ATTRIBUTE_NAME_LOAD_LOAD_ASSIGN_NAME_STORE_": 979,
      "CALL_ATTRIBUTE_SUBSCRIPT_ATTRIBUTE_NAME_LOAD_LOAD_CONSTANT_LOAD_LOAD_": 980,
      "CONSTANT_ASSIGN_ATTRIBUTE_ATTRIBUTE_NAME_LOAD_LOAD_STORE_": 981,
      "ASSIGN_ATTRIBUTE_NAME_LOAD_STORE_NAME_LOAD_ASSIGN_ATTRIBUTE_NAME_LOAD_STORE_": 982,
      "SUBSCRIPT_ATTRIBUTE_ATTRIBUTE_NAME_LOAD_LOAD_LOAD_CONSTANT_LOAD_": 983,
      "MODULE_FUNCTIONDEF_ARGUMENTS_EXPR_CONSTANT_": 984,
      "COMPARE_ATTRIBUTE_NAME_LOAD_LOAD_ISNOT": 985,
      "CONSTANT_IF_BOOLOP_AND_NAME_LOAD_": 986,
      "CONSTANT_ASSIGN_NAME_STORE_CALL_ATTRIBUTE_ATTRIBUTE_NAME_LOAD_LOAD_LOAD_NAME_LOAD_": 987,
      "IF_UNARYOP_NOT_CALL_ATTRIBUTE_ATTRIBUTE_NAME_LOAD_LOAD_LOAD_NAME_LOAD_": 988,
      "IF_NAME_LOAD_RETURN_": 989,
      "KEYWORD_NAME_LOAD_RETURN_NAME_LOAD": 990,
      "IF_UNARYOP_NOT_CALL_ATTRIBUTE_NAME_LOAD_LOAD_": 991,
      "KEYWORD_SUBSCRIPT_ATTRIBUTE_NAME_LOAD_LOAD_CONSTANT_LOAD_": 992,
      "CONSTANT_CONSTANT_CONSTANT_CONSTANT_CONSTANT_CONSTANT_CONSTANT_CONSTANT_CONSTANT_CONSTANT_CONSTANT_CONSTANT_CONSTANT_CONSTANT_CONSTANT_CONSTANT_": 993,
      "EXPR_CALL_ATTRIBUTE_ATTRIBUTE_NAME_LOAD_LOAD_LOAD": 994,
      "CONSTANT_ASSIGN_NAME_STORE_LIST_LOAD_": 995,
      "NAME_LOAD_NAME_LOAD_NAME_LOAD_NAME_LOAD_NAME_LOAD_NAME_LOAD_": 996,
      "MODULE_FUNCTIONDEF_ARGUMENTS_ARG_EXPR_CONSTANT_IF_ATTRIBUTE_NAME_LOAD_LOAD_": 997,
      "CALL_NAME_LOAD_NAME_LOAD_NAME_LOAD": 998,
      "IF_COMPARE_CALL_NAME_LOAD_NAME_LOAD_GT_CONSTANT_": 999
    },
    "merges": [
      "E _",
      "D _",
      "L O",
      "LO A",
      "LOA D_",
      "N A",
      "M E_",
      "NA ME_",
      "NAME_ LOAD_",
      "S T",
      "_ A",
      "R I",
      "C O",
      "N T",
      "T E_",
      "T T",
      "B U",
      "RI BU",
      "TT RIBU",
      "TTRIBU TE_",
      "A NT",
      "N ST",
      "CO NST",
      "CONST ANT",
      "O R",
      "NAME_LOAD_ LOAD_",
      "A L",
      "C AL",
      "CAL L",
      "CONSTANT _",
      "TTRIBUTE_ NAME_LOAD_LOAD_",
      "ST OR",
      "STOR E_",
      "N _",
      "_ NAME_LOAD_",
      "CALL _A",
      "NAME_ STORE_",
      "S I",
      "R G",
      "S SI",
      "SSI G",
      "_A RG",
      "SSIG N_",
      "E X",
      "P R",
      "CALL_A TTRIBUTE_NAME_LOAD_LOAD_",
      "SSIGN_ NAME_STORE_",
      "EX PR",
      "EXPR _",
      "A TTRIBUTE_NAME_LOAD_LOAD_",
      "CALL _NAME_LOAD_",
      "S U",
      "SU B",
      "P T",
      "I F",
      "T U",
      "L E_",
      "C RI",
      "S CRI",
      "SUB SCRI",
      "SUBSCRI PT",
      "CONSTANT _A",
      "A SSIGN_NAME_STORE_",
      "CO M",
      "_ARG _ARG",
      "IF _",
      "CONSTANT_ LOAD_",
      "COM P",
      "CALL_A TTRIBUTE_",
      "C T",
      "N O",
      "M O",
      "N D",
      "E Y",
      "K EY",
      "W OR",
      "KEY WOR",
      "KEYWOR D_",
      "A R",
      "COMP AR",
      "COMPAR E_",
      "SUBSCRIPT _NAME_LOAD_",
      "_ CONSTANT_",
      "R E",
      "TU R",
      "RE TUR",
      "E NT",
      "M ENT",
      "U MENT",
      "_ARG UMENT",
      "_ARGUMENT S",
      "CALL_NAME_LOAD_ NAME_LOAD_",
      "CONSTANT_A SSIGN_NAME_STORE_",
      "E F",
      "F U",
      "I O",
      "N CT",
      "ND EF",
      "FU NCT",
      "IO NDEF",
      "FUNCT IONDEF",
      "FUNCTIONDEF _ARGUMENTS",
      "D U",
      "MO DU",
      "MODU LE_",
      "MODULE_ FUNCTIONDEF_ARGUMENTS",
      "ATTRIBUTE_NAME_LOAD_LOAD_ LOAD_",
      "RETUR N_",
      "EXPR_ CALL_ATTRIBUTE_NAME_LOAD_LOAD_",
      "LOA D",
      "P _",
      "IF_ COMPARE_",
      "_ EXPR_",
      "B I",
      "CONSTANT_ CONSTANT_",
      "BI NO",
      "MODULE_FUNCTIONDEF_ARGUMENTS _ARG_ARG",
      "_A TTRIBUTE_NAME_LOAD_LOAD_",
      "L I",
      "CALL_ATTRIBUTE_ ATTRIBUTE_NAME_LOAD_LOAD_LOAD_",
      "P LE_",
      "TU PLE_",
      "NAME_LOAD_ NAME_LOAD_",
      "NO T",
      "NAME_ LOAD",
      "R Y",
      "I S",
      "SUBSCRIPT_NAME_LOAD_ CONSTANT_LOAD_",
      "OR _",
      "LI ST",
      "E Q",
      "_A TTRIBUTE_",
      "NAME_LOAD_ ASSIGN_NAME_STORE_",
      "D D_",
      "NAME_LOAD_ STORE_",
      "IF_COMPARE_ NAME_LOAD_",
      "BINO P",
      "F OR_",
      "O P_",
      "U NA",
      "RY OP_",
      "UNA RYOP_",
      "_ARG _EXPR_",
      "KEYWORD_ NAME_LOAD_",
      "N _ATTRIBUTE_",
      "A TTRIBUTE_",
      "CALL_ATTRIBUTE_NAME_LOAD_LOAD_ NAME_LOAD_",
      "SSIG N_ATTRIBUTE_",
      "A DD_",
      "SSIGN_ATTRIBUTE_ NAME_LOAD_STORE_",
      "D I",
      "FOR_ NAME_STORE_",
      "A SSIGN_",
      "SUBSCRIPT _ATTRIBUTE_NAME_LOAD_LOAD_",
      "R A",
      "KEYWORD_ CONSTANT_",
      "MODULE_FUNCTIONDEF_ARGUMENTS _ARG_EXPR_",
      "UNARYOP_ NOT",
      "B O",
      "O LO",
      "BO OLO",
      "NAME_STORE_ NAME_STORE_",
      "BINO P_",
      "DI CT",
      "RA IS",
      "CALL_ATTRIBUTE_ CONSTANT_LOAD_",
      "RAIS E_",
      "LIST _",
      "MODULE_FUNCTIONDEF_ARGUMENTS_ARG_ARG _EXPR_",
      "RETURN_ NAME_LOAD",
      "SUBSCRIPT _",
      "E R",
      "TUPLE_ NAME_STORE_NAME_STORE_",
      "ATTRIBUTE_ ATTRIBUTE_NAME_LOAD_LOAD_LOAD_",
      "CONSTANT_ IF_",
      "CONSTANT_ STORE_",
      "CALL_ATTRIBUTE_NAME_LOAD_LOAD_ CONSTANT_",
      "EXPR_CALL_ATTRIBUTE_NAME_LOAD_LOAD_ NAME_LOAD_",
      "A SSIGN_ATTRIBUTE_NAME_LOAD_STORE_",
      "N D_",
      "RAISE_ CALL_NAME_LOAD_",
      "I N_",
      "E N",
      "EXPR_ CALL_ATTRIBUTE_ATTRIBUTE_NAME_LOAD_LOAD_LOAD_",
      "COMPARE_ NAME_LOAD_",
      "I T",
      "TUPLE_NAME_STORE_NAME_STORE_ STORE_",
      "IF _NAME_LOAD_",
      "MO D_",
      "P _A",
      "BOOLO P_A",
      "BOOLOP_A ND_",
      "A ND",
      "C E",
      "H AND",
      "L ER",
      "EX CE",
      "PT HAND",
      "EXCE PTHAND",
      "EXCEPTHAND LER",
      "_ CONSTANT_ASSIGN_NAME_STORE_",
      "EQ _CONSTANT_",
      "BINOP _NAME_LOAD_",
      "ASSIGN_ SUBSCRIPT_NAME_LOAD_",
      "BINOP _CONSTANT_",
      "T RY",
      "MODULE_FUNCTIONDEF_ARGUMENTS_ARG_ARG _ARG_ARG",
      "BINOP_CONSTANT_ MOD_",
      "CONSTANT_CONSTANT_ CONSTANT_CONSTANT_",
      "CALL_NAME_LOAD_NAME_LOAD_ NAME_LOAD_",
      "SUBSCRIPT_NAME_LOAD_ NAME_LOAD_LOAD_",
      "E H",
      "O N_",
      "SI ON_",
      "PR EH",
      "COM PREH",
      "EN SION_",
      "COMPREH ENSION_",
      "ASSIGN_NAME_STORE_ CALL_ATTRIBUTE_NAME_LOAD_LOAD_",
      "CALL_NAME_LOAD_ ATTRIBUTE_NAME_LOAD_LOAD_",
      "EXPR_CALL_ATTRIBUTE_NAME_LOAD_LOAD_ CONSTANT_",
      "DICT _CONSTANT_",
      "_CONSTANT_ EXPR_",
      "NAME_LOAD_ LOAD",
      "KEYWORD_NAME_LOAD_ KEYWORD_NAME_LOAD_",
      "IF_COMPARE_NAME_LOAD_ IS",
      "LIST_ LOAD_",
      "_A SSIGN_NAME_STORE_",
      "CONSTANT_ASSIGN_NAME_STORE_ CALL_ATTRIBUTE_NAME_LOAD_LOAD_",
      "CONSTANT_A SSIGN_",
      "UNARYOP_NOT _",
      "CONSTANT_ RETURN_",
      "CONSTANT_ EXPR_",
      "C E_",
      "S LI",
      "SLI CE_",
      "COMPREHENSION_ NAME_STORE_",
      "KEYWORD_ ATTRIBUTE_NAME_LOAD_LOAD_",
      "U G",
      "W IT",
      "WIT H",
      "EXCEPTHANDLER _NAME_LOAD_",
      "TUPLE_ NAME_LOAD_",
      "IF_COMPARE_ ATTRIBUTE_NAME_LOAD_LOAD_",
      "I N",
      "CALL_ATTRIBUTE_ATTRIBUTE_NAME_LOAD_LOAD_LOAD_ NAME_LOAD_",
      "SUBSCRIPT_ATTRIBUTE_NAME_LOAD_LOAD_ CONSTANT_LOAD_",
      "LIST COMP",
      "MODULE_FUNCTIONDEF_ARGUMENTS_ARG_EXPR_ CONSTANT_ASSIGN_NAME_STORE_",
      "BOOLO P_",
      "CONSTANT_A SSIGN_ATTRIBUTE_NAME_LOAD_STORE_",
      "UNARYOP_NOT _NAME_LOAD_",
      "CONSTANT_A DD_",
      "IF_ BOOLOP_AND_",
      "BINOP_NAME_LOAD_ ADD_",
      "IN_ NAME_LOAD_",
      "UNARYOP_ U",
      "UNARYOP_U SUB",
      "UG ASSIGN_NAME_STORE_",
      "KEYWORD_CONSTANT_ KEYWORD_CONSTANT_",
      "A S",
      "ATTRIBUTE_NAME_LOAD_LOAD_ ATTRIBUTE_NAME_LOAD_LOAD_",
      "ASSIGN_SUBSCRIPT_NAME_LOAD_ CONSTANT_STORE_",
      "ATTRIBUTE_ATTRIBUTE_NAME_LOAD_LOAD_LOAD_ LOAD_",
      "FOR_NAME_STORE_ NAME_LOAD_",
      "ATTRIBUTE_NAME_LOAD_LOAD_ ASSIGN_NAME_STORE_",
      "MODULE_FUNCTIONDEF_ARGUMENTS_ARG_ARG_EXPR_ CONSTANT_ASSIGN_NAME_STORE_",
      "MODULE_FUNCTIONDEF_ARGUMENTS_ARG_ARG _ARG_EXPR_",
      "UGASSIGN_NAME_STORE_ ADD_",
      "EXPR_ CALL_NAME_LOAD_",
      "MODULE_FUNCTIONDEF_ARGUMENTS_ARG_EXPR_ CONSTANT_",
      "EQ _",
      "EXPR_ CALL_ATTRIBUTE_",
      "NAME_LOAD_ASSIGN_NAME_STORE_ CALL_ATTRIBUTE_NAME_LOAD_LOAD_",
      "MODULE_FUNCTIONDEF_ARGUMENTS_ARG_ARG _ARG",
      "CONSTANT_ CONSTANT_LOAD_",
      "TRY _ASSIGN_NAME_STORE_",
      "NAME_LOAD_ RETURN_",
      "E L",
      "G T",
      "TUPLE_NAME_LOAD_ NAME_LOAD_LOAD_",
      "SUBSCRIPT_NAME_LOAD_ SLICE_",
      "CONSTANT_ASSIGN_ SUBSCRIPT_NAME_LOAD_",
      "FOR_ TUPLE_NAME_STORE_NAME_STORE_STORE_",
      "LISTCOMP _",
      "CALL_NAME_LOAD_NAME_LOAD_ ASSIGN_NAME_STORE_",
      "BOOLOP_ OR_",
      "LIST _CONSTANT_",
      "BINOP_ BINOP_",
      "MODULE_FUNCTIONDEF_ARGUMENTS_ARG_ARG_EXPR_ CONSTANT_",
      "IF _ATTRIBUTE_NAME_LOAD_LOAD_",
      "EQ _CONSTANT_ASSIGN_NAME_STORE_",
      "EQ _NAME_LOAD_",
      "CALL_ATTRIBUTE_CONSTANT_LOAD_ NAME_LOAD_",
      "IS NOT",
      "SUBSCRIPT_ATTRIBUTE_NAME_LOAD_LOAD_ NAME_LOAD_LOAD_",
      "SUBSCRIPT_NAME_LOAD_CONSTANT_LOAD_ LOAD_",
      "COMPARE_ ATTRIBUTE_NAME_LOAD_LOAD_",
      "_ WITH",
      "U E_",
      "EX P_",
      "CONSTANT_A TTRIBUTE_NAME_LOAD_LOAD_",
      "E M",
      "IT EM",
      "_WITH ITEM",
      "NAME_LOAD_NAME_LOAD_ NAME_LOAD_NAME_LOAD_",
      "_ CONSTANT_LOAD_",
      "ASSIGN_NAME_STORE_ CALL_NAME_LOAD_",
      "IF_ UNARYOP_NOT_",
      "CONSTANT_ASSIGN_SUBSCRIPT_NAME_LOAD_ CONSTANT_STORE_",
      "DICT _",
      "IF_COMPARE_NAME_LOAD_IS NOT",
      "CONSTANT_ EXPR_CALL_ATTRIBUTE_NAME_LOAD_LOAD_",
      "IF_COMPARE_ CONSTANT_",
      "_ATTRIBUTE_ ATTRIBUTE_NAME_LOAD_LOAD_LOAD_",
      "T _",
      "A UGASSIGN_NAME_STORE_ADD_",
      "MODULE_FUNCTIONDEF_ARGUMENTS_ARG_ARG _CONSTANT_EXPR_",
      "TRY _",
      "CALL_ATTRIBUTE_ CALL_ATTRIBUTE_NAME_LOAD_LOAD_",
      "IF_COMPARE_ CALL_NAME_LOAD_NAME_LOAD_",
      "WITH _WITHITEM",
      "SUBSCRIPT_ SUBSCRIPT_NAME_LOAD_CONSTANT_LOAD_",
      "IF_COMPARE_NAME_LOAD_ NOT",
      "CONSTANT_ NAME_LOAD_",
      "IN _ATTRIBUTE_NAME_LOAD_LOAD_",
      "AS S",
      "CALL_ATTRIBUTE_NAME_LOAD_LOAD_ NAME_LOAD_NAME_LOAD_",
      "CONSTANT_ASSIGN_NAME_STORE_ CALL_NAME_LOAD_",
      "IF_ UNARYOP_NOT_NAME_LOAD_",
      "ASSIGN_SUBSCRIPT_NAME_LOAD_ NAME_LOAD_STORE_",
      "_CONSTANT_ CONSTANT_EXPR_",
      "UNARYOP_USUB _CONSTANT_LOAD_",
      "MODULE_FUNCTIONDEF_ARGUMENTS_ARG_ARG_ARG _CONSTANT_EXPR_",
      "ATTRIBUTE_ NAME_LOAD_LOAD",
      "WITH_WITHITEM _",
      "CO NT",
      "CONT IN",
      "CONTIN UE_",
      "KEYWORD_ NAME_LOAD",
      "ASSIGN_ TUPLE_NAME_STORE_NAME_STORE_STORE_",
      "MODULE_FUNCTIONDEF_ARGUMENTS_ARG_ARG_ARG_ARG _ARG_ARG",
      "TUPLE_ NAME_LOAD_NAME_LOAD_",
      "CALL_NAME_LOAD_NAME_LOAD_ CONSTANT_",
      "IF_ CALL_NAME_LOAD_NAME_LOAD_",
      "RETURN_ CALL_NAME_LOAD_",
      "EQ _ATTRIBUTE_NAME_LOAD_LOAD_",
      "IF_COMPARE_NAME_LOAD_IS _CONSTANT_ASSIGN_NAME_STORE_",
      "BINOP _ATTRIBUTE_NAME_LOAD_LOAD_",
      "NAME_LOAD_ RETURN_NAME_LOAD",
      "_A LI",
      "_ALI AS",
      "RETURN_ CALL_ATTRIBUTE_NAME_LOAD_LOAD_",
      "BINOP_ CONSTANT_ADD_",
      "CONSTANT_LOAD_ ASSIGN_NAME_STORE_",
      "I EL",
      "Y IEL",
      "ISNOT _CONSTANT_",
      "CONSTANT_IF_ BOOLOP_AND_",
      "CONSTANT_IF_ UNARYOP_NOT_",
      "CONSTANT_LOAD_ LOAD_",
      "CALL_NAME_LOAD_NAME_LOAD_ NAME_LOAD_NAME_LOAD_",
      "IS _CONSTANT_",
      "CALL_ATTRIBUTE_ ATTRIBUTE_ATTRIBUTE_NAME_LOAD_LOAD_LOAD_LOAD_",
      "IF_COMPARE_NAME_LOAD_ EQ_CONSTANT_",
      "NAME_LOAD_ EXPR_CALL_ATTRIBUTE_NAME_LOAD_LOAD_",
      "SUBSCRIPT_NAME_LOAD_CONSTANT_LOAD_ ASSIGN_NAME_STORE_",
      "IF_NAME_LOAD_ ASSIGN_NAME_STORE_",
      "ER T_",
      "CALL_NAME_LOAD_ CONSTANT_",
      "CALL_ATTRIBUTE_NAME_LOAD_LOAD_ ATTRIBUTE_NAME_LOAD_LOAD_",
      "L T",
      "IF EXP_",
      "ASSIGN_ SUBSCRIPT_ATTRIBUTE_NAME_LOAD_LOAD_",
      "T OR",
      "I M",
      "P OR",
      "DI V",
      "IM POR",
      "IMPOR T",
      "D EL",
      "KEYWORD_ATTRIBUTE_NAME_LOAD_LOAD_ KEYWORD_ATTRIBUTE_NAME_LOAD_LOAD_",
      "BINOP_NAME_LOAD_ SUB",
      "UNARYOP_NOT _ATTRIBUTE_NAME_LOAD_LOAD_",
      "DICT_CONSTANT_ CONSTANT_CONSTANT_",
      "H I",
      "W HI",
      "WHI LE_",
      "IF_COMPARE_NAME_LOAD_IS _CONSTANT_",
      "CONSTANT_CONSTANT_CONSTANT_CONSTANT_ CONSTANT_CONSTANT_CONSTANT_CONSTANT_",
      "COMPREHENSION_NAME_STORE_ NAME_LOAD_",
      "RETUR N",
      "_CONSTANT_ CONSTANT_CONSTANT_",
      "YIEL D_",
      "FOR_NAME_STORE_ ATTRIBUTE_NAME_LOAD_LOAD_",
      "A RG",
      "CONSTANT_ASSIGN_NAME_STORE_ CALL_ATTRIBUTE_NAME_LOAD_LOAD_NAME_LOAD_",
      "EXPR_CALL_ATTRIBUTE_NAME_LOAD_LOAD_ NAME_LOAD_NAME_LOAD_",
      "NAME_LOAD_ASSIGN_NAME_STORE_ CALL_ATTRIBUTE_NAME_LOAD_LOAD_NAME_LOAD_",
      "COMPARE_ CONSTANT_",
      "CALL _",
      "ASSIGN_NAME_STORE_ CALL_ATTRIBUTE_NAME_LOAD_LOAD_NAME_LOAD_",
      "CALL_NAME_LOAD_ SUBSCRIPT_NAME_LOAD_CONSTANT_LOAD_",
      "CALL_NAME_LOAD_ NAME_LOAD_LOAD_",
      "TUPLE_ CONSTANT_CONSTANT_LOAD_",
      "RETURN_ NAME_LOAD_",
      "KEYWORD_NAME_LOAD_ KEYWORD_",
      "ATTRIBUTE_NAME_LOAD_LOAD_ STORE_",
      "NAME_STORE_ STORE_",
      "EXPR_CALL_ATTRIBUTE_ATTRIBUTE_NAME_LOAD_LOAD_LOAD_ NAME_LOAD_",
      "KEYWORD_CONSTANT_ KEYWORD_",
      "RAISE_CALL_NAME_LOAD_ BINOP_CONSTANT_MOD_",
      "CONSTANT_ASSIGN_ TUPLE_NAME_STORE_NAME_STORE_STORE_",
      "RETURN_ CONSTANT_",
      "BOOLOP_ OR",
      "IF_ BOOLOP_OR_",
      "P ASS",
      "EXPR_CALL_ATTRIBUTE_NAME_LOAD_LOAD_ ATTRIBUTE_NAME_LOAD_LOAD_",
      "CALL_NAME_LOAD_ CALL_ATTRIBUTE_NAME_LOAD_LOAD_",
      "E RA",
      "G EN",
      "ERA TOR",
      "GEN ERATOR",
      "EX P",
      "MODULE_FUNCTIONDEF_ARGUMENTS_ARG_ARG_ARG_ARG _EXPR_",
      "EXPR_ CALL_NAME_LOAD_NAME_LOAD_",
      "A K",
      "B RE",
      "BRE AK",
      "F R",
      "O M",
      "FR OM",
      "LIST_ NAME_LOAD_LOAD_",
      "RAISE_CALL_NAME_LOAD_ CONSTANT_",
      "GT _CONSTANT_",
      "EXCEPTHANDLER _",
      "IF_COMPARE_NAME_LOAD_ EQ_CONSTANT_ASSIGN_NAME_STORE_",
      "CONSTANT_ASSIGN_NAME_STORE_ CALL_NAME_LOAD_NAME_LOAD_",
      "LIST_LOAD_ ASSIGN_NAME_STORE_",
      "CALL_ATTRIBUTE_ATTRIBUTE_NAME_LOAD_LOAD_LOAD_ ATTRIBUTE_NAME_LOAD_LOAD_",
      "E D",
      "EXPR_ YIELD_",
      "A M",
      "A _ARGUMENTS",
      "B D",
      "L AM",
      "BD A_ARGUMENTS",
      "LAM BDA_ARGUMENTS",
      "NOT EQ_CONSTANT_",
      "NAME_LOAD_ASSIGN_NAME_STORE_ CALL_NAME_LOAD_",
      "NAME_LOAD_ ASSIGN_ATTRIBUTE_NAME_LOAD_STORE_",
      "COMPARE_ CALL_NAME_LOAD_NAME_LOAD_",
      "SUBSCRIPT_NAME_LOAD_NAME_LOAD_LOAD_ LOAD_",
      "CONSTANT_ASSIGN_NAME_STORE_ CONSTANT_",
      "CALL_ATTRIBUTE_ NAME_LOAD_LOAD",
      "EXPR_CALL_ATTRIBUTE_NAME_LOAD_LOAD_ CALL_ATTRIBUTE_CONSTANT_LOAD_",
      "CONSTANT_A UGASSIGN_NAME_STORE_ADD_",
      "_NAME_LOAD_ ARG",
      "SUBSCRIPT_SUBSCRIPT_NAME_LOAD_CONSTANT_LOAD_ CONSTANT_LOAD_",
      "SUBSCRIPT_ SUBSCRIPT_NAME_LOAD_NAME_LOAD_LOAD_",
      "TUPLE_ ATTRIBUTE_NAME_LOAD_LOAD_",
      "MODULE_FUNCTIONDEF_ARGUMENTS_ARG_ARG_ARG_ARG _ARG",
      "CALL_ATTRIBUTE_ SUBSCRIPT_NAME_LOAD_CONSTANT_LOAD_LOAD_",
      "BI T",
      "CALL_ATTRIBUTE_ATTRIBUTE_NAME_LOAD_LOAD_LOAD_ CONSTANT_",
      "CALL_ATTRIBUTE_ATTRIBUTE_NAME_LOAD_LOAD_LOAD_ NAME_LOAD_NAME_LOAD_",
      "DICT_CONSTANT_ CONSTANT_",
      "KEYWORD_NAME_LOAD_KEYWORD_NAME_LOAD_ KEYWORD_NAME_LOAD_KEYWORD_NAME_LOAD_",
      "NAME_LOAD_ASSIGN_NAME_STORE_ CALL_NAME_LOAD_NAME_LOAD_",
      "TUPLE_NAME_STORE_NAME_STORE_ NAME_STORE_STORE_",
      "IF_COMPARE_ SUBSCRIPT_NAME_LOAD_CONSTANT_LOAD_",
      "MODULE_FUNCTIONDEF_ARGUMENTS _ARG",
      "ATTRIBUTE_ ATTRIBUTE_ATTRIBUTE_NAME_LOAD_LOAD_LOAD_LOAD_",
      "UNARYOP_USUB _CONSTANT_",
      "MODULE_FUNCTIONDEF_ARGUMENTS _EXPR_",
      "G TE_",
      "CALL_ATTRIBUTE_CALL_ATTRIBUTE_NAME_LOAD_LOAD_ LOAD_",
      "IMPORT FROM",
      "IMPORTFROM _ALIAS",
      "LISTCOMP _NAME_LOAD_",
      "BINOP_CONSTANT_MOD_ NAME_LOAD_",
      "RETUR N_ATTRIBUTE_",
      "CONSTANT_IF_ CALL_NAME_LOAD_NAME_LOAD_",
      "BINOP_ATTRIBUTE_NAME_LOAD_LOAD_ ADD_",
      "GENERATOR EXP_",
      "IF EXP",
      "FOR_NAME_STORE_ CALL_ATTRIBUTE_NAME_LOAD_LOAD_",
      "RETURN_ CONSTANT",
      "CONSTANT_IF_ UNARYOP_NOT_NAME_LOAD_",
      "L TE_",
      "ASSIGN_NAME_STORE_ CALL_NAME_LOAD_NAME_LOAD_",
      "ASSIGN_NAME_STORE_ CONSTANT_",
      "LIST _NAME_LOAD_",
      "DICT_CONSTANT_ CONSTANT_CONSTANT_CONSTANT_CONSTANT_",
      "IF_ CALL_ATTRIBUTE_NAME_LOAD_LOAD_",
      "_NAME_LOAD_ EXPR_",
      "MODULE_FUNCTIONDEF_ARGUMENTS_ARG_EXPR_ CONSTANT_ASSIGN_NAME_STORE_CALL_ATTRIBUTE_NAME_LOAD_LOAD_",
      "SUBSCRIPT_NAME_LOAD_CONSTANT_LOAD_ SUBSCRIPT_NAME_LOAD_CONSTANT_LOAD_",
      "BOOLOP_OR _NAME_LOAD_",
      "RAISE_CALL_NAME_LOAD_ CALL_ATTRIBUTE_CONSTANT_LOAD_",
      "LAMBDA_ARGUMENTS _ARG",
      "LOAD_ LOAD_",
      "CONSTANT_ LOAD",
      "CALL_ATTRIBUTE_NAME_LOAD_LOAD_ CONSTANT_CONSTANT_",
      "MODULE_FUNCTIONDEF_ARGUMENTS_ARG_ARG_ARG_EXPR_ CONSTANT_ASSIGN_NAME_STORE_",
      "IF_BOOLOP_AND_ COMPARE_NAME_LOAD_",
      "IF_COMPARE_NAME_LOAD_ISNOT _CONSTANT_",
      "NAME_LOAD_ ADD_",
      "MODULE_FUNCTIONDEF_ARGUMENTS_ARG_ARG_ARG_EXPR_ CONSTANT_",
      "_ CONSTANT_ASSIGN_SUBSCRIPT_NAME_LOAD_CONSTANT_STORE_",
      "RETURN_ CALL_NAME_LOAD_NAME_LOAD_",
      "FOR_NAME_STORE_ NAME_LOAD_ASSIGN_NAME_STORE_",
      "RETURN_ CONSTANT_RETURN_",
      "IF_ CALL_NAME_LOAD_NAME_LOAD_NAME_LOAD_",
      "MODULE_FUNCTIONDEF_ARGUMENTS_ARG_ARG_ARG _CONSTANT_CONSTANT_EXPR_",
      "_CONSTANT_CONSTANT_CONSTANT_ EXPR_",
      "TUPLE_NAME_LOAD_NAME_LOAD_ LOAD",
      "S S",
      "EXPR_CALL_ATTRIBUTE_ NAME_LOAD_LOAD",
      "_A SSIGN_",
      "SUBSCRIPT _ATTRIBUTE_ATTRIBUTE_NAME_LOAD_LOAD_LOAD_",
      "SSIGN_ATTRIBUTE_ ATTRIBUTE_NAME_LOAD_LOAD_STORE_",
      "IF_COMPARE_NAME_LOAD_ IN_",
      "ATTRIBUTE_NAME_LOAD_LOAD_ LOAD",
      "ATTRIBUTE_NAME_LOAD_LOAD_ ASSIGN_ATTRIBUTE_NAME_LOAD_STORE_",
      "NAME_LOAD_NAME_LOAD_ NAME_LOAD_",
      "FOR_TUPLE_NAME_STORE_NAME_STORE_STORE_ CALL_ATTRIBUTE_NAME_LOAD_LOAD_",
      "COMPARE_ SUBSCRIPT_NAME_LOAD_CONSTANT_LOAD_",
      "PASS _",
      "COMPREHENSION_ TUPLE_NAME_STORE_NAME_STORE_STORE_",
      "EXPR_CALL_ATTRIBUTE_NAME_LOAD_LOAD_CONSTANT_ NAME_LOAD_",
      "BREAK _",
      "CONSTANT_A SS",
      "MODULE_FUNCTIONDEF_ARGUMENTS_ARG_ARG_CONSTANT_EXPR_ CONSTANT_",
      "CONSTANT_ASSIGN_NAME_STORE_ CONSTANT_ASSIGN_NAME_STORE_",
      "EXPR_CALL_ATTRIBUTE_NAME_LOAD_LOAD_ BINOP_CONSTANT_MOD_",
      "MODULE_FUNCTIONDEF_ARGUMENTS_ARG_ARG_EXPR_ CONSTANT_ASSIGN_NAME_STORE_CALL_ATTRIBUTE_NAME_LOAD_LOAD_",
      "TUPLE_ CONSTANT_",
      "DICT _ASSIGN_NAME_STORE_",
      "NAME_LOAD_LOAD_ ASSIGN_NAME_STORE_",
      "NOT IN_NAME_LOAD_",
      "RETURN_ATTRIBUTE_ NAME_LOAD_LOAD",
      "LAMBDA_ARGUMENTS_ARG _",
      "E TE_",
      "DEL ETE_",
      "IF_COMPARE_CONSTANT_ IN_NAME_LOAD_",
      "LIST_CONSTANT_ CONSTANT_LOAD_",
      "ASSIGN_SUBSCRIPT_ATTRIBUTE_NAME_LOAD_LOAD_ NAME_LOAD_STORE_",
      "FOR_NAME_STORE_ CALL_NAME_LOAD_",
      "SUB _",
      "ASS ERT_",
      "CONSTANT_ASS ERT_",
      "_ARG_ARG _ARG_ARG",
      "IFEXP _NAME_LOAD_",
      "EXPR_CALL_ATTRIBUTE_NAME_LOAD_LOAD_ NAME_LOAD",
      "EXPR_CALL_ATTRIBUTE_NAME_LOAD_LOAD_NAME_LOAD_ RETURN_NAME_LOAD",
      "RETURN_ CALL_ATTRIBUTE_NAME_LOAD_LOAD_NAME_LOAD_",
      "COMPARE_NAME_LOAD_ EQ_CONSTANT_",
      "NAME_LOAD_LOAD_ LOAD_",
      "A ND_",
      "BIT AND_",
      "CONSTANT_ RETURN_NAME_LOAD",
      "A UG",
      "CONSTANT_ASSIGN_NAME_STORE_ CALL_ATTRIBUTE_NAME_LOAD_LOAD_CONSTANT_",
      "COMPARE_NAME_LOAD_ IS_CONSTANT_",
      "SUBSCRIPT_ATTRIBUTE_NAME_LOAD_LOAD_CONSTANT_LOAD_ LOAD_",
      "CONSTANT_IF_ BOOLOP_OR_",
      "CALL_NAME_LOAD_ NAME_LOAD",
      "ASSIGN_NAME_STORE_ CALL_ATTRIBUTE_ATTRIBUTE_NAME_LOAD_LOAD_LOAD_",
      "M A",
      "IF_BOOLOP_AND_ NAME_LOAD_",
      "F OR",
      "CALL_NAME_LOAD_NAME_LOAD_ NAME_LOAD_LOAD_",
      "V AL",
      "TT ED",
      "MA TTED",
      "FOR MATTED",
      "VAL UE_",
      "FORMATTED VALUE_",
      "ASSIGN_SUBSCRIPT_NAME_LOAD_CONSTANT_STORE_ NAME_LOAD_",
      "IF_COMPARE_NAME_LOAD_ EQ_",
      "BINOP_BINOP_ CONSTANT_ADD_",
      "SUBSCRIPT_NAME_LOAD_SLICE_ CONSTANT_LOAD_",
      "CONSTANT_EXPR_ CALL_NAME_LOAD_",
      "CALL_ATTRIBUTE_NAME_LOAD_LOAD_ CALL_ATTRIBUTE_NAME_LOAD_LOAD_",
      "TUPLE_ SLICE_",
      "IF_COMPARE_CONSTANT_ IN_",
      "CONSTANT_CONSTANT_ CONSTANT_LOAD_",
      "BINOP_NAME_LOAD_ADD_ CONSTANT_",
      "CALL_ATTRIBUTE_CONSTANT_LOAD_ NAME_LOAD_NAME_LOAD_",
      "BINOP_ CALL_NAME_LOAD_NAME_LOAD_",
      "NOT EQ_",
      "KEYWORD_ SUBSCRIPT_NAME_LOAD_CONSTANT_LOAD_",
      "MODULE_FUNCTIONDEF_ARGUMENTS_ARG_ARG_ARG_ARG _CONSTANT_EXPR_",
      "CONSTANT_ASSIGN_NAME_STORE_ CALL_ATTRIBUTE_ATTRIBUTE_NAME_LOAD_LOAD_LOAD_",
      "TRY _EXPR_",
      "LIST_ CONSTANT_LOAD_",
      "CONSTANT_ EXPR_CALL_ATTRIBUTE_ATTRIBUTE_NAME_LOAD_LOAD_LOAD_",
      "SUBSCRIPT_ CALL_ATTRIBUTE_NAME_LOAD_LOAD_",
      "EXPR_CALL_ATTRIBUTE_NAME_LOAD_LOAD_ CONSTANT_CONSTANT_",
      "MODULE_FUNCTIONDEF_ARGUMENTS_ARG_EXPR_ CONSTANT_RETURN_",
      "CALL_NAME_LOAD_NAME_LOAD_ ATTRIBUTE_NAME_LOAD_LOAD_",
      "MODULE_FUNCTIONDEF_ARGUMENTS_ARG_ARG_ARG_ARG _CONSTANT_CONSTANT_EXPR_",
      "SUBSCRIPT_NAME_LOAD_ UNARYOP_USUB_CONSTANT_LOAD_",
      "CALL_NAME_LOAD_NAME_LOAD_CONSTANT_ NAME_STORE_",
      "IF_COMPARE_ATTRIBUTE_NAME_LOAD_LOAD_ EQ_CONSTANT_",
      "IF_COMPARE_NAME_LOAD_ IN_NAME_LOAD_",
      "ASSIGN_NAME_STORE_CALL_ATTRIBUTE_NAME_LOAD_LOAD_ NAME_LOAD_NAME_LOAD_",
      "LT _CONSTANT_",
      "EXPR_CALL_ATTRIBUTE_NAME_LOAD_LOAD_ CALL_ATTRIBUTE_NAME_LOAD_LOAD_",
      "LIST_LOAD_ FOR_NAME_STORE_",
      "CONSTANT_ IF_NAME_LOAD_",
      "RETURN_ TUPLE_",
      "RETURN _ASSIGN_NAME_STORE_",
      "LT _NAME_LOAD_",
      "CALL_ATTRIBUTE_ CALL_ATTRIBUTE_ATTRIBUTE_NAME_LOAD_LOAD_LOAD_",
      "L T_",
      "EXPR_CALL_ATTRIBUTE_NAME_LOAD_LOAD_NAME_LOAD_ EXPR_CALL_ATTRIBUTE_NAME_LOAD_LOAD_NAME_LOAD_",
      "KEYWORD_NAME_LOAD_KEYWORD_NAME_LOAD_ KEYWORD_NAME_LOAD_",
      "EXCEPTHANDLER _ATTRIBUTE_NAME_LOAD_LOAD_",
      "SUBSCRIPT_ SUBSCRIPT_ATTRIBUTE_NAME_LOAD_LOAD_NAME_LOAD_LOAD_",
      "RAISE_ CALL_ATTRIBUTE_NAME_LOAD_LOAD_",
      "CONSTANT_ASSIGN_ATTRIBUTE_NAME_LOAD_STORE_ CONSTANT_ASSIGN_ATTRIBUTE_NAME_LOAD_STORE_",
      "BINOP_NAME_LOAD_SUB _NAME_LOAD_",
      "EXPR_CALL_ATTRIBUTE_NAME_LOAD_LOAD_ NAME_LOAD_ASSIGN_NAME_STORE_",
      "SUBSCRIPT_ATTRIBUTE_NAME_LOAD_LOAD_NAME_LOAD_LOAD_ LOAD_",
      "COMPARE_CONSTANT_ IN_NAME_LOAD_",
      "A SSIGN_ATTRIBUTE_ATTRIBUTE_NAME_LOAD_LOAD_STORE_",
      "IF_COMPARE_NAME_LOAD_ EQ_NAME_LOAD_",
      "MODULE_FUNCTIONDEF_ARGUMENTS_ARG_EXPR_ CONSTANT_IF_",
      "ATTRIBUTE_NAME_LOAD_LOAD_ NAME_LOAD_",
      "IMPORT _ALIAS",
      "_CONSTANT_ CONSTANT_CONSTANT_CONSTANT_CONSTANT_",
      "KEYWORD_ NAME_LOAD_ASSIGN_NAME_STORE_",
      "GT _",
      "SUBSCRIPT_NAME_LOAD_ ATTRIBUTE_NAME_LOAD_LOAD_LOAD_",
      "IF_COMPARE_NAME_LOAD_ISNOT _CONSTANT_ASSIGN_NAME_STORE_",
      "COMPREHENSION_NAME_STORE_ ATTRIBUTE_NAME_LOAD_LOAD_",
      "GT _CONSTANT_ASSIGN_NAME_STORE_",
      "SUBSCRIPT_ CALL_ATTRIBUTE_NAME_LOAD_LOAD_CONSTANT_",
      "COMPARE_NAME_LOAD_ ISNOT_CONSTANT_",
      "KEYWORD_CONSTANT_KEYWORD_CONSTANT_ KEYWORD_CONSTANT_",
      "WITH_WITHITEM_ CALL_NAME_LOAD_NAME_LOAD_CONSTANT_NAME_STORE_",
      "CONSTANT_ IF_COMPARE_NAME_LOAD_IS_CONSTANT_ASSIGN_NAME_STORE_",
      "CALL_NAME_LOAD_ CALL_NAME_LOAD_",
      "EXCEPTHANDLER_ TUPLE_NAME_LOAD_NAME_LOAD_LOAD_",
      "BINOP_ CALL_ATTRIBUTE_NAME_LOAD_LOAD_",
      "RETURN _ATTRIBUTE_NAME_LOAD_LOAD_",
      "ATTRIBUTE_NAME_LOAD_LOAD_ ASSIGN_NAME_STORE_CALL_ATTRIBUTE_NAME_LOAD_LOAD_",
      "DIV _",
      "IF_COMPARE_NAME_LOAD_NOT IN_NAME_LOAD_",
      "KEYWORD_ CONSTANT",
      "CALL_NAME_LOAD_ATTRIBUTE_NAME_LOAD_LOAD_ NAME_LOAD_",
      "MODULE_FUNCTIONDEF_ARGUMENTS_ARG_EXPR_CONSTANT_ IF_COMPARE_ATTRIBUTE_NAME_LOAD_LOAD_",
      "BINOP_CONSTANT_MOD_ TUPLE_",
      "SUBSCRIPT_ATTRIBUTE_NAME_LOAD_LOAD_ SLICE_",
      "NOT IN_",
      "IF_COMPARE_ CALL_ATTRIBUTE_NAME_LOAD_LOAD_",
      "BINOP_ BINOP_NAME_LOAD_ADD_",
      "MODULE_FUNCTIONDEF_ARGUMENTS_ARG_EXPR_CONSTANT_ASSIGN_NAME_STORE_ CALL_NAME_LOAD_",
      "ATTRIBUTE_NAME_LOAD_LOAD_ATTRIBUTE_NAME_LOAD_LOAD_ ATTRIBUTE_NAME_LOAD_LOAD_ATTRIBUTE_NAME_LOAD_LOAD_",
      "CALL_ATTRIBUTE_NAME_LOAD_LOAD_ LOAD_",
      "CALL_ATTRIBUTE_NAME_LOAD_LOAD_ ASSIGN_NAME_STORE_",
      "CONSTANT_ASSIGN_ SUBSCRIPT_ATTRIBUTE_NAME_LOAD_LOAD_",
      "_ CONSTANT_ASSIGN_ATTRIBUTE_NAME_LOAD_STORE_",
      "ASSIGN_SUBSCRIPT_ATTRIBUTE_NAME_LOAD_LOAD_ CONSTANT_STORE_",
      "DICT COMP",
      "LIST_LOAD_ FOR_NAME_STORE_NAME_LOAD_",
      "TRY_ASSIGN_NAME_STORE_ CALL_NAME_LOAD_NAME_LOAD_",
      "SUBSCRIPT_ SUBSCRIPT_ATTRIBUTE_NAME_LOAD_LOAD_CONSTANT_LOAD_",
      "LIST _ATTRIBUTE_NAME_LOAD_LOAD_",
      "RETURN_CONSTANT_RETURN_ CONSTANT",
      "RETURN_ TUPLE_NAME_LOAD_NAME_LOAD_LOAD",
      "MODULE_FUNCTIONDEF_ARGUMENTS_ARG_ARG_CONSTANT_EXPR_ CONSTANT_ASSIGN_NAME_STORE_",
      "NOT EQ_NAME_LOAD_",
      "ADD_ CONSTANT_",
      "NAME_LOAD_ NAME_LOAD",
      "CALL_NAME_LOAD_ CALL_NAME_LOAD_NAME_LOAD_",
      "CALL_ATTRIBUTE_ CALL_ATTRIBUTE_",
      "ADD_ CONSTANT_ADD_",
      "KEYWORD_CONSTANT_KEYWORD_CONSTANT_ KEYWORD_CONSTANT_KEYWORD_CONSTANT_",
      "IF_COMPARE_NAME_LOAD_ IN_ATTRIBUTE_NAME_LOAD_LOAD_",
      "SUB _CONSTANT_",
      "GT _NAME_LOAD_",
      "CONSTANT_A TTRIBUTE_",
      "MODULE_FUNCTIONDEF_ARGUMENTS_ARG_ARG_ARG_ARG _ARG_EXPR_",
      "DICT_CONSTANT_CONSTANT_CONSTANT_ CONSTANT_",
      "EXPR_CALL_ATTRIBUTE_NAME_LOAD_LOAD_ EXPR_CALL_ATTRIBUTE_NAME_LOAD_LOAD_",
      "EXPR_CALL_ATTRIBUTE_ ATTRIBUTE_ATTRIBUTE_NAME_LOAD_LOAD_LOAD_LOAD_",
      "DEL _",
      "FOR_TUPLE_NAME_STORE_NAME_STORE_STORE_ CALL_NAME_LOAD_NAME_LOAD_",
      "CALL_ATTRIBUTE_NAME_LOAD_LOAD_ NAME_LOAD",
      "J O",
      "ST R",
      "IN ED",
      "JO INED",
      "JOINED STR",
      "_CONSTANT_CONSTANT_CONSTANT_ CONSTANT_EXPR_",
      "CALL_ATTRIBUTE_ CALL_NAME_LOAD_NAME_LOAD_NAME_LOAD_LOAD_",
      "EXPR_ CALL_NAME_LOAD_NAME_LOAD_NAME_LOAD_",
      "SUB _NAME_LOAD_",
      "NAME_LOAD_ IF_NAME_LOAD_",
      "IF_ UNARYOP_NOT_ATTRIBUTE_NAME_LOAD_LOAD_",
      "EXPR_CALL_NAME_LOAD_ CONSTANT_",
      "CALL_ATTRIBUTE_CONSTANT_LOAD_ ATTRIBUTE_NAME_LOAD_LOAD_",
      "IF_COMPARE_NAME_LOAD_ISNOT _CONSTANT_ASSIGN_SUBSCRIPT_NAME_LOAD_CONSTANT_STORE_",
      "NAME_LOAD_ CONSTANT_",
      "EXCEPTHANDLER_NAME_LOAD_ ASSIGN_NAME_STORE_",
      "RETURN_CALL_ATTRIBUTE_NAME_LOAD_LOAD_ NAME_LOAD",
      "RAISE_CALL_NAME_LOAD_ CALL_ATTRIBUTE_CONSTANT_LOAD_NAME_LOAD_",
      "IMPORTFROM_ALIAS _",
      "TUPLE_ATTRIBUTE_NAME_LOAD_LOAD_ ATTRIBUTE_NAME_LOAD_LOAD_LOAD_",
      "SUBSCRIPT_NAME_LOAD_SLICE_ UNARYOP_USUB_CONSTANT_LOAD_",
      "NAME_LOAD_ASSIGN_NAME_STORE_ CONSTANT_",
      "KEYWORD_NAME_LOAD_ KEYWORD_CONSTANT_",
      "EXPR_CALL_ATTRIBUTE_NAME_LOAD_LOAD_NAME_LOAD_ EXPR_CALL_ATTRIBUTE_NAME_LOAD_LOAD_",
      "LIST_CONSTANT_ CONSTANT_CONSTANT_LOAD_",
      "KEYWORD_NAME_LOAD_ KEYWORD_NAME_LOAD",
      "KEYWORD_ CONSTANT_ASSIGN_NAME_STORE_",
      "RAISE_CALL_NAME_LOAD_ CONSTANT_ASSIGN_NAME_STORE_",
      "RAISE_ CALL_NAME_LOAD_NAME_LOAD_",
      "BINOP_CONSTANT_MOD_ TUPLE_NAME_LOAD_NAME_LOAD_LOAD_",
      "H IF",
      "S HIF",
      "MODULE_FUNCTIONDEF_ARGUMENTS_ARG_ARG_EXPR_ CONSTANT_RETURN_",
      "CALL_ATTRIBUTE_ATTRIBUTE_NAME_LOAD_LOAD_LOAD_ NAME_LOAD_ASSIGN_NAME_STORE_",
      "TUPLE_NAME_STORE_NAME_STORE_ NAME_STORE_NAME_STORE_",
      "_NAME_LOAD_ARG _NAME_LOAD_ARG",
      "IF_COMPARE_NAME_LOAD_ EQ_ATTRIBUTE_NAME_LOAD_LOAD_",
      "IF_NAME_LOAD_ EXPR_CALL_ATTRIBUTE_NAME_LOAD_LOAD_",
      "ASSIGN_ATTRIBUTE_NAME_LOAD_STORE_ ADD_",
      "ASSIGN_NAME_STORE_ ATTRIBUTE_NAME_LOAD_LOAD_",
      "SUBSCRIPT_NAME_LOAD_ CONSTANT_LOAD",
      "TRY_ASSIGN_NAME_STORE_ CALL_ATTRIBUTE_NAME_LOAD_LOAD_",
      "IF_COMPARE_ATTRIBUTE_NAME_LOAD_LOAD_ ISNOT",
      "CALL_NAME_LOAD_ SUBSCRIPT_NAME_LOAD_NAME_LOAD_LOAD_",
      "IF_COMPARE_ATTRIBUTE_NAME_LOAD_LOAD_ ISNOT_CONSTANT_",
      "EXCEPTHANDLER_NAME_LOAD_ PASS_",
      "IF_COMPARE_CALL_NAME_LOAD_NAME_LOAD_ EQ_CONSTANT_",
      "KEYWORD_ATTRIBUTE_NAME_LOAD_LOAD_ KEYWORD_",
      "EXPR_CALL_ATTRIBUTE_ATTRIBUTE_NAME_LOAD_LOAD_LOAD_ CONSTANT_",
      "RETURN_ NAME_LOAD_RETURN_",
      "CALL_NAME_LOAD_ GENERATOREXP_",
      "LISTCOMP_NAME_LOAD_ COMPREHENSION_NAME_STORE_NAME_LOAD_",
      "CONSTANT_ASSIGN_SUBSCRIPT_NAME_LOAD_ NAME_LOAD_STORE_",
      "FOR_NAME_STORE_ CALL_NAME_LOAD_NAME_LOAD_",
      "DIV _NAME_LOAD_",
      "MODULE_FUNCTIONDEF_ARGUMENTS_ARG_ARG_ARG_CONSTANT_EXPR_ CONSTANT_",
      "EXPR_CALL_ATTRIBUTE_NAME_LOAD_LOAD_ CALL_ATTRIBUTE_CONSTANT_LOAD_NAME_LOAD_",
      "CALL_ATTRIBUTE_ CALL_NAME_LOAD_NAME_LOAD_LOAD_",
      "EXPR_CALL_ATTRIBUTE_ATTRIBUTE_NAME_LOAD_LOAD_LOAD_ NAME_LOAD",
      "MODULE_FUNCTIONDEF_ARGUMENTS_ARG_ARG_ARG_ARG_ARG_ARG _ARG_ARG",
      "IF_COMPARE_NAME_LOAD_NOT IN_ATTRIBUTE_NAME_LOAD_LOAD_",
      "ATTRIBUTE_ATTRIBUTE_NAME_LOAD_LOAD_LOAD_ ASSIGN_NAME_STORE_",
      "LISTCOMP_ CALL_NAME_LOAD_NAME_LOAD_",
      "TUPLE_NAME_LOAD_NAME_LOAD_ NAME_LOAD_LOAD_",
      "RETURN_CALL_NAME_LOAD_ NAME_LOAD",
      "NAME_LOAD_ NAME_LOAD_LOAD_",
      "SUBSCRIPT_NAME_LOAD_CONSTANT_LOAD_ ASSIGN_SUBSCRIPT_NAME_LOAD_CONSTANT_STORE_",
      "MODULE_FUNCTIONDEF_ARGUMENTS_ARG_ARG_ARG_ARG _CONSTANT_CONSTANT_CONSTANT_EXPR_",
      "_A SSIGN_ATTRIBUTE_NAME_LOAD_STORE_",
      "CONSTANT_CONSTANT_ CONSTANT_",
      "EXPR_CALL_ATTRIBUTE_ATTRIBUTE_NAME_LOAD_LOAD_LOAD_ ATTRIBUTE_NAME_LOAD_LOAD_",
      "ATTRIBUTE_ NAME_LOAD_STORE_",
      "CALL_ SUBSCRIPT_NAME_LOAD_CONSTANT_LOAD_",
      "ASSIGN_ TUPLE_NAME_STORE_NAME_STORE_NAME_STORE_STORE_",
      "EXPR_CALL_ATTRIBUTE_NAME_LOAD_LOAD_CONSTANT_ EXPR_CALL_ATTRIBUTE_NAME_LOAD_LOAD_",
      "ATTRIBUTE_ATTRIBUTE_ATTRIBUTE_NAME_LOAD_LOAD_LOAD_LOAD_ LOAD_",
      "CALL_ATTRIBUTE_NAME_LOAD_LOAD_CONSTANT_ NAME_LOAD_",
      "UNARYOP_USUB _",
      "CALL_NAME_LOAD_NAME_LOAD_ASSIGN_NAME_STORE_ CALL_NAME_LOAD_NAME_LOAD_",
      "TRY_ASSIGN_NAME_STORE_ CALL_ATTRIBUTE_NAME_LOAD_LOAD_NAME_LOAD_",
      "CONSTANT_CONSTANT_ CONSTANT_CONSTANT_LOAD_",
      "MODULE_FUNCTIONDEF_ARGUMENTS_ARG_ARG_ARG_CONSTANT_EXPR_ CONSTANT_ASSIGN_NAME_STORE_",
      "CALL_ATTRIBUTE_CALL_ATTRIBUTE_NAME_LOAD_LOAD_ NAME_LOAD_LOAD_",
      "SUBSCRIPT _ATTRIBUTE_",
      "CALL_NAME_LOAD_ATTRIBUTE_NAME_LOAD_LOAD_ ATTRIBUTE_NAME_LOAD_LOAD_",
      "IF_ATTRIBUTE_NAME_LOAD_LOAD_ ASSIGN_NAME_STORE_",
      "TRY _ASSIGN_",
      "CALL_ATTRIBUTE_NAME_LOAD_LOAD_NAME_LOAD_ CONSTANT_",
      "COMPARE_NAME_LOAD_ IN_",
      "CONSTANT_ASSIGN_ATTRIBUTE_NAME_LOAD_STORE_ NAME_LOAD_",
      "JOINEDSTR _CONSTANT_",
      "CALL_ATTRIBUTE_NAME_LOAD_LOAD_ NAME_LOAD_ASSIGN_NAME_STORE_",
      "IF_UNARYOP_NOT_ CALL_NAME_LOAD_NAME_LOAD_",
      "EXPR_CALL_ATTRIBUTE_NAME_LOAD_LOAD_ CONSTANT_ATTRIBUTE_NAME_LOAD_LOAD_",
      "DICT_CONSTANT_ CONSTANT_CONSTANT_CONSTANT_CONSTANT_CONSTANT_CONSTANT_CONSTANT_CONSTANT_",
      "MODULE_FUNCTIONDEF_ARGUMENTS_ARG_ARG_EXPR_ CONSTANT_IF_",
      "RETURN_ CONSTANT_ASSIGN_NAME_STORE_",
      "CONSTANT_ASSIGN_NAME_STORE_CALL_ATTRIBUTE_NAME_LOAD_LOAD_ NAME_LOAD_NAME_LOAD_",
      "BINOP_NAME_LOAD_ADD_ CONSTANT_LOAD_",
      "NAME_LOAD_ASSIGN_NAME_STORE_CALL_ATTRIBUTE_NAME_LOAD_LOAD_ NAME_LOAD_NAME_LOAD_",
      "ASSIGN_ATTRIBUTE_NAME_LOAD_STORE_ CALL_ATTRIBUTE_NAME_LOAD_LOAD_",
      "SUBSCRIPT_SUBSCRIPT_NAME_LOAD_NAME_LOAD_LOAD_ CONSTANT_LOAD_",
      "LISTCOMP_NAME_LOAD_ COMPREHENSION_NAME_STORE_",
      "KEYWORD_ CALL_ATTRIBUTE_NAME_LOAD_LOAD_",
      "SUBSCRIPT_ATTRIBUTE_NAME_LOAD_LOAD_ ATTRIBUTE_NAME_LOAD_LOAD_LOAD_",
      "IF_ CALL_ATTRIBUTE_NAME_LOAD_LOAD_NAME_LOAD_",
      "SUBSCRIPT_ SUBSCRIPT_",
      "LISTCOMP_ CALL_ATTRIBUTE_NAME_LOAD_LOAD_",
      "CONSTANT_IF_UNARYOP_NOT_ CALL_NAME_LOAD_NAME_LOAD_NAME_LOAD_",
      "JOINEDSTR_CONSTANT_ FORMATTEDVALUE_",
      "COMPARE_ATTRIBUTE_NAME_LOAD_LOAD_ EQ_CONSTANT_",
      "COMPARE_NAME_LOAD_ IN_NAME_LOAD_",
      "SUBSCRIPT_NAME_LOAD_ TUPLE_SLICE_",
      "EXPR_ CONSTANT_ASSIGN_NAME_STORE_",
      "TRY_ EXPR_CALL_ATTRIBUTE_NAME_LOAD_LOAD_",
      "ATTRIBUTE_ SUBSCRIPT_NAME_LOAD_CONSTANT_LOAD_LOAD_",
      "IF_COMPARE_ATTRIBUTE_NAME_LOAD_LOAD_ EQ_CONSTANT_ASSIGN_NAME_STORE_",
      "CALL_NAME_LOAD_NAME_LOAD_ CALL_NAME_LOAD_NAME_LOAD_",
      "CALL_ATTRIBUTE_ CALL_NAME_LOAD_",
      "NOT EQ_ATTRIBUTE_NAME_LOAD_LOAD_",
      "SHIF T",
      "ATTRIBUTE_NAME_LOAD_LOAD_ASSIGN_NAME_STORE_ ATTRIBUTE_NAME_LOAD_LOAD_ASSIGN_NAME_STORE_",
      "COMPREHENSION_NAME_STORE_ NAME_LOAD_ASSIGN_NAME_STORE_",
      "CALL_ NAME_LOAD_LOAD_",
      "SUBSCRIPT_NAME_LOAD_NAME_LOAD_LOAD_ ASSIGN_NAME_STORE_",
      "BINOP_NAME_LOAD_ MOD_",
      "CONSTANT_A UG",
      "IF_COMPARE_NAME_LOAD_NOT IN_",
      "ATTRIBUTE_ CALL_ATTRIBUTE_NAME_LOAD_LOAD_",
      "RAISE_CALL_NAME_LOAD_ CONSTANT",
      "ATTRIBUTE_NAME_LOAD_LOAD_ RETURN_NAME_LOAD",
      "IMPORTFROM_ALIAS _ASSIGN_NAME_STORE_",
      "IF_COMPARE_ ATTRIBUTE_ATTRIBUTE_NAME_LOAD_LOAD_LOAD_",
      "DICT_CONSTANT_ NAME_LOAD_",
      "BOOLOP_OR _ATTRIBUTE_NAME_LOAD_LOAD_",
      "KEYWORD_ CALL_NAME_LOAD_",
      "MODULE_FUNCTIONDEF_ARGUMENTS_ARG_ARG_ARG_ARG_ARG_ARG _ARG",
      "NOT IN_ATTRIBUTE_NAME_LOAD_LOAD_",
      "DICTCOMP _NAME_LOAD_",
      "MODULE_FUNCTIONDEF_ARGUMENTS_ARG_ARG_ARG_ARG_ARG_ARG _ARG_ARG_ARG_ARG",
      "IF_CALL_NAME_LOAD_NAME_LOAD_ NAME_LOAD_ASSIGN_NAME_STORE_",
      "DIV _CONSTANT_",
      "ATTRIBUTE_NAME_LOAD_LOAD_ RETURN_",
      "COMPARE_ CALL_ATTRIBUTE_NAME_LOAD_LOAD_",
      "CONTINUE_ ASSIGN_NAME_STORE_",
      "MODULE_FUNCTIONDEF_ARGUMENTS_ARG_ARG _NAME_LOAD_EXPR_",
      "MODULE_FUNCTIONDEF_ARGUMENTS_ARG_ARG_EXPR_CONSTANT_ASSIGN_NAME_STORE_ CALL_ATTRIBUTE_NAME_LOAD_LOAD_NAME_LOAD_",
      "SUBSCRIPT_NAME_LOAD_ NAME_LOAD_LOAD",
      "MODULE_FUNCTIONDEF_ARGUMENTS_ARG_ARG_ARG_ARG_EXPR_ CONSTANT_ASSIGN_NAME_STORE_",
      "CONSTANT_IF_UNARYOP_NOT_ CALL_NAME_LOAD_NAME_LOAD_",
      "CONSTANT_RETURN_ CALL_ATTRIBUTE_NAME_LOAD_LOAD_",
      "BINOP_NAME_LOAD_SUB _",
      "IF_COMPARE_CONSTANT_ IN_ATTRIBUTE_NAME_LOAD_LOAD_",
      "ATTRIBUTE_ATTRIBUTE_NAME_LOAD_LOAD_LOAD_ ATTRIBUTE_ATTRIBUTE_NAME_LOAD_LOAD_LOAD_",
      "IF_COMPARE_ CALL_NAME_LOAD_ATTRIBUTE_NAME_LOAD_LOAD_",
      "SUBSCRIPT_ATTRIBUTE_NAME_LOAD_LOAD_CONSTANT_LOAD_ ASSIGN_NAME_STORE_",
      "A UGASSIGN_NAME_STORE_",
      "MODULE_FUNCTIONDEF_ARGUMENTS_ARG _CONSTANT_EXPR_",
      "CALL_ATTRIBUTE_NAME_LOAD_LOAD_ CONSTANT_ASSIGN_NAME_STORE_",
      "EXPR_CALL_ATTRIBUTE_ SUBSCRIPT_NAME_LOAD_CONSTANT_LOAD_LOAD_",
      "ATTRIBUTE_NAME_LOAD_LOAD_ EXPR_CALL_ATTRIBUTE_NAME_LOAD_LOAD_",
      "BINOP_ SUBSCRIPT_NAME_LOAD_CONSTANT_LOAD_",
      "BINOP_NAME_LOAD_ADD_ NAME_LOAD_",
      "ASSIGN_ATTRIBUTE_NAME_LOAD_STORE_ NAME_LOAD_",
      "BINOP_BINOP_ BINOP_BINOP_",
      "CONSTANT_ASSIGN_ TUPLE_NAME_STORE_NAME_STORE_NAME_STORE_STORE_",
      "TRY_ RETURN_",
      "BI TOR",
      "IF_ CALL_ATTRIBUTE_NAME_LOAD_LOAD_CONSTANT_",
      "NAME_LOAD_ASSIGN_NAME_STORE_ CALL_ATTRIBUTE_NAME_LOAD_LOAD_CONSTANT_",
      "IMPORT_ALIAS _",
      "LOAD_ ASSIGN_NAME_STORE_",
      "CALL_NAME_LOAD_ATTRIBUTE_NAME_LOAD_LOAD_ ASSIGN_NAME_STORE_",
      "COMPARE_NAME_LOAD_ EQ_",
      "EXPR_ CONSTANT_",
      "CALL_ATTRIBUTE_ATTRIBUTE_NAME_LOAD_LOAD_LOAD_ CONSTANT_NAME_LOAD_",
      "EXPR_CALL_ATTRIBUTE_NAME_LOAD_LOAD_CONSTANT_ NAME_LOAD_NAME_LOAD_",
      "SUBSCRIPT_NAME_LOAD_ CONSTANT_STORE_",
      "IF_ CALL_ATTRIBUTE_ATTRIBUTE_NAME_LOAD_LOAD_LOAD_NAME_LOAD_",
      "RETURN_ CALL_ATTRIBUTE_CONSTANT_LOAD_",
      "FOR_NAME_STORE_ CALL_ATTRIBUTE_ATTRIBUTE_NAME_LOAD_LOAD_LOAD_",
      "MODULE_FUNCTIONDEF_ARGUMENTS_ARG_ARG_ARG_EXPR_ CONSTANT_ASSIGN_NAME_STORE_CALL_ATTRIBUTE_NAME_LOAD_LOAD_",
      "CALL_ATTRIBUTE_ SUBSCRIPT_NAME_LOAD_NAME_LOAD_LOAD_LOAD_",
      "AUG ASSIGN_ATTRIBUTE_NAME_LOAD_STORE_ADD_",
      "DICT_CONSTANT_CONSTANT_ NAME_LOAD_NAME_LOAD_",
      "TUPLE_ CONSTANT_CONSTANT_CONSTANT_LOAD_",
      "EXPR_CALL_NAME_LOAD_ BINOP_CONSTANT_MOD_",
      "BINOP_CONSTANT_ADD_ NAME_LOAD_",
      "FOR_TUPLE_NAME_STORE_NAME_STORE_STORE_ CALL_ATTRIBUTE_ATTRIBUTE_NAME_LOAD_LOAD_LOAD_",
      "LIST_NAME_LOAD_ NAME_LOAD_LOAD_",
      "KEYWORD_NAME_LOAD_ KEYWORD_ATTRIBUTE_NAME_LOAD_LOAD_KEYWORD_ATTRIBUTE_NAME_LOAD_LOAD_",
      "SUBSCRIPT_NAME_LOAD_ TUPLE_NAME_LOAD_NAME_LOAD_LOAD_",
      "DICT _NAME_LOAD_",
      "EXPR_CALL_ATTRIBUTE_NAME_LOAD_LOAD_CONSTANT_ EXPR_CALL_ATTRIBUTE_NAME_LOAD_LOAD_CONSTANT_",
      "KEYWORD_SUBSCRIPT_NAME_LOAD_CONSTANT_LOAD_ KEYWORD_SUBSCRIPT_NAME_LOAD_CONSTANT_LOAD_",
      "IF_NAME_LOAD_ ASSIGN_NAME_STORE_CALL_ATTRIBUTE_NAME_LOAD_LOAD_",
      "LISTCOMP _ATTRIBUTE_NAME_LOAD_LOAD_",
      "WITH_WITHITEM_ CALL_NAME_LOAD_",
      "DELETE_ SUBSCRIPT_NAME_LOAD_",
      "BINOP_ CALL_NAME_LOAD_",
      "EXPR_CALL_NAME_LOAD_ CALL_ATTRIBUTE_CONSTANT_LOAD_",
      "RETURN_ CALL_ATTRIBUTE_ATTRIBUTE_NAME_LOAD_LOAD_LOAD_",
      "IF_UNARYOP_NOT_NAME_LOAD_ ASSIGN_NAME_STORE_",
      "GENERATOR EXP",
      "EXPR_ CALL_NAME_LOAD_NAME_LOAD_NAME_LOAD_NAME_LOAD_",
      "IS _CONSTANT_ASSIGN_ATTRIBUTE_NAME_LOAD_STORE_",
      "BINOP_BINOP_CONSTANT_ADD_ NAME_LOAD_ADD_",
      "COMPARE_ ATTRIBUTE_ATTRIBUTE_NAME_LOAD_LOAD_LOAD_",
      "EXPR_CALL_ATTRIBUTE_NAME_LOAD_LOAD_ CALL_NAME_LOAD_",
      "BINOP_NAME_LOAD_SUB _CONSTANT_",
      "CONSTANT_ATTRIBUTE_ ATTRIBUTE_NAME_LOAD_LOAD_LOAD_",
      "IF_COMPARE_ATTRIBUTE_NAME_LOAD_LOAD_ EQ_ATTRIBUTE_NAME_LOAD_LOAD_",
      "SUBSCRIPT_NAME_LOAD_CONSTANT_LOAD_ ASSIGN_ATTRIBUTE_NAME_LOAD_STORE_",
      "IF _ATTRIBUTE_ATTRIBUTE_NAME_LOAD_LOAD_LOAD_",
      "DICT _ASSIGN_",
      "SUBSCRIPT_NAME_LOAD_SLICE_ CONSTANT_CONSTANT_LOAD_",
      "RETURN_ CALL_ATTRIBUTE_NAME_LOAD_LOAD",
      "KEYWORD_ ATTRIBUTE_ATTRIBUTE_NAME_LOAD_LOAD_LOAD_",
      "MODULE_FUNCTIONDEF_ARGUMENTS_ARG_ARG_EXPR_CONSTANT_ASSIGN_NAME_STORE_ CALL_NAME_LOAD_",
      "_ SUBSCRIPT_NAME_LOAD_NAME_LOAD_LOAD_",
      "ATTRIBUTE_NAME_LOAD_LOAD_ASSIGN_NAME_STORE_ CALL_ATTRIBUTE_NAME_LOAD_LOAD_NAME_LOAD_",
      "EXCEPTHANDLER_NAME_LOAD_ PASS",
      "CALL_NAME_LOAD_NAME_LOAD_ASSIGN_NAME_STORE_ CALL_NAME_LOAD_",
      "IF_COMPARE_ATTRIBUTE_NAME_LOAD_LOAD_ IS_CONSTANT_",
      "WHILE_ COMPARE_NAME_LOAD_",
      "SUBSCRIPT_NAME_LOAD_SLICE_ NAME_LOAD_LOAD_",
      "IF_COMPARE_CONSTANT_IN_ NAME_LOAD_ASSIGN_NAME_STORE_",
      "CONSTANT_ASSIGN_SUBSCRIPT_NAME_LOAD_CONSTANT_STORE_ CONSTANT_ASSIGN_SUBSCRIPT_NAME_LOAD_CONSTANT_STORE_",
      "CALL_ATTRIBUTE_ATTRIBUTE_ATTRIBUTE_NAME_LOAD_LOAD_LOAD_LOAD_ NAME_LOAD_",
      "ATTRIBUTE_NAME_LOAD_LOAD_ATTRIBUTE_NAME_LOAD_LOAD_ ATTRIBUTE_NAME_LOAD_LOAD_",
      "COMPARE_CONSTANT_ IN_",
      "KEYWORD_ ATTRIBUTE_NAME_LOAD_LOAD",
      "CONSTANT_ASSIGN_SUBSCRIPT_ATTRIBUTE_NAME_LOAD_LOAD_ CONSTANT_STORE_",
      "ASSIGN_SUBSCRIPT_NAME_LOAD_NAME_LOAD_STORE_ NAME_LOAD_",
      "BINOP_NAME_LOAD_ BITAND_",
      "CONSTANT_ASSIGN_ATTRIBUTE_NAME_LOAD_STORE_ CALL_ATTRIBUTE_NAME_LOAD_LOAD_",
      "COMPARE_NAME_LOAD_ EQ_NAME_LOAD_",
      "EQ _ATTRIBUTE_ATTRIBUTE_NAME_LOAD_LOAD_LOAD_",
      "CONSTANT_EXPR_ CALL_ATTRIBUTE_NAME_LOAD_LOAD",
      "IF_COMPARE_NAME_LOAD_IS_CONSTANT_ RETURN_",
      "CONSTANT_RETURN_ CALL_NAME_LOAD_",
      "ASSIGN_ SUBSCRIPT_SUBSCRIPT_NAME_LOAD_CONSTANT_LOAD_",
      "EXPR_CALL_ATTRIBUTE_NAME_LOAD_LOAD_ CALL_NAME_LOAD_NAME_LOAD_",
      "EXPR_CALL_ATTRIBUTE_NAME_LOAD_LOAD_NAME_LOAD_ NAME_LOAD",
      "CONSTANT_EXPR_ CALL_NAME_LOAD_NAME_LOAD_",
      "TUPLE_NAME_STORE_NAME_STORE_NAME_STORE_NAME_STORE_ STORE_",
      "NAME_LOAD_ASSIGN_NAME_STORE_ CALL_ATTRIBUTE_ATTRIBUTE_NAME_LOAD_LOAD_LOAD_",
      "MODULE_FUNCTIONDEF_ARGUMENTS_ARG_EXPR_CONSTANT_ASSIGN_NAME_STORE_ CALL_ATTRIBUTE_ATTRIBUTE_NAME_LOAD_LOAD_LOAD_",
      "IF_COMPARE_NAME_LOAD_NOT EQ_CONSTANT_",
      "MODULE_FUNCTIONDEF_ARGUMENTS_ARG_ARG_ARG_ARG_ARG _CONSTANT_CONSTANT_CONSTANT_EXPR_",
      "ASSIGN_TUPLE_NAME_STORE_NAME_STORE_STORE_ CALL_ATTRIBUTE_NAME_LOAD_LOAD_",
      "IS _CONSTANT_ASSIGN_NAME_STORE_",
      "BIT OR_",
      "AUGASSIGN_NAME_STORE_ADD_ CONSTANT_",
      "TUPLE_CONSTANT_ NAME_LOAD_LOAD_",
      "COMPREHENSION_NAME_STORE_ NAME_LOAD",
      "ASSIGN_NAME_STORE_CALL_ATTRIBUTE_NAME_LOAD_LOAD_ ASSIGN_NAME_STORE_",
      "CALL_ATTRIBUTE_ SUBSCRIPT_ATTRIBUTE_NAME_LOAD_LOAD_CONSTANT_LOAD_LOAD_",
      "CONSTANT_A SSIGN_ATTRIBUTE_ATTRIBUTE_NAME_LOAD_LOAD_STORE_",
      "ASSIGN_ATTRIBUTE_NAME_LOAD_STORE_ NAME_LOAD_ASSIGN_ATTRIBUTE_NAME_LOAD_STORE_",
      "SUBSCRIPT_ATTRIBUTE_ATTRIBUTE_NAME_LOAD_LOAD_LOAD_ CONSTANT_LOAD_",
      "MODULE_FUNCTIONDEF_ARGUMENTS_EXPR_ CONSTANT_",
      "COMPARE_ATTRIBUTE_NAME_LOAD_LOAD_ ISNOT",
      "CONSTANT_IF_BOOLOP_AND_ NAME_LOAD_",
      "CONSTANT_ASSIGN_NAME_STORE_ CALL_ATTRIBUTE_ATTRIBUTE_NAME_LOAD_LOAD_LOAD_NAME_LOAD_",
      "IF_UNARYOP_NOT_ CALL_ATTRIBUTE_ATTRIBUTE_NAME_LOAD_LOAD_LOAD_NAME_LOAD_",
      "IF_NAME_LOAD_ RETURN_",
      "KEYWORD_NAME_LOAD_ RETURN_NAME_LOAD",
      "IF_UNARYOP_NOT_ CALL_ATTRIBUTE_NAME_LOAD_LOAD_",
      "KEYWORD_ SUBSCRIPT_ATTRIBUTE_NAME_LOAD_LOAD_CONSTANT_LOAD_",
      "CONSTANT_CONSTANT_CONSTANT_CONSTANT_CONSTANT_CONSTANT_CONSTANT_CONSTANT_ CONSTANT_CONSTANT_CONSTANT_CONSTANT_CONSTANT_CONSTANT_CONSTANT_CONSTANT_",
      "EXPR_CALL_ATTRIBUTE_ ATTRIBUTE_NAME_LOAD_LOAD_LOAD",
      "CONSTANT_ASSIGN_NAME_STORE_ LIST_LOAD_",
      "NAME_LOAD_NAME_LOAD_NAME_LOAD_NAME_LOAD_ NAME_LOAD_NAME_LOAD_",
      "MODULE_FUNCTIONDEF_ARGUMENTS_ARG_EXPR_CONSTANT_ IF_ATTRIBUTE_NAME_LOAD_LOAD_",
      "CALL_NAME_LOAD_NAME_LOAD_ NAME_LOAD",
      "IF_COMPARE_CALL_NAME_LOAD_NAME_LOAD_ GT_CONSTANT_"
    ]
  }
}