{
  "version": "1.0",
  "truncation": null,
  "padding": null,
  "added_tokens": [
    {
      "id": 0,
      "content": "[UNK]",
      "single_word": false,
      "lstrip": false,
      "rstrip": false,
      "normalized": false,
      "special": true
    },
    {
      "id": 1,
      "content": "[CLS]",
      "single_word": false,
      "lstrip": false,
      "rstrip": false,
      "normalized": false,
      "special": true
    },
    {
      "id": 2,
      "content": "[SEP]",
      "single_word": false,
      "lstrip": false,
      "rstrip": false,
      "normalized": false,
      "special": true
    },
    {
      "id": 3,
      "content": "[PAD]",
      "single_word": false,
      "lstrip": false,
      "rstrip": false,
      "normalized": false,
      "special": true
    },
    {
      "id": 4,
      "content": "[MASK]",
      "single_word": false,
      "lstrip": false,
      "rstrip": false,
      "normalized": false,
      "special": true
    }
  ],
  "normalizer": null,
  "pre_tokenizer": {
    "type": "Whitespace"
  },
  "post_processor": null,
  "decoder": null,
  "model": {
    "type": "BPE",
    "dropout": null,
    "unk_token": "[UNK]",
    "continuing_subword_prefix": null,
    "end_of_word_suffix": null,
    "fuse_unk": false,
    "byte_fallback": false,
    "ignore_merges": false,
    "vocab": {
      "[UNK]": 0,
      "[CLS]": 1,
      "[SEP]": 2,
      "[PAD]": 3,
      "[MASK]": 4,
      "A": 5,
      "B": 6,
      "C": 7,
      "D": 8,
      "E": 9,
      "F": 10,
      "G": 11,
      "H": 12,
      "I": 13,
      "J": 14,
      "K": 15,
      "L": 16,
      "M": 17,
      "N": 18,
      "O": 19,
      "P": 20,
      "Q": 21,
      "R": 22,
      "S": 23,
      "T": 24,
      "U": 25,
      "V": 26,
      "W": 27,
      "X": 28,
      "Y": 29,
      "_": 30,
      "E_": 31,
      "D_": 32,
      "LO": 33,
      "LOA": 34,
      "LOAD_": 35,
      "NA": 36,
      "ME_": 37,
      "NAME_": 38,
      "NAME_LOAD_": 39,
      "ST": 40,
      "_A": 41,
      "RI": 42,
      "CO": 43,
      "NT": 44,
      "TE_": 45,
      "TT": 46,
      "BU": 47,
      "RIBU": 48,
      "TTRIBU": 49,
      "TTRIBUTE_": 50,
      "ANT": 51,
      "NST": 52,
      "CONST": 53,
      "CONSTANT": 54,
      "OR": 55,
      "NAME_LOAD_LOAD_": 56,
      "AL": 57,
      "CAL": 58,
      "CALL": 59,
      "CONSTANT_": 60,
      "TTRIBUTE_NAME_LOAD_LOAD_": 61,
      "STOR": 62,
      "STORE_": 63,
      "N_": 64,
      "_NAME_LOAD_": 65,
      "CALL_A": 66,
      "NAME_STORE_": 67,
      "SI": 68,
      "RG": 69,
      "SSI": 70,
      "SSIG": 71,
      "_ARG": 72,
      "SSIGN_": 73,
      "EX": 74,
      "PR": 75,
      "CALL_ATTRIBUTE_NAME_LOAD_LOAD_": 76,
      "SSIGN_NAME_STORE_": 77,
      "EXPR": 78,
      "EXPR_": 79,
      "ATTRIBUTE_NAME_LOAD_LOAD_": 80,
      "CALL_NAME_LOAD_": 81,
      "SU": 82,
      "SUB": 83,
      "PT": 84,
      "IF": 85,
      "TU": 86,
      "LE_": 87,
      "CRI": 88,
      "SCRI": 89,
      "SUBSCRI": 90,
      "SUBSCRIPT": 91,
      "CONSTANT_A": 92,
      "ASSIGN_NAME_STORE_": 93,
      "COM": 94,
      "_ARG_ARG": 95,
      "IF_": 96,
      "CONSTANT_LOAD_": 97,
      "COMP": 98,
      "CALL_ATTRIBUTE_": 99,
      "CT": 100,
      "NO": 101,
      "MO": 102,
      "ND": 103,
      "EY": 104,
      "KEY": 105,
      "WOR": 106,
      "KEYWOR": 107,
      "KEYWORD_": 108,
      "AR": 109,
      "COMPAR": 110,
      "COMPARE_": 111,
      "SUBSCRIPT_NAME_LOAD_": 112,
      "_CONSTANT_": 113,
      "RE": 114,
      "TUR": 115,
      "RETUR": 116,
      "ENT": 117,
      "MENT": 118,
      "UMENT": 119,
      "_ARGUMENT": 120,
      "_ARGUMENTS": 121,
      "CALL_NAME_LOAD_NAME_LOAD_": 122,
      "CONSTANT_ASSIGN_NAME_STORE_": 123,
      "EF": 124,
      "FU": 125,
      "IO": 126,
      "NCT": 127,
      "NDEF": 128,
      "FUNCT": 129,
      "IONDEF": 130,
      "FUNCTIONDEF": 131,
      "FUNCTIONDEF_ARGUMENTS": 132,
      "DU": 133,
      "MODU": 134,
      "MODULE_": 135,
      "MODULE_FUNCTIONDEF_ARGUMENTS": 136,
      "ATTRIBUTE_NAME_LOAD_LOAD_LOAD_": 137,
      "RETURN_": 138,
      "EXPR_CALL_ATTRIBUTE_NAME_LOAD_LOAD_": 139,
      "LOAD": 140,
      "P_": 141,
      "IF_COMPARE_": 142,
      "_EXPR_": 143,
      "BI": 144,
      "CONSTANT_CONSTANT_": 145,
      "BINO": 146,
      "MODULE_FUNCTIONDEF_ARGUMENTS_ARG_ARG": 147,
      "_ATTRIBUTE_NAME_LOAD_LOAD_": 148,
      "LI": 149,
      "CALL_ATTRIBUTE_ATTRIBUTE_NAME_LOAD_LOAD_LOAD_": 150,
      "PLE_": 151,
      "TUPLE_": 152,
      "NAME_LOAD_NAME_LOAD_": 153,
      "NOT": 154,
      "NAME_LOAD": 155,
      "RY": 156,
      "IS": 157,
      "SUBSCRIPT_NAME_LOAD_CONSTANT_LOAD_": 158,
      "OR_": 159,
      "LIST": 160,
      "EQ": 161,
      "_ATTRIBUTE_": 162,
      "NAME_LOAD_ASSIGN_NAME_STORE_": 163,
      "DD_": 164,
      "NAME_LOAD_STORE_": 165,
      "IF_COMPARE_NAME_LOAD_": 166,
      "BINOP": 167,
      "FOR_": 168,
      "OP_": 169,
      "UNA": 170,
      "RYOP_": 171,
      "UNARYOP_": 172,
      "_ARG_EXPR_": 173,
      "KEYWORD_NAME_LOAD_": 174,
      "N_ATTRIBUTE_": 175,
      "ATTRIBUTE_": 176,
      "CALL_ATTRIBUTE_NAME_LOAD_LOAD_NAME_LOAD_": 177,
      "SSIGN_ATTRIBUTE_": 178,
      "ADD_": 179,
      "SSIGN_ATTRIBUTE_NAME_LOAD_STORE_": 180,
      "DI": 181,
      "FOR_NAME_STORE_": 182,
      "ASSIGN_": 183,
      "SUBSCRIPT_ATTRIBUTE_NAME_LOAD_LOAD_": 184,
      "RA": 185,
      "KEYWORD_CONSTANT_": 186,
      "MODULE_FUNCTIONDEF_ARGUMENTS_ARG_EXPR_": 187,
      "UNARYOP_NOT": 188,
      "BO": 189,
      "OLO": 190,
      "BOOLO": 191,
      "NAME_STORE_NAME_STORE_": 192,
      "BINOP_": 193,
      "DICT": 194,
      "RAIS": 195,
      "CALL_ATTRIBUTE_CONSTANT_LOAD_": 196,
      "RAISE_": 197,
      "LIST_": 198,
      "MODULE_FUNCTIONDEF_ARGUMENTS_ARG_ARG_EXPR_": 199,
      "RETURN_NAME_LOAD": 200,
      "SUBSCRIPT_": 201,
      "ER": 202,
      "TUPLE_NAME_STORE_NAME_STORE_": 203,
      "ATTRIBUTE_ATTRIBUTE_NAME_LOAD_LOAD_LOAD_": 204,
      "CONSTANT_IF_": 205,
      "CONSTANT_STORE_": 206,
      "CALL_ATTRIBUTE_NAME_LOAD_LOAD_CONSTANT_": 207,
      "EXPR_CALL_ATTRIBUTE_NAME_LOAD_LOAD_NAME_LOAD_": 208,
      "ASSIGN_ATTRIBUTE_NAME_LOAD_STORE_": 209,
      "ND_": 210,
      "RAISE_CALL_NAME_LOAD_": 211,
      "IN_": 212,
      "EN": 213,
      "EXPR_CALL_ATTRIBUTE_ATTRIBUTE_NAME_LOAD_LOAD_LOAD_": 214,
      "COMPARE_NAME_LOAD_": 215,
      "IT": 216,
      "TUPLE_NAME_STORE_NAME_STORE_STORE_": 217,
      "IF_NAME_LOAD_": 218,
      "MOD_": 219,
      "P_A": 220,
      "BOOLOP_A": 221,
      "BOOLOP_AND_": 222,
      "AND": 223,
      "CE": 224,
      "HAND": 225,
      "LER": 226,
      "EXCE": 227,
      "PTHAND": 228,
      "EXCEPTHAND": 229,
      "EXCEPTHANDLER": 230,
      "_CONSTANT_ASSIGN_NAME_STORE_": 231,
      "EQ_CONSTANT_": 232,
      "BINOP_NAME_LOAD_": 233,
      "ASSIGN_SUBSCRIPT_NAME_LOAD_": 234,
      "BINOP_CONSTANT_": 235,
      "TRY": 236,
      "MODULE_FUNCTIONDEF_ARGUMENTS_ARG_ARG_ARG_ARG": 237,
      "BINOP_CONSTANT_MOD_": 238,
      "CONSTANT_CONSTANT_CONSTANT_CONSTANT_": 239,
      "CALL_NAME_LOAD_NAME_LOAD_NAME_LOAD_": 240,
      "SUBSCRIPT_NAME_LOAD_NAME_LOAD_LOAD_": 241,
      "EH": 242,
      "ON_": 243,
      "SION_": 244,
      "PREH": 245,
      "COMPREH": 246,
      "ENSION_": 247,
      "COMPREHENSION_": 248,
      "ASSIGN_NAME_STORE_CALL_ATTRIBUTE_NAME_LOAD_LOAD_": 249,
      "CALL_NAME_LOAD_ATTRIBUTE_NAME_LOAD_LOAD_": 250,
      "EXPR_CALL_ATTRIBUTE_NAME_LOAD_LOAD_CONSTANT_": 251,
      "DICT_CONSTANT_": 252,
      "_CONSTANT_EXPR_": 253,
      "NAME_LOAD_LOAD": 254,
      "KEYWORD_NAME_LOAD_KEYWORD_NAME_LOAD_": 255,
      "IF_COMPARE_NAME_LOAD_IS": 256,
      "LIST_LOAD_": 257,
      "_ASSIGN_NAME_STORE_": 258,
      "CONSTANT_ASSIGN_NAME_STORE_CALL_ATTRIBUTE_NAME_LOAD_LOAD_": 259,
      "CONSTANT_ASSIGN_": 260,
      "UNARYOP_NOT_": 261,
      "CONSTANT_RETURN_": 262,
      "CONSTANT_EXPR_": 263,
      "CE_": 264,
      "SLI": 265,
      "SLICE_": 266,
      "COMPREHENSION_NAME_STORE_": 267,
      "KEYWORD_ATTRIBUTE_NAME_LOAD_LOAD_": 268,
      "UG": 269,
      "WIT": 270,
      "WITH": 271,
      "EXCEPTHANDLER_NAME_LOAD_": 272,
      "TUPLE_NAME_LOAD_": 273,
      "IF_COMPARE_ATTRIBUTE_NAME_LOAD_LOAD_": 274,
      "IN": 275,
      "CALL_ATTRIBUTE_ATTRIBUTE_NAME_LOAD_LOAD_LOAD_NAME_LOAD_": 276,
      "SUBSCRIPT_ATTRIBUTE_NAME_LOAD_LOAD_CONSTANT_LOAD_": 277,
      "LISTCOMP": 278,
      "MODULE_FUNCTIONDEF_ARGUMENTS_ARG_EXPR_CONSTANT_ASSIGN_NAME_STORE_": 279,
      "BOOLOP_": 280,
      "CONSTANT_ASSIGN_ATTRIBUTE_NAME_LOAD_STORE_": 281,
      "UNARYOP_NOT_NAME_LOAD_": 282,
      "CONSTANT_ADD_": 283,
      "IF_BOOLOP_AND_": 284,
      "BINOP_NAME_LOAD_ADD_": 285,
      "IN_NAME_LOAD_": 286,
      "UNARYOP_U": 287,
      "UNARYOP_USUB": 288,
      "UGASSIGN_NAME_STORE_": 289,
      "KEYWORD_CONSTANT_KEYWORD_CONSTANT_": 290,
      "AS": 291,
      "ATTRIBUTE_NAME_LOAD_LOAD_ATTRIBUTE_NAME_LOAD_LOAD_": 292,
      "ASSIGN_SUBSCRIPT_NAME_LOAD_CONSTANT_STORE_": 293,
      "ATTRIBUTE_ATTRIBUTE_NAME_LOAD_LOAD_LOAD_LOAD_": 294,
      "FOR_NAME_STORE_NAME_LOAD_": 295,
      "ATTRIBUTE_NAME_LOAD_LOAD_ASSIGN_NAME_STORE_": 296,
      "MODULE_FUNCTIONDEF_ARGUMENTS_ARG_ARG_EXPR_CONSTANT_ASSIGN_NAME_STORE_": 297,
      "MODULE_FUNCTIONDEF_ARGUMENTS_ARG_ARG_ARG_EXPR_": 298,
      "UGASSIGN_NAME_STORE_ADD_": 299,
      "EXPR_CALL_NAME_LOAD_": 300,
      "MODULE_FUNCTIONDEF_ARGUMENTS_ARG_EXPR_CONSTANT_": 301,
      "EQ_": 302,
      "EXPR_CALL_ATTRIBUTE_": 303,
      "NAME_LOAD_ASSIGN_NAME_STORE_CALL_ATTRIBUTE_NAME_LOAD_LOAD_": 304,
      "MODULE_FUNCTIONDEF_ARGUMENTS_ARG_ARG_ARG": 305,
      "CONSTANT_CONSTANT_LOAD_": 306,
      "TRY_ASSIGN_NAME_STORE_": 307,
      "NAME_LOAD_RETURN_": 308,
      "EL": 309,
      "GT": 310,
      "TUPLE_NAME_LOAD_NAME_LOAD_LOAD_": 311,
      "SUBSCRIPT_NAME_LOAD_SLICE_": 312,
      "CONSTANT_ASSIGN_SUBSCRIPT_NAME_LOAD_": 313,
      "FOR_TUPLE_NAME_STORE_NAME_STORE_STORE_": 314,
      "LISTCOMP_": 315,
      "CALL_NAME_LOAD_NAME_LOAD_ASSIGN_NAME_STORE_": 316,
      "BOOLOP_OR_": 317,
      "LIST_CONSTANT_": 318,
      "BINOP_BINOP_": 319,
      "MODULE_FUNCTIONDEF_ARGUMENTS_ARG_ARG_EXPR_CONSTANT_": 320,
      "IF_ATTRIBUTE_NAME_LOAD_LOAD_": 321,
      "EQ_CONSTANT_ASSIGN_NAME_STORE_": 322,
      "EQ_NAME_LOAD_": 323,
      "CALL_ATTRIBUTE_CONSTANT_LOAD_NAME_LOAD_": 324,
      "ISNOT": 325,
      "SUBSCRIPT_ATTRIBUTE_NAME_LOAD_LOAD_NAME_LOAD_LOAD_": 326,
      "SUBSCRIPT_NAME_LOAD_CONSTANT_LOAD_LOAD_": 327,
      "COMPARE_ATTRIBUTE_NAME_LOAD_LOAD_": 328,
      "_WITH": 329,
      "UE_": 330,
      "EXP_": 331,
      "CONSTANT_ATTRIBUTE_NAME_LOAD_LOAD_": 332,
      "EM": 333,
      "ITEM": 334,
      "_WITHITEM": 335,
      "NAME_LOAD_NAME_LOAD_NAME_LOAD_NAME_LOAD_": 336,
      "_CONSTANT_LOAD_": 337,
      "ASSIGN_NAME_STORE_CALL_NAME_LOAD_": 338,
      "IF_UNARYOP_NOT_": 339,
      "CONSTANT_ASSIGN_SUBSCRIPT_NAME_LOAD_CONSTANT_STORE_": 340,
      "DICT_": 341,
      "IF_COMPARE_NAME_LOAD_ISNOT": 342,
      "CONSTANT_EXPR_CALL_ATTRIBUTE_NAME_LOAD_LOAD_": 343,
      "IF_COMPARE_CONSTANT_": 344,
      "_ATTRIBUTE_ATTRIBUTE_NAME_LOAD_LOAD_LOAD_": 345,
      "T_": 346,
      "AUGASSIGN_NAME_STORE_ADD_": 347,
      "MODULE_FUNCTIONDEF_ARGUMENTS_ARG_ARG_CONSTANT_EXPR_": 348,
      "TRY_": 349,
      "CALL_ATTRIBUTE_CALL_ATTRIBUTE_NAME_LOAD_LOAD_": 350,
      "IF_COMPARE_CALL_NAME_LOAD_NAME_LOAD_": 351,
      "WITH_WITHITEM": 352,
      "SUBSCRIPT_SUBSCRIPT_NAME_LOAD_CONSTANT_LOAD_": 353,
      "IF_COMPARE_NAME_LOAD_NOT": 354,
      "CONSTANT_NAME_LOAD_": 355,
      "IN_ATTRIBUTE_NAME_LOAD_LOAD_": 356,
      "ASS": 357,
      "CALL_ATTRIBUTE_NAME_LOAD_LOAD_NAME_LOAD_NAME_LOAD_": 358,
      "CONSTANT_ASSIGN_NAME_STORE_CALL_NAME_LOAD_": 359,
      "IF_UNARYOP_NOT_NAME_LOAD_": 360,
      "ASSIGN_SUBSCRIPT_NAME_LOAD_NAME_LOAD_STORE_": 361,
      "_CONSTANT_CONSTANT_EXPR_": 362,
      "UNARYOP_USUB_CONSTANT_LOAD_": 363,
      "MODULE_FUNCTIONDEF_ARGUMENTS_ARG_ARG_ARG_CONSTANT_EXPR_": 364,
      "ATTRIBUTE_NAME_LOAD_LOAD": 365,
      "WITH_WITHITEM_": 366,
      "CONT": 367,
      "CONTIN": 368,
      "CONTINUE_": 369,
      "KEYWORD_NAME_LOAD": 370,
      "ASSIGN_TUPLE_NAME_STORE_NAME_STORE_STORE_": 371,
      "MODULE_FUNCTIONDEF_ARGUMENTS_ARG_ARG_ARG_ARG_ARG_ARG": 372,
      "TUPLE_NAME_LOAD_NAME_LOAD_": 373,
      "CALL_NAME_LOAD_NAME_LOAD_CONSTANT_": 374,
      "IF_CALL_NAME_LOAD_NAME_LOAD_": 375,
      "RETURN_CALL_NAME_LOAD_": 376,
      "EQ_ATTRIBUTE_NAME_LOAD_LOAD_": 377,
      "IF_COMPARE_NAME_LOAD_IS_CONSTANT_ASSIGN_NAME_STORE_": 378,
      "BINOP_ATTRIBUTE_NAME_LOAD_LOAD_": 379,
      "NAME_LOAD_RETURN_NAME_LOAD": 380,
      "_ALI": 381,
      "_ALIAS": 382,
      "RETURN_CALL_ATTRIBUTE_NAME_LOAD_LOAD_": 383,
      "BINOP_CONSTANT_ADD_": 384,
      "CONSTANT_LOAD_ASSIGN_NAME_STORE_": 385,
      "IEL": 386,
      "YIEL": 387,
      "ISNOT_CONSTANT_": 388,
      "CONSTANT_IF_BOOLOP_AND_": 389,
      "CONSTANT_IF_UNARYOP_NOT_": 390,
      "CONSTANT_LOAD_LOAD_": 391,
      "CALL_NAME_LOAD_NAME_LOAD_NAME_LOAD_NAME_LOAD_": 392,
      "IS_CONSTANT_": 393,
      "CALL_ATTRIBUTE_ATTRIBUTE_ATTRIBUTE_NAME_LOAD_LOAD_LOAD_LOAD_": 394,
      "IF_COMPARE_NAME_LOAD_EQ_CONSTANT_": 395,
      "NAME_LOAD_EXPR_CALL_ATTRIBUTE_NAME_LOAD_LOAD_": 396,
      "SUBSCRIPT_NAME_LOAD_CONSTANT_LOAD_ASSIGN_NAME_STORE_": 397,
      "IF_NAME_LOAD_ASSIGN_NAME_STORE_": 398,
      "ERT_": 399,
      "CALL_NAME_LOAD_CONSTANT_": 400,
      "CALL_ATTRIBUTE_NAME_LOAD_LOAD_ATTRIBUTE_NAME_LOAD_LOAD_": 401,
      "LT": 402,
      "IFEXP_": 403,
      "ASSIGN_SUBSCRIPT_ATTRIBUTE_NAME_LOAD_LOAD_": 404,
      "TOR": 405,
      "IM": 406,
      "POR": 407,
      "DIV": 408,
      "IMPOR": 409,
      "IMPORT": 410,
      "DEL": 411,
      "KEYWORD_ATTRIBUTE_NAME_LOAD_LOAD_KEYWORD_ATTRIBUTE_NAME_LOAD_LOAD_": 412,
      "BINOP_NAME_LOAD_SUB": 413,
      "UNARYOP_NOT_ATTRIBUTE_NAME_LOAD_LOAD_": 414,
      "DICT_CONSTANT_CONSTANT_CONSTANT_": 415,
      "HI": 416,
      "WHI": 417,
      "WHILE_": 418,
      "IF_COMPARE_NAME_LOAD_IS_CONSTANT_": 419,
      "CONSTANT_CONSTANT_CONSTANT_CONSTANT_CONSTANT_CONSTANT_CONSTANT_CONSTANT_": 420,
      "COMPREHENSION_NAME_STORE_NAME_LOAD_": 421,
      "RETURN": 422,
      "_CONSTANT_CONSTANT_CONSTANT_": 423,
      "YIELD_": 424,
      "FOR_NAME_STORE_ATTRIBUTE_NAME_LOAD_LOAD_": 425,
      "ARG": 426,
      "CONSTANT_ASSIGN_NAME_STORE_CALL_ATTRIBUTE_NAME_LOAD_LOAD_NAME_LOAD_": 427,
      "EXPR_CALL_ATTRIBUTE_NAME_LOAD_LOAD_NAME_LOAD_NAME_LOAD_": 428,
      "NAME_LOAD_ASSIGN_NAME_STORE_CALL_ATTRIBUTE_NAME_LOAD_LOAD_NAME_LOAD_": 429,
      "COMPARE_CONSTANT_": 430,
      "CALL_": 431,
      "ASSIGN_NAME_STORE_CALL_ATTRIBUTE_NAME_LOAD_LOAD_NAME_LOAD_": 432,
      "CALL_NAME_LOAD_SUBSCRIPT_NAME_LOAD_CONSTANT_LOAD_": 433,
      "CALL_NAME_LOAD_NAME_LOAD_LOAD_": 434,
      "TUPLE_CONSTANT_CONSTANT_LOAD_": 435,
      "RETURN_NAME_LOAD_": 436,
      "KEYWORD_NAME_LOAD_KEYWORD_": 437,
      "ATTRIBUTE_NAME_LOAD_LOAD_STORE_": 438,
      "NAME_STORE_STORE_": 439,
      "EXPR_CALL_ATTRIBUTE_ATTRIBUTE_NAME_LOAD_LOAD_LOAD_NAME_LOAD_": 440,
      "KEYWORD_CONSTANT_KEYWORD_": 441,
      "RAISE_CALL_NAME_LOAD_BINOP_CONSTANT_MOD_": 442,
      "CONSTANT_ASSIGN_TUPLE_NAME_STORE_NAME_STORE_STORE_": 443,
      "RETURN_CONSTANT_": 444,
      "BOOLOP_OR": 445,
      "IF_BOOLOP_OR_": 446,
      "PASS": 447,
      "EXPR_CALL_ATTRIBUTE_NAME_LOAD_LOAD_ATTRIBUTE_NAME_LOAD_LOAD_": 448,
      "CALL_NAME_LOAD_CALL_ATTRIBUTE_NAME_LOAD_LOAD_": 449,
      "ERA": 450,
      "GEN": 451,
      "ERATOR": 452,
      "GENERATOR": 453,
      "EXP": 454,
      "MODULE_FUNCTIONDEF_ARGUMENTS_ARG_ARG_ARG_ARG_EXPR_": 455,
      "EXPR_CALL_NAME_LOAD_NAME_LOAD_": 456,
      "AK": 457,
      "BRE": 458,
      "BREAK": 459,
      "FR": 460,
      "OM": 461,
      "FROM": 462,
      "LIST_NAME_LOAD_LOAD_": 463,
      "RAISE_CALL_NAME_LOAD_CONSTANT_": 464,
      "GT_CONSTANT_": 465,
      "EXCEPTHANDLER_": 466,
      "IF_COMPARE_NAME_LOAD_EQ_CONSTANT_ASSIGN_NAME_STORE_": 467,
      "CONSTANT_ASSIGN_NAME_STORE_CALL_NAME_LOAD_NAME_LOAD_": 468,
      "LIST_LOAD_ASSIGN_NAME_STORE_": 469,
      "CALL_ATTRIBUTE_ATTRIBUTE_NAME_LOAD_LOAD_LOAD_ATTRIBUTE_NAME_LOAD_LOAD_": 470,
      "ED": 471,
      "EXPR_YIELD_": 472,
      "AM": 473,
      "A_ARGUMENTS": 474,
      "BD": 475,
      "LAM": 476,
      "BDA_ARGUMENTS": 477,
      "LAMBDA_ARGUMENTS": 478,
      "NOTEQ_CONSTANT_": 479,
      "NAME_LOAD_ASSIGN_NAME_STORE_CALL_NAME_LOAD_": 480,
      "NAME_LOAD_ASSIGN_ATTRIBUTE_NAME_LOAD_STORE_": 481,
      "COMPARE_CALL_NAME_LOAD_NAME_LOAD_": 482,
      "SUBSCRIPT_NAME_LOAD_NAME_LOAD_LOAD_LOAD_": 483,
      "CONSTANT_ASSIGN_NAME_STORE_CONSTANT_": 484,
      "CALL_ATTRIBUTE_NAME_LOAD_LOAD": 485,
      "EXPR_CALL_ATTRIBUTE_NAME_LOAD_LOAD_CALL_ATTRIBUTE_CONSTANT_LOAD_": 486,
      "CONSTANT_AUGASSIGN_NAME_STORE_ADD_": 487,
      "_NAME_LOAD_ARG": 488,
      "SUBSCRIPT_SUBSCRIPT_NAME_LOAD_CONSTANT_LOAD_CONSTANT_LOAD_": 489,
      "SUBSCRIPT_SUBSCRIPT_NAME_LOAD_NAME_LOAD_LOAD_": 490,
      "TUPLE_ATTRIBUTE_NAME_LOAD_LOAD_": 491,
      "MODULE_FUNCTIONDEF_ARGUMENTS_ARG_ARG_ARG_ARG_ARG": 492,
      "CALL_ATTRIBUTE_SUBSCRIPT_NAME_LOAD_CONSTANT_LOAD_LOAD_": 493,
      "BIT": 494,
      "CALL_ATTRIBUTE_ATTRIBUTE_NAME_LOAD_LOAD_LOAD_CONSTANT_": 495,
      "CALL_ATTRIBUTE_ATTRIBUTE_NAME_LOAD_LOAD_LOAD_NAME_LOAD_NAME_LOAD_": 496,
      "DICT_CONSTANT_CONSTANT_": 497,
      "KEYWORD_NAME_LOAD_KEYWORD_NAME_LOAD_KEYWORD_NAME_LOAD_KEYWORD_NAME_LOAD_": 498,
      "NAME_LOAD_ASSIGN_NAME_STORE_CALL_NAME_LOAD_NAME_LOAD_": 499,
      "TUPLE_NAME_STORE_NAME_STORE_NAME_STORE_STORE_": 500,
      "IF_COMPARE_SUBSCRIPT_NAME_LOAD_CONSTANT_LOAD_": 501,
      "MODULE_FUNCTIONDEF_ARGUMENTS_ARG": 502,
      "ATTRIBUTE_ATTRIBUTE_ATTRIBUTE_NAME_LOAD_LOAD_LOAD_LOAD_": 503,
      "UNARYOP_USUB_CONSTANT_": 504,
      "MODULE_FUNCTIONDEF_ARGUMENTS_EXPR_": 505,
      "GTE_": 506,
      "CALL_ATTRIBUTE_CALL_ATTRIBUTE_NAME_LOAD_LOAD_LOAD_": 507,
      "IMPORTFROM": 508,
      "IMPORTFROM_ALIAS": 509,
      "LISTCOMP_NAME_LOAD_": 510,
      "BINOP_CONSTANT_MOD_NAME_LOAD_": 511,
      "RETURN_ATTRIBUTE_": 512,
      "CONSTANT_IF_CALL_NAME_LOAD_NAME_LOAD_": 513,
      "BINOP_ATTRIBUTE_NAME_LOAD_LOAD_ADD_": 514,
      "GENERATOREXP_": 515,
      "IFEXP": 516,
      "FOR_NAME_STORE_CALL_ATTRIBUTE_NAME_LOAD_LOAD_": 517,
      "RETURN_CONSTANT": 518,
      "CONSTANT_IF_UNARYOP_NOT_NAME_LOAD_": 519,
      "LTE_": 520,
      "ASSIGN_NAME_STORE_CALL_NAME_LOAD_NAME_LOAD_": 521,
      "ASSIGN_NAME_STORE_CONSTANT_": 522,
      "LIST_NAME_LOAD_": 523,
      "DICT_CONSTANT_CONSTANT_CONSTANT_CONSTANT_CONSTANT_": 524,
      "IF_CALL_ATTRIBUTE_NAME_LOAD_LOAD_": 525,
      "_NAME_LOAD_EXPR_": 526,
      "MODULE_FUNCTIONDEF_ARGUMENTS_ARG_EXPR_CONSTANT_ASSIGN_NAME_STORE_CALL_ATTRIBUTE_NAME_LOAD_LOAD_": 527,
      "SUBSCRIPT_NAME_LOAD_CONSTANT_LOAD_SUBSCRIPT_NAME_LOAD_CONSTANT_LOAD_": 528,
      "BOOLOP_OR_NAME_LOAD_": 529,
      "RAISE_CALL_NAME_LOAD_CALL_ATTRIBUTE_CONSTANT_LOAD_": 530,
      "LAMBDA_ARGUMENTS_ARG": 531,
      "LOAD_LOAD_": 532,
      "CONSTANT_LOAD": 533,
      "CALL_ATTRIBUTE_NAME_LOAD_LOAD_CONSTANT_CONSTANT_": 534,
      "MODULE_FUNCTIONDEF_ARGUMENTS_ARG_ARG_ARG_EXPR_CONSTANT_ASSIGN_NAME_STORE_": 535,
      "IF_BOOLOP_AND_COMPARE_NAME_LOAD_": 536,
      "IF_COMPARE_NAME_LOAD_ISNOT_CONSTANT_": 537,
      "NAME_LOAD_ADD_": 538,
      "MODULE_FUNCTIONDEF_ARGUMENTS_ARG_ARG_ARG_EXPR_CONSTANT_": 539,
      "_CONSTANT_ASSIGN_SUBSCRIPT_NAME_LOAD_CONSTANT_STORE_": 540,
      "RETURN_CALL_NAME_LOAD_NAME_LOAD_": 541,
      "FOR_NAME_STORE_NAME_LOAD_ASSIGN_NAME_STORE_": 542,
      "RETURN_CONSTANT_RETURN_": 543,
      "IF_CALL_NAME_LOAD_NAME_LOAD_NAME_LOAD_": 544,
      "MODULE_FUNCTIONDEF_ARGUMENTS_ARG_ARG_ARG_CONSTANT_CONSTANT_EXPR_": 545,
      "_CONSTANT_CONSTANT_CONSTANT_EXPR_": 546,
      "TUPLE_NAME_LOAD_NAME_LOAD_LOAD": 547,
      "SS": 548,
      "EXPR_CALL_ATTRIBUTE_NAME_LOAD_LOAD": 549,
      "_ASSIGN_": 550,
      "SUBSCRIPT_ATTRIBUTE_ATTRIBUTE_NAME_LOAD_LOAD_LOAD_": 551,
      "SSIGN_ATTRIBUTE_ATTRIBUTE_NAME_LOAD_LOAD_STORE_": 552,
      "IF_COMPARE_NAME_LOAD_IN_": 553,
      "ATTRIBUTE_NAME_LOAD_LOAD_LOAD": 554,
      "ATTRIBUTE_NAME_LOAD_LOAD_ASSIGN_ATTRIBUTE_NAME_LOAD_STORE_": 555,
      "NAME_LOAD_NAME_LOAD_NAME_LOAD_": 556,
      "FOR_TUPLE_NAME_STORE_NAME_STORE_STORE_CALL_ATTRIBUTE_NAME_LOAD_LOAD_": 557,
      "COMPARE_SUBSCRIPT_NAME_LOAD_CONSTANT_LOAD_": 558,
      "PASS_": 559,
      "COMPREHENSION_TUPLE_NAME_STORE_NAME_STORE_STORE_": 560,
      "EXPR_CALL_ATTRIBUTE_NAME_LOAD_LOAD_CONSTANT_NAME_LOAD_": 561,
      "BREAK_": 562,
      "CONSTANT_ASS": 563,
      "MODULE_FUNCTIONDEF_ARGUMENTS_ARG_ARG_CONSTANT_EXPR_CONSTANT_": 564,
      "CONSTANT_ASSIGN_NAME_STORE_CONSTANT_ASSIGN_NAME_STORE_": 565,
      "EXPR_CALL_ATTRIBUTE_NAME_LOAD_LOAD_BINOP_CONSTANT_MOD_": 566,
      "MODULE_FUNCTIONDEF_ARGUMENTS_ARG_ARG_EXPR_CONSTANT_ASSIGN_NAME_STORE_CALL_ATTRIBUTE_NAME_LOAD_LOAD_": 567,
      "TUPLE_CONSTANT_": 568,
      "DICT_ASSIGN_NAME_STORE_": 569,
      "NAME_LOAD_LOAD_ASSIGN_NAME_STORE_": 570,
      "NOTIN_NAME_LOAD_": 571,
      "RETURN_ATTRIBUTE_NAME_LOAD_LOAD": 572,
      "LAMBDA_ARGUMENTS_ARG_": 573,
      "ETE_": 574,
      "DELETE_": 575,
      "IF_COMPARE_CONSTANT_IN_NAME_LOAD_": 576,
      "LIST_CONSTANT_CONSTANT_LOAD_": 577,
      "ASSIGN_SUBSCRIPT_ATTRIBUTE_NAME_LOAD_LOAD_NAME_LOAD_STORE_": 578,
      "FOR_NAME_STORE_CALL_NAME_LOAD_": 579,
      "SUB_": 580,
      "ASSERT_": 581,
      "CONSTANT_ASSERT_": 582,
      "_ARG_ARG_ARG_ARG": 583,
      "IFEXP_NAME_LOAD_": 584,
      "EXPR_CALL_ATTRIBUTE_NAME_LOAD_LOAD_NAME_LOAD": 585,
      "EXPR_CALL_ATTRIBUTE_NAME_LOAD_LOAD_NAME_LOAD_RETURN_NAME_LOAD": 586,
      "RETURN_CALL_ATTRIBUTE_NAME_LOAD_LOAD_NAME_LOAD_": 587,
      "COMPARE_NAME_LOAD_EQ_CONSTANT_": 588,
      "NAME_LOAD_LOAD_LOAD_": 589,
      "AND_": 590,
      "BITAND_": 591,
      "CONSTANT_RETURN_NAME_LOAD": 592,
      "AUG": 593,
      "CONSTANT_ASSIGN_NAME_STORE_CALL_ATTRIBUTE_NAME_LOAD_LOAD_CONSTANT_": 594,
      "COMPARE_NAME_LOAD_IS_CONSTANT_": 595,
      "SUBSCRIPT_ATTRIBUTE_NAME_LOAD_LOAD_CONSTANT_LOAD_LOAD_": 596,
      "CONSTANT_IF_BOOLOP_OR_": 597,
      "CALL_NAME_LOAD_NAME_LOAD": 598,
      "ASSIGN_NAME_STORE_CALL_ATTRIBUTE_ATTRIBUTE_NAME_LOAD_LOAD_LOAD_": 599,
      "MA": 600,
      "IF_BOOLOP_AND_NAME_LOAD_": 601,
      "FOR": 602,
      "CALL_NAME_LOAD_NAME_LOAD_NAME_LOAD_LOAD_": 603,
      "VAL": 604,
      "TTED": 605,
      "MATTED": 606,
      "FORMATTED": 607,
      "VALUE_": 608,
      "FORMATTEDVALUE_": 609,
      "ASSIGN_SUBSCRIPT_NAME_LOAD_CONSTANT_STORE_NAME_LOAD_": 610,
      "IF_COMPARE_NAME_LOAD_EQ_": 611,
      "BINOP_BINOP_CONSTANT_ADD_": 612,
      "SUBSCRIPT_NAME_LOAD_SLICE_CONSTANT_LOAD_": 613,
      "CONSTANT_EXPR_CALL_NAME_LOAD_": 614,
      "CALL_ATTRIBUTE_NAME_LOAD_LOAD_CALL_ATTRIBUTE_NAME_LOAD_LOAD_": 615,
      "TUPLE_SLICE_": 616,
      "IF_COMPARE_CONSTANT_IN_": 617,
      "CONSTANT_CONSTANT_CONSTANT_LOAD_": 618,
      "BINOP_NAME_LOAD_ADD_CONSTANT_": 619,
      "CALL_ATTRIBUTE_CONSTANT_LOAD_NAME_LOAD_NAME_LOAD_": 620,
      "BINOP_CALL_NAME_LOAD_NAME_LOAD_": 621,
      "NOTEQ_": 622,
      "KEYWORD_SUBSCRIPT_NAME_LOAD_CONSTANT_LOAD_": 623,
      "MODULE_FUNCTIONDEF_ARGUMENTS_ARG_ARG_ARG_ARG_CONSTANT_EXPR_": 624,
      "CONSTANT_ASSIGN_NAME_STORE_CALL_ATTRIBUTE_ATTRIBUTE_NAME_LOAD_LOAD_LOAD_": 625,
      "TRY_EXPR_": 626,
      "LIST_CONSTANT_LOAD_": 627,
      "CONSTANT_EXPR_CALL_ATTRIBUTE_ATTRIBUTE_NAME_LOAD_LOAD_LOAD_": 628,
      "SUBSCRIPT_CALL_ATTRIBUTE_NAME_LOAD_LOAD_": 629,
      "EXPR_CALL_ATTRIBUTE_NAME_LOAD_LOAD_CONSTANT_CONSTANT_": 630,
      "MODULE_FUNCTIONDEF_ARGUMENTS_ARG_EXPR_CONSTANT_RETURN_": 631,
      "CALL_NAME_LOAD_NAME_LOAD_ATTRIBUTE_NAME_LOAD_LOAD_": 632,
      "MODULE_FUNCTIONDEF_ARGUMENTS_ARG_ARG_ARG_ARG_CONSTANT_CONSTANT_EXPR_": 633,
      "SUBSCRIPT_NAME_LOAD_UNARYOP_USUB_CONSTANT_LOAD_": 634,
      "CALL_NAME_LOAD_NAME_LOAD_CONSTANT_NAME_STORE_": 635,
      "IF_COMPARE_ATTRIBUTE_NAME_LOAD_LOAD_EQ_CONSTANT_": 636,
      "IF_COMPARE_NAME_LOAD_IN_NAME_LOAD_": 637,
      "ASSIGN_NAME_STORE_CALL_ATTRIBUTE_NAME_LOAD_LOAD_NAME_LOAD_NAME_LOAD_": 638,
      "LT_CONSTANT_": 639,
      "EXPR_CALL_ATTRIBUTE_NAME_LOAD_LOAD_CALL_ATTRIBUTE_NAME_LOAD_LOAD_": 640,
      "LIST_LOAD_FOR_NAME_STORE_": 641,
      "CONSTANT_IF_NAME_LOAD_": 642,
      "RETURN_TUPLE_": 643,
      "RETURN_ASSIGN_NAME_STORE_": 644,
      "LT_NAME_LOAD_": 645,
      "CALL_ATTRIBUTE_CALL_ATTRIBUTE_ATTRIBUTE_NAME_LOAD_LOAD_LOAD_": 646,
      "LT_": 647,
      "EXPR_CALL_ATTRIBUTE_NAME_LOAD_LOAD_NAME_LOAD_EXPR_CALL_ATTRIBUTE_NAME_LOAD_LOAD_NAME_LOAD_": 648,
      "KEYWORD_NAME_LOAD_KEYWORD_NAME_LOAD_KEYWORD_NAME_LOAD_": 649,
      "EXCEPTHANDLER_ATTRIBUTE_NAME_LOAD_LOAD_": 650,
      "SUBSCRIPT_SUBSCRIPT_ATTRIBUTE_NAME_LOAD_LOAD_NAME_LOAD_LOAD_": 651,
      "RAISE_CALL_ATTRIBUTE_NAME_LOAD_LOAD_": 652,
      "CONSTANT_ASSIGN_ATTRIBUTE_NAME_LOAD_STORE_CONSTANT_ASSIGN_ATTRIBUTE_NAME_LOAD_STORE_": 653,
      "BINOP_NAME_LOAD_SUB_NAME_LOAD_": 654,
      "EXPR_CALL_ATTRIBUTE_NAME_LOAD_LOAD_NAME_LOAD_ASSIGN_NAME_STORE_": 655,
      "SUBSCRIPT_ATTRIBUTE_NAME_LOAD_LOAD_NAME_LOAD_LOAD_LOAD_": 656,
      "COMPARE_CONSTANT_IN_NAME_LOAD_": 657,
      "ASSIGN_ATTRIBUTE_ATTRIBUTE_NAME_LOAD_LOAD_STORE_": 658,
      "IF_COMPARE_NAME_LOAD_EQ_NAME_LOAD_": 659,
      "MODULE_FUNCTIONDEF_ARGUMENTS_ARG_EXPR_CONSTANT_IF_": 660,
      "ATTRIBUTE_NAME_LOAD_LOAD_NAME_LOAD_": 661,
      "IMPORT_ALIAS": 662,
      "_CONSTANT_CONSTANT_CONSTANT_CONSTANT_CONSTANT_": 663,
      "KEYWORD_NAME_LOAD_ASSIGN_NAME_STORE_": 664,
      "GT_": 665,
      "SUBSCRIPT_NAME_LOAD_ATTRIBUTE_NAME_LOAD_LOAD_LOAD_": 666,
      "IF_COMPARE_NAME_LOAD_ISNOT_CONSTANT_ASSIGN_NAME_STORE_": 667,
      "COMPREHENSION_NAME_STORE_ATTRIBUTE_NAME_LOAD_LOAD_": 668,
      "GT_CONSTANT_ASSIGN_NAME_STORE_": 669,
      "SUBSCRIPT_CALL_ATTRIBUTE_NAME_LOAD_LOAD_CONSTANT_": 670,
      "COMPARE_NAME_LOAD_ISNOT_CONSTANT_": 671,
      "KEYWORD_CONSTANT_KEYWORD_CONSTANT_KEYWORD_CONSTANT_": 672,
      "WITH_WITHITEM_CALL_NAME_LOAD_NAME_LOAD_CONSTANT_NAME_STORE_": 673,
      "CONSTANT_IF_COMPARE_NAME_LOAD_IS_CONSTANT_ASSIGN_NAME_STORE_": 674,
      "CALL_NAME_LOAD_CALL_NAME_LOAD_": 675,
      "EXCEPTHANDLER_TUPLE_NAME_LOAD_NAME_LOAD_LOAD_": 676,
      "BINOP_CALL_ATTRIBUTE_NAME_LOAD_LOAD_": 677,
      "RETURN_ATTRIBUTE_NAME_LOAD_LOAD_": 678,
      "ATTRIBUTE_NAME_LOAD_LOAD_ASSIGN_NAME_STORE_CALL_ATTRIBUTE_NAME_LOAD_LOAD_": 679,
      "DIV_": 680,
      "IF_COMPARE_NAME_LOAD_NOTIN_NAME_LOAD_": 681,
      "KEYWORD_CONSTANT": 682,
      "CALL_NAME_LOAD_ATTRIBUTE_NAME_LOAD_LOAD_NAME_LOAD_": 683,
      "MODULE_FUNCTIONDEF_ARGUMENTS_ARG_EXPR_CONSTANT_IF_COMPARE_ATTRIBUTE_NAME_LOAD_LOAD_": 684,
      "BINOP_CONSTANT_MOD_TUPLE_": 685,
      "SUBSCRIPT_ATTRIBUTE_NAME_LOAD_LOAD_SLICE_": 686,
      "NOTIN_": 687,
      "IF_COMPARE_CALL_ATTRIBUTE_NAME_LOAD_LOAD_": 688,
      "BINOP_BINOP_NAME_LOAD_ADD_": 689,
      "MODULE_FUNCTIONDEF_ARGUMENTS_ARG_EXPR_CONSTANT_ASSIGN_NAME_STORE_CALL_NAME_LOAD_": 690,
      "ATTRIBUTE_NAME_LOAD_LOAD_ATTRIBUTE_NAME_LOAD_LOAD_ATTRIBUTE_NAME_LOAD_LOAD_ATTRIBUTE_NAME_LOAD_LOAD_": 691,
      "CALL_ATTRIBUTE_NAME_LOAD_LOAD_LOAD_": 692,
      "CALL_ATTRIBUTE_NAME_LOAD_LOAD_ASSIGN_NAME_STORE_": 693,
      "CONSTANT_ASSIGN_SUBSCRIPT_ATTRIBUTE_NAME_LOAD_LOAD_": 694,
      "_CONSTANT_ASSIGN_ATTRIBUTE_NAME_LOAD_STORE_": 695,
      "ASSIGN_SUBSCRIPT_ATTRIBUTE_NAME_LOAD_LOAD_CONSTANT_STORE_": 696,
      "DICTCOMP": 697,
      "LIST_LOAD_FOR_NAME_STORE_NAME_LOAD_": 698,
      "TRY_ASSIGN_NAME_STORE_CALL_NAME_LOAD_NAME_LOAD_": 699,
      "SUBSCRIPT_SUBSCRIPT_ATTRIBUTE_NAME_LOAD_LOAD_CONSTANT_LOAD_": 700,
      "LIST_ATTRIBUTE_NAME_LOAD_LOAD_": 701,
      "RETURN_CONSTANT_RETURN_CONSTANT": 702,
      "RETURN_TUPLE_NAME_LOAD_NAME_LOAD_LOAD": 703,
      "MODULE_FUNCTIONDEF_ARGUMENTS_ARG_ARG_CONSTANT_EXPR_CONSTANT_ASSIGN_NAME_STORE_": 704,
      "NOTEQ_NAME_LOAD_": 705,
      "ADD_CONSTANT_": 706,
      "NAME_LOAD_NAME_LOAD": 707,
      "CALL_NAME_LOAD_CALL_NAME_LOAD_NAME_LOAD_": 708,
      "CALL_ATTRIBUTE_CALL_ATTRIBUTE_": 709,
      "ADD_CONSTANT_ADD_": 710,
      "KEYWORD_CONSTANT_KEYWORD_CONSTANT_KEYWORD_CONSTANT_KEYWORD_CONSTANT_": 711,
      "IF_COMPARE_NAME_LOAD_IN_ATTRIBUTE_NAME_LOAD_LOAD_": 712,
      "SUB_CONSTANT_": 713,
      "GT_NAME_LOAD_": 714,
      "CONSTANT_ATTRIBUTE_": 715,
      "MODULE_FUNCTIONDEF_ARGUMENTS_ARG_ARG_ARG_ARG_ARG_EXPR_": 716,
      "DICT_CONSTANT_CONSTANT_CONSTANT_CONSTANT_": 717,
      "EXPR_CALL_ATTRIBUTE_NAME_LOAD_LOAD_EXPR_CALL_ATTRIBUTE_NAME_LOAD_LOAD_": 718,
      "EXPR_CALL_ATTRIBUTE_ATTRIBUTE_ATTRIBUTE_NAME_LOAD_LOAD_LOAD_LOAD_": 719,
      "DEL_": 720,
      "FOR_TUPLE_NAME_STORE_NAME_STORE_STORE_CALL_NAME_LOAD_NAME_LOAD_": 721,
      "CALL_ATTRIBUTE_NAME_LOAD_LOAD_NAME_LOAD": 722,
      "JO": 723,
      "STR": 724,
      "INED": 725,
      "JOINED": 726,
      "JOINEDSTR": 727,
      "_CONSTANT_CONSTANT_CONSTANT_CONSTANT_EXPR_": 728,
      "CALL_ATTRIBUTE_CALL_NAME_LOAD_NAME_LOAD_NAME_LOAD_LOAD_": 729,
      "EXPR_CALL_NAME_LOAD_NAME_LOAD_NAME_LOAD_": 730,
      "SUB_NAME_LOAD_": 731,
      "NAME_LOAD_IF_NAME_LOAD_": 732,
      "IF_UNARYOP_NOT_ATTRIBUTE_NAME_LOAD_LOAD_": 733,
      "EXPR_CALL_NAME_LOAD_CONSTANT_": 734,
      "CALL_ATTRIBUTE_CONSTANT_LOAD_ATTRIBUTE_NAME_LOAD_LOAD_": 735,
      "IF_COMPARE_NAME_LOAD_ISNOT_CONSTANT_ASSIGN_SUBSCRIPT_NAME_LOAD_CONSTANT_STORE_": 736,
      "NAME_LOAD_CONSTANT_": 737,
      "EXCEPTHANDLER_NAME_LOAD_ASSIGN_NAME_STORE_": 738,
      "RETURN_CALL_ATTRIBUTE_NAME_LOAD_LOAD_NAME_LOAD": 739,
      "RAISE_CALL_NAME_LOAD_CALL_ATTRIBUTE_CONSTANT_LOAD_NAME_LOAD_": 740,
      "IMPORTFROM_ALIAS_": 741,
      "TUPLE_ATTRIBUTE_NAME_LOAD_LOAD_ATTRIBUTE_NAME_LOAD_LOAD_LOAD_": 742,
      "SUBSCRIPT_NAME_LOAD_SLICE_UNARYOP_USUB_CONSTANT_LOAD_": 743,
      "NAME_LOAD_ASSIGN_NAME_STORE_CONSTANT_": 744,
      "KEYWORD_NAME_LOAD_KEYWORD_CONSTANT_": 745,
      "EXPR_CALL_ATTRIBUTE_NAME_LOAD_LOAD_NAME_LOAD_EXPR_CALL_ATTRIBUTE_NAME_LOAD_LOAD_": 746,
      "LIST_CONSTANT_CONSTANT_CONSTANT_LOAD_": 747,
      "KEYWORD_NAME_LOAD_KEYWORD_NAME_LOAD": 748,
      "KEYWORD_CONSTANT_ASSIGN_NAME_STORE_": 749,
      "RAISE_CALL_NAME_LOAD_CONSTANT_ASSIGN_NAME_STORE_": 750,
      "RAISE_CALL_NAME_LOAD_NAME_LOAD_": 751,
      "BINOP_CONSTANT_MOD_TUPLE_NAME_LOAD_NAME_LOAD_LOAD_": 752,
      "HIF": 753,
      "SHIF": 754,
      "MODULE_FUNCTIONDEF_ARGUMENTS_ARG_ARG_EXPR_CONSTANT_RETURN_": 755,
      "CALL_ATTRIBUTE_ATTRIBUTE_NAME_LOAD_LOAD_LOAD_NAME_LOAD_ASSIGN_NAME_STORE_": 756,
      "TUPLE_NAME_STORE_NAME_STORE_NAME_STORE_NAME_STORE_": 757,
      "_NAME_LOAD_ARG_NAME_LOAD_ARG": 758,
      "IF_COMPARE_NAME_LOAD_EQ_ATTRIBUTE_NAME_LOAD_LOAD_": 759,
      "IF_NAME_LOAD_EXPR_CALL_ATTRIBUTE_NAME_LOAD_LOAD_": 760,
      "ASSIGN_ATTRIBUTE_NAME_LOAD_STORE_ADD_": 761,
      "ASSIGN_NAME_STORE_ATTRIBUTE_NAME_LOAD_LOAD_": 762,
      "SUBSCRIPT_NAME_LOAD_CONSTANT_LOAD": 763,
      "TRY_ASSIGN_NAME_STORE_CALL_ATTRIBUTE_NAME_LOAD_LOAD_": 764,
      "IF_COMPARE_ATTRIBUTE_NAME_LOAD_LOAD_ISNOT": 765,
      "CALL_NAME_LOAD_SUBSCRIPT_NAME_LOAD_NAME_LOAD_LOAD_": 766,
      "IF_COMPARE_ATTRIBUTE_NAME_LOAD_LOAD_ISNOT_CONSTANT_": 767,
      "EXCEPTHANDLER_NAME_LOAD_PASS_": 768,
      "IF_COMPARE_CALL_NAME_LOAD_NAME_LOAD_EQ_CONSTANT_": 769,
      "KEYWORD_ATTRIBUTE_NAME_LOAD_LOAD_KEYWORD_": 770,
      "EXPR_CALL_ATTRIBUTE_ATTRIBUTE_NAME_LOAD_LOAD_LOAD_CONSTANT_": 771,
      "RETURN_NAME_LOAD_RETURN_": 772,
      "CALL_NAME_LOAD_GENERATOREXP_": 773,
      "LISTCOMP_NAME_LOAD_COMPREHENSION_NAME_STORE_NAME_LOAD_": 774,
      "CONSTANT_ASSIGN_SUBSCRIPT_NAME_LOAD_NAME_LOAD_STORE_": 775,
      "FOR_NAME_STORE_CALL_NAME_LOAD_NAME_LOAD_": 776,
      "DIV_NAME_LOAD_": 777,
      "MODULE_FUNCTIONDEF_ARGUMENTS_ARG_ARG_ARG_CONSTANT_EXPR_CONSTANT_": 778,
      "EXPR_CALL_ATTRIBUTE_NAME_LOAD_LOAD_CALL_ATTRIBUTE_CONSTANT_LOAD_NAME_LOAD_": 779,
      "CALL_ATTRIBUTE_CALL_NAME_LOAD_NAME_LOAD_LOAD_": 780,
      "EXPR_CALL_ATTRIBUTE_ATTRIBUTE_NAME_LOAD_LOAD_LOAD_NAME_LOAD": 781,
      "MODULE_FUNCTIONDEF_ARGUMENTS_ARG_ARG_ARG_ARG_ARG_ARG_ARG_ARG": 782,
      "IF_COMPARE_NAME_LOAD_NOTIN_ATTRIBUTE_NAME_LOAD_LOAD_": 783,
      "ATTRIBUTE_ATTRIBUTE_NAME_LOAD_LOAD_LOAD_ASSIGN_NAME_STORE_": 784,
      "LISTCOMP_CALL_NAME_LOAD_NAME_LOAD_": 785,
      "TUPLE_NAME_LOAD_NAME_LOAD_NAME_LOAD_LOAD_": 786,
      "RETURN_CALL_NAME_LOAD_NAME_LOAD": 787,
      "NAME_LOAD_NAME_LOAD_LOAD_": 788,
      "SUBSCRIPT_NAME_LOAD_CONSTANT_LOAD_ASSIGN_SUBSCRIPT_NAME_LOAD_CONSTANT_STORE_": 789,
      "MODULE_FUNCTIONDEF_ARGUMENTS_ARG_ARG_ARG_ARG_CONSTANT_CONSTANT_CONSTANT_EXPR_": 790,
      "_ASSIGN_ATTRIBUTE_NAME_LOAD_STORE_": 791,
      "CONSTANT_CONSTANT_CONSTANT_": 792,
      "EXPR_CALL_ATTRIBUTE_ATTRIBUTE_NAME_LOAD_LOAD_LOAD_ATTRIBUTE_NAME_LOAD_LOAD_": 793,
      "ATTRIBUTE_NAME_LOAD_STORE_": 794,
      "CALL_SUBSCRIPT_NAME_LOAD_CONSTANT_LOAD_": 795,
      "ASSIGN_TUPLE_NAME_STORE_NAME_STORE_NAME_STORE_STORE_": 796,
      "EXPR_CALL_ATTRIBUTE_NAME_LOAD_LOAD_CONSTANT_EXPR_CALL_ATTRIBUTE_NAME_LOAD_LOAD_": 797,
      "ATTRIBUTE_ATTRIBUTE_ATTRIBUTE_NAME_LOAD_LOAD_LOAD_LOAD_LOAD_": 798,
      "CALL_ATTRIBUTE_NAME_LOAD_LOAD_CONSTANT_NAME_LOAD_": 799,
      "UNARYOP_USUB_": 800,
      "CALL_NAME_LOAD_NAME_LOAD_ASSIGN_NAME_STORE_CALL_NAME_LOAD_NAME_LOAD_": 801,
      "TRY_ASSIGN_NAME_STORE_CALL_ATTRIBUTE_NAME_LOAD_LOAD_NAME_LOAD_": 802,
      "CONSTANT_CONSTANT_CONSTANT_CONSTANT_LOAD_": 803,
      "MODULE_FUNCTIONDEF_ARGUMENTS_ARG_ARG_ARG_CONSTANT_EXPR_CONSTANT_ASSIGN_NAME_STORE_": 804,
      "CALL_ATTRIBUTE_CALL_ATTRIBUTE_NAME_LOAD_LOAD_NAME_LOAD_LOAD_": 805,
      "SUBSCRIPT_ATTRIBUTE_": 806,
      "CALL_NAME_LOAD_ATTRIBUTE_NAME_LOAD_LOAD_ATTRIBUTE_NAME_LOAD_LOAD_": 807,
      "IF_ATTRIBUTE_NAME_LOAD_LOAD_ASSIGN_NAME_STORE_": 808,
      "TRY_ASSIGN_": 809,
      "CALL_ATTRIBUTE_NAME_LOAD_LOAD_NAME_LOAD_CONSTANT_": 810,
      "COMPARE_NAME_LOAD_IN_": 811,
      "CONSTANT_ASSIGN_ATTRIBUTE_NAME_LOAD_STORE_NAME_LOAD_": 812,
      "JOINEDSTR_CONSTANT_": 813,
      "CALL_ATTRIBUTE_NAME_LOAD_LOAD_NAME_LOAD_ASSIGN_NAME_STORE_": 814,
      "IF_UNARYOP_NOT_CALL_NAME_LOAD_NAME_LOAD_": 815,
      "EXPR_CALL_ATTRIBUTE_NAME_LOAD_LOAD_CONSTANT_ATTRIBUTE_NAME_LOAD_LOAD_": 816,
      "DICT_CONSTANT_CONSTANT_CONSTANT_CONSTANT_CONSTANT_CONSTANT_CONSTANT_CONSTANT_CONSTANT_": 817,
      "MODULE_FUNCTIONDEF_ARGUMENTS_ARG_ARG_EXPR_CONSTANT_IF_": 818,
      "RETURN_CONSTANT_ASSIGN_NAME_STORE_": 819,
      "CONSTANT_ASSIGN_NAME_STORE_CALL_ATTRIBUTE_NAME_LOAD_LOAD_NAME_LOAD_NAME_LOAD_": 820,
      "BINOP_NAME_LOAD_ADD_CONSTANT_LOAD_": 821,
      "NAME_LOAD_ASSIGN_NAME_STORE_CALL_ATTRIBUTE_NAME_LOAD_LOAD_NAME_LOAD_NAME_LOAD_": 822,
      "ASSIGN_ATTRIBUTE_NAME_LOAD_STORE_CALL_ATTRIBUTE_NAME_LOAD_LOAD_": 823,
      "SUBSCRIPT_SUBSCRIPT_NAME_LOAD_NAME_LOAD_LOAD_CONSTANT_LOAD_": 824,
      "LISTCOMP_NAME_LOAD_COMPREHENSION_NAME_STORE_": 825,
      "KEYWORD_CALL_ATTRIBUTE_NAME_LOAD_LOAD_": 826,
      "SUBSCRIPT_ATTRIBUTE_NAME_LOAD_LOAD_ATTRIBUTE_NAME_LOAD_LOAD_LOAD_": 827,
      "IF_CALL_ATTRIBUTE_NAME_LOAD_LOAD_NAME_LOAD_": 828,
      "SUBSCRIPT_SUBSCRIPT_": 829,
      "LISTCOMP_CALL_ATTRIBUTE_NAME_LOAD_LOAD_": 830,
      "CONSTANT_IF_UNARYOP_NOT_CALL_NAME_LOAD_NAME_LOAD_NAME_LOAD_": 831,
      "JOINEDSTR_CONSTANT_FORMATTEDVALUE_": 832,
      "COMPARE_ATTRIBUTE_NAME_LOAD_LOAD_EQ_CONSTANT_": 833,
      "COMPARE_NAME_LOAD_IN_NAME_LOAD_": 834,
      "SUBSCRIPT_NAME_LOAD_TUPLE_SLICE_": 835,
      "EXPR_CONSTANT_ASSIGN_NAME_STORE_": 836,
      "TRY_EXPR_CALL_ATTRIBUTE_NAME_LOAD_LOAD_": 837,
      "ATTRIBUTE_SUBSCRIPT_NAME_LOAD_CONSTANT_LOAD_LOAD_": 838,
      "IF_COMPARE_ATTRIBUTE_NAME_LOAD_LOAD_EQ_CONSTANT_ASSIGN_NAME_STORE_": 839,
      "CALL_NAME_LOAD_NAME_LOAD_CALL_NAME_LOAD_NAME_LOAD_": 840,
      "CALL_ATTRIBUTE_CALL_NAME_LOAD_": 841,
      "NOTEQ_ATTRIBUTE_NAME_LOAD_LOAD_": 842,
      "SHIFT": 843,
      "ATTRIBUTE_NAME_LOAD_LOAD_ASSIGN_NAME_STORE_ATTRIBUTE_NAME_LOAD_LOAD_ASSIGN_NAME_STORE_": 844,
      "COMPREHENSION_NAME_STORE_NAME_LOAD_ASSIGN_NAME_STORE_": 845,
      "CALL_NAME_LOAD_LOAD_": 846,
      "SUBSCRIPT_NAME_LOAD_NAME_LOAD_LOAD_ASSIGN_NAME_STORE_": 847,
      "BINOP_NAME_LOAD_MOD_": 848,
      "CONSTANT_AUG": 849,
      "IF_COMPARE_NAME_LOAD_NOTIN_": 850,
      "ATTRIBUTE_CALL_ATTRIBUTE_NAME_LOAD_LOAD_": 851,
      "RAISE_CALL_NAME_LOAD_CONSTANT": 852,
      "ATTRIBUTE_NAME_LOAD_LOAD_RETURN_NAME_LOAD": 853,
      "IMPORTFROM_ALIAS_ASSIGN_NAME_STORE_": 854,
      "IF_COMPARE_ATTRIBUTE_ATTRIBUTE_NAME_LOAD_LOAD_LOAD_": 855,
      "DICT_CONSTANT_NAME_LOAD_": 856,
      "BOOLOP_OR_ATTRIBUTE_NAME_LOAD_LOAD_": 857,
      "KEYWORD_CALL_NAME_LOAD_": 858,
      "MODULE_FUNCTIONDEF_ARGUMENTS_ARG_ARG_ARG_ARG_ARG_ARG_ARG": 859,
      "NOTIN_ATTRIBUTE_NAME_LOAD_LOAD_": 860,
      "DICTCOMP_NAME_LOAD_": 861,
      "MODULE_FUNCTIONDEF_ARGUMENTS_ARG_ARG_ARG_ARG_ARG_ARG_ARG_ARG_ARG_ARG": 862,
      "IF_CALL_NAME_LOAD_NAME_LOAD_NAME_LOAD_ASSIGN_NAME_STORE_": 863,
      "DIV_CONSTANT_": 864,
      "ATTRIBUTE_NAME_LOAD_LOAD_RETURN_": 865,
      "COMPARE_CALL_ATTRIBUTE_NAME_LOAD_LOAD_": 866,
      "CONTINUE_ASSIGN_NAME_STORE_": 867,
      "MODULE_FUNCTIONDEF_ARGUMENTS_ARG_ARG_NAME_LOAD_EXPR_": 868,
      "MODULE_FUNCTIONDEF_ARGUMENTS_ARG_ARG_EXPR_CONSTANT_ASSIGN_NAME_STORE_CALL_ATTRIBUTE_NAME_LOAD_LOAD_NAME_LOAD_": 869,
      "SUBSCRIPT_NAME_LOAD_NAME_LOAD_LOAD": 870,
      "MODULE_FUNCTIONDEF_ARGUMENTS_ARG_ARG_ARG_ARG_EXPR_CONSTANT_ASSIGN_NAME_STORE_": 871,
      "CONSTANT_IF_UNARYOP_NOT_CALL_NAME_LOAD_NAME_LOAD_": 872,
      "CONSTANT_RETURN_CALL_ATTRIBUTE_NAME_LOAD_LOAD_": 873,
      "BINOP_NAME_LOAD_SUB_": 874,
      "IF_COMPARE_CONSTANT_IN_ATTRIBUTE_NAME_LOAD_LOAD_": 875,
      "ATTRIBUTE_ATTRIBUTE_NAME_LOAD_LOAD_LOAD_ATTRIBUTE_ATTRIBUTE_NAME_LOAD_LOAD_LOAD_": 876,
      "IF_COMPARE_CALL_NAME_LOAD_ATTRIBUTE_NAME_LOAD_LOAD_": 877,
      "SUBSCRIPT_ATTRIBUTE_NAME_LOAD_LOAD_CONSTANT_LOAD_ASSIGN_NAME_STORE_": 878,
      "AUGASSIGN_NAME_STORE_": 879,
      "MODULE_FUNCTIONDEF_ARGUMENTS_ARG_CONSTANT_EXPR_": 880,
      "CALL_ATTRIBUTE_NAME_LOAD_LOAD_CONSTANT_ASSIGN_NAME_STORE_": 881,
      "EXPR_CALL_ATTRIBUTE_SUBSCRIPT_NAME_LOAD_CONSTANT_LOAD_LOAD_": 882,
      "ATTRIBUTE_NAME_LOAD_LOAD_EXPR_CALL_ATTRIBUTE_NAME_LOAD_LOAD_": 883,
      "BINOP_SUBSCRIPT_NAME_LOAD_CONSTANT_LOAD_": 884,
      "BINOP_NAME_LOAD_ADD_NAME_LOAD_": 885,
      "ASSIGN_ATTRIBUTE_NAME_LOAD_STORE_NAME_LOAD_": 886,
      "BINOP_BINOP_BINOP_BINOP_": 887,
      "CONSTANT_ASSIGN_TUPLE_NAME_STORE_NAME_STORE_NAME_STORE_STORE_": 888,
      "TRY_RETURN_": 889,
      "BITOR": 890,
      "IF_CALL_ATTRIBUTE_NAME_LOAD_LOAD_CONSTANT_": 891,
      "NAME_LOAD_ASSIGN_NAME_STORE_CALL_ATTRIBUTE_NAME_LOAD_LOAD_CONSTANT_": 892,
      "IMPORT_ALIAS_": 893,
      "LOAD_ASSIGN_NAME_STORE_": 894,
      "CALL_NAME_LOAD_ATTRIBUTE_NAME_LOAD_LOAD_ASSIGN_NAME_STORE_": 895,
      "COMPARE_NAME_LOAD_EQ_": 896,
      "EXPR_CONSTANT_": 897,
      "CALL_ATTRIBUTE_ATTRIBUTE_NAME_LOAD_LOAD_LOAD_CONSTANT_NAME_LOAD_": 898,
      "EXPR_CALL_ATTRIBUTE_NAME_LOAD_LOAD_CONSTANT_NAME_LOAD_NAME_LOAD_": 899,
      "SUBSCRIPT_NAME_LOAD_CONSTANT_STORE_": 900,
      "IF_CALL_ATTRIBUTE_ATTRIBUTE_NAME_LOAD_LOAD_LOAD_NAME_LOAD_": 901,
      "RETURN_CALL_ATTRIBUTE_CONSTANT_LOAD_": 902,
      "FOR_NAME_STORE_CALL_ATTRIBUTE_ATTRIBUTE_NAME_LOAD_LOAD_LOAD_": 903,
      "MODULE_FUNCTIONDEF_ARGUMENTS_ARG_ARG_ARG_EXPR_CONSTANT_ASSIGN_NAME_STORE_CALL_ATTRIBUTE_NAME_LOAD_LOAD_": 904,
      "CALL_ATTRIBUTE_SUBSCRIPT_NAME_LOAD_NAME_LOAD_LOAD_LOAD_": 905,
      "AUGASSIGN_ATTRIBUTE_NAME_LOAD_STORE_ADD_": 906,
      "DICT_CONSTANT_CONSTANT_NAME_LOAD_NAME_LOAD_": 907,
      "TUPLE_CONSTANT_CONSTANT_CONSTANT_LOAD_": 908,
      "EXPR_CALL_NAME_LOAD_BINOP_CONSTANT_MOD_": 909,
      "BINOP_CONSTANT_ADD_NAME_LOAD_": 910,
      "FOR_TUPLE_NAME_STORE_NAME_STORE_STORE_CALL_ATTRIBUTE_ATTRIBUTE_NAME_LOAD_LOAD_LOAD_": 911,
      "LIST_NAME_LOAD_NAME_LOAD_LOAD_": 912,
      "KEYWORD_NAME_LOAD_KEYWORD_ATTRIBUTE_NAME_LOAD_LOAD_KEYWORD_ATTRIBUTE_NAME_LOAD_LOAD_": 913,
      "SUBSCRIPT_NAME_LOAD_TUPLE_NAME_LOAD_NAME_LOAD_LOAD_": 914,
      "DICT_NAME_LOAD_": 915,
      "EXPR_CALL_ATTRIBUTE_NAME_LOAD_LOAD_CONSTANT_EXPR_CALL_ATTRIBUTE_NAME_LOAD_LOAD_CONSTANT_": 916,
      "KEYWORD_SUBSCRIPT_NAME_LOAD_CONSTANT_LOAD_KEYWORD_SUBSCRIPT_NAME_LOAD_CONSTANT_LOAD_": 917,
      "IF_NAME_LOAD_ASSIGN_NAME_STORE_CALL_ATTRIBUTE_NAME_LOAD_LOAD_": 918,
      "LISTCOMP_ATTRIBUTE_NAME_LOAD_LOAD_": 919,
      "WITH_WITHITEM_CALL_NAME_LOAD_": 920,
      "DELETE_SUBSCRIPT_NAME_LOAD_": 921,
      "BINOP_CALL_NAME_LOAD_": 922,
      "EXPR_CALL_NAME_LOAD_CALL_ATTRIBUTE_CONSTANT_LOAD_": 923,
      "RETURN_CALL_ATTRIBUTE_ATTRIBUTE_NAME_LOAD_LOAD_LOAD_": 924,
      "IF_UNARYOP_NOT_NAME_LOAD_ASSIGN_NAME_STORE_": 925,
      "GENERATOREXP": 926,
      "EXPR_CALL_NAME_LOAD_NAME_LOAD_NAME_LOAD_NAME_LOAD_": 927,
      "IS_CONSTANT_ASSIGN_ATTRIBUTE_NAME_LOAD_STORE_": 928,
      "BINOP_BINOP_CONSTANT_ADD_NAME_LOAD_ADD_": 929,
      "COMPARE_ATTRIBUTE_ATTRIBUTE_NAME_LOAD_LOAD_LOAD_": 930,
      "EXPR_CALL_ATTRIBUTE_NAME_LOAD_LOAD_CALL_NAME_LOAD_": 931,
      "BINOP_NAME_LOAD_SUB_CONSTANT_": 932,
      "CONSTANT_ATTRIBUTE_ATTRIBUTE_NAME_LOAD_LOAD_LOAD_": 933,
      "IF_COMPARE_ATTRIBUTE_NAME_LOAD_LOAD_EQ_ATTRIBUTE_NAME_LOAD_LOAD_": 934,
      "SUBSCRIPT_NAME_LOAD_CONSTANT_LOAD_ASSIGN_ATTRIBUTE_NAME_LOAD_STORE_": 935,
      "IF_ATTRIBUTE_ATTRIBUTE_NAME_LOAD_LOAD_LOAD_": 936,
      "DICT_ASSIGN_": 937,
      "SUBSCRIPT_NAME_LOAD_SLICE_CONSTANT_CONSTANT_LOAD_": 938,
      "RETURN_CALL_ATTRIBUTE_NAME_LOAD_LOAD": 939,
      "KEYWORD_ATTRIBUTE_ATTRIBUTE_NAME_LOAD_LOAD_LOAD_": 940,
      "MODULE_FUNCTIONDEF_ARGUMENTS_ARG_ARG_EXPR_CONSTANT_ASSIGN_NAME_STORE_CALL_NAME_LOAD_": 941,
      "_SUBSCRIPT_NAME_LOAD_NAME_LOAD_LOAD_": 942,
      "ATTRIBUTE_NAME_LOAD_LOAD_ASSIGN_NAME_STORE_CALL_ATTRIBUTE_NAME_LOAD_LOAD_NAME_LOAD_": 943,
      "EXCEPTHANDLER_NAME_LOAD_PASS": 944,
      "CALL_NAME_LOAD_NAME_LOAD_ASSIGN_NAME_STORE_CALL_NAME_LOAD_": 945,
      "IF_COMPARE_ATTRIBUTE_NAME_LOAD_LOAD_IS_CONSTANT_": 946,
      "WHILE_COMPARE_NAME_LOAD_": 947,
      "SUBSCRIPT_NAME_LOAD_SLICE_NAME_LOAD_LOAD_": 948,
      "IF_COMPARE_CONSTANT_IN_NAME_LOAD_ASSIGN_NAME_STORE_": 949,
      "CONSTANT_ASSIGN_SUBSCRIPT_NAME_LOAD_CONSTANT_STORE_CONSTANT_ASSIGN_SUBSCRIPT_NAME_LOAD_CONSTANT_STORE_": 950,
      "CALL_ATTRIBUTE_ATTRIBUTE_ATTRIBUTE_NAME_LOAD_LOAD_LOAD_LOAD_NAME_LOAD_": 951,
      "ATTRIBUTE_NAME_LOAD_LOAD_ATTRIBUTE_NAME_LOAD_LOAD_ATTRIBUTE_NAME_LOAD_LOAD_": 952,
      "COMPARE_CONSTANT_IN_": 953,
      "KEYWORD_ATTRIBUTE_NAME_LOAD_LOAD": 954,
      "CONSTANT_ASSIGN_SUBSCRIPT_ATTRIBUTE_NAME_LOAD_LOAD_CONSTANT_STORE_": 955,
      "ASSIGN_SUBSCRIPT_NAME_LOAD_NAME_LOAD_STORE_NAME_LOAD_": 956,
      "BINOP_NAME_LOAD_BITAND_": 957,
      "CONSTANT_ASSIGN_ATTRIBUTE_NAME_LOAD_STORE_CALL_ATTRIBUTE_NAME_LOAD_LOAD_": 958,
      "COMPARE_NAME_LOAD_EQ_NAME_LOAD_": 959,
      "EQ_ATTRIBUTE_ATTRIBUTE_NAME_LOAD_LOAD_LOAD_": 960,
      "CONSTANT_EXPR_CALL_ATTRIBUTE_NAME_LOAD_LOAD": 961,
      "IF_COMPARE_NAME_LOAD_IS_CONSTANT_RETURN_": 962,
      "CONSTANT_RETURN_CALL_NAME_LOAD_": 963,
      "ASSIGN_SUBSCRIPT_SUBSCRIPT_NAME_LOAD_CONSTANT_LOAD_": 964,
      "EXPR_CALL_ATTRIBUTE_NAME_LOAD_LOAD_CALL_NAME_LOAD_NAME_LOAD_": 965,
      "EXPR_CALL_ATTRIBUTE_NAME_LOAD_LOAD_NAME_LOAD_NAME_LOAD": 966,
      "CONSTANT_EXPR_CALL_NAME_LOAD_NAME_LOAD_": 967,
      "TUPLE_NAME_STORE_NAME_STORE_NAME_STORE_NAME_STORE_STORE_": 968,
      "NAME_LOAD_ASSIGN_NAME_STORE_CALL_ATTRIBUTE_ATTRIBUTE_NAME_LOAD_LOAD_LOAD_": 969,
      "MODULE_FUNCTIONDEF_ARGUMENTS_ARG_EXPR_CONSTANT_ASSIGN_NAME_STORE_CALL_ATTRIBUTE_ATTRIBUTE_NAME_LOAD_LOAD_LOAD_": 970,
      "IF_COMPARE_NAME_LOAD_NOTEQ_CONSTANT_": 971,
      "MODULE_FUNCTIONDEF_ARGUMENTS_ARG_ARG_ARG_ARG_ARG_CONSTANT_CONSTANT_CONSTANT_EXPR_": 972,
      "ASSIGN_TUPLE_NAME_STORE_NAME_STORE_STORE_CALL_ATTRIBUTE_NAME_LOAD_LOAD_": 973,
      "IS_CONSTANT_ASSIGN_NAME_STORE_": 974,
      "BITOR_": 975,
      "AUGASSIGN_NAME_STORE_ADD_CONSTANT_": 976,
      "TUPLE_CONSTANT_NAME_LOAD_LOAD_": 977,
      "COMPREHENSION_NAME_STORE_NAME_LOAD": 978,
      "ASSIGN_NAME_STORE_CALL_ATTRIBUTE_NAME_LOAD_LOAD_ASSIGN_NAME_STORE_": 979,
      "CALL_ATTRIBUTE_SUBSCRIPT_ATTRIBUTE_NAME_LOAD_LOAD_CONSTANT_LOAD_LOAD_": 980,
      "CONSTANT_ASSIGN_ATTRIBUTE_ATTRIBUTE_NAME_LOAD_LOAD_STORE_": 981,
      "ASSIGN_ATTRIBUTE_NAME_LOAD_STORE_NAME_LOAD_ASSIGN_ATTRIBUTE_NAME_LOAD_STORE_": 982,
      "SUBSCRIPT_ATTRIBUTE_ATTRIBUTE_NAME_LOAD_LOAD_LOAD_CONSTANT_LOAD_": 983,
      "MODULE_FUNCTIONDEF_ARGUMENTS_EXPR_CONSTANT_": 984,
      "COMPARE_ATTRIBUTE_NAME_LOAD_LOAD_ISNOT": 985,
      "CONSTANT_IF_BOOLOP_AND_NAME_LOAD_": 986,
      "CONSTANT_ASSIGN_NAME_STORE_CALL_ATTRIBUTE_ATTRIBUTE_NAME_LOAD_LOAD_LOAD_NAME_LOAD_": 987,
      "IF_UNARYOP_NOT_CALL_ATTRIBUTE_ATTRIBUTE_NAME_LOAD_LOAD_LOAD_NAME_LOAD_": 988,
      "IF_NAME_LOAD_RETURN_": 989,
      "KEYWORD_NAME_LOAD_RETURN_NAME_LOAD": 990,
      "IF_UNARYOP_NOT_CALL_ATTRIBUTE_NAME_LOAD_LOAD_": 991,
      "KEYWORD_SUBSCRIPT_ATTRIBUTE_NAME_LOAD_LOAD_CONSTANT_LOAD_": 992,
      "CONSTANT_CONSTANT_CONSTANT_CONSTANT_CONSTANT_CONSTANT_CONSTANT_CONSTANT_CONSTANT_CONSTANT_CONSTANT_CONSTANT_CONSTANT_CONSTANT_CONSTANT_CONSTANT_": 993,
      "EXPR_CALL_ATTRIBUTE_ATTRIBUTE_NAME_LOAD_LOAD_LOAD": 994,
      "CONSTANT_ASSIGN_NAME_STORE_LIST_LOAD_": 995,
      "NAME_LOAD_NAME_LOAD_NAME_LOAD_NAME_LOAD_NAME_LOAD_NAME_LOAD_": 996,
      "MODULE_FUNCTIONDEF_ARGUMENTS_ARG_EXPR_CONSTANT_IF_ATTRIBUTE_NAME_LOAD_LOAD_": 997,
      "CALL_NAME_LOAD_NAME_LOAD_NAME_LOAD": 998,
      "IF_COMPARE_CALL_NAME_LOAD_NAME_LOAD_GT_CONSTANT_": 999,
      "IF_UNARYOP_NOT_CALL_NAME_LOAD_NAME_LOAD_NAME_LOAD_": 1000,
      "TUPLE_NAME_LOAD_LOAD_": 1001,
      "SUBSCRIPT_CALL_ATTRIBUTE_NAME_LOAD_LOAD_NAME_LOAD_": 1002,
      "KEYWORD_CONSTANT_KEYWORD_DICT_CONSTANT_": 1003,
      "MODULE_FUNCTIONDEF_ARGUMENTS_ARG_EXPR_CONSTANT_EXPR_CALL_ATTRIBUTE_NAME_LOAD_LOAD_": 1004,
      "TRY_EXPR_CALL_ATTRIBUTE_NAME_LOAD_LOAD_NAME_LOAD_": 1005,
      "IF_BOOLOP_AND_COMPARE_NAME_LOAD_ISNOT_CONSTANT_": 1006,
      "CALL_NAME_LOAD_ATTRIBUTE_ATTRIBUTE_NAME_LOAD_LOAD_LOAD_": 1007,
      "CALL_ATTRIBUTE_NAME_LOAD_LOAD_NAME_LOAD_KEYWORD_": 1008,
      "IF_COMPARE_CONSTANT_NOTIN_NAME_LOAD_": 1009,
      "IS_NAME_LOAD_": 1010,
      "FOR_TUPLE_NAME_STORE_NAME_STORE_NAME_STORE_STORE_": 1011,
      "LIST_CONSTANT_CONSTANT_CONSTANT_CONSTANT_CONSTANT_": 1012,
      "RETURN_CALL_ATTRIBUTE_NAME_LOAD_LOAD_NAME_LOAD_NAME_LOAD_": 1013,
      "BINOP_BINOP_NAME_LOAD_ADD_CONSTANT_ADD_": 1014,
      "KEYWORD_CONSTANT_KEYWORD_NAME_LOAD_": 1015,
      "COMPARE_CALL_NAME_LOAD_NAME_LOAD_EQ_CONSTANT_": 1016,
      "ASSIGN_ATTRIBUTE_": 1017,
      "CONSTANT_FOR_NAME_STORE_": 1018,
      "ASSIGN_SUBSCRIPT_NAME_LOAD_CONSTANT_STORE_ATTRIBUTE_NAME_LOAD_LOAD_": 1019,
      "CALL_ATTRIBUTE_NAME_LOAD_LOAD_NAME_LOAD_LOAD_": 1020,
      "CONSTANT_EXPR_CALL_ATTRIBUTE_NAME_LOAD_LOAD_NAME_LOAD_": 1021,
      "NAME_LOAD_EXCEPTHANDLER_NAME_LOAD_": 1022,
      "NAME_LOAD_ASSIGN_NAME_STORE_CALL_ATTRIBUTE_NAME_LOAD_LOAD_NAME_LOAD_ASSIGN_NAME_STORE_CALL_ATTRIBUTE_NAME_LOAD_LOAD_": 1023,
      "EXPR_CALL_ATTRIBUTE_NAME_LOAD_LOAD_SUBSCRIPT_NAME_LOAD_CONSTANT_LOAD_": 1024,
      "BOOLOP_AND_NAME_LOAD_": 1025,
      "IF_COMPARE_NAME_LOAD_NOTEQ_NAME_LOAD_": 1026,
      "CALL_ATTRIBUTE_CALL_ATTRIBUTE_NAME_LOAD_LOAD_CONSTANT_": 1027,
      "COMPARE_NAME_LOAD_GTE_": 1028,
      "WITH_WITHITEM_CALL_ATTRIBUTE_NAME_LOAD_LOAD_": 1029,
      "ASSIGN_NAME_STORE_CALL_ATTRIBUTE_NAME_LOAD_LOAD_ATTRIBUTE_NAME_LOAD_LOAD_": 1030,
      "COMPARE_ATTRIBUTE_NAME_LOAD_LOAD_EQ_ATTRIBUTE_NAME_LOAD_LOAD_": 1031,
      "MODULE_FUNCTIONDEF_ARGUMENTS_ARG_EXPR_CONSTANT_ASSIGN_NAME_STORE_LIST_LOAD_": 1032,
      "WITH_WITHITEM_CALL_NAME_LOAD_NAME_LOAD_": 1033,
      "SUBSCRIPT_CALL_ATTRIBUTE_NAME_LOAD_LOAD_CONSTANT_LOAD_": 1034,
      "_WITH_WITHITEM": 1035,
      "EXPR_CALL_ATTRIBUTE_SUBSCRIPT_NAME_LOAD_NAME_LOAD_LOAD_LOAD_": 1036,
      "KEYWORD_CALL_ATTRIBUTE_NAME_LOAD_LOAD_CONSTANT_": 1037,
      "RAISE_CALL_NAME_LOAD_BINOP_CONSTANT_MOD_NAME_LOAD_": 1038,
      "ASSIGN_NAME_STORE_CALL_ATTRIBUTE_NAME_LOAD_LOAD_CONSTANT_": 1039,
      "BAL": 1040,
      "GLO": 1041,
      "RETURN_CALL_NAME_LOAD_NAME_LOAD_NAME_LOAD_": 1042,
      "IF_COMPARE_NAME_LOAD_GTE_": 1043,
      "GLOBAL": 1044,
      "YIELD": 1045,
      "CONSTANT_ASSIGN_NAME_STORE_DICT_": 1046,
      "NAME_LOAD_ASSIGN_NAME_STORE_CALL_ATTRIBUTE_ATTRIBUTE_NAME_LOAD_LOAD_LOAD_NAME_LOAD_": 1047,
      "ATTRIBUTE_NAME_LOAD_LOAD_ASSIGN_NAME_STORE_ATTRIBUTE_NAME_LOAD_LOAD_": 1048,
      "MODULE_FUNCTIONDEF_ARGUMENTS_ARG_ARG_EXPR_CONSTANT_ASSIGN_NAME_STORE_CALL_NAME_LOAD_NAME_LOAD_": 1049,
      "EXPR_CALL_ATTRIBUTE_NAME_LOAD_LOAD_CALL_ATTRIBUTE_NAME_LOAD_LOAD_NAME_LOAD_": 1050,
      "MODULE_FUNCTIONDEF_ARGUMENTS_ARG_EXPR_CONSTANT_IF_UNARYOP_NOT_ATTRIBUTE_NAME_LOAD_LOAD_": 1051,
      "DELETE_SUBSCRIPT_ATTRIBUTE_NAME_LOAD_LOAD_": 1052,
      "IF_COMPARE_NAME_LOAD_ISNOT_CONSTANT_ASSIGN_SUBSCRIPT_NAME_LOAD_CONSTANT_STORE_CALL_ATTRIBUTE_ATTRIBUTE_NAME_LOAD_LOAD_LOAD_CONSTANT_NAME_LOAD_": 1053,
      "STORE_NAME_LOAD_": 1054,
      "SUBSCRIPT_SUBSCRIPT_SUBSCRIPT_NAME_LOAD_CONSTANT_LOAD_CONSTANT_LOAD_": 1055,
      "SUBSCRIPT_NAME_LOAD_CONSTANT_LOAD_ASSIGN_NAME_STORE_SUBSCRIPT_NAME_LOAD_CONSTANT_LOAD_": 1056,
      "YIELDFROM": 1057,
      "DICT_CONSTANT_CONSTANT_NAME_LOAD_": 1058,
      "CALL_ATTRIBUTE_CALL_ATTRIBUTE_NAME_LOAD_LOAD_CONSTANT_LOAD_": 1059,
      "CALL_ATTRIBUTE_ATTRIBUTE_NAME_LOAD_LOAD_LOAD_CONSTANT_CONSTANT_": 1060,
      "ASSIGN_NAME_STORE_CALL_ATTRIBUTE_ATTRIBUTE_NAME_LOAD_LOAD_LOAD_NAME_LOAD_": 1061,
      "ASSIGN_SUBSCRIPT_NAME_LOAD_ATTRIBUTE_NAME_LOAD_LOAD_STORE_": 1062,
      "COMPARE_ATTRIBUTE_NAME_LOAD_LOAD_EQ_NAME_LOAD_": 1063,
      "COMPARE_ATTRIBUTE_NAME_LOAD_LOAD_ISNOT_CONSTANT_": 1064,
      "IF_COMPARE_ATTRIBUTE_NAME_LOAD_LOAD_EQ_NAME_LOAD_": 1065,
      "TUPLE_CONSTANT_CONSTANT_LOAD_TUPLE_CONSTANT_CONSTANT_LOAD_": 1066,
      "CALL_NAME_LOAD_NAME_LOAD_RETURN_NAME_LOAD": 1067,
      "EXCEPTHANDLER_ATTRIBUTE_ATTRIBUTE_NAME_LOAD_LOAD_LOAD_": 1068,
      "NAME_LOAD_DEL_": 1069,
      "_WITH_WITHITEM_": 1070,
      "CONSTANT_IF_CALL_NAME_LOAD_NAME_LOAD_NAME_LOAD_": 1071,
      "MODULE_FUNCTIONDEF_ARGUMENTS_ARG_EXPR_CONSTANT_ASSIGN_ATTRIBUTE_NAME_LOAD_STORE_": 1072,
      "IFEXP_ATTRIBUTE_NAME_LOAD_LOAD_": 1073,
      "TUPLE_SUBSCRIPT_NAME_LOAD_CONSTANT_LOAD_": 1074,
      "NAME_LOAD_ASSIGN_NAME_STORE_NAME_LOAD_": 1075,
      "CONSTANT_IF_UNARYOP_NOT_ATTRIBUTE_NAME_LOAD_LOAD_": 1076,
      "TUPLE_NAME_LOAD_NAME_LOAD_NAME_LOAD_LOAD": 1077,
      "IF_BOOLOP_AND_ATTRIBUTE_NAME_LOAD_LOAD_": 1078,
      "MODULE_FUNCTIONDEF_ARGUMENTS_ARG_ARG_ARG_ARG_EXPR_CONSTANT_": 1079,
      "YIELDFROM_": 1080,
      "EXPR_YIELD_NAME_LOAD": 1081,
      "UNARYOP_NOT_CALL_ATTRIBUTE_NAME_LOAD_LOAD_": 1082,
      "MODULE_FUNCTIONDEF_ARGUMENTS_ARG_ARG_ARG_ARG_ARG_CONSTANT_CONSTANT_EXPR_": 1083,
      "COMPREHENSION_NAME_STORE_CALL_ATTRIBUTE_NAME_LOAD_LOAD_": 1084,
      "RAISE_CALL_NAME_LOAD_CONSTANT_RETURN_": 1085,
      "CALL_NAME_LOAD_ATTRIBUTE_NAME_LOAD_LOAD_CONSTANT_": 1086,
      "KEYWORD_NAME_LOAD_KEYWORD_ATTRIBUTE_NAME_LOAD_LOAD_": 1087,
      "SUBSCRIPT_SUBSCRIPT_ATTRIBUTE_NAME_LOAD_LOAD_CONSTANT_LOAD_CONSTANT_LOAD_": 1088,
      "ASSIGN_NAME_STORE_NAME_LOAD_": 1089,
      "MODULE_FUNCTIONDEF_ARGUMENTS_ARG_EXPR_CONSTANT_ASSIGN_NAME_STORE_DICT_": 1090,
      "MODULE_FUNCTIONDEF_ARGUMENTS_ARG_ARG_ARG_CONSTANT_EXPR_CONSTANT_IF_CALL_NAME_LOAD_NAME_LOAD_": 1091,
      "KEYWORD_LAMBDA_ARGUMENTS_ARG_": 1092,
      "LISTCOMP_CALL_ATTRIBUTE_NAME_LOAD_LOAD_NAME_LOAD_": 1093,
      "ASSIGN_SUBSCRIPT_SUBSCRIPT_NAME_LOAD_NAME_LOAD_LOAD_": 1094,
      "KEYWORD_NAME_LOAD_KEYWORD_NAME_LOAD_KEYWORD_NAME_LOAD": 1095,
      "SE": 1096,
      "ADD_NAME_LOAD_": 1097,
      "ASSIGN_TUPLE_": 1098,
      "COMPARE_ATTRIBUTE_NAME_LOAD_LOAD_IS_CONSTANT_": 1099,
      "DICT_LOAD_": 1100,
      "CALL_ATTRIBUTE_NAME_LOAD_LOAD_CONSTANT_CALL_ATTRIBUTE_NAME_LOAD_LOAD_CONSTANT_": 1101,
      "LIST_CONSTANT_CONSTANT_CONSTANT_CONSTANT_LOAD_": 1102,
      "IF_COMPARE_NAME_LOAD_ISNOT_": 1103,
      "IF_UNARYOP_NOT_NAME_LOAD_RETURN_": 1104,
      "BINOP_NAME_LOAD_SUB_CONSTANT_LOAD_": 1105,
      "BINOP_CONSTANT_MOD_TUPLE_NAME_LOAD_": 1106,
      "WITH_WITHITEM_ATTRIBUTE_NAME_LOAD_LOAD_": 1107,
      "IN_ATTRIBUTE_": 1108,
      "IF_COMPARE_SUBSCRIPT_NAME_LOAD_CONSTANT_LOAD_EQ_CONSTANT_": 1109,
      "MODULE_FUNCTIONDEF_ARGUMENTS_ARG_ARG_ARG_ARG_ARG_CONSTANT_EXPR_": 1110,
      "CALL_ATTRIBUTE_CONSTANT_LOAD_NAME_LOAD_ASSIGN_NAME_STORE_": 1111,
      "KEYWORD_CONSTANT_ASSIGN_NAME_STORE_CALL_ATTRIBUTE_NAME_LOAD_LOAD_": 1112,
      "LISTCOMP_SUBSCRIPT_NAME_LOAD_CONSTANT_LOAD_": 1113,
      "COMPARE_SUBSCRIPT_NAME_LOAD_CONSTANT_LOAD_EQ_CONSTANT_": 1114,
      "SUBSCRIPT_SUBSCRIPT_NAME_LOAD_NAME_LOAD_LOAD_NAME_LOAD_LOAD_": 1115,
      "COMPARE_CALL_NAME_LOAD_ATTRIBUTE_NAME_LOAD_LOAD_": 1116,
      "NOTEQ_CONSTANT_ASSIGN_NAME_STORE_": 1117,
      "CALL_NAME_LOAD_CALL_ATTRIBUTE_ATTRIBUTE_NAME_LOAD_LOAD_LOAD_": 1118,
      "CALL_ATTRIBUTE_CALL_NAME_LOAD_LOAD_": 1119,
      "COMPREHENSION_NAME_STORE_NAME_LOAD_RETURN_": 1120,
      "NAME_LOAD_NAME_LOAD_ASSIGN_NAME_STORE_": 1121,
      "RETURN_CALL_ATTRIBUTE_NAME_LOAD_LOAD_CONSTANT_": 1122,
      "_NAME_LOAD_CONSTANT_EXPR_": 1123,
      "EXCEPTHANDLER_NAME_LOAD_EXPR_CALL_ATTRIBUTE_NAME_LOAD_LOAD_CONSTANT_": 1124,
      "MODULE_FUNCTIONDEF_ARGUMENTS_ARG_NAME_LOAD_EXPR_": 1125,
      "MODULE_FUNCTIONDEF_ARGUMENTS_ARG_ARG_ARG_ARG_ARG_CONSTANT_CONSTANT_CONSTANT_CONSTANT_EXPR_": 1126,
      "MODULE_FUNCTIONDEF_ARGUMENTS_ARG_EXPR_CONSTANT_ASSIGN_NAME_STORE_CALL_NAME_LOAD_NAME_LOAD_": 1127,
      "MODULE_FUNCTIONDEF_ARGUMENTS_ARG_ARG_": 1128,
      "ASSIGN_ATTRIBUTE_NAME_LOAD_STORE_CALL_NAME_LOAD_": 1129,
      "IF_CALL_ATTRIBUTE_ATTRIBUTE_NAME_LOAD_LOAD_LOAD_": 1130,
      "BREAK_ASSIGN_NAME_STORE_": 1131,
      "BINOP_CONSTANT_MOD_ATTRIBUTE_NAME_LOAD_LOAD_": 1132,
      "IF_COMPARE_NAME_LOAD_NOTEQ_": 1133,
      "IF_BOOLOP_AND_CALL_NAME_LOAD_NAME_LOAD_CONSTANT_": 1134,
      "SET": 1135,
      "CONSTANT_RETURN_CONSTANT": 1136,
      "ERT": 1137,
      "EXCEPTHANDLER_TUPLE_NAME_LOAD_NAME_LOAD_LOAD_RAISE_CALL_NAME_LOAD_": 1138,
      "SUBSCRIPT_SUBSCRIPT_NAME_LOAD_CONSTANT_LOAD_NAME_LOAD_LOAD_": 1139,
      "CONSTANT_FOR_NAME_STORE_NAME_LOAD_": 1140,
      "IMPORT_ALIAS_ASSIGN_NAME_STORE_": 1141,
      "NAME_LOAD_EXPR_CALL_ATTRIBUTE_NAME_LOAD_LOAD_NAME_LOAD_": 1142,
      "IF_NAME_LOAD_EXPR_CALL_ATTRIBUTE_NAME_LOAD_LOAD_NAME_LOAD_": 1143,
      "KEYWORD_NAME_LOAD_EXPR_CALL_ATTRIBUTE_NAME_LOAD_LOAD_": 1144,
      "EXPR_CALL_ATTRIBUTE_NAME_LOAD_LOAD_CONSTANT_KEYWORD_CONSTANT_KEYWORD_CONSTANT_": 1145,
      "COMPARE_NAME_LOAD_NOTEQ_CONSTANT_": 1146,
      "TUPLE_NAME_LOAD_CONSTANT_LOAD_": 1147,
      "EXPR_CALL_ATTRIBUTE_ATTRIBUTE_NAME_LOAD_LOAD_LOAD_NAME_LOAD_NAME_LOAD_": 1148,
      "COMPARE_NAME_LOAD_IN_ATTRIBUTE_NAME_LOAD_LOAD_": 1149,
      "CALL_ATTRIBUTE_ATTRIBUTE_NAME_LOAD_LOAD_LOAD": 1150,
      "ASSIGN_ATTRIBUTE_NAME_LOAD_STORE_CONSTANT_": 1151,
      "CALL_ATTRIBUTE_NAME_LOAD_LOAD_CONSTANT_LOAD_": 1152,
      "ASSIGN_NAME_STORE_CALL_ATTRIBUTE_NAME_LOAD_LOAD_NAME_LOAD_ASSIGN_NAME_STORE_": 1153,
      "KEYWORD_CALL_NAME_LOAD_NAME_LOAD_": 1154,
      "RETURN_CALL_NAME_LOAD_NAME_LOAD_NAME_LOAD": 1155,
      "SUBSCRIPT_NAME_LOAD_SUBSCRIPT_NAME_LOAD_CONSTANT_LOAD_LOAD_": 1156,
      "FOR_NAME_STORE_SUBSCRIPT_NAME_LOAD_CONSTANT_LOAD_": 1157,
      "EXPR_CALL_NAME_LOAD_ATTRIBUTE_NAME_LOAD_LOAD_": 1158,
      "GT_ATTRIBUTE_NAME_LOAD_LOAD_": 1159,
      "IF_NAME_LOAD_ASSIGN_SUBSCRIPT_NAME_LOAD_CONSTANT_STORE_": 1160,
      "LIST_LOAD_LIST_LOAD_": 1161,
      "COMPARE_CALL_NAME_LOAD_NAME_LOAD_GT_CONSTANT_": 1162,
      "UNARYOP_USUB_CONSTANT_ASSIGN_NAME_STORE_": 1163,
      "IF_CALL_NAME_LOAD_NAME_LOAD_CONSTANT_EXPR_CALL_ATTRIBUTE_NAME_LOAD_LOAD": 1164,
      "COMPARE_SUBSCRIPT_ATTRIBUTE_NAME_LOAD_LOAD_CONSTANT_LOAD_": 1165,
      "FOR_NAME_STORE_CALL_NAME_LOAD_CONSTANT_": 1166,
      "COMPREHENSION_TUPLE_NAME_STORE_NAME_STORE_STORE_CALL_ATTRIBUTE_NAME_LOAD_LOAD_": 1167,
      "IF_COMPARE_ATTRIBUTE_NAME_LOAD_LOAD_EQ_": 1168,
      "RSHIFT": 1169,
      "CONSTANT_ASSIGN_NAME_STORE_CALL_ATTRIBUTE_NAME_LOAD_LOAD_NAME_LOAD_TRY_ASSIGN_NAME_STORE_CALL_NAME_LOAD_NAME_LOAD_": 1170,
      "IF_COMPARE_CALL_ATTRIBUTE_NAME_LOAD_LOAD_CONSTANT_": 1171,
      "DICT_CONSTANT_CONSTANT_CONSTANT_CONSTANT_CONSTANT_CONSTANT_ASSIGN_ATTRIBUTE_NAME_LOAD_STORE_NAME_LOAD_": 1172,
      "EXCEPTHANDLER_TUPLE_NAME_LOAD_NAME_LOAD_LOAD_RAISE_CALL_NAME_LOAD_DICT_CONSTANT_CONSTANT_CONSTANT_CONSTANT_CONSTANT_CONSTANT_ASSIGN_ATTRIBUTE_NAME_LOAD_STORE_NAME_LOAD_": 1173,
      "EXCEPTHANDLER_TUPLE_NAME_LOAD_NAME_LOAD_LOAD_RAISE_CALL_NAME_LOAD_DICT_CONSTANT_CONSTANT_CONSTANT_CONSTANT_CONSTANT_CONSTANT_ASSIGN_ATTRIBUTE_NAME_LOAD_STORE_NAME_LOAD_IF_CALL_NAME_LOAD_NAME_LOAD_CONSTANT_EXPR_CALL_ATTRIBUTE_NAME_LOAD_LOAD": 1174,
      "KEYWORD_CONSTANT_EXPR_CALL_ATTRIBUTE_NAME_LOAD_LOAD_": 1175,
      "MODULE_FUNCTIONDEF_ARGUMENTS_ARG_ARG_NAME_LOAD_ARG": 1176,
      "CONSTANT_IF_CALL_ATTRIBUTE_NAME_LOAD_LOAD_": 1177,
      "MODULE_FUNCTIONDEF_ARGUMENTS_ARG_ARG_ARG_CONSTANT_EXPR_CONSTANT_IF_CALL_NAME_LOAD_NAME_LOAD_CONSTANT_ASSIGN_NAME_STORE_CALL_ATTRIBUTE_NAME_LOAD_LOAD_NAME_LOAD_TRY_ASSIGN_NAME_STORE_CALL_NAME_LOAD_NAME_LOAD_": 1178,
      "CALL_ATTRIBUTE_NAME_LOAD_LOAD_SUBSCRIPT_NAME_LOAD_CONSTANT_LOAD_": 1179,
      "ATTRIBUTE_SUBSCRIPT_NAME_LOAD_NAME_LOAD_LOAD_LOAD_": 1180,
      "SUB_ATTRIBUTE_NAME_LOAD_LOAD_": 1181,
      "CALL_NAME_LOAD_NAME_LOAD_NAME_LOAD_ASSIGN_NAME_STORE_": 1182,
      "CONSTANT_ASSIGN_NAME_STORE_CALL_ATTRIBUTE_CONSTANT_LOAD_": 1183,
      "CALL_ATTRIBUTE_NAME_LOAD_LOAD_NAME_LOAD_RETURN_NAME_LOAD": 1184,
      "MODULE_FUNCTIONDEF_ARGUMENTS_ARG_ARG_EXPR_CONSTANT_ASSIGN_ATTRIBUTE_NAME_LOAD_STORE_": 1185,
      "CONSTANT_ASSIGN_NAME_STORE_ATTRIBUTE_NAME_LOAD_LOAD_": 1186,
      "ASSIGN_NAME_STORE_LIST_LOAD_": 1187,
      "CALL_ATTRIBUTE_NAME_LOAD_LOAD_NAME_LOAD_NAME_LOAD_NAME_LOAD_": 1188,
      "LT_ATTRIBUTE_NAME_LOAD_LOAD_": 1189,
      "FOR_NAME_STORE_ATTRIBUTE_NAME_LOAD_LOAD_ASSIGN_NAME_STORE_": 1190,
      "NAME_LOAD_NAME_LOAD_NAME_LOAD_NAME_LOAD_NAME_LOAD_": 1191,
      "IF_COMPARE_SUBSCRIPT_ATTRIBUTE_NAME_LOAD_LOAD_CONSTANT_LOAD_": 1192,
      "FOR_NAME_STORE_NAME_LOAD_EXPR_CALL_ATTRIBUTE_NAME_LOAD_LOAD_": 1193,
      "ASSIGN_TUPLE_NAME_STORE_NAME_STORE_STORE_CALL_ATTRIBUTE_NAME_LOAD_LOAD_NAME_LOAD_": 1194,
      "CONSTANT_LOAD_CONSTANT_LOAD_": 1195,
      "TUPLE_ATTRIBUTE_NAME_LOAD_LOAD_NAME_LOAD_LOAD_": 1196,
      "CALL_ATTRIBUTE_SUBSCRIPT_ATTRIBUTE_NAME_LOAD_LOAD_NAME_LOAD_LOAD_LOAD_": 1197,
      "IF_CALL_NAME_LOAD_NAME_LOAD_ATTRIBUTE_NAME_LOAD_LOAD_": 1198,
      "CALL_NAME_LOAD_NAME_LOAD_NAME_LOAD_NAME_LOAD_NAME_LOAD_": 1199,
      "MODULE_FUNCTIONDEF_ARGUMENTS_ARG_ARG_ARG_ARG_ARG_ARG_EXPR_": 1200,
      "CALL_ATTRIBUTE_CALL_ATTRIBUTE_ATTRIBUTE_NAME_LOAD_LOAD_LOAD_LOAD_": 1201,
      "ASSIGN_ATTRIBUTE_NAME_LOAD_STORE_NAME_LOAD": 1202,
      "RETURN_NAME_LOAD_ASSIGN_NAME_STORE_": 1203,
      "IF_COMPARE_SUBSCRIPT_NAME_LOAD_NAME_LOAD_LOAD_": 1204,
      "FOR_NAME_STORE_CALL_ATTRIBUTE_NAME_LOAD_LOAD_NAME_LOAD_": 1205,
      "LIST_ATTRIBUTE_NAME_LOAD_LOAD_LOAD_": 1206,
      "FLO": 1207,
      "NAME_LOAD_ASSIGN_ATTRIBUTE_NAME_LOAD_STORE_NAME_LOAD_ASSIGN_ATTRIBUTE_NAME_LOAD_STORE_": 1208,
      "FLOOR": 1209,
      "KEYWORD_NAME_LOAD_ASSIGN_NAME_STORE_CALL_ATTRIBUTE_NAME_LOAD_LOAD_": 1210,
      "CALL_ATTRIBUTE_NAME_LOAD_LOAD_NAME_LOAD_NAME_LOAD": 1211,
      "SUBSCRIPT_ATTRIBUTE_NAME_LOAD_LOAD_UNARYOP_USUB_CONSTANT_LOAD_": 1212,
      "COMPARE_NAME_LOAD_ISNOT": 1213,
      "TRY_ASSIGN_NAME_STORE_CALL_NAME_LOAD_": 1214,
      "EXPR_CALL_NAME_LOAD_CALL_ATTRIBUTE_CONSTANT_LOAD_NAME_LOAD_": 1215,
      "IF_COMPARE_ATTRIBUTE_NAME_LOAD_LOAD_NOTEQ_CONSTANT_": 1216,
      "COMPARE_ATTRIBUTE_NAME_LOAD_LOAD_EQ_": 1217,
      "FOR_NAME_STORE_NAME_LOAD_ASSIGN_NAME_STORE_CALL_ATTRIBUTE_NAME_LOAD_LOAD_": 1218,
      "MODULE_FUNCTIONDEF_ARGUMENTS_ARG_EXPR_CONSTANT_IF_UNARYOP_NOT_": 1219,
      "COMPARE_NAME_LOAD_NOTIN_NAME_LOAD_": 1220,
      "KEYWORD_CONSTANT_KEYWORD_CONSTANT_KEYWORD_CONSTANT_KEYWORD_CONSTANT_EXCEPTHANDLER_TUPLE_NAME_LOAD_NAME_LOAD_LOAD_RAISE_CALL_NAME_LOAD_DICT_CONSTANT_CONSTANT_CONSTANT_CONSTANT_CONSTANT_CONSTANT_ASSIGN_ATTRIBUTE_NAME_LOAD_STORE_NAME_LOAD_IF_CALL_NAME_LOAD_NAME_LOAD_CONSTANT_EXPR_CALL_ATTRIBUTE_NAME_LOAD_LOAD": 1221,
      "IF_UNARYOP_NOT_CALL_ATTRIBUTE_NAME_LOAD_LOAD_NAME_LOAD_": 1222,
      "KEYWORD_NAME_LOAD_RETURN_": 1223,
      "NAME_LOAD_NAME_LOAD_NAME_LOAD": 1224,
      "SUBSCRIPT_NAME_LOAD_CONSTANT_LOAD_ASSIGN_NAME_STORE_SUBSCRIPT_NAME_LOAD_CONSTANT_LOAD_ASSIGN_NAME_STORE_": 1225,
      "TUPLE_NAME_LOAD_NAME_LOAD_LOAD_ASSIGN_NAME_STORE_": 1226,
      "KEYWORD_NAME_LOAD_LOAD_": 1227,
      "IF_COMPARE_CALL_NAME_LOAD_NAME_LOAD_NOTEQ_CONSTANT_": 1228,
      "EXPR_CALL_ATTRIBUTE_NAME_LOAD_LOAD_CONSTANT": 1229,
      "SUBSCRIPT_NAME_LOAD_TUPLE_NAME_LOAD_NAME_LOAD_LOAD_LOAD_": 1230,
      "ATTRIBUTE_ATTRIBUTE_NAME_LOAD_LOAD_LOAD": 1231,
      "NAME_LOAD_RETURN_CONSTANT": 1232,
      "WITH_WITHITEM_CALL_NAME_LOAD_NAME_LOAD_NAME_STORE_": 1233,
      "SLICE_CONSTANT_LOAD_": 1234,
      "BINOP_NAME_LOAD_DIV_NAME_LOAD_": 1235,
      "GENERATOREXP_NAME_LOAD_": 1236,
      "SUBSCRIPT_SUBSCRIPT_ATTRIBUTE_NAME_LOAD_LOAD_NAME_LOAD_LOAD_CONSTANT_LOAD_": 1237,
      "IF_COMPARE_NAME_LOAD_LT_CONSTANT_": 1238,
      "CALL_ATTRIBUTE_ATTRIBUTE_NAME_LOAD_LOAD_LOAD_NAME_LOAD_CONSTANT_": 1239,
      "IF_ATTRIBUTE_NAME_LOAD_LOAD_EXPR_CALL_ATTRIBUTE_NAME_LOAD_LOAD_": 1240,
      "MODULE_FUNCTIONDEF_ARGUMENTS_ARG_NAME_LOAD_ARG": 1241,
      "IF_BOOLOP_AND_UNARYOP_NOT_NAME_LOAD_": 1242,
      "SUBSCRIPT_NAME_LOAD_SLICE_NAME_LOAD_": 1243,
      "CALL_NAME_LOAD": 1244,
      "IF_COMPARE_CALL_NAME_LOAD_": 1245,
      "KEYWORD_NAME_LOAD_KEYWORD_ATTRIBUTE_NAME_LOAD_LOAD_KEYWORD_ATTRIBUTE_NAME_LOAD_LOAD_KEYWORD_CONSTANT_KEYWORD_DICT_CONSTANT_": 1246,
      "FOR_TUPLE_NAME_STORE_NAME_STORE_STORE_NAME_LOAD_": 1247,
      "CONSTANT_ASSIGN_TUPLE_NAME_STORE_NAME_STORE_STORE_CALL_ATTRIBUTE_NAME_LOAD_LOAD_": 1248,
      "ASSIGN_SUBSCRIPT_SUBSCRIPT_NAME_LOAD_CONSTANT_LOAD_CONSTANT_STORE_": 1249,
      "MODULE_FUNCTIONDEF_ARGUMENTS_ARG_ARG_CONSTANT_CONSTANT_EXPR_": 1250,
      "ASSIGN_SUBSCRIPT_": 1251,
      "TRY_WITH_WITHITEM_": 1252,
      "SUBSCRIPT_NAME_LOAD_CONSTANT_LOAD_STORE_": 1253,
      "UNARYOP_NOT_CALL_NAME_LOAD_NAME_LOAD_NAME_LOAD_": 1254,
      "ATTRIBUTE_NAME_LOAD_STORE_ATTRIBUTE_NAME_LOAD_STORE_": 1255,
      "ASSIGN_NAME_STORE_CALL_ATTRIBUTE_NAME_LOAD_LOAD_ASSIGN_NAME_STORE_CALL_ATTRIBUTE_NAME_LOAD_LOAD_": 1256,
      "LIST_CONSTANT_CONSTANT_CONSTANT_CONSTANT_CONSTANT_LOAD_": 1257,
      "KEYWORD_ATTRIBUTE_NAME_LOAD_LOAD_KEYWORD_ATTRIBUTE_NAME_LOAD_LOAD_KEYWORD_ATTRIBUTE_NAME_LOAD_LOAD_KEYWORD_ATTRIBUTE_NAME_LOAD_LOAD_": 1258,
      "BINOP_CONSTANT_ADD_CALL_NAME_LOAD_NAME_LOAD_": 1259,
      "IF_COMPARE_NAME_LOAD_EQ_CONSTANT_RETURN_": 1260,
      "COMPARE_CONSTANT_IN_ATTRIBUTE_NAME_LOAD_LOAD_": 1261,
      "BINOP_ATTRIBUTE_ATTRIBUTE_NAME_LOAD_LOAD_LOAD_": 1262,
      "MODULE_FUNCTIONDEF_ARGUMENTS_ARG_ARG_ARG_CONSTANT_CONSTANT_EXPR_CONSTANT_": 1263,
      "SUBSCRIPT_NAME_LOAD_TUPLE_NAME_LOAD_": 1264,
      "CONSTANT_ATTRIBUTE_NAME_LOAD_LOAD_LOAD_": 1265,
      "CALL_ATTRIBUTE_ATTRIBUTE_ATTRIBUTE_ATTRIBUTE_NAME_LOAD_LOAD_LOAD_LOAD_LOAD_": 1266,
      "TUPLE_LOAD_": 1267,
      "BINOP_BINOP_ATTRIBUTE_NAME_LOAD_LOAD_ADD_": 1268,
      "COMPARE_SUBSCRIPT_NAME_LOAD_NAME_LOAD_LOAD_": 1269,
      "ATTRIBUTE_NAME_LOAD_LOAD_ASSIGN_NAME_STORE_CALL_NAME_LOAD_": 1270,
      "DICT_CONSTANT_CONSTANT_CONSTANT_CONSTANT_CONSTANT_CONSTANT_": 1271,
      "CONSTANT_ASSIGN_NAME_STORE_IFEXP_": 1272,
      "IF_COMPARE_CALL_NAME_LOAD_NAME_LOAD_EQ_": 1273,
      "TRY_ASSIGN_TUPLE_NAME_STORE_NAME_STORE_STORE_": 1274,
      "SUBSCRIPT_CALL_ATTRIBUTE_ATTRIBUTE_NAME_LOAD_LOAD_LOAD_": 1275,
      "LTE_NAME_LOAD_": 1276,
      "NAME_LOAD_RETURN_NAME_LOAD_": 1277,
      "CONSTANT_ATTRIBUTE_NAME_LOAD_LOAD_ATTRIBUTE_NAME_LOAD_LOAD_": 1278,
      "ASSIGN_ATTRIBUTE_NAME_LOAD_STORE_CONSTANT_ASSIGN_ATTRIBUTE_NAME_LOAD_STORE_": 1279,
      "MODULE_FUNCTIONDEF_ARGUMENTS_ARG_EXPR_CONSTANT_IF_BOOLOP_AND_": 1280,
      "CONSTANT_UNARYOP_USUB_CONSTANT_LOAD_": 1281,
      "LIST_CONSTANT_CONSTANT_CONSTANT_": 1282,
      "LISTCOMP_CALL_NAME_LOAD_NAME_LOAD_COMPREHENSION_NAME_STORE_": 1283,
      "CONSTANT_CONSTANT_EXPR_": 1284,
      "IF_COMPARE_CALL_NAME_LOAD_NAME_LOAD_EQ_CONSTANT_ASSIGN_NAME_STORE_": 1285,
      "ASSIGN_NAME_STORE_CALL_ATTRIBUTE_CONSTANT_LOAD_": 1286,
      "EXPR_CALL_ATTRIBUTE_NAME_LOAD_LOAD_CONSTANT_RETURN_": 1287,
      "CALL_ATTRIBUTE_NAME_LOAD_LOAD_NAME_LOAD_CALL_ATTRIBUTE_NAME_LOAD_LOAD_NAME_LOAD_": 1288,
      "MODULE_FUNCTIONDEF_ARGUMENTS_ARG_ARG_EXPR_CONSTANT_IF_UNARYOP_NOT_": 1289,
      "EXPR_CALL_ATTRIBUTE_ATTRIBUTE_NAME_LOAD_LOAD_LOAD_EXPR_CALL_ATTRIBUTE_ATTRIBUTE_NAME_LOAD_LOAD_LOAD_": 1290,
      "CONSTANT_AUGASSIGN_NAME_STORE_": 1291,
      "NAME_LOAD_ADD_CONSTANT_ADD_": 1292,
      "CONSTANT_ASSIGN_NAME_STORE_CALL_ATTRIBUTE_NAME_LOAD_LOAD_CONSTANT_CONSTANT_": 1293,
      "SUB_CONSTANT_ASSIGN_NAME_STORE_": 1294,
      "MODULE_FUNCTIONDEF_ARGUMENTS_EXPR_CONSTANT_ASSIGN_NAME_STORE_": 1295,
      "ASSIGN_ATTRIBUTE_NAME_LOAD_STORE_CONSTANT": 1296,
      "SUBSCRIPT_NAME_LOAD_CONSTANT_LOAD_RETURN_NAME_LOAD": 1297,
      "SUBSCRIPT_CALL_ATTRIBUTE_NAME_LOAD_LOAD_CONSTANT_CONSTANT_LOAD_": 1298,
      "KEYWORD_CONSTANT_LOAD_": 1299,
      "COMPARE_NAME_LOAD_GT_CONSTANT_": 1300,
      "SUBSCRIPT_SUBSCRIPT_NAME_LOAD_CONSTANT_LOAD_CONSTANT_LOAD_ASSIGN_NAME_STORE_": 1301,
      "EXPR_CALL_ATTRIBUTE_NAME_LOAD_LOAD_CALL_ATTRIBUTE_CONSTANT_LOAD_NAME_LOAD_NAME_LOAD_": 1302,
      "UNARYOP_NOT_ATTRIBUTE_ATTRIBUTE_NAME_LOAD_LOAD_LOAD_": 1303,
      "ATTRIBUTE_SUBSCRIPT_ATTRIBUTE_NAME_LOAD_LOAD_CONSTANT_LOAD_LOAD_": 1304,
      "NAME_LOAD_ASSIGN_NAME_STORE_CALL_NAME_LOAD_NAME_LOAD_NAME_LOAD_": 1305,
      "EXCEPTHANDLER_NAME_LOAD_RAISE_CALL_NAME_LOAD_": 1306,
      "BINOP_ATTRIBUTE_NAME_LOAD_LOAD_ADD_CONSTANT_": 1307,
      "MODULE_FUNCTIONDEF_ARGUMENTS_ARG_ARG_EXPR_CONSTANT_IF_BOOLOP_AND_": 1308,
      "NAME_LOAD_NAME_LOAD_NAME_LOAD_NAME_LOAD_NAME_LOAD_NAME_LOAD_NAME_LOAD_NAME_LOAD_": 1309,
      "CONSTANT_EXPR_CALL_ATTRIBUTE_NAME_LOAD_LOAD_NAME_LOAD_NAME_LOAD_": 1310,
      "MODULE_FUNCTIONDEF_ARGUMENTS_EXPR_CONSTANT_ASSIGN_NAME_STORE_CALL_NAME_LOAD_": 1311,
      "RETURN_CALL_ATTRIBUTE_NAME_LOAD_LOAD_NAME_LOAD_NAME_LOAD": 1312,
      "EXPR_CALL_NAME_LOAD_NAME_LOAD": 1313,
      "IF_COMPARE_CALL_NAME_LOAD_NAME_LOAD_GT_CONSTANT_ASSIGN_NAME_STORE_": 1314,
      "SLICE_LOAD_LOAD_": 1315,
      "EXPR_YIELD_NAME_LOAD_": 1316,
      "COMPARE_ATTRIBUTE_NAME_LOAD_LOAD_ISNOT_CONSTANT_ASSIGN_SUBSCRIPT_NAME_LOAD_CONSTANT_STORE_": 1317,
      "EXCEPTHANDLER_NAME_LOAD_RETURN_": 1318,
      "CALL_NAME_LOAD_NAME_LOAD_RETURN_": 1319,
      "ASSIGN_NAME_STORE_CONSTANT_ASSIGN_NAME_STORE_": 1320,
      "MODULE_FUNCTIONDEF_ARGUMENTS_ARG_ARG_EXPR_CONSTANT_IF_CALL_NAME_LOAD_NAME_LOAD_": 1321,
      "KEYWORD_NAME_LOAD_KEYWORD_CONSTANT_KEYWORD_CONSTANT_": 1322,
      "IF_COMPARE_NAME_LOAD_GT_NAME_LOAD_": 1323,
      "IF_BOOLOP_AND_CALL_NAME_LOAD_NAME_LOAD_CONSTANT_COMPARE_ATTRIBUTE_NAME_LOAD_LOAD_ISNOT_CONSTANT_ASSIGN_SUBSCRIPT_NAME_LOAD_CONSTANT_STORE_": 1324,
      "TRY_ASSIGN_NAME_STORE_CALL_ATTRIBUTE_ATTRIBUTE_NAME_LOAD_LOAD_LOAD_": 1325,
      "CONSTANT_IF_COMPARE_NAME_LOAD_EQ_CONSTANT_ASSIGN_NAME_STORE_": 1326,
      "CALL_NAME_LOAD_ATTRIBUTE_NAME_LOAD_LOAD_LOAD_": 1327,
      "LIST_CONSTANT_CONSTANT_LOAD_ASSIGN_NAME_STORE_": 1328,
      "LT_CONSTANT_ASSIGN_NAME_STORE_": 1329,
      "MODULE_FUNCTIONDEF_ARGUMENTS_ARG_EXPR_CONSTANT_IF_CALL_NAME_LOAD_NAME_LOAD_": 1330,
      "IF_COMPARE_ATTRIBUTE_NAME_LOAD_LOAD_IN_": 1331,
      "EXPR_CALL_ATTRIBUTE_NAME_LOAD_LOAD_CONSTANT_ASSIGN_NAME_STORE_": 1332,
      "ATTRIBUTE_NAME_LOAD_LOAD_ASSIGN_NAME_STORE_CALL_NAME_LOAD_NAME_LOAD_": 1333,
      "CONSTANT_ASSIGN_SUBSCRIPT_ATTRIBUTE_NAME_LOAD_LOAD_NAME_LOAD_STORE_": 1334,
      "NAME_LOAD_DEL": 1335,
      "EXPR_CALL_ATTRIBUTE_SUBSCRIPT_ATTRIBUTE_NAME_LOAD_LOAD_NAME_LOAD_LOAD_LOAD_": 1336,
      "MODULE_FUNCTIONDEF_ARGUMENTS_ARG_ARG_EXPR_CONSTANT_ASSERT_": 1337,
      "LSHIFT": 1338,
      "CALL_ATTRIBUTE_ATTRIBUTE_": 1339,
      "ASSIGN_SUBSCRIPT_NAME_LOAD_CONSTANT_STORE_NAME_LOAD_ASSIGN_SUBSCRIPT_NAME_LOAD_CONSTANT_STORE_NAME_LOAD_": 1340,
      "_CONSTANT_CONSTANT_CONSTANT_CONSTANT_CONSTANT_CONSTANT_EXPR_": 1341,
      "IS_": 1342,
      "ASSIGN_SUBSCRIPT_NAME_LOAD_NAME_LOAD_STORE_NAME_LOAD_RETURN_NAME_LOAD": 1343,
      "LIST_LOAD_ASSIGN_NAME_STORE_LIST_LOAD_": 1344,
      "NAME_LOAD_ASSIGN_SUBSCRIPT_NAME_LOAD_CONSTANT_STORE_": 1345,
      "CALL_NAME_LOAD_NAME_LOAD_ADD_": 1346,
      "CALL_NAME_LOAD_CONSTANT_CONSTANT_": 1347,
      "IF_NAME_LOAD_AUGASSIGN_NAME_STORE_ADD_": 1348,
      "ATTRIBUTE_NAME_LOAD_LOAD_ASSIGN_ATTRIBUTE_NAME_LOAD_STORE_ATTRIBUTE_NAME_LOAD_LOAD_ASSIGN_ATTRIBUTE_NAME_LOAD_STORE_": 1349,
      "KEYWORD_CONSTANT_EXPR_CALL_ATTRIBUTE_NAME_LOAD_LOAD_CONSTANT_": 1350,
      "BITOR_ATTRIBUTE_NAME_LOAD_LOAD_": 1351,
      "BINOP_CALL_NAME_LOAD_ATTRIBUTE_NAME_LOAD_LOAD_": 1352,
      "COMPARE_NAME_LOAD_LT_CONSTANT_": 1353,
      "CALL_NAME_LOAD_NAME_LOAD_ASSIGN_NAME_STORE_CALL_ATTRIBUTE_NAME_LOAD_LOAD_NAME_LOAD_": 1354,
      "TUPLE_NAME_LOAD_ATTRIBUTE_NAME_LOAD_LOAD_LOAD_": 1355,
      "CONSTANT_CONSTANT_ASSIGN_NAME_STORE_": 1356,
      "BINOP_NAME_LOAD_DIV_": 1357,
      "CALL_ATTRIBUTE_SUBSCRIPT_": 1358,
      "DICT_ASSIGN_SUBSCRIPT_NAME_LOAD_CONSTANT_STORE_": 1359,
      "IF_CALL_NAME_LOAD_": 1360,
      "BINOP_NAME_LOAD_ADD_CONSTANT_ASSIGN_NAME_STORE_": 1361,
      "MODULE_FUNCTIONDEF_ARGUMENTS_ARG_ARG_ARG_CONSTANT_CONSTANT_EXPR_CONSTANT_ASSIGN_NAME_STORE_": 1362,
      "IF_COMPARE_NAME_LOAD_LTE_": 1363,
      "CONSTANT_IF_UNARYOP_NOT_CALL_NAME_LOAD_NAME_LOAD_NAME_LOAD_RAISE_CALL_NAME_LOAD_": 1364,
      "IF_NAME_LOAD_ASSIGN_SUBSCRIPT_NAME_LOAD_CONSTANT_STORE_NAME_LOAD_": 1365,
      "RAISE_NAME_LOAD_": 1366,
      "BINOP_CALL_NAME_LOAD_NAME_LOAD_ADD_": 1367,
      "CALL_ATTRIBUTE_ATTRIBUTE_NAME_LOAD_LOAD_LOAD_NAME_LOAD": 1368,
      "SUBSCRIPT_NAME_LOAD_CONSTANT_LOAD_ASSIGN_NAME_STORE_CALL_NAME_LOAD_": 1369,
      "SUBSCRIPT_SUBSCRIPT_NAME_LOAD_CONSTANT_LOAD_CONSTANT_LOAD_LOAD_": 1370,
      "IF_COMPARE_ATTRIBUTE_NAME_LOAD_LOAD_ISNOT_CONSTANT_ASSIGN_NAME_STORE_": 1371,
      "CALL_ATTRIBUTE_CONSTANT_LOAD_NAME_LOAD": 1372,
      "ASSIGN_NAME_STORE_CALL_NAME_LOAD_NAME_LOAD_NAME_LOAD_": 1373,
      "UNARYOP_IN": 1374,
      "UNARYOP_INV": 1375,
      "IF_COMPARE_NAME_LOAD_GT_CONSTANT_": 1376,
      "_CONSTANT_EXPR_CALL_NAME_LOAD_": 1377,
      "MODULE_FUNCTIONDEF_ARGUMENTS_ARG_ARG_EXPR_CONSTANT_EXPR_CALL_ATTRIBUTE_NAME_LOAD_LOAD_": 1378,
      "IF_COMPARE_SUBSCRIPT_NAME_LOAD_CONSTANT_LOAD_EQ_CONSTANT_ASSIGN_NAME_STORE_": 1379,
      "IF_BOOLOP_AND_COMPARE_NAME_LOAD_EQ_CONSTANT_": 1380,
      "MODULE_FUNCTIONDEF_ARGUMENTS_ARG_ARG_ARG_EXPR_CONSTANT_RETURN_": 1381,
      "MODULE_FUNCTIONDEF_ARGUMENTS_ARG_EXPR_CONSTANT_ASSIGN_TUPLE_NAME_STORE_NAME_STORE_STORE_": 1382,
      "RETURN_NAME_LOAD_RETURN_CONSTANT": 1383,
      "IF_BOOLOP_OR_COMPARE_NAME_LOAD_IS_CONSTANT_": 1384,
      "CONSTANT_EXPR_CALL_ATTRIBUTE_NAME_LOAD_LOAD_CONSTANT_": 1385,
      "SUBSCRIPT_ATTRIBUTE_NAME_LOAD_LOAD_CONSTANT_LOAD": 1386,
      "CALL_ATTRIBUTE_NAME_LOAD_LOAD_NAME_LOAD_KEYWORD_CONSTANT_": 1387,
      "MODULE_FUNCTIONDEF_ARGUMENTS_ARG_ARG_EXPR_CONSTANT_ASSIGN_TUPLE_NAME_STORE_NAME_STORE_STORE_": 1388,
      "MODULE_FUNCTIONDEF_ARGUMENTS_ARG_ARG_CONSTANT_EXPR_CONSTANT_ASSIGN_NAME_STORE_CALL_ATTRIBUTE_NAME_LOAD_LOAD_": 1389,
      "IN_ATTRIBUTE_ATTRIBUTE_NAME_LOAD_LOAD_LOAD_": 1390,
      "MODULE_FUNCTIONDEF_ARGUMENTS_ARG_ARG_CONSTANT_EXPR_CONSTANT_IF_COMPARE_NAME_LOAD_IS_CONSTANT_ASSIGN_NAME_STORE_": 1391,
      "CONSTANT_IF_NAME_LOAD_ASSIGN_NAME_STORE_": 1392,
      "CALL_ATTRIBUTE_CONSTANT_LOAD_GENERATOREXP_": 1393,
      "FOR_TUPLE_NAME_STORE_NAME_STORE_STORE_CALL_NAME_LOAD_ATTRIBUTE_NAME_LOAD_LOAD_": 1394,
      "FOR_NAME_STORE_CALL_NAME_LOAD_CALL_NAME_LOAD_NAME_LOAD_": 1395,
      "IF_COMPARE_ATTRIBUTE_NAME_LOAD_LOAD_ISNOT_CONSTANT_ASSIGN_SUBSCRIPT_NAME_LOAD_CONSTANT_STORE_": 1396,
      "CONSTANT_CONSTANT_CONSTANT_EXPR_": 1397,
      "NAME_LOAD_ASSIGN_NAME_STORE_ATTRIBUTE_NAME_LOAD_LOAD_": 1398,
      "COMPARE_CONSTANT_NOTIN_NAME_LOAD_": 1399,
      "EXPR_CALL_ATTRIBUTE_NAME_LOAD_LOAD_CALL_ATTRIBUTE_CONSTANT_LOAD_ATTRIBUTE_NAME_LOAD_LOAD_": 1400,
      "ASSIGN_NAME_STORE_SUBSCRIPT_ATTRIBUTE_NAME_LOAD_LOAD_NAME_LOAD_LOAD_": 1401,
      "RETURN_TUPLE_NAME_LOAD_": 1402,
      "TUPLE_CONSTANT_CONSTANT_": 1403,
      "IF_COMPARE_NAME_LOAD_LT_NAME_LOAD_": 1404,
      "KEYWORD_NAME_LOAD_KEYWORD_NAME_LOAD_KEYWORD_": 1405,
      "ATTRIBUTE_NAME_LOAD_LOAD_CONSTANT_": 1406,
      "GLOBAL_": 1407,
      "LIST_LOAD": 1408,
      "IF_COMPARE_NAME_LOAD_IN_NAME_LOAD_ASSIGN_NAME_STORE_": 1409,
      "COMPARE_CALL_ATTRIBUTE_NAME_LOAD_LOAD_CONSTANT_": 1410,
      "TRY_ASSIGN_ATTRIBUTE_NAME_LOAD_STORE_": 1411,
      "SUBSCRIPT_ATTRIBUTE_ATTRIBUTE_NAME_LOAD_LOAD_LOAD_NAME_LOAD_LOAD_": 1412,
      "IF_NAME_LOAD_EXPR_CALL_ATTRIBUTE_NAME_LOAD_LOAD_CONSTANT_": 1413,
      "MODULE_FUNCTIONDEF_ARGUMENTS_ARG_ARG_EXPR_CONSTANT_ASSIGN_NAME_STORE_CALL_ATTRIBUTE_ATTRIBUTE_NAME_LOAD_LOAD_LOAD_": 1414,
      "NAME_LOAD_AUGASSIGN_NAME_STORE_ADD_": 1415,
      "EXPR_CALL_ATTRIBUTE_NAME_LOAD_LOAD_BINOP_CONSTANT_MOD_NAME_LOAD_": 1416,
      "UNARYOP_NOT_CALL_NAME_LOAD_NAME_LOAD_": 1417,
      "MODULE_FUNCTIONDEF_ARGUMENTS_ARG_EXPR_CONSTANT_IF_COMPARE_ATTRIBUTE_NAME_LOAD_LOAD_IS_CONSTANT_ASSIGN_ATTRIBUTE_NAME_LOAD_STORE_": 1418,
      "NAME_LOAD_ASSIGN_NAME_STORE_LIST_LOAD_": 1419,
      "FOR_NAME_STORE_CALL_NAME_LOAD_ATTRIBUTE_NAME_LOAD_LOAD_": 1420,
      "BINOP_CALL_ATTRIBUTE_NAME_LOAD_LOAD_NAME_LOAD_": 1421,
      "SLICE_UNARYOP_USUB_CONSTANT_LOAD_": 1422,
      "MODULE_FUNCTIONDEF_ARGUMENTS_ARG_ARG_ARG_": 1423,
      "ASSIGN_NAME_STORE_CALL_ATTRIBUTE_NAME_LOAD_LOAD_CONSTANT_CONSTANT_": 1424,
      "IF_BOOLOP_OR_UNARYOP_NOT_NAME_LOAD_": 1425,
      "KEYWORD_NAME_LOAD_KEYWORD_NAME_LOAD_KEYWORD_NAME_LOAD_KEYWORD_": 1426,
      "ASSIGN_TUPLE_NAME_STORE_NAME_STORE_STORE_TUPLE_": 1427,
      "RETURN_CALL_ATTRIBUTE_ATTRIBUTE_NAME_LOAD_LOAD_LOAD_NAME_LOAD_": 1428,
      "IF_CALL_ATTRIBUTE_NAME_LOAD_LOAD_CONSTANT_ASSIGN_NAME_STORE_": 1429,
      "_CONSTANT_CONSTANT_CONSTANT_CONSTANT_CONSTANT_EXPR_": 1430,
      "NAME_LOAD_CONSTANT_FORMATTEDVALUE_": 1431,
      "COMPARE_CALL_NAME_LOAD_": 1432,
      "DICT_FOR_NAME_STORE_NAME_LOAD_": 1433,
      "CONSTANT_LOAD_LOAD_LOAD_": 1434,
      "SUBSCRIPT_NAME_LOAD_CONSTANT_LOAD_NAME_LOAD_": 1435,
      "SUBSCRIPT_CALL_NAME_LOAD_NAME_LOAD_": 1436,
      "MODULE_FUNCTIONDEF_ARGUMENTS_ARG_ARG_EXPR_CONSTANT_ASSIGN_NAME_STORE_LIST_LOAD_": 1437,
      "ATTRIBUTE_CALL_NAME_LOAD_NAME_LOAD_LOAD_": 1438,
      "RAISE_CALL_ATTRIBUTE_NAME_LOAD_LOAD_CONSTANT_": 1439,
      "DIV_CONSTANT_ASSIGN_NAME_STORE_": 1440,
      "MODULE_FUNCTIONDEF_ARGUMENTS_ARG_ARG_ARG_ARG_ARG_ARG_ARG_ARG_ARG": 1441,
      "IF_NAME_LOAD_ASSIGN_NAME_STORE_CALL_NAME_LOAD_": 1442,
      "UNARYOP_USUB_NAME_LOAD_": 1443,
      "SUBSCRIPT_NAME_LOAD_SLICE_CONSTANT_LOAD_ASSIGN_NAME_STORE_": 1444,
      "MODULE_FUNCTIONDEF_ARGUMENTS_ARG_ARG_ARG_ARG_ARG_ARG_CONSTANT_CONSTANT_CONSTANT_CONSTANT_EXPR_": 1445,
      "IF_COMPARE_NAME_LOAD_GT_CONSTANT_ASSIGN_NAME_STORE_": 1446,
      "MODULE_FUNCTIONDEF_ARGUMENTS_ARG_EXPR_CONSTANT_ASSIGN_NAME_STORE_CONSTANT_": 1447,
      "CONSTANT_NAME_LOAD_LOAD_": 1448,
      "ASSIGN_ATTRIBUTE_NAME_LOAD_STORE_ATTRIBUTE_NAME_LOAD_LOAD_": 1449,
      "COMPARE_NAME_LOAD_LTE_": 1450,
      "CALL_NAME_LOAD_CONSTANT_NAME_LOAD_": 1451,
      "CALL_ATTRIBUTE_NAME_LOAD_LOAD_NAME_LOAD_ATTRIBUTE_NAME_LOAD_LOAD_": 1452,
      "MODULE_FUNCTIONDEF_ARGUMENTS_ARG_EXPR_CONSTANT_EXPR_CALL_ATTRIBUTE_ATTRIBUTE_NAME_LOAD_LOAD_LOAD_": 1453,
      "ASSIGN_TUPLE_NAME_STORE_NAME_STORE_STORE_CALL_NAME_LOAD_NAME_LOAD_": 1454,
      "CONSTANT_IF_UNARYOP_NOT_NAME_LOAD_ASSIGN_NAME_STORE_": 1455,
      "KEYWORD_CONSTANT_RETURN_NAME_LOAD": 1456,
      "CONSTANT_AUGASSIGN_NAME_STORE_ADD_CONSTANT_": 1457,
      "FOR_TUPLE_NAME_STORE_NAME_STORE_STORE_CALL_NAME_LOAD_": 1458,
      "MODULE_FUNCTIONDEF_ARGUMENTS_ARG_EXPR_CONSTANT_ASSIGN_NAME_STORE_CALL_ATTRIBUTE_NAME_LOAD_LOAD_CONSTANT_": 1459,
      "DICT_CONSTANT_CONSTANT_CONSTANT_CONSTANT_CONSTANT_CONSTANT_CONSTANT_": 1460,
      "CONSTANT_IF_UNARYOP_NOT_NAME_LOAD_RETURN_": 1461,
      "EQ_ATTRIBUTE_": 1462,
      "_SUBSCRIPT_NAME_LOAD_NAME_LOAD_LOAD_ARG": 1463,
      "EXPR_CALL_ATTRIBUTE_NAME_LOAD_LOAD_NAME_LOAD_RETURN_": 1464,
      "KEYWORD_ATTRIBUTE_NAME_LOAD_LOAD_KEYWORD_NAME_LOAD_": 1465,
      "NAME_LOAD_ASSIGN_NAME_STORE_CALL_ATTRIBUTE_NAME_LOAD_LOAD_NAME_LOAD_ASSIGN_NAME_STORE_": 1466,
      "EXPR_CALL_ATTRIBUTE_NAME_LOAD_LOAD_CONSTANT_NAME_LOAD_RETURN_": 1467,
      "BINOP_NAME_LOAD_RSHIFT": 1468,
      "CALL_NAME_LOAD_KEYWORD_": 1469,
      "RAISE_CALL_NAME_LOAD_CONSTANT_ASSIGN_NAME_STORE_CALL_ATTRIBUTE_NAME_LOAD_LOAD_": 1470,
      "IF_COMPARE_ATTRIBUTE_NAME_LOAD_LOAD_NOTEQ_ATTRIBUTE_NAME_LOAD_LOAD_": 1471,
      "ATTRIBUTE_NAME_LOAD_LOAD_ADD_": 1472,
      "LIST_NAME_LOAD_LOAD_ASSIGN_NAME_STORE_": 1473,
      "COMPARE_NAME_LOAD_EQ_CONSTANT_COMPARE_NAME_LOAD_EQ_CONSTANT_": 1474,
      "IF_BOOLOP_AND_CALL_NAME_LOAD_NAME_LOAD_NAME_LOAD_": 1475,
      "COMPARE_NAME_LOAD_EQ_ATTRIBUTE_NAME_LOAD_LOAD_": 1476,
      "COMPARE_NAME_LOAD_LT_NAME_LOAD_": 1477,
      "BINOP_BINOP_NAME_LOAD_ADD_NAME_LOAD_ADD_": 1478,
      "MODULE_FUNCTIONDEF_ARGUMENTS_EXPR_CONSTANT_ASSIGN_NAME_STORE_CALL_ATTRIBUTE_NAME_LOAD_LOAD_": 1479,
      "CALL_ATTRIBUTE_CONSTANT_LOAD_NAME_LOAD_LOAD_": 1480,
      "BINOP_CONSTANT_MOD_NAME_LOAD_ASSIGN_NAME_STORE_": 1481,
      "EXPR_CALL_ATTRIBUTE_ATTRIBUTE_NAME_LOAD_LOAD_LOAD_NAME_LOAD_EXPR_CALL_ATTRIBUTE_ATTRIBUTE_NAME_LOAD_LOAD_LOAD_": 1482,
      "CONSTANT_AUGASSIGN_ATTRIBUTE_NAME_LOAD_STORE_ADD_": 1483,
      "_CONSTANT_CONSTANT_CONSTANT_CONSTANT_CONSTANT_CONSTANT_CONSTANT_CONSTANT_CONSTANT_": 1484,
      "CALL_ATTRIBUTE_NAME_LOAD_LOAD_NAME_LOAD_RETURN_": 1485,
      "SUBSCRIPT_NAME_LOAD_ATTRIBUTE_NAME_LOAD_LOAD_LOAD_LOAD_": 1486,
      "EXPR_CALL_ATTRIBUTE_NAME_LOAD_LOAD_NAME_LOAD_NAME_LOAD_NAME_LOAD_": 1487,
      "DICT_EXPR_": 1488,
      "CALL_ATTRIBUTE_SUBSCRIPT_NAME_LOAD_SLICE_": 1489,
      "EXPR_CALL_ATTRIBUTE_NAME_LOAD_LOAD_RETURN_NAME_LOAD": 1490,
      "IF_BOOLOP_AND_COMPARE_CONSTANT_IN_NAME_LOAD_": 1491,
      "MODULE_FUNCTIONDEF_ARGUMENTS_ARG_EXPR_CONSTANT_TRY_": 1492,
      "LIST_LOAD_ASSIGN_NAME_STORE_LIST_LOAD_ASSIGN_NAME_STORE_": 1493,
      "ASSIGN_SUBSCRIPT_ATTRIBUTE_NAME_LOAD_LOAD_NAME_LOAD_STORE_NAME_LOAD_": 1494,
      "IF_COMPARE_NAME_LOAD_ISNOT_CONSTANT_ASSIGN_SUBSCRIPT_NAME_LOAD_CONSTANT_STORE_CALL_ATTRIBUTE_ATTRIBUTE_NAME_LOAD_LOAD_LOAD_CONSTANT_NAME_LOAD_CONSTANT_": 1495,
      "MODULE_FUNCTIONDEF_ARGUMENTS_ARG_EXPR_CONSTANT_ASSIGN_NAME_STORE_ATTRIBUTE_NAME_LOAD_LOAD_": 1496,
      "CALL_NAME_LOAD_NAME_LOAD_NAME_LOAD_RETURN_NAME_LOAD": 1497,
      "SUBSCRIPT_ATTRIBUTE_NAME_LOAD_LOAD_CONSTANT_LOAD_SUBSCRIPT_ATTRIBUTE_NAME_LOAD_LOAD_CONSTANT_LOAD_": 1498,
      "EXCEPTHANDLER_NAME_LOAD_EXPR_CALL_NAME_LOAD_": 1499,
      "TUPLE_ATTRIBUTE_NAME_LOAD_LOAD_ATTRIBUTE_NAME_LOAD_LOAD_": 1500,
      "MODULE_FUNCTIONDEF_ARGUMENTS_ARG_EXPR_CONSTANT_ASSIGN_NAME_STORE_CALL_NAME_LOAD_ATTRIBUTE_NAME_LOAD_LOAD_": 1501,
      "SUBSCRIPT_NAME_LOAD_NAME_LOAD_STORE_": 1502,
      "TUPLE_CONSTANT_LOAD_": 1503,
      "CALL_ATTRIBUTE_NAME_LOAD_LOAD_CONSTANT_LIST_LOAD_": 1504,
      "ASSIGN_ATTRIBUTE_NAME_LOAD_STORE_CALL_NAME_LOAD_ATTRIBUTE_NAME_LOAD_LOAD_": 1505,
      "LISTCOMP_CALL_ATTRIBUTE_NAME_LOAD_LOAD_COMPREHENSION_NAME_STORE_": 1506,
      "SUBSCRIPT_CALL_ATTRIBUTE_ATTRIBUTE_NAME_LOAD_LOAD_LOAD_NAME_LOAD_": 1507,
      "COMPARE_NAME_LOAD_EQ_CONSTANT_ASSIGN_NAME_STORE_": 1508,
      "RETURN_NAME_LOAD_NAME_LOAD": 1509,
      "IF_COMPARE_SUBSCRIPT_NAME_LOAD_CONSTANT_LOAD_EQ_": 1510,
      "RETURN_CALL_ATTRIBUTE_CONSTANT_LOAD_NAME_LOAD": 1511,
      "CALL_ATTRIBUTE_CONSTANT_LOAD_NAME_LOAD_RETURN_": 1512,
      "COMPARE_NAME_LOAD_NOTEQ_NAME_LOAD_": 1513,
      "DELETE_SUBSCRIPT_NAME_LOAD_CONSTANT_": 1514,
      "MODULE_FUNCTIONDEF_ARGUMENTS_ARG_EXPR_CONSTANT_EXPR_": 1515,
      "IF_COMPARE_ATTRIBUTE_NAME_LOAD_LOAD_IS_CONSTANT_ASSIGN_ATTRIBUTE_NAME_LOAD_STORE_": 1516,
      "DICTCOMP_": 1517,
      "ASSIGN_NAME_STORE_CALL_NAME_LOAD_ATTRIBUTE_NAME_LOAD_LOAD_": 1518,
      "EXCEPTHANDLER_NAME_LOAD_RAISE_": 1519,
      "KEYWORD_DICT_CONSTANT_": 1520,
      "EXPR_CALL_ATTRIBUTE_SUBSCRIPT_ATTRIBUTE_NAME_LOAD_LOAD_CONSTANT_LOAD_LOAD_": 1521,
      "MODULE_FUNCTIONDEF_ARGUMENTS_ARG_EXPR_CONSTANT_IF_COMPARE_ATTRIBUTE_NAME_LOAD_LOAD_IS_CONSTANT_": 1522,
      "SUBSCRIPT_ATTRIBUTE_NAME_LOAD_LOAD_NAME_LOAD_LOAD": 1523,
      "ATTRIBUTE_ATTRIBUTE_NAME_LOAD_LOAD_LOAD_STORE_": 1524,
      "COMPARE_NAME_LOAD_NOTIN_": 1525,
      "LISTCOMP_ATTRIBUTE_NAME_LOAD_LOAD_COMPREHENSION_NAME_STORE_": 1526,
      "IF_COMPARE_NAME_LOAD_NOTIN_NAME_LOAD_ASSIGN_SUBSCRIPT_NAME_LOAD_NAME_LOAD_STORE_": 1527,
      "IF_CALL_NAME_LOAD_ATTRIBUTE_NAME_LOAD_LOAD_": 1528,
      "SUBSCRIPT_NAME_LOAD_BINOP_NAME_LOAD_SUB_CONSTANT_LOAD_": 1529,
      "SUBSCRIPT_NAME_LOAD_CONSTANT_LOAD_RETURN_": 1530,
      "ASSIGN_ATTRIBUTE_NAME_LOAD_STORE_CALL_ATTRIBUTE_ATTRIBUTE_NAME_LOAD_LOAD_LOAD_": 1531,
      "ASSIGN_SUBSCRIPT_NAME_LOAD_CONSTANT_STORE_CONSTANT_ASSIGN_SUBSCRIPT_NAME_LOAD_CONSTANT_STORE_": 1532,
      "MODULE_FUNCTIONDEF_ARGUMENTS_ARG_ARG_EXPR_CONSTANT_IF_ATTRIBUTE_NAME_LOAD_LOAD_": 1533,
      "EXCEPTHANDLER_NAME_LOAD_EXPR_CALL_ATTRIBUTE_NAME_LOAD_LOAD_": 1534,
      "AUGASSIGN_ATTRIBUTE_NAME_LOAD_STORE_": 1535,
      "SUBSCRIPT_NAME_LOAD_CONSTANT_LOAD_ASSIGN_ATTRIBUTE_NAME_LOAD_STORE_SUBSCRIPT_NAME_LOAD_CONSTANT_LOAD_ASSIGN_ATTRIBUTE_NAME_LOAD_STORE_": 1536,
      "CONSTANT_TRY_ASSIGN_NAME_STORE_": 1537,
      "BINOP_BINOP_BINOP_CONSTANT_ADD_": 1538,
      "NAME_LOAD_EXPR_CALL_ATTRIBUTE_NAME_LOAD_LOAD_NAME_LOAD_NAME_LOAD_": 1539,
      "LISTCOMP_NAME_LOAD_COMPREHENSION_NAME_STORE_ATTRIBUTE_NAME_LOAD_LOAD_": 1540,
      "CALL_ATTRIBUTE_ATTRIBUTE_NAME_LOAD_LOAD_LOAD_CALL_ATTRIBUTE_ATTRIBUTE_NAME_LOAD_LOAD_LOAD_": 1541,
      "RAISE_CALL_NAME_LOAD_NAME_LOAD": 1542,
      "MODULE_FUNCTIONDEF_ARGUMENTS_ARG_ARG_ARG_ARG_CONSTANT_EXPR_CONSTANT_ASSIGN_NAME_STORE_": 1543,
      "MODULE_FUNCTIONDEF_ARGUMENTS_ARG_ARG_EXPR_CONSTANT_EXPR_CALL_ATTRIBUTE_ATTRIBUTE_NAME_LOAD_LOAD_LOAD_": 1544,
      "IF_COMPARE_NAME_LOAD_IS_CONSTANT_RAISE_CALL_NAME_LOAD_": 1545,
      "IF_COMPARE_NAME_LOAD_LT_": 1546,
      "ASSIGN_SUBSCRIPT_ATTRIBUTE_NAME_LOAD_LOAD_ATTRIBUTE_NAME_LOAD_LOAD_STORE_": 1547,
      "CALL_ATTRIBUTE_SUBSCRIPT_NAME_LOAD_CONSTANT_LOAD_LOAD_CONSTANT_": 1548,
      "DICT_CONSTANT_ATTRIBUTE_NAME_LOAD_LOAD_": 1549,
      "WHILE_BOOLOP_AND_": 1550,
      "LIST_CONSTANT_LOAD_LOAD_": 1551,
      "IF_BOOLOP_AND_NAME_LOAD_NAME_LOAD_": 1552,
      "KEYWORD_NAME_LOAD_KEYWORD_NAME_LOAD_KEYWORD_NAME_LOAD_KEYWORD_NAME_LOAD_KEYWORD_NAME_LOAD_KEYWORD_NAME_LOAD_KEYWORD_NAME_LOAD_KEYWORD_NAME_LOAD_": 1553,
      "SUBSCRIPT_NAME_LOAD_CONSTANT_LOAD_ASSIGN_NAME_STORE_CALL_ATTRIBUTE_NAME_LOAD_LOAD_": 1554,
      "KEYWORD_CONSTANT_NAME_STORE_": 1555,
      "NAME_LOAD_ATTRIBUTE_NAME_LOAD_LOAD_": 1556,
      "ASSIGN_ATTRIBUTE_NAME_LOAD_STORE_CALL_NAME_LOAD_NAME_LOAD_": 1557,
      "CALL_ATTRIBUTE_NAME_LOAD_LOAD_CONSTANT": 1558,
      "MODULE_FUNCTIONDEF_ARGUMENTS_ARG_ARG_EXPR_CONSTANT_EXPR_": 1559,
      "ASSIGN_NAME_STORE_BINOP_": 1560,
      "EXPR_CALL_ATTRIBUTE_CALL_ATTRIBUTE_NAME_LOAD_LOAD_LOAD_": 1561,
      "IF_COMPARE_NAME_LOAD_EQ_CONSTANT_EXPR_CALL_ATTRIBUTE_NAME_LOAD_LOAD_": 1562,
      "DICT_CONSTANT_CONSTANT_CONSTANT_CONSTANT_NAME_LOAD_": 1563,
      "FOR_NAME_STORE_ATTRIBUTE_ATTRIBUTE_NAME_LOAD_LOAD_LOAD_": 1564,
      "CONSTANT_IF_ATTRIBUTE_NAME_LOAD_LOAD_": 1565,
      "MODULE_FUNCTIONDEF_ARGUMENTS_ARG_ARG_ARG_EXPR_CONSTANT_ASSIGN_NAME_STORE_CALL_ATTRIBUTE_NAME_LOAD_LOAD_NAME_LOAD_": 1566,
      "SUBSCRIPT_SUBSCRIPT_SUBSCRIPT_NAME_LOAD_CONSTANT_LOAD_CONSTANT_LOAD_CONSTANT_LOAD_": 1567,
      "ATTRIBUTE_CALL_ATTRIBUTE_NAME_LOAD_LOAD_LOAD_": 1568,
      "CALL_NAME_LOAD_NAME_LOAD_ASSIGN_NAME_STORE_CALL_ATTRIBUTE_NAME_LOAD_LOAD_": 1569,
      "SUBSCRIPT_NAME_LOAD_CONSTANT_LOAD_EXPR_CALL_ATTRIBUTE_NAME_LOAD_LOAD_": 1570,
      "DICTCOMP_NAME_LOAD_NAME_LOAD_": 1571,
      "SUBSCRIPT_ATTRIBUTE_NAME_LOAD_LOAD_SLICE_CONSTANT_LOAD_": 1572,
      "SUB_CONSTANT_LOAD_": 1573,
      "BINOP_NAME_LOAD_ADD_NAME_LOAD_LOAD_": 1574,
      "MODULE_FUNCTIONDEF_ARGUMENTS_ARG_ARG_ARG_EXPR_CONSTANT_ASSIGN_NAME_STORE_CALL_NAME_LOAD_": 1575,
      "MODULE_FUNCTIONDEF_ARGUMENTS_ARG_NAME_LOAD_ARG_NAME_LOAD_ARG": 1576,
      "EXPR_CALL_ATTRIBUTE_NAME_LOAD_LOAD_NAME_LOAD_ATTRIBUTE_NAME_LOAD_LOAD_": 1577,
      "MODULE_FUNCTIONDEF_ARGUMENTS_ARG_ARG_ARG_ARG_CONSTANT_CONSTANT_EXPR_CONSTANT_ASSIGN_NAME_STORE_": 1578,
      "IF_COMPARE_NAME_LOAD_ISNOT_CONSTANT_ASSIGN_SUBSCRIPT_NAME_LOAD_CONSTANT_STORE_NAME_LOAD_": 1579,
      "ATTRIBUTE_SUBSCRIPT_ATTRIBUTE_NAME_LOAD_LOAD_NAME_LOAD_LOAD_LOAD_": 1580,
      "MODULE_FUNCTIONDEF_ARGUMENTS_ARG_ARG_ARG_CONSTANT_EXPR_CONSTANT_IF_CALL_NAME_LOAD_NAME_LOAD_CONSTANT_ASSIGN_NAME_STORE_CALL_ATTRIBUTE_NAME_LOAD_LOAD_NAME_LOAD_TRY_ASSIGN_NAME_STORE_CALL_NAME_LOAD_NAME_LOAD_KEYWORD_ATTRIBUTE_NAME_LOAD_LOAD_": 1581,
      "EXCEPTHANDLER_NAME_LOAD_ASSIGN_NAME_STORE_CONSTANT_": 1582,
      "CALL_NAME_LOAD_NAME_LOAD_ASSIGN_NAME_STORE_CALL_NAME_LOAD_NAME_LOAD_ASSIGN_NAME_STORE_": 1583,
      "CALL_ATTRIBUTE_NAME_LOAD_LOAD_KEYWORD_CONSTANT_": 1584,
      "IFEXP_COMPARE_NAME_LOAD_IS_CONSTANT_": 1585,
      "EXPR_CALL_ATTRIBUTE_NAME_LOAD_LOAD_NAME_LOAD_ASSIGN_NAME_STORE_CALL_ATTRIBUTE_NAME_LOAD_LOAD_": 1586,
      "CONSTANT_ASSIGN_ATTRIBUTE_NAME_LOAD_STORE_CONSTANT_ASSIGN_ATTRIBUTE_NAME_LOAD_STORE_CONSTANT_ASSIGN_ATTRIBUTE_NAME_LOAD_STORE_CONSTANT_ASSIGN_ATTRIBUTE_NAME_LOAD_STORE_": 1587,
      "CALL_ATTRIBUTE_CALL_ATTRIBUTE_NAME_LOAD_LOAD_NAME_LOAD_": 1588,
      "EXCEPTHANDLER_NAME_LOAD_EXPR_CALL_ATTRIBUTE_ATTRIBUTE_NAME_LOAD_LOAD_LOAD_": 1589,
      "CALL_ATTRIBUTE_NAME_LOAD_LOAD_KEYWORD_": 1590,
      "LISTCOMP_CALL_NAME_LOAD_": 1591,
      "ASSIGN_TUPLE_NAME_STORE_NAME_STORE_NAME_STORE_NAME_STORE_STORE_": 1592,
      "TRY_EXPR_CALL_ATTRIBUTE_ATTRIBUTE_NAME_LOAD_LOAD_LOAD_": 1593,
      "FOR_NAME_STORE_NAME_LOAD_EXPR_CALL_ATTRIBUTE_NAME_LOAD_LOAD_NAME_LOAD_": 1594,
      "SUBSCRIPT_NAME_LOAD_TUPLE_SLICE_CONSTANT_LOAD_LOAD_": 1595,
      "RAISE_CALL_NAME_LOAD_CALL_ATTRIBUTE_CONSTANT_LOAD_NAME_LOAD": 1596,
      "CONSTANT_EXPR_CALL_NAME_LOAD_CONSTANT_EXPR_CALL_NAME_LOAD_": 1597,
      "CONSTANT_STORE_NAME_LOAD_": 1598,
      "DICT_CONSTANT_CONSTANT_CONSTANT_NAME_LOAD_NAME_LOAD_": 1599,
      "IF_COMPARE_NAME_LOAD_ISNOT_CONSTANT_ASSIGN_ATTRIBUTE_NAME_LOAD_STORE_": 1600,
      "BINOP_SUBSCRIPT_NAME_LOAD_CONSTANT_LOAD_ADD_": 1601,
      "CONSTANT_UNARYOP_USUB_CONSTANT_": 1602,
      "CALL_ATTRIBUTE_ATTRIBUTE_NAME_LOAD_LOAD_LOAD_ASSIGN_NAME_STORE_": 1603,
      "COMPREHENSION_NAME_STORE_CALL_NAME_LOAD_": 1604,
      "MODULE_FUNCTIONDEF_ARGUMENTS_ARG_EXPR_CONSTANT_TRY_ASSIGN_NAME_STORE_": 1605,
      "CALL_ATTRIBUTE_NAME_LOAD_LOAD_ASSIGN_NAME_STORE_CALL_ATTRIBUTE_NAME_LOAD_LOAD_": 1606,
      "BINOP_CONSTANT_MOD_TUPLE_ATTRIBUTE_NAME_LOAD_LOAD_": 1607,
      "CONSTANT_ASSIGN_NAME_STORE_CALL_ATTRIBUTE_NAME_LOAD_LOAD_ATTRIBUTE_NAME_LOAD_LOAD_": 1608,
      "KEYWORD_ATTRIBUTE_NAME_LOAD_LOAD_KEYWORD_ATTRIBUTE_NAME_LOAD_LOAD_KEYWORD_ATTRIBUTE_NAME_LOAD_LOAD_": 1609,
      "CONSTANT_EXPR_CALL_ATTRIBUTE_NAME_LOAD_LOAD_ATTRIBUTE_NAME_LOAD_LOAD_": 1610,
      "EXPR_CALL_ATTRIBUTE_NAME_LOAD_LOAD_ATTRIBUTE_NAME_LOAD_LOAD_ATTRIBUTE_NAME_LOAD_LOAD_": 1611,
      "TUPLE_NAME_STORE_": 1612,
      "CONSTANT_NAME_LOAD": 1613,
      "COMPARE_NAME_LOAD_NOTEQ_": 1614,
      "CONSTANT_IF_BOOLOP_AND_COMPARE_NAME_LOAD_ISNOT_CONSTANT_": 1615,
      "NAME_LOAD_EXPR_CALL_ATTRIBUTE_ATTRIBUTE_NAME_LOAD_LOAD_LOAD_": 1616,
      "SUBSCRIPT_NAME_LOAD_BINOP_NAME_LOAD_ADD_CONSTANT_LOAD_": 1617,
      "NAME_LOAD_ASSIGN_NAME_STORE_CALL_ATTRIBUTE_NAME_LOAD_LOAD_CONSTANT_CONSTANT_": 1618,
      "ASSIGN_SUBSCRIPT_NAME_LOAD_CONSTANT_STORE_CALL_ATTRIBUTE_NAME_LOAD_LOAD_": 1619,
      "RAISE_CALL_NAME_LOAD_BINOP_CONSTANT_MOD_NAME_LOAD": 1620,
      "KEYWORD_CONSTANT_KEYWORD_ATTRIBUTE_NAME_LOAD_LOAD_": 1621,
      "IF_NAME_LOAD_ASSIGN_NAME_STORE_CALL_NAME_LOAD_NAME_LOAD_": 1622,
      "EXPR_CALL_ATTRIBUTE_NAME_LOAD_LOAD_CONSTANT_CONSTANT_KEYWORD_CONSTANT_KEYWORD_CONSTANT_": 1623,
      "SUBSCRIPT_NAME_LOAD_TUPLE_": 1624,
      "IF_COMPARE_NAME_LOAD_GT_": 1625,
      "KEYWORD_CONSTANT_ASSIGN_NAME_STORE_CALL_NAME_LOAD_": 1626,
      "_ATTRIBUTE_NAME_LOAD_LOAD_EXPR_": 1627,
      "RAISE": 1628,
      "SUBSCRIPT_SUBSCRIPT_ATTRIBUTE_NAME_LOAD_LOAD_NAME_LOAD_LOAD_NAME_LOAD_LOAD_": 1629,
      "TUPLE_CONSTANT_CONSTANT_CONSTANT_CONSTANT_LOAD_": 1630,
      "CALL_ATTRIBUTE_NAME_LOAD_LOAD_RETURN_": 1631,
      "CONSTANT_ASSIGN_ATTRIBUTE_NAME_LOAD_STORE_CALL_NAME_LOAD_": 1632,
      "EXPR_CALL_ATTRIBUTE_NAME_LOAD_LOAD_LIST_CONSTANT_": 1633,
      "SUBSCRIPT_NAME_LOAD_NAME_LOAD_LOAD_RETURN_NAME_LOAD": 1634,
      "CONSTANT_IF_UNARYOP_NOT_CALL_ATTRIBUTE_ATTRIBUTE_NAME_LOAD_LOAD_LOAD_NAME_LOAD_": 1635,
      "KEYWORD_CONSTANT_KEYWORD_CONSTANT": 1636,
      "KEYWORD_NAME_LOAD_KEYWORD_NAME_LOAD_KEYWORD_NAME_LOAD_KEYWORD_NAME_LOAD": 1637,
      "ERT_NAME_LOAD_": 1638,
      "IF_COMPARE_NAME_LOAD_IS_CONSTANT_ASSIGN_NAME_STORE_CALL_NAME_LOAD_": 1639,
      "LIST_CONSTANT_CONSTANT_LOAD_LIST_CONSTANT_CONSTANT_LOAD_": 1640,
      "CALL_NAME_LOAD_NAME_LOAD_CONSTANT_CONSTANT_": 1641,
      "RAISE_CALL_NAME_LOAD_BINOP_CONSTANT_ADD_": 1642,
      "EXPR_CALL_ATTRIBUTE_NAME_LOAD_LOAD_ASSIGN_NAME_STORE_": 1643,
      "IF_NAME_LOAD_EXPR_CALL_NAME_LOAD_": 1644,
      "RETURN_CONSTANT_IF_COMPARE_ATTRIBUTE_NAME_LOAD_LOAD_ISNOT_CONSTANT_": 1645,
      "COMPARE_CALL_NAME_LOAD_NAME_LOAD_EQ_": 1646,
      "JOINEDSTR_": 1647,
      "COMPARE_NAME_LOAD_LT_": 1648,
      "CALL_ATTRIBUTE_NAME_LOAD_LOAD_ATTRIBUTE_NAME_LOAD_LOAD_NAME_LOAD_": 1649,
      "SUBSCRIPT_NAME_LOAD_CONSTANT_LOAD_SUBSCRIPT_NAME_LOAD_CONSTANT_LOAD_LOAD_": 1650,
      "MODULE_FUNCTIONDEF_ARGUMENTS_ARG_EXPR_CONSTANT_ASSIGN_NAME_STORE_CALL_ATTRIBUTE_NAME_LOAD_LOAD_NAME_LOAD_": 1651,
      "IF_COMPARE_CALL_ATTRIBUTE_NAME_LOAD_LOAD_NAME_LOAD_": 1652,
      "FOR_NAME_STORE_NAME_LOAD_ASSIGN_NAME_STORE_CALL_ATTRIBUTE_NAME_LOAD_LOAD_NAME_LOAD_": 1653,
      "CONSTANT_ASSIGN_NAME_STORE_CALL_ATTRIBUTE_NAME_LOAD_LOAD_NAME_LOAD_ASSIGN_NAME_STORE_": 1654,
      "ASSIGN_NAME_STORE_CALL_NAME_LOAD_CALL_ATTRIBUTE_NAME_LOAD_LOAD_": 1655,
      "CONSTANT_ADD_CONSTANT_ADD_": 1656,
      "IFEXP_COMPARE_NAME_LOAD_ISNOT_CONSTANT_": 1657,
      "DICT_ATTRIBUTE_NAME_LOAD_LOAD_": 1658,
      "EXPR_YIELDFROM_": 1659,
      "BINOP_CALL_ATTRIBUTE_NAME_LOAD_LOAD_ADD_": 1660,
      "TUPLE_SUBSCRIPT_NAME_LOAD_CONSTANT_LOAD_SUBSCRIPT_NAME_LOAD_CONSTANT_LOAD_LOAD_": 1661,
      "IF_ATTRIBUTE_NAME_LOAD_LOAD_EXPR_CALL_ATTRIBUTE_ATTRIBUTE_NAME_LOAD_LOAD_LOAD_": 1662,
      "JOINEDSTR_FORMATTEDVALUE_": 1663,
      "CONSTANT_RETURN_CALL_NAME_LOAD_NAME_LOAD_": 1664,
      "MODULE_FUNCTIONDEF_ARGUMENTS_ARG_ARG_EXPR_CONSTANT_IF_BOOLOP_OR_": 1665,
      "IF_BOOLOP_OR_NAME_LOAD_": 1666,
      "BINOP_NAME_LOAD_DIV_CONSTANT_": 1667,
      "CONSTANT_ASSIGN_NAME_STORE_CALL_ATTRIBUTE_NAME_LOAD_LOAD_CONSTANT_ASSIGN_NAME_STORE_CALL_ATTRIBUTE_NAME_LOAD_LOAD_": 1668,
      "IF_COMPARE_NAME_LOAD_IN_TUPLE_CONSTANT_CONSTANT_LOAD_": 1669,
      "BITOR_NAME_LOAD_": 1670,
      "FOR_TUPLE_NAME_STORE_NAME_STORE_STORE_CALL_NAME_LOAD_NAME_LOAD_ASSIGN_NAME_STORE_": 1671,
      "CALL_ATTRIBUTE_ATTRIBUTE_ATTRIBUTE_NAME_LOAD_LOAD_LOAD_LOAD_CONSTANT_": 1672,
      "RAISE_CALL_NAME_LOAD_BINOP_CONSTANT_MOD_TUPLE_": 1673,
      "LAMBDA_ARGUMENTS_ARG_ARG": 1674,
      "COMPARE_CALL_ATTRIBUTE_NAME_LOAD_LOAD_NAME_LOAD_": 1675,
      "COMPARE_NAME_LOAD_GT_NAME_LOAD_": 1676,
      "RAISE_CALL_NAME_LOAD_CALL_ATTRIBUTE_CONSTANT_LOAD_NAME_LOAD_NAME_LOAD_": 1677,
      "CONSTANT_CONSTANT_NAME_STORE_": 1678,
      "MODULE_FUNCTIONDEF_ARGUMENTS_ARG_EXPR_CONSTANT_IF_BOOLOP_OR_": 1679,
      "EXPR_CALL_ATTRIBUTE_NAME_LOAD_LOAD_CONSTANT_KEYWORD_CONSTANT_KEYWORD_CONSTANT_KEYWORD_CONSTANT_": 1680,
      "IF_COMPARE_NAME_LOAD_NOTEQ_CONSTANT_ASSIGN_NAME_STORE_": 1681,
      "RAISE_CALL_NAME_LOAD_CONSTANT_RETURN_NAME_LOAD": 1682,
      "NAME_LOAD_ASSIGN_NAME_STORE_CALL_ATTRIBUTE_CONSTANT_LOAD_": 1683,
      "IF_COMPARE_NAME_LOAD_IS_NAME_LOAD_": 1684,
      "GTE_CONSTANT_": 1685,
      "SLICE_LOAD_": 1686,
      "SUBSCRIPT_NAME_LOAD_CONSTANT_LOAD_SUBSCRIPT_NAME_LOAD_CONSTANT_LOAD_SUBSCRIPT_NAME_LOAD_CONSTANT_LOAD_SUBSCRIPT_NAME_LOAD_CONSTANT_LOAD_": 1687,
      "DELETE_NAME_": 1688,
      "TUPLE_NAME_LOAD_NAME_LOAD_NAME_LOAD_NAME_LOAD_LOAD_": 1689,
      "NAME_LOAD_EXPR_CALL_ATTRIBUTE_NAME_LOAD_LOAD_NAME_LOAD": 1690,
      "IMPORTFROM_ALIAS_ALIAS": 1691,
      "CONSTANT_ASSIGN_NAME_STORE_NAME_LOAD_": 1692,
      "IF_COMPARE_CONSTANT_NOTIN_": 1693,
      "LSHIFT_CONSTANT_": 1694,
      "MODULE_FUNCTIONDEF_ARGUMENTS_ARG_ARG_ARG_CONSTANT_EXPR_CONSTANT_IF_CALL_NAME_LOAD_NAME_LOAD_CONSTANT_ASSIGN_NAME_STORE_CALL_ATTRIBUTE_NAME_LOAD_LOAD_NAME_LOAD_TRY_ASSIGN_NAME_STORE_CALL_NAME_LOAD_NAME_LOAD_KEYWORD_ATTRIBUTE_NAME_LOAD_LOAD_KEYWORD_CONSTANT_KEYWORD_CONSTANT_KEYWORD_CONSTANT_KEYWORD_CONSTANT_": 1695,
      "RETURN_CALL_NAME_LOAD_ATTRIBUTE_NAME_LOAD_LOAD_": 1696,
      "CONSTANT_RETURN_NAME_LOAD_": 1697,
      "CALL_ATTRIBUTE_ATTRIBUTE_NAME_LOAD_LOAD_LOAD_LOAD_": 1698,
      "EXPR_CALL_ATTRIBUTE_ATTRIBUTE_NAME_LOAD_LOAD_LOAD_CONSTANT_EXPR_CALL_ATTRIBUTE_ATTRIBUTE_NAME_LOAD_LOAD_LOAD_": 1699,
      "FOR_TUPLE_NAME_STORE_NAME_STORE_STORE_CALL_ATTRIBUTE_NAME_LOAD_LOAD_NAME_LOAD_": 1700,
      "CALL_ATTRIBUTE_NAME_LOAD_LOAD_ATTRIBUTE_NAME_LOAD_LOAD_ATTRIBUTE_NAME_LOAD_LOAD_": 1701,
      "MODULE_FUNCTIONDEF_ARGUMENTS_ARG_ARG_EXPR_CONSTANT_ASSIGN_NAME_STORE_CALL_ATTRIBUTE_ATTRIBUTE_NAME_LOAD_LOAD_LOAD_NAME_LOAD_": 1702,
      "NAME_LOAD_ASSIGN_NAME_STORE_CALL_ATTRIBUTE_NAME_LOAD_LOAD_ATTRIBUTE_NAME_LOAD_LOAD_": 1703,
      "CONSTANT_ASSIGN_NAME_STORE_CALL_NAME_LOAD_NAME_LOAD_NAME_LOAD_": 1704,
      "CALL_NAME_LOAD_NAME_LOAD_EXPR_CALL_ATTRIBUTE_NAME_LOAD_LOAD_": 1705,
      "CALL_NAME_LOAD_NAME_LOAD_TUPLE_NAME_LOAD_NAME_LOAD_LOAD_": 1706,
      "IF_COMPARE_CALL_NAME_LOAD_NAME_LOAD_EQ_NAME_LOAD_": 1707,
      "SUBSCRIPT_NAME_LOAD_UNARYOP_USUB_CONSTANT_LOAD_LOAD_": 1708,
      "ATTRIBUTE_NAME_LOAD_LOAD_ASSIGN_NAME_STORE_CALL_ATTRIBUTE_ATTRIBUTE_NAME_LOAD_LOAD_LOAD_": 1709,
      "LIST_CONSTANT_LOAD_ASSIGN_NAME_STORE_": 1710,
      "BINOP_BINOP_SUBSCRIPT_NAME_LOAD_CONSTANT_LOAD_": 1711,
      "CONSTANT_ASSIGN_TUPLE_NAME_STORE_NAME_STORE_NAME_STORE_NAME_STORE_STORE_": 1712,
      "CONSTANT_LOAD_LOAD_ASSIGN_NAME_STORE_": 1713,
      "BINOP_BINOP_ATTRIBUTE_NAME_LOAD_LOAD_ADD_CONSTANT_ADD_": 1714,
      "TUPLE_NAME_LOAD_NAME_LOAD_LOAD_LOAD_": 1715,
      "RAISE_CALL_NAME_LOAD_CONSTANT_ASSIGN_ATTRIBUTE_NAME_LOAD_STORE_": 1716,
      "ASSIGN_SUBSCRIPT_SUBSCRIPT_NAME_LOAD_NAME_LOAD_LOAD_NAME_LOAD_STORE_": 1717,
      "KEYWORD_ATTRIBUTE_NAME_LOAD_LOAD_ASSIGN_NAME_STORE_": 1718,
      "RETURN_LISTCOMP_": 1719,
      "IF_COMPARE_CONSTANT_IN_NAME_LOAD_ASSIGN_SUBSCRIPT_NAME_LOAD_CONSTANT_STORE_": 1720,
      "NAME_LOAD_ASSIGN_NAME_STORE_NAME_LOAD_ASSIGN_NAME_STORE_": 1721,
      "FOR_NAME_STORE_ATTRIBUTE_NAME_LOAD_LOAD_EXPR_CALL_ATTRIBUTE_NAME_LOAD_LOAD_": 1722,
      "CONSTANT_ATTRIBUTE_NAME_LOAD_LOAD": 1723,
      "LISTCOMP_NAME_LOAD_COMPREHENSION_TUPLE_NAME_STORE_NAME_STORE_STORE_": 1724,
      "NAME_LOAD_NAME_LOAD_NAME_LOAD_NAME_LOAD": 1725,
      "ATTRIBUTE_NAME_LOAD_LOAD_LOAD_ASSIGN_NAME_STORE_": 1726,
      "ATTRIBUTE_ATTRIBUTE_": 1727,
      "EXPR_CALL_NAME_LOAD_CONSTANT_NAME_LOAD_": 1728,
      "MODULE_FUNCTIONDEF_ARGUMENTS_ARG_ARG_EXPR_CONSTANT_ASSIGN_NAME_STORE_CALL_ATTRIBUTE_NAME_LOAD_LOAD_CONSTANT_": 1729,
      "IF_SUBSCRIPT_NAME_LOAD_CONSTANT_LOAD_": 1730,
      "MODULE_FUNCTIONDEF_ARGUMENTS_ARG_ARG_ARG_CONSTANT_EXPR_CONSTANT_IF_CALL_NAME_LOAD_NAME_LOAD_CONSTANT_ASSIGN_NAME_STORE_CALL_ATTRIBUTE_NAME_LOAD_LOAD_NAME_LOAD_TRY_ASSIGN_NAME_STORE_CALL_NAME_LOAD_NAME_LOAD_KEYWORD_ATTRIBUTE_NAME_LOAD_LOAD_KEYWORD_CONSTANT_KEYWORD_CONSTANT_KEYWORD_CONSTANT_KEYWORD_CONSTANT_KEYWORD_NAME_LOAD_KEYWORD_ATTRIBUTE_NAME_LOAD_LOAD_KEYWORD_ATTRIBUTE_NAME_LOAD_LOAD_KEYWORD_CONSTANT_KEYWORD_DICT_CONSTANT_": 1731,
      "CALL_NAME_LOAD_NAME_LOAD_CALL_NAME_LOAD_NAME_LOAD_LOAD_": 1732,
      "NAME_LOAD_RETURN_CALL_ATTRIBUTE_NAME_LOAD_LOAD_": 1733,
      "IF_COMPARE_CONSTANT_NOTIN_ATTRIBUTE_NAME_LOAD_LOAD_": 1734,
      "MODULE_FUNCTIONDEF_ARGUMENTS_ARG_ARG_EXPR_CONSTANT_TRY_ASSIGN_NAME_STORE_": 1735,
      "ISNOT_CONSTANT_ASSIGN_NAME_STORE_": 1736,
      "CONSTANT_ASSIGN_NAME_STORE_CALL_ATTRIBUTE_NAME_LOAD_LOAD_CONSTANT_CONSTANT_ASSIGN_NAME_STORE_CALL_ATTRIBUTE_NAME_LOAD_LOAD_CONSTANT_": 1737,
      "RETURN_TUPLE_NAME_LOAD_NAME_LOAD_NAME_LOAD_LOAD": 1738,
      "CALL_NAME_LOAD_CALL_ATTRIBUTE_NAME_LOAD_LOAD_CONSTANT_": 1739,
      "CALL_NAME_LOAD_LISTCOMP_": 1740,
      "EXCEPTHANDLER_NAME_LOAD_RETURN_CONSTANT": 1741,
      "UNARYOP_USUB_CONSTANT_EXPR_": 1742,
      "ASSIGN_SUBSCRIPT_ATTRIBUTE_ATTRIBUTE_NAME_LOAD_LOAD_LOAD_": 1743,
      "ASSIGN_ATTRIBUTE_NAME_LOAD_STORE_LIST_LOAD_": 1744,
      "KEYWORD_NAME_LOAD_KEYWORD_NAME_LOAD_ASSIGN_NAME_STORE_": 1745,
      "SUBSCRIPT_NAME_LOAD_CONSTANT_LOAD_CONSTANT_": 1746,
      "ASSIGN_ATTRIBUTE_NAME_LOAD_STORE_CALL_ATTRIBUTE_NAME_LOAD_LOAD_NAME_LOAD_": 1747,
      "ASSIGN_NAME_STORE_CALL_ATTRIBUTE_NAME_LOAD_LOAD_CALL_ATTRIBUTE_NAME_LOAD_LOAD_": 1748,
      "DICT_DICT_": 1749,
      "BINOP_SUBSCRIPT_NAME_LOAD_NAME_LOAD_LOAD_": 1750,
      "IF_NAME_LOAD_ASSIGN_NAME_STORE_CALL_ATTRIBUTE_NAME_LOAD_LOAD_NAME_LOAD_": 1751,
      "NAME_LOAD_RETURN_TUPLE_NAME_LOAD_NAME_LOAD_LOAD": 1752,
      "CONSTANT_ASSIGN_NAME_STORE_CALL_NAME_LOAD_NAME_LOAD_ASSIGN_NAME_STORE_": 1753,
      "TUPLE_NAME_STORE_NAME_STORE_NAME_STORE_NAME_STORE_NAME_STORE_STORE_": 1754,
      "_AUGASSIGN_NAME_STORE_ADD_": 1755,
      "NAME_LOAD_LOAD_RETURN_NAME_LOAD": 1756,
      "EXPR_CALL_ATTRIBUTE_NAME_LOAD_LOAD_CONSTANT_RETURN_NAME_LOAD": 1757,
      "ATTRIBUTE_NAME_LOAD_LOAD_LOAD_LOAD_": 1758,
      "CALL_NAME_LOAD_NAME_LOAD_NAME_LOAD_NAME_LOAD": 1759,
      "MODULE_FUNCTIONDEF_ARGUMENTS_ARG_": 1760,
      "CONSTANT_ASSIGN_TUPLE_": 1761,
      "RETURN_CALL_ATTRIBUTE_NAME_LOAD_LOAD_ATTRIBUTE_NAME_LOAD_LOAD_": 1762,
      "IF_COMPARE_CALL_ATTRIBUTE_NAME_LOAD_LOAD_EQ_CONSTANT_": 1763,
      "DICT_CONSTANT_CONSTANT_CONSTANT_CONSTANT_CONSTANT_CONSTANT_CONSTANT_CONSTANT_": 1764,
      "CONSTANT_EXPR_YIELD_": 1765,
      "CONSTANT_ASSIGN_TUPLE_NAME_STORE_NAME_STORE_STORE_CALL_ATTRIBUTE_NAME_LOAD_LOAD_NAME_LOAD_": 1766,
      "CALL_ATTRIBUTE_CALL_ATTRIBUTE_ATTRIBUTE_NAME_LOAD_LOAD_LOAD_NAME_LOAD_LOAD_": 1767,
      "SHIFT_": 1768,
      "KEYWORD_CONSTANT_KEYWORD_CONSTANT_KEYWORD_": 1769,
      "MODULE_FUNCTIONDEF_ARGUMENTS_ARG_ARG_ARG_EXPR_CONSTANT_EXPR_CALL_ATTRIBUTE_NAME_LOAD_LOAD_": 1770,
      "ASSIGN_ATTRIBUTE_NAME_LOAD_STORE_CALL_ATTRIBUTE_NAME_LOAD_LOAD_ATTRIBUTE_NAME_LOAD_LOAD_": 1771,
      "FOR_TUPLE_NAME_STORE_NAME_STORE_STORE_CALL_NAME_LOAD_CALL_ATTRIBUTE_NAME_LOAD_LOAD_": 1772,
      "WITH_WITHITEM_CALL_ATTRIBUTE_NAME_LOAD_LOAD_NAME_LOAD_": 1773,
      "BINOP_ATTRIBUTE_NAME_LOAD_LOAD_MOD_": 1774,
      "MODULE_FUNCTIONDEF_ARGUMENTS_ARG_ARG_EXPR_CONSTANT_IF_CALL_NAME_LOAD_NAME_LOAD_NAME_LOAD_": 1775,
      "BINOP_CALL_NAME_LOAD_NAME_LOAD_SUB_CONSTANT_": 1776,
      "CALL_NAME_LOAD_SUBSCRIPT_ATTRIBUTE_NAME_LOAD_LOAD_CONSTANT_LOAD_": 1777,
      "LAMBDA_ARGUMENTS_": 1778,
      "CALL_ATTRIBUTE_NAME_LOAD_LOAD_EXPR_CALL_ATTRIBUTE_NAME_LOAD_LOAD_": 1779,
      "TUPLE_NAME_STORE_NAME_STORE_STORE_STORE_": 1780,
      "KEYWORD_NAME_LOAD_KEYWORD_CONSTANT_KEYWORD_": 1781,
      "CALL_ATTRIBUTE_CONSTANT_LOAD_NAME_LOAD_RETURN_NAME_LOAD": 1782,
      "CONSTANT_IF_COMPARE_NAME_LOAD_EQ_CONSTANT_": 1783,
      "BINOP_CALL_ATTRIBUTE_NAME_LOAD_LOAD_SUB_NAME_LOAD_": 1784,
      "DELETE_SUBSCRIPT_NAME_LOAD_NAME_LOAD_DEL_": 1785,
      "EXPR_CALL_ATTRIBUTE_NAME_LOAD_LOAD_NAME_LOAD_CONSTANT_": 1786,
      "CALL_NAME_LOAD_SUBSCRIPT_NAME_LOAD_CONSTANT_LOAD_NAME_LOAD_": 1787,
      "CALL_ATTRIBUTE_CALL_ATTRIBUTE_NAME_LOAD_LOAD_CONSTANT_CONSTANT_LOAD_": 1788,
      "BINOP_BINOP_BINOP_NAME_LOAD_ADD_": 1789,
      "MODULE_FUNCTIONDEF_ARGUMENTS_ARG_ARG_NAME_LOAD_ARG_NAME_LOAD_ARG": 1790,
      "KEYWORD_NAME_LOAD_KEYWORD_NAME_LOAD_RETURN_NAME_LOAD": 1791,
      "SUBSCRIPT_CALL_ATTRIBUTE_NAME_LOAD_LOAD_NAME_LOAD_CONSTANT_LOAD_": 1792,
      "ASSIGN_SUBSCRIPT_SUBSCRIPT_ATTRIBUTE_NAME_LOAD_LOAD_NAME_LOAD_LOAD_": 1793,
      "CONSTANT_ASSIGN_SUBSCRIPT_NAME_LOAD_CONSTANT_STORE_NAME_LOAD_": 1794,
      "CONSTANT_ASSIGN_ATTRIBUTE_": 1795,
      "CONSTANT_ASSIGN_NAME_STORE_CONSTANT_ASSIGN_NAME_STORE_CONSTANT_": 1796,
      "BINOP_BINOP_NAME_LOAD_SUB_NAME_LOAD_": 1797,
      "CALL_ATTRIBUTE_CALL_NAME_LOAD_NAME_LOAD_": 1798,
      "RAISE_NAME_LOAD": 1799,
      "TUPLE_CONSTANT_CONSTANT_LOAD_LOAD_": 1800,
      "LISTCOMP_SUBSCRIPT_NAME_LOAD_CONSTANT_LOAD_COMPREHENSION_NAME_STORE_": 1801,
      "FOR_NAME_STORE_CALL_ATTRIBUTE_NAME_LOAD_LOAD_CONSTANT_": 1802,
      "CONSTANT_ASSIGN_SUBSCRIPT_SUBSCRIPT_NAME_LOAD_CONSTANT_LOAD_": 1803,
      "CALL_NAME_LOAD_CALL_ATTRIBUTE_NAME_LOAD_LOAD_NAME_LOAD_": 1804,
      "MODULE_FUNCTIONDEF_ARGUMENTS_ARG_ARG_EXPR_CONSTANT_ASSIGN_NAME_STORE_ATTRIBUTE_NAME_LOAD_LOAD_": 1805,
      "MODULE_FUNCTIONDEF_ARGUMENTS_ARG_ARG_ARG_CONSTANT_EXPR_CONSTANT_RETURN_": 1806,
      "ATTRIBUTE_ATTRIBUTE_ATTRIBUTE_ATTRIBUTE_NAME_LOAD_LOAD_LOAD_LOAD_LOAD_": 1807,
      "MODULE_FUNCTIONDEF_ARGUMENTS_ARG_ARG_ARG_CONSTANT_EXPR_CONSTANT_IF_COMPARE_NAME_LOAD_IS_CONSTANT_ASSIGN_NAME_STORE_": 1808,
      "ASSIGN_SUBSCRIPT_NAME_LOAD_CONSTANT_STORE_NAME_LOAD_ASSIGN_SUBSCRIPT_NAME_LOAD_CONSTANT_STORE_": 1809,
      "SUBSCRIPT_NAME_LOAD_NAME_LOAD_LOAD_SUBSCRIPT_NAME_LOAD_NAME_LOAD_LOAD_": 1810,
      "BINOP_ATTRIBUTE_NAME_LOAD_LOAD_SUB_ATTRIBUTE_NAME_LOAD_LOAD_": 1811,
      "CONSTANT_ASSIGN_NAME_STORE_BOOLOP_OR_NAME_LOAD_": 1812,
      "CALL_NAME_LOAD_NAME_LOAD_NAME_LOAD_CALL_NAME_LOAD_NAME_LOAD_NAME_LOAD_": 1813,
      "RETURN_CONSTANT_IF_COMPARE_ATTRIBUTE_NAME_LOAD_LOAD_ISNOT_CONSTANT_RETURN_CONSTANT_IF_COMPARE_ATTRIBUTE_NAME_LOAD_LOAD_ISNOT_CONSTANT_": 1814,
      "CONSTANT_ASSIGN_NAME_STORE_CALL_ATTRIBUTE_NAME_LOAD_LOAD_ASSIGN_NAME_STORE_": 1815,
      "MODULE_FUNCTIONDEF_ARGUMENTS_ARG_ARG_ARG_ARG_ARG_ARG_ARG_ARG_ARG_ARG_ARG_ARG_ARG_ARG": 1816,
      "MODULE_FUNCTIONDEF_ARGUMENTS_ARG_ARG_EXPR_CONSTANT_ASSIGN_NAME_STORE_DICT_": 1817,
      "MODULE_FUNCTIONDEF_ARGUMENTS_ARG_ARG_CONSTANT_EXPR_CONSTANT_ASSIGN_NAME_STORE_CALL_NAME_LOAD_": 1818,
      "CONSTANT_IF_BOOLOP_AND_ATTRIBUTE_NAME_LOAD_LOAD_": 1819,
      "CALL_ATTRIBUTE_NAME_LOAD_LOAD_RETURN_NAME_LOAD": 1820,
      "SUBSCRIPT_ATTRIBUTE_NAME_LOAD_LOAD_TUPLE_SLICE_": 1821,
      "CALL_SUBSCRIPT_NAME_LOAD_CONSTANT_LOAD_NAME_LOAD_": 1822,
      "CONSTANT_ASSIGN_ATTRIBUTE_NAME_LOAD_STORE_NAME_LOAD_ASSIGN_ATTRIBUTE_NAME_LOAD_STORE_": 1823,
      "IF_BOOLOP_AND_COMPARE_": 1824,
      "ATTRIBUTE_ATTRIBUTE_NAME_LOAD_LOAD_LOAD_NAME_LOAD_": 1825,
      "ATTRIBUTE_NAME_LOAD_STORE_ATTRIBUTE_NAME_LOAD_STORE_STORE_": 1826,
      "MODULE_FUNCTIONDEF_ARGUMENTS_ARG_ARG_EXPR_CONSTANT_ASSIGN_NAME_STORE_CONSTANT_": 1827,
      "COMPARE_ATTRIBUTE_NAME_LOAD_LOAD_NOTEQ_CONSTANT_": 1828,
      "CALL_ATTRIBUTE_CONSTANT_LOAD_CALL_NAME_LOAD_NAME_LOAD_": 1829,
      "ASSIGN_ATTRIBUTE_NAME_LOAD_STORE_ATTRIBUTE_NAME_LOAD_LOAD_ASSIGN_ATTRIBUTE_NAME_LOAD_STORE_": 1830,
      "KEYWORD_ATTRIBUTE_NAME_LOAD_LOAD_ASSIGN_NAME_STORE_CALL_ATTRIBUTE_NAME_LOAD_LOAD_": 1831,
      "BREAK_RETURN_NAME_LOAD": 1832,
      "CONSTANT_IF_CALL_ATTRIBUTE_NAME_LOAD_LOAD_CONSTANT_": 1833,
      "IF_COMPARE_NAME_LOAD_NOTEQ_ATTRIBUTE_NAME_LOAD_LOAD_": 1834,
      "IFEXP_NAME_LOAD_CONSTANT_CONSTANT_": 1835,
      "EXPR_CALL_ATTRIBUTE_NAME_LOAD_LOAD_TUPLE_NAME_LOAD_NAME_LOAD_LOAD_": 1836,
      "LIST_LOAD_LOAD_": 1837,
      "IF_COMPARE_NAME_LOAD_EQ_CONSTANT_ASSIGN_NAME_STORE_CALL_ATTRIBUTE_NAME_LOAD_LOAD_": 1838,
      "UNARYOP_NOT_CALL_ATTRIBUTE_NAME_LOAD_LOAD_CONSTANT_": 1839,
      "EXPR_CALL_ATTRIBUTE_NAME_LOAD_LOAD_CONSTANT_CONSTANT_EXPR_CALL_ATTRIBUTE_NAME_LOAD_LOAD_CONSTANT_CONSTANT_": 1840,
      "MODULE_FUNCTIONDEF_ARGUMENTS_ARG_ARG_EXPR_CONSTANT_IF_UNARYOP_NOT_ATTRIBUTE_NAME_LOAD_LOAD_": 1841,
      "EXCEPTHANDLER_ASSIGN_NAME_STORE_": 1842,
      "DICT_CONSTANT_CONSTANT_CONSTANT_NAME_LOAD_": 1843,
      "ATTRIBUTE_ATTRIBUTE_NAME_LOAD_LOAD_LOAD_ATTRIBUTE_NAME_LOAD_LOAD_": 1844,
      "COMPARE_NAME_LOAD_NOTIN_ATTRIBUTE_NAME_LOAD_LOAD_": 1845,
      "EXPR_CALL_NAME_LOAD_BINOP_CONSTANT_MOD_NAME_LOAD_": 1846,
      "RETURN_TUPLE_NAME_LOAD_NAME_LOAD_LOAD_": 1847,
      "TUPLE_CONSTANT_CONSTANT_CONSTANT_CONSTANT_": 1848,
      "SUBSCRIPT_NAME_LOAD_SLICE_UNARYOP_USUB_": 1849,
      "DELETE_SUBSCRIPT_ATTRIBUTE_NAME_LOAD_LOAD_NAME_LOAD_DEL_": 1850,
      "CALL_ATTRIBUTE_ATTRIBUTE_NAME_LOAD_LOAD_LOAD_ATTRIBUTE_NAME_LOAD_LOAD_NAME_LOAD_": 1851,
      "COMPARE_ATTRIBUTE_NAME_LOAD_LOAD_IN_": 1852,
      "CONSTANT_EXPR_CALL_NAME_LOAD_CONSTANT_": 1853,
      "DIV_ATTRIBUTE_NAME_LOAD_LOAD_": 1854,
      "IF_COMPARE_CALL_NAME_LOAD_SUBSCRIPT_NAME_LOAD_CONSTANT_LOAD_": 1855,
      "CALL_ATTRIBUTE_NAME_LOAD_LOAD_CONSTANT_CALL_ATTRIBUTE_NAME_LOAD_LOAD_": 1856,
      "DICT_CONSTANT_CONSTANT_ATTRIBUTE_NAME_LOAD_LOAD_": 1857,
      "CONSTANT_AUGASSIGN_NAME_STORE_ADD_CONSTANT_AUGASSIGN_NAME_STORE_ADD_": 1858,
      "MODULE_FUNCTIONDEF_ARGUMENTS_ARG_EXPR_CONSTANT_ASSIGN_NAME_STORE_LIST_LOAD_ASSIGN_NAME_STORE_": 1859,
      "IF_COMPARE_NAME_LOAD_IS_CONSTANT_ASSIGN_NAME_STORE_CALL_ATTRIBUTE_NAME_LOAD_LOAD_": 1860,
      "EXPR_CALL_ATTRIBUTE_NAME_LOAD_LOAD_ATTRIBUTE_NAME_LOAD_LOAD_EXPR_CALL_ATTRIBUTE_NAME_LOAD_LOAD_ATTRIBUTE_NAME_LOAD_LOAD_": 1861,
      "ASSIGN_SUBSCRIPT_SUBSCRIPT_NAME_LOAD_NAME_LOAD_LOAD_CONSTANT_STORE_": 1862,
      "FOR_TUPLE_NAME_STORE_": 1863,
      "SUBSCRIPT_ATTRIBUTE_NAME_LOAD_LOAD_NAME_LOAD_LOAD_ASSIGN_NAME_STORE_": 1864,
      "NAME_LOAD_NAME_LOAD_NAME_LOAD_NAME_LOAD_LOAD": 1865,
      "TRY_ASSIGN_NAME_STORE_CALL_NAME_LOAD_NAME_LOAD_EXCEPTHANDLER_NAME_LOAD_": 1866,
      "MODULE_FUNCTIONDEF_ARGUMENTS_ARG_ARG_ARG_ARG_ARG_EXPR_CONSTANT_ASSIGN_NAME_STORE_": 1867,
      "RETURN_CALL_ATTRIBUTE_ATTRIBUTE_NAME_LOAD_LOAD_LOAD_NAME_LOAD": 1868,
      "EXPR_CALL_ATTRIBUTE_ATTRIBUTE_NAME_LOAD_LOAD_LOAD_BINOP_CONSTANT_MOD_": 1869,
      "IF_CALL_NAME_LOAD_NAME_LOAD_TUPLE_NAME_LOAD_NAME_LOAD_LOAD_": 1870,
      "DICT_CONSTANT_CONSTANT_DICT_CONSTANT_CONSTANT_": 1871,
      "LISTCOMP_CALL_NAME_LOAD_NAME_LOAD_COMPREHENSION_NAME_STORE_NAME_LOAD_": 1872,
      "BOOLOP_OR_BOOLOP_AND_": 1873,
      "ADD_CONSTANT_ASSIGN_NAME_STORE_": 1874,
      "CONSTANT_IF_CALL_ATTRIBUTE_ATTRIBUTE_NAME_LOAD_LOAD_LOAD_NAME_LOAD_": 1875,
      "MODULE_FUNCTIONDEF_ARGUMENTS_ARG_ARG_ARG_ARG_ARG_ARG_ARG_EXPR_": 1876,
      "MODULE_FUNCTIONDEF_ARGUMENTS_ARG_ARG_ARG_ARG_ARG_ARG_CONSTANT_CONSTANT_CONSTANT_EXPR_": 1877,
      "IFEXP_NAME_LOAD_NAME_LOAD_": 1878,
      "EXCEPTHANDLER_NAME_LOAD_PASS_ASSIGN_NAME_STORE_": 1879,
      "WHILE_CONSTANT_": 1880,
      "MODULE_FUNCTIONDEF_ARGUMENTS_ARG_ARG_ARG_ARG_EXPR_CONSTANT_RETURN_": 1881,
      "ASSIGN_SUBSCRIPT_NAME_LOAD_TUPLE_SLICE_": 1882,
      "EXPR_CALL_NAME_LOAD_CONSTANT": 1883,
      "FOR_NAME_STORE_CALL_NAME_LOAD_NAME_LOAD_ASSIGN_NAME_STORE_": 1884,
      "SUBSCRIPT_CALL_ATTRIBUTE_NAME_LOAD_LOAD_CONSTANT_CONSTANT_": 1885,
      "LIST_CONSTANT_LIST_CONSTANT_LOAD_LOAD_": 1886,
      "LIST_NAME_LOAD_LOAD": 1887,
      "COMPARE_NAME_LOAD_IS": 1888,
      "IF_COMPARE_CALL_NAME_LOAD_NAME_LOAD_LT_CONSTANT_": 1889,
      "MODULE_FUNCTIONDEF_ARGUMENTS_ARG_ARG_ARG_CONSTANT_EXPR_CONSTANT_ASSIGN_NAME_STORE_CALL_ATTRIBUTE_NAME_LOAD_LOAD_": 1890,
      "IF_COMPARE_CALL_ATTRIBUTE_ATTRIBUTE_NAME_LOAD_LOAD_LOAD_": 1891,
      "CALL_ATTRIBUTE_CALL_ATTRIBUTE_NAME_LOAD_LOAD_LOAD_CONSTANT_": 1892,
      "CONSTANT_CONSTANT_NAME_LOAD_": 1893,
      "RAISE_CALL_ATTRIBUTE_ATTRIBUTE_NAME_LOAD_LOAD_LOAD_": 1894,
      "CONSTANT_IF_CALL_NAME_LOAD_NAME_LOAD_NAME_LOAD_ASSIGN_NAME_STORE_": 1895,
      "IF_COMPARE_CALL_NAME_LOAD_NAME_LOAD_EQ_CONSTANT_RETURN_": 1896,
      "COMPARE_SUBSCRIPT_NAME_LOAD_CONSTANT_LOAD_EQ_": 1897,
      "JOINEDSTR_CONSTANT_FORMATTEDVALUE_NAME_LOAD_": 1898,
      "IF_COMPARE_CALL_NAME_LOAD_NAME_LOAD_NOTEQ_": 1899,
      "IF_BOOLOP_AND_CALL_NAME_LOAD_NAME_LOAD_CONSTANT_COMPARE_ATTRIBUTE_NAME_LOAD_LOAD_ISNOT_CONSTANT_ASSIGN_SUBSCRIPT_NAME_LOAD_CONSTANT_STORE_ATTRIBUTE_NAME_LOAD_LOAD_": 1900,
      "CONSTANT_IF_BOOLOP_AND_UNARYOP_NOT_NAME_LOAD_": 1901,
      "_ATTRIBUTE_ATTRIBUTE_ATTRIBUTE_NAME_LOAD_LOAD_LOAD_LOAD_": 1902,
      "SUBSCRIPT_CALL_NAME_LOAD_": 1903,
      "IF_COMPARE_ATTRIBUTE_NAME_LOAD_LOAD_IN_NAME_LOAD_": 1904,
      "DICT_CONSTANT_CONSTANT_CONSTANT_CONSTANT_CONSTANT_CONSTANT_CONSTANT_CONSTANT_CONSTANT_CONSTANT_CONSTANT_CONSTANT_CONSTANT_": 1905,
      "MODULE_FUNCTIONDEF_ARGUMENTS_ARG_ARG_ARG_ARG_": 1906,
      "EXPR_CALL_ATTRIBUTE_NAME_LOAD_LOAD_BINOP_CONSTANT_MOD_TUPLE_NAME_LOAD_NAME_LOAD_LOAD_": 1907,
      "MODULE_FUNCTIONDEF_ARGUMENTS_ARG_ARG_ARG_ARG_EXPR_CONSTANT_ASSIGN_NAME_STORE_CALL_ATTRIBUTE_NAME_LOAD_LOAD_": 1908,
      "EXPR_CALL_NAME_LOAD_NAME_LOAD_NAME_LOAD": 1909,
      "CALL_NAME_LOAD_NAME_LOAD_ADD_CONSTANT_ADD_": 1910,
      "CONSTANT_CONSTANT_LOAD": 1911,
      "ASSIGN_SUBSCRIPT_ATTRIBUTE_NAME_LOAD_LOAD_NAME_LOAD_STORE_NAME_LOAD": 1912,
      "IF_COMPARE_SUBSCRIPT_NAME_LOAD_CONSTANT_LOAD_EQ_NAME_LOAD_": 1913,
      "CONSTANT_ASSIGN_NAME_STORE_CALL_NAME_LOAD_ATTRIBUTE_NAME_LOAD_LOAD_": 1914,
      "EXPR_CALL_ATTRIBUTE_ATTRIBUTE_NAME_LOAD_LOAD_LOAD_CONSTANT_NAME_LOAD_": 1915,
      "IF_COMPARE_ATTRIBUTE_NAME_LOAD_LOAD_IS_CONSTANT_ASSIGN_NAME_STORE_": 1916,
      "CONSTANT_ASSIGN_NAME_STORE_CONSTANT_ASSIGN_NAME_STORE_CONSTANT_ASSIGN_NAME_STORE_CONSTANT_ASSIGN_NAME_STORE_": 1917,
      "CONSTANT_KEYWORD_": 1918,
      "DICT_CONSTANT_CONSTANT_CONSTANT_ATTRIBUTE_NAME_LOAD_LOAD_": 1919,
      "MODULE_FUNCTIONDEF_ARGUMENTS_ARG_ARG_ARG_ARG_CONSTANT_CONSTANT_EXPR_CONSTANT_": 1920,
      "RETURN_CALL_NAME_LOAD_NAME_LOAD_NAME_LOAD_NAME_LOAD_": 1921,
      "BINOP_CALL_NAME_LOAD_NAME_LOAD_SUB_": 1922,
      "BINOP_SUBSCRIPT_ATTRIBUTE_NAME_LOAD_LOAD_CONSTANT_LOAD_": 1923,
      "SUBSCRIPT_CALL_ATTRIBUTE_NAME_LOAD_LOAD_CONSTANT_UNARYOP_USUB_CONSTANT_LOAD_": 1924,
      "KEYWORD_SUBSCRIPT_ATTRIBUTE_NAME_LOAD_LOAD_CONSTANT_LOAD_KEYWORD_SUBSCRIPT_ATTRIBUTE_NAME_LOAD_LOAD_CONSTANT_LOAD_": 1925,
      "LISTCOMP_SUBSCRIPT_NAME_LOAD_NAME_LOAD_LOAD_": 1926,
      "TUPLE_CONSTANT_CONSTANT_LOAD_ASSIGN_NAME_STORE_": 1927,
      "CALL_NAME_LOAD_ATTRIBUTE_NAME_LOAD_LOAD_CONSTANT_NAME_STORE_": 1928,
      "NAME_LOAD_RETURN_CALL_NAME_LOAD_": 1929,
      "COMPARE_SUBSCRIPT_NAME_LOAD_CONSTANT_LOAD_EQ_NAME_LOAD_": 1930,
      "ATTRIBUTE_NAME_LOAD_LOAD_ATTRIBUTE_NAME_LOAD_LOAD_ATTRIBUTE_NAME_LOAD_LOAD_ATTRIBUTE_NAME_LOAD_LOAD_ATTRIBUTE_NAME_LOAD_LOAD_ATTRIBUTE_NAME_LOAD_LOAD_ATTRIBUTE_NAME_LOAD_LOAD_ATTRIBUTE_NAME_LOAD_LOAD_": 1931,
      "EXCEPTHANDLER_NAME_LOAD_EXPR_CALL_ATTRIBUTE_NAME_LOAD_LOAD_NAME_LOAD_": 1932,
      "GENERATOREXP_ATTRIBUTE_NAME_LOAD_LOAD_": 1933,
      "ASSIGN_SUBSCRIPT_NAME_LOAD_CONSTANT_STORE_ATTRIBUTE_NAME_LOAD_LOAD_ASSIGN_SUBSCRIPT_NAME_LOAD_CONSTANT_STORE_ATTRIBUTE_NAME_LOAD_LOAD_": 1934,
      "KEYWORD_NAME_LOAD_EXPR_CALL_ATTRIBUTE_NAME_LOAD_LOAD_NAME_LOAD_": 1935,
      "COMPARE_NAME_LOAD_GT_": 1936,
      "IF_UNARYOP_NOT_CALL_ATTRIBUTE_ATTRIBUTE_NAME_LOAD_LOAD_LOAD_": 1937,
      "AUGASSIGN_NAME_STORE_ADD_NAME_LOAD_": 1938,
      "RAISE_CALL_NAME_LOAD_CALL_ATTRIBUTE_CONSTANT_LOAD_ATTRIBUTE_NAME_LOAD_LOAD_": 1939,
      "CALL_ATTRIBUTE_NAME_LOAD_LOAD_CALL_ATTRIBUTE_NAME_LOAD_LOAD_NAME_LOAD_": 1940,
      "ASSIGN_ATTRIBUTE_NAME_LOAD_STORE_NAME_LOAD_RETURN_NAME_LOAD": 1941,
      "ASSIGN_SUBSCRIPT_NAME_LOAD_SUBSCRIPT_NAME_LOAD_CONSTANT_LOAD_STORE_": 1942,
      "BINOP_ATTRIBUTE_NAME_LOAD_LOAD_BITAND_": 1943,
      "LIST_NAME_LOAD_NAME_LOAD_NAME_LOAD_": 1944,
      "EXPR_CALL_ATTRIBUTE_NAME_LOAD_LOAD_ATTRIBUTE_ATTRIBUTE_NAME_LOAD_LOAD_LOAD_": 1945,
      "MODULE_FUNCTIONDEF_ARGUMENTS_ARG_EXPR_CONSTANT_EXPR_CALL_ATTRIBUTE_NAME_LOAD_LOAD_CONSTANT_": 1946,
      "EXPR_CALL_ATTRIBUTE_NAME_LOAD_LOAD_BINOP_CONSTANT_MOD_TUPLE_": 1947,
      "GLOBAL_ASSIGN_NAME_STORE_": 1948,
      "IF_COMPARE_NAME_LOAD_IS_": 1949,
      "CONSTANT_CONSTANT": 1950,
      "RAISE_CALL_NAME_LOAD_BINOP_CONSTANT_MOD_TUPLE_NAME_LOAD_NAME_LOAD_LOAD_": 1951,
      "IF_BOOLOP_AND_COMPARE_NAME_LOAD_IS_CONSTANT_": 1952,
      "MODULE_FUNCTIONDEF_ARGUMENTS_ARG_ARG_NAME_LOAD_ARG_NAME_LOAD_EXPR_": 1953,
      "ASSIGN_NAME_STORE_CALL_ATTRIBUTE_ATTRIBUTE_NAME_LOAD_LOAD_LOAD_NAME_LOAD_NAME_LOAD_": 1954,
      "CALL_ATTRIBUTE_CONSTANT_LOAD_LISTCOMP_": 1955,
      "UNARYOP_NOT_CALL_ATTRIBUTE_NAME_LOAD_LOAD_NAME_LOAD_": 1956,
      "LIST_ATTRIBUTE_NAME_LOAD_LOAD_ATTRIBUTE_NAME_LOAD_LOAD_LOAD_": 1957,
      "ATTRIBUTE_CALL_ATTRIBUTE_NAME_LOAD_LOAD_NAME_LOAD_LOAD_": 1958,
      "KEYWORD_CONSTANT_ASSIGN_ATTRIBUTE_NAME_LOAD_STORE_": 1959,
      "CALL_NAME_LOAD_NAME_LOAD_KEYWORD_NAME_LOAD_": 1960,
      "BINOP_NAME_LOAD_FLOOR": 1961,
      "MODULE_FUNCTIONDEF_ARGUMENTS_ARG_ARG_ARG_CONSTANT_CONSTANT_CONSTANT_EXPR_": 1962,
      "DELETE_SUBSCRIPT_NAME_LOAD_CONSTANT_DEL_": 1963,
      "NAME_LOAD_STORE_NAME_LOAD_": 1964,
      "TUPLE_NAME_LOAD_NAME_LOAD_LOAD_STORE_": 1965,
      "EXPR_CALL_ATTRIBUTE_ATTRIBUTE_NAME_LOAD_LOAD_LOAD_NAME_LOAD_EXPR_CALL_ATTRIBUTE_ATTRIBUTE_NAME_LOAD_LOAD_LOAD_NAME_LOAD_": 1966,
      "IF_COMPARE_NAME_LOAD_NOTIN_ATTRIBUTE_NAME_LOAD_LOAD_ASSIGN_SUBSCRIPT_ATTRIBUTE_NAME_LOAD_LOAD_NAME_LOAD_STORE_": 1967,
      "IF_CALL_ATTRIBUTE_NAME_LOAD_LOAD_NAME_LOAD_NAME_LOAD_": 1968,
      "KEYWORD_NAME_LOAD_KEYWORD_NAME_LOAD_KEYWORD_CONSTANT_": 1969,
      "IF_COMPARE_NAME_LOAD_ISNOT_CONSTANT_EXPR_": 1970,
      "BINOP_ATTRIBUTE_NAME_LOAD_LOAD_BITOR_ATTRIBUTE_NAME_LOAD_LOAD_": 1971,
      "NAME_LOAD_EXPR_": 1972,
      "LIST_CALL_NAME_LOAD_": 1973,
      "IF_COMPARE_CALL_NAME_LOAD_NAME_LOAD_IS_NAME_LOAD_": 1974,
      "CONSTANT_RETURN_CONSTANT_": 1975,
      "IF_COMPARE_CALL_NAME_LOAD_NAME_LOAD_GT_": 1976,
      "IF_COMPARE_NAME_LOAD_LT_CONSTANT_ASSIGN_NAME_STORE_": 1977,
      "ASSIGN_TUPLE_NAME_STORE_NAME_STORE_STORE_CALL_ATTRIBUTE_NAME_LOAD_LOAD_NAME_LOAD_NAME_LOAD_": 1978,
      "CALL_NAME_LOAD_NAME_LOAD_LOAD_LOAD_": 1979,
      "MODULE_FUNCTIONDEF_ARGUMENTS_ARG_EXPR_CONSTANT_IF_CALL_NAME_LOAD_NAME_LOAD_NAME_LOAD_": 1980,
      "LIST_CONSTANT_LIST_CONSTANT_LOAD_LOAD_LIST_CONSTANT_LIST_CONSTANT_LOAD_LOAD_": 1981,
      "NAME_LOAD_NAME_LOAD_NAME_LOAD_NAME_LOAD_NAME_LOAD": 1982,
      "WITH_WITHITEM_CALL_ATTRIBUTE_NAME_LOAD_LOAD_NAME_LOAD_CONSTANT_": 1983,
      "IFEXP_COMPARE_NAME_LOAD_EQ_CONSTANT_": 1984,
      "FOR_NAME_STORE_CALL_NAME_LOAD_CALL_ATTRIBUTE_NAME_LOAD_LOAD_": 1985,
      "MODULE_FUNCTIONDEF_ARGUMENTS_ARG_ARG_ARG_ARG_CONSTANT_": 1986,
      "_ATTRIBUTE_NAME_LOAD_LOAD": 1987,
      "RAISE_CALL_NAME_LOAD_CONSTANT_ASSIGN_NAME_STORE_CALL_NAME_LOAD_": 1988,
      "IF_COMPARE_ATTRIBUTE_NAME_LOAD_LOAD_GTE_": 1989,
      "NAME_LOAD_RETURN_CALL_ATTRIBUTE_NAME_LOAD_LOAD_NAME_LOAD": 1990,
      "MODULE_FUNCTIONDEF_ARGUMENTS_ARG_ARG_ARG_ARG_CONSTANT_EXPR_CONSTANT_": 1991,
      "TUPLE_NAME_STORE_NAME_STORE_NAME_STORE_NAME_STORE_NAME_STORE_NAME_STORE_": 1992,
      "LAMBDA_ARGUMENTS_ARG_ARG_": 1993,
      "EXPR_CALL_ATTRIBUTE_NAME_LOAD_LOAD_TUPLE_": 1994,
      "SUBSCRIPT_CALL_ATTRIBUTE_": 1995,
      "MODULE_FUNCTIONDEF_ARGUMENTS_ARG_ARG_ARG_EXPR_CONSTANT_ASSIGN_NAME_STORE_CALL_NAME_LOAD_NAME_LOAD_": 1996,
      "ASSIGN_NAME_STORE_LISTCOMP_": 1997,
      "CALL_ATTRIBUTE_NAME_LOAD_LOAD_CONSTANT_CONSTANT_LOAD_": 1998,
      "SUBSCRIPT_NAME_LOAD_SUBSCRIPT_NAME_LOAD_NAME_LOAD_LOAD_LOAD_": 1999
    },
    "merges": [
      "E _",
      "D _",
      "L O",
      "LO A",
      "LOA D_",
      "N A",
      "M E_",
      "NA ME_",
      "NAME_ LOAD_",
      "S T",
      "_ A",
      "R I",
      "C O",
      "N T",
      "T E_",
      "T T",
      "B U",
      "RI BU",
      "TT RIBU",
      "TTRIBU TE_",
      "A NT",
      "N ST",
      "CO NST",
      "CONST ANT",
      "O R",
      "NAME_LOAD_ LOAD_",
      "A L",
      "C AL",
      "CAL L",
      "CONSTANT _",
      "TTRIBUTE_ NAME_LOAD_LOAD_",
      "ST OR",
      "STOR E_",
      "N _",
      "_ NAME_LOAD_",
      "CALL _A",
      "NAME_ STORE_",
      "S I",
      "R G",
      "S SI",
      "SSI G",
      "_A RG",
      "SSIG N_",
      "E X",
      "P R",
      "CALL_A TTRIBUTE_NAME_LOAD_LOAD_",
      "SSIGN_ NAME_STORE_",
      "EX PR",
      "EXPR _",
      "A TTRIBUTE_NAME_LOAD_LOAD_",
      "CALL _NAME_LOAD_",
      "S U",
      "SU B",
      "P T",
      "I F",
      "T U",
      "L E_",
      "C RI",
      "S CRI",
      "SUB SCRI",
      "SUBSCRI PT",
      "CONSTANT _A",
      "A SSIGN_NAME_STORE_",
      "CO M",
      "_ARG _ARG",
      "IF _",
      "CONSTANT_ LOAD_",
      "COM P",
      "CALL_A TTRIBUTE_",
      "C T",
      "N O",
      "M O",
      "N D",
      "E Y",
      "K EY",
      "W OR",
      "KEY WOR",
      "KEYWOR D_",
      "A R",
      "COMP AR",
      "COMPAR E_",
      "SUBSCRIPT _NAME_LOAD_",
      "_ CONSTANT_",
      "R E",
      "TU R",
      "RE TUR",
      "E NT",
      "M ENT",
      "U MENT",
      "_ARG UMENT",
      "_ARGUMENT S",
      "CALL_NAME_LOAD_ NAME_LOAD_",
      "CONSTANT_A SSIGN_NAME_STORE_",
      "E F",
      "F U",
      "I O",
      "N CT",
      "ND EF",
      "FU NCT",
      "IO NDEF",
      "FUNCT IONDEF",
      "FUNCTIONDEF _ARGUMENTS",
      "D U",
      "MO DU",
      "MODU LE_",
      "MODULE_ FUNCTIONDEF_ARGUMENTS",
      "ATTRIBUTE_NAME_LOAD_LOAD_ LOAD_",
      "RETUR N_",
      "EXPR_ CALL_ATTRIBUTE_NAME_LOAD_LOAD_",
      "LOA D",
      "P _",
      "IF_ COMPARE_",
      "_ EXPR_",
      "B I",
      "CONSTANT_ CONSTANT_",
      "BI NO",
      "MODULE_FUNCTIONDEF_ARGUMENTS _ARG_ARG",
      "_A TTRIBUTE_NAME_LOAD_LOAD_",
      "L I",
      "CALL_ATTRIBUTE_ ATTRIBUTE_NAME_LOAD_LOAD_LOAD_",
      "P LE_",
      "TU PLE_",
      "NAME_LOAD_ NAME_LOAD_",
      "NO T",
      "NAME_ LOAD",
      "R Y",
      "I S",
      "SUBSCRIPT_NAME_LOAD_ CONSTANT_LOAD_",
      "OR _",
      "LI ST",
      "E Q",
      "_A TTRIBUTE_",
      "NAME_LOAD_ ASSIGN_NAME_STORE_",
      "D D_",
      "NAME_LOAD_ STORE_",
      "IF_COMPARE_ NAME_LOAD_",
      "BINO P",
      "F OR_",
      "O P_",
      "U NA",
      "RY OP_",
      "UNA RYOP_",
      "_ARG _EXPR_",
      "KEYWORD_ NAME_LOAD_",
      "N _ATTRIBUTE_",
      "A TTRIBUTE_",
      "CALL_ATTRIBUTE_NAME_LOAD_LOAD_ NAME_LOAD_",
      "SSIG N_ATTRIBUTE_",
      "A DD_",
      "SSIGN_ATTRIBUTE_ NAME_LOAD_STORE_",
      "D I",
      "FOR_ NAME_STORE_",
      "A SSIGN_",
      "SUBSCRIPT _ATTRIBUTE_NAME_LOAD_LOAD_",
      "R A",
      "KEYWORD_ CONSTANT_",
      "MODULE_FUNCTIONDEF_ARGUMENTS _ARG_EXPR_",
      "UNARYOP_ NOT",
      "B O",
      "O LO",
      "BO OLO",
      "NAME_STORE_ NAME_STORE_",
      "BINO P_",
      "DI CT",
      "RA IS",
      "CALL_ATTRIBUTE_ CONSTANT_LOAD_",
      "RAIS E_",
      "LIST _",
      "MODULE_FUNCTIONDEF_ARGUMENTS_ARG_ARG _EXPR_",
      "RETURN_ NAME_LOAD",
      "SUBSCRIPT _",
      "E R",
      "TUPLE_ NAME_STORE_NAME_STORE_",
      "ATTRIBUTE_ ATTRIBUTE_NAME_LOAD_LOAD_LOAD_",
      "CONSTANT_ IF_",
      "CONSTANT_ STORE_",
      "CALL_ATTRIBUTE_NAME_LOAD_LOAD_ CONSTANT_",
      "EXPR_CALL_ATTRIBUTE_NAME_LOAD_LOAD_ NAME_LOAD_",
      "A SSIGN_ATTRIBUTE_NAME_LOAD_STORE_",
      "N D_",
      "RAISE_ CALL_NAME_LOAD_",
      "I N_",
      "E N",
      "EXPR_ CALL_ATTRIBUTE_ATTRIBUTE_NAME_LOAD_LOAD_LOAD_",
      "COMPARE_ NAME_LOAD_",
      "I T",
      "TUPLE_NAME_STORE_NAME_STORE_ STORE_",
      "IF _NAME_LOAD_",
      "MO D_",
      "P _A",
      "BOOLO P_A",
      "BOOLOP_A ND_",
      "A ND",
      "C E",
      "H AND",
      "L ER",
      "EX CE",
      "PT HAND",
      "EXCE PTHAND",
      "EXCEPTHAND LER",
      "_ CONSTANT_ASSIGN_NAME_STORE_",
      "EQ _CONSTANT_",
      "BINOP _NAME_LOAD_",
      "ASSIGN_ SUBSCRIPT_NAME_LOAD_",
      "BINOP _CONSTANT_",
      "T RY",
      "MODULE_FUNCTIONDEF_ARGUMENTS_ARG_ARG _ARG_ARG",
      "BINOP_CONSTANT_ MOD_",
      "CONSTANT_CONSTANT_ CONSTANT_CONSTANT_",
      "CALL_NAME_LOAD_NAME_LOAD_ NAME_LOAD_",
      "SUBSCRIPT_NAME_LOAD_ NAME_LOAD_LOAD_",
      "E H",
      "O N_",
      "SI ON_",
      "PR EH",
      "COM PREH",
      "EN SION_",
      "COMPREH ENSION_",
      "ASSIGN_NAME_STORE_ CALL_ATTRIBUTE_NAME_LOAD_LOAD_",
      "CALL_NAME_LOAD_ ATTRIBUTE_NAME_LOAD_LOAD_",
      "EXPR_CALL_ATTRIBUTE_NAME_LOAD_LOAD_ CONSTANT_",
      "DICT _CONSTANT_",
      "_CONSTANT_ EXPR_",
      "NAME_LOAD_ LOAD",
      "KEYWORD_NAME_LOAD_ KEYWORD_NAME_LOAD_",
      "IF_COMPARE_NAME_LOAD_ IS",
      "LIST_ LOAD_",
      "_A SSIGN_NAME_STORE_",
      "CONSTANT_ASSIGN_NAME_STORE_ CALL_ATTRIBUTE_NAME_LOAD_LOAD_",
      "CONSTANT_A SSIGN_",
      "UNARYOP_NOT _",
      "CONSTANT_ RETURN_",
      "CONSTANT_ EXPR_",
      "C E_",
      "S LI",
      "SLI CE_",
      "COMPREHENSION_ NAME_STORE_",
      "KEYWORD_ ATTRIBUTE_NAME_LOAD_LOAD_",
      "U G",
      "W IT",
      "WIT H",
      "EXCEPTHANDLER _NAME_LOAD_",
      "TUPLE_ NAME_LOAD_",
      "IF_COMPARE_ ATTRIBUTE_NAME_LOAD_LOAD_",
      "I N",
      "CALL_ATTRIBUTE_ATTRIBUTE_NAME_LOAD_LOAD_LOAD_ NAME_LOAD_",
      "SUBSCRIPT_ATTRIBUTE_NAME_LOAD_LOAD_ CONSTANT_LOAD_",
      "LIST COMP",
      "MODULE_FUNCTIONDEF_ARGUMENTS_ARG_EXPR_ CONSTANT_ASSIGN_NAME_STORE_",
      "BOOLO P_",
      "CONSTANT_A SSIGN_ATTRIBUTE_NAME_LOAD_STORE_",
      "UNARYOP_NOT _NAME_LOAD_",
      "CONSTANT_A DD_",
      "IF_ BOOLOP_AND_",
      "BINOP_NAME_LOAD_ ADD_",
      "IN_ NAME_LOAD_",
      "UNARYOP_ U",
      "UNARYOP_U SUB",
      "UG ASSIGN_NAME_STORE_",
      "KEYWORD_CONSTANT_ KEYWORD_CONSTANT_",
      "A S",
      "ATTRIBUTE_NAME_LOAD_LOAD_ ATTRIBUTE_NAME_LOAD_LOAD_",
      "ASSIGN_SUBSCRIPT_NAME_LOAD_ CONSTANT_STORE_",
      "ATTRIBUTE_ATTRIBUTE_NAME_LOAD_LOAD_LOAD_ LOAD_",
      "FOR_NAME_STORE_ NAME_LOAD_",
      "ATTRIBUTE_NAME_LOAD_LOAD_ ASSIGN_NAME_STORE_",
      "MODULE_FUNCTIONDEF_ARGUMENTS_ARG_ARG_EXPR_ CONSTANT_ASSIGN_NAME_STORE_",
      "MODULE_FUNCTIONDEF_ARGUMENTS_ARG_ARG _ARG_EXPR_",
      "UGASSIGN_NAME_STORE_ ADD_",
      "EXPR_ CALL_NAME_LOAD_",
      "MODULE_FUNCTIONDEF_ARGUMENTS_ARG_EXPR_ CONSTANT_",
      "EQ _",
      "EXPR_ CALL_ATTRIBUTE_",
      "NAME_LOAD_ASSIGN_NAME_STORE_ CALL_ATTRIBUTE_NAME_LOAD_LOAD_",
      "MODULE_FUNCTIONDEF_ARGUMENTS_ARG_ARG _ARG",
      "CONSTANT_ CONSTANT_LOAD_",
      "TRY _ASSIGN_NAME_STORE_",
      "NAME_LOAD_ RETURN_",
      "E L",
      "G T",
      "TUPLE_NAME_LOAD_ NAME_LOAD_LOAD_",
      "SUBSCRIPT_NAME_LOAD_ SLICE_",
      "CONSTANT_ASSIGN_ SUBSCRIPT_NAME_LOAD_",
      "FOR_ TUPLE_NAME_STORE_NAME_STORE_STORE_",
      "LISTCOMP _",
      "CALL_NAME_LOAD_NAME_LOAD_ ASSIGN_NAME_STORE_",
      "BOOLOP_ OR_",
      "LIST _CONSTANT_",
      "BINOP_ BINOP_",
      "MODULE_FUNCTIONDEF_ARGUMENTS_ARG_ARG_EXPR_ CONSTANT_",
      "IF _ATTRIBUTE_NAME_LOAD_LOAD_",
      "EQ _CONSTANT_ASSIGN_NAME_STORE_",
      "EQ _NAME_LOAD_",
      "CALL_ATTRIBUTE_CONSTANT_LOAD_ NAME_LOAD_",
      "IS NOT",
      "SUBSCRIPT_ATTRIBUTE_NAME_LOAD_LOAD_ NAME_LOAD_LOAD_",
      "SUBSCRIPT_NAME_LOAD_CONSTANT_LOAD_ LOAD_",
      "COMPARE_ ATTRIBUTE_NAME_LOAD_LOAD_",
      "_ WITH",
      "U E_",
      "EX P_",
      "CONSTANT_A TTRIBUTE_NAME_LOAD_LOAD_",
      "E M",
      "IT EM",
      "_WITH ITEM",
      "NAME_LOAD_NAME_LOAD_ NAME_LOAD_NAME_LOAD_",
      "_ CONSTANT_LOAD_",
      "ASSIGN_NAME_STORE_ CALL_NAME_LOAD_",
      "IF_ UNARYOP_NOT_",
      "CONSTANT_ASSIGN_SUBSCRIPT_NAME_LOAD_ CONSTANT_STORE_",
      "DICT _",
      "IF_COMPARE_NAME_LOAD_IS NOT",
      "CONSTANT_ EXPR_CALL_ATTRIBUTE_NAME_LOAD_LOAD_",
      "IF_COMPARE_ CONSTANT_",
      "_ATTRIBUTE_ ATTRIBUTE_NAME_LOAD_LOAD_LOAD_",
      "T _",
      "A UGASSIGN_NAME_STORE_ADD_",
      "MODULE_FUNCTIONDEF_ARGUMENTS_ARG_ARG _CONSTANT_EXPR_",
      "TRY _",
      "CALL_ATTRIBUTE_ CALL_ATTRIBUTE_NAME_LOAD_LOAD_",
      "IF_COMPARE_ CALL_NAME_LOAD_NAME_LOAD_",
      "WITH _WITHITEM",
      "SUBSCRIPT_ SUBSCRIPT_NAME_LOAD_CONSTANT_LOAD_",
      "IF_COMPARE_NAME_LOAD_ NOT",
      "CONSTANT_ NAME_LOAD_",
      "IN _ATTRIBUTE_NAME_LOAD_LOAD_",
      "AS S",
      "CALL_ATTRIBUTE_NAME_LOAD_LOAD_ NAME_LOAD_NAME_LOAD_",
      "CONSTANT_ASSIGN_NAME_STORE_ CALL_NAME_LOAD_",
      "IF_ UNARYOP_NOT_NAME_LOAD_",
      "ASSIGN_SUBSCRIPT_NAME_LOAD_ NAME_LOAD_STORE_",
      "_CONSTANT_ CONSTANT_EXPR_",
      "UNARYOP_USUB _CONSTANT_LOAD_",
      "MODULE_FUNCTIONDEF_ARGUMENTS_ARG_ARG_ARG _CONSTANT_EXPR_",
      "ATTRIBUTE_ NAME_LOAD_LOAD",
      "WITH_WITHITEM _",
      "CO NT",
      "CONT IN",
      "CONTIN UE_",
      "KEYWORD_ NAME_LOAD",
      "ASSIGN_ TUPLE_NAME_STORE_NAME_STORE_STORE_",
      "MODULE_FUNCTIONDEF_ARGUMENTS_ARG_ARG_ARG_ARG _ARG_ARG",
      "TUPLE_ NAME_LOAD_NAME_LOAD_",
      "CALL_NAME_LOAD_NAME_LOAD_ CONSTANT_",
      "IF_ CALL_NAME_LOAD_NAME_LOAD_",
      "RETURN_ CALL_NAME_LOAD_",
      "EQ _ATTRIBUTE_NAME_LOAD_LOAD_",
      "IF_COMPARE_NAME_LOAD_IS _CONSTANT_ASSIGN_NAME_STORE_",
      "BINOP _ATTRIBUTE_NAME_LOAD_LOAD_",
      "NAME_LOAD_ RETURN_NAME_LOAD",
      "_A LI",
      "_ALI AS",
      "RETURN_ CALL_ATTRIBUTE_NAME_LOAD_LOAD_",
      "BINOP_ CONSTANT_ADD_",
      "CONSTANT_LOAD_ ASSIGN_NAME_STORE_",
      "I EL",
      "Y IEL",
      "ISNOT _CONSTANT_",
      "CONSTANT_IF_ BOOLOP_AND_",
      "CONSTANT_IF_ UNARYOP_NOT_",
      "CONSTANT_LOAD_ LOAD_",
      "CALL_NAME_LOAD_NAME_LOAD_ NAME_LOAD_NAME_LOAD_",
      "IS _CONSTANT_",
      "CALL_ATTRIBUTE_ ATTRIBUTE_ATTRIBUTE_NAME_LOAD_LOAD_LOAD_LOAD_",
      "IF_COMPARE_NAME_LOAD_ EQ_CONSTANT_",
      "NAME_LOAD_ EXPR_CALL_ATTRIBUTE_NAME_LOAD_LOAD_",
      "SUBSCRIPT_NAME_LOAD_CONSTANT_LOAD_ ASSIGN_NAME_STORE_",
      "IF_NAME_LOAD_ ASSIGN_NAME_STORE_",
      "ER T_",
      "CALL_NAME_LOAD_ CONSTANT_",
      "CALL_ATTRIBUTE_NAME_LOAD_LOAD_ ATTRIBUTE_NAME_LOAD_LOAD_",
      "L T",
      "IF EXP_",
      "ASSIGN_ SUBSCRIPT_ATTRIBUTE_NAME_LOAD_LOAD_",
      "T OR",
      "I M",
      "P OR",
      "DI V",
      "IM POR",
      "IMPOR T",
      "D EL",
      "KEYWORD_ATTRIBUTE_NAME_LOAD_LOAD_ KEYWORD_ATTRIBUTE_NAME_LOAD_LOAD_",
      "BINOP_NAME_LOAD_ SUB",
      "UNARYOP_NOT _ATTRIBUTE_NAME_LOAD_LOAD_",
      "DICT_CONSTANT_ CONSTANT_CONSTANT_",
      "H I",
      "W HI",
      "WHI LE_",
      "IF_COMPARE_NAME_LOAD_IS _CONSTANT_",
      "CONSTANT_CONSTANT_CONSTANT_CONSTANT_ CONSTANT_CONSTANT_CONSTANT_CONSTANT_",
      "COMPREHENSION_NAME_STORE_ NAME_LOAD_",
      "RETUR N",
      "_CONSTANT_ CONSTANT_CONSTANT_",
      "YIEL D_",
      "FOR_NAME_STORE_ ATTRIBUTE_NAME_LOAD_LOAD_",
      "A RG",
      "CONSTANT_ASSIGN_NAME_STORE_ CALL_ATTRIBUTE_NAME_LOAD_LOAD_NAME_LOAD_",
      "EXPR_CALL_ATTRIBUTE_NAME_LOAD_LOAD_ NAME_LOAD_NAME_LOAD_",
      "NAME_LOAD_ASSIGN_NAME_STORE_ CALL_ATTRIBUTE_NAME_LOAD_LOAD_NAME_LOAD_",
      "COMPARE_ CONSTANT_",
      "CALL _",
      "ASSIGN_NAME_STORE_ CALL_ATTRIBUTE_NAME_LOAD_LOAD_NAME_LOAD_",
      "CALL_NAME_LOAD_ SUBSCRIPT_NAME_LOAD_CONSTANT_LOAD_",
      "CALL_NAME_LOAD_ NAME_LOAD_LOAD_",
      "TUPLE_ CONSTANT_CONSTANT_LOAD_",
      "RETURN_ NAME_LOAD_",
      "KEYWORD_NAME_LOAD_ KEYWORD_",
      "ATTRIBUTE_NAME_LOAD_LOAD_ STORE_",
      "NAME_STORE_ STORE_",
      "EXPR_CALL_ATTRIBUTE_ATTRIBUTE_NAME_LOAD_LOAD_LOAD_ NAME_LOAD_",
      "KEYWORD_CONSTANT_ KEYWORD_",
      "RAISE_CALL_NAME_LOAD_ BINOP_CONSTANT_MOD_",
      "CONSTANT_ASSIGN_ TUPLE_NAME_STORE_NAME_STORE_STORE_",
      "RETURN_ CONSTANT_",
      "BOOLOP_ OR",
      "IF_ BOOLOP_OR_",
      "P ASS",
      "EXPR_CALL_ATTRIBUTE_NAME_LOAD_LOAD_ ATTRIBUTE_NAME_LOAD_LOAD_",
      "CALL_NAME_LOAD_ CALL_ATTRIBUTE_NAME_LOAD_LOAD_",
      "E RA",
      "G EN",
      "ERA TOR",
      "GEN ERATOR",
      "EX P",
      "MODULE_FUNCTIONDEF_ARGUMENTS_ARG_ARG_ARG_ARG _EXPR_",
      "EXPR_ CALL_NAME_LOAD_NAME_LOAD_",
      "A K",
      "B RE",
      "BRE AK",
      "F R",
      "O M",
      "FR OM",
      "LIST_ NAME_LOAD_LOAD_",
      "RAISE_CALL_NAME_LOAD_ CONSTANT_",
      "GT _CONSTANT_",
      "EXCEPTHANDLER _",
      "IF_COMPARE_NAME_LOAD_ EQ_CONSTANT_ASSIGN_NAME_STORE_",
      "CONSTANT_ASSIGN_NAME_STORE_ CALL_NAME_LOAD_NAME_LOAD_",
      "LIST_LOAD_ ASSIGN_NAME_STORE_",
      "CALL_ATTRIBUTE_ATTRIBUTE_NAME_LOAD_LOAD_LOAD_ ATTRIBUTE_NAME_LOAD_LOAD_",
      "E D",
      "EXPR_ YIELD_",
      "A M",
      "A _ARGUMENTS",
      "B D",
      "L AM",
      "BD A_ARGUMENTS",
      "LAM BDA_ARGUMENTS",
      "NOT EQ_CONSTANT_",
      "NAME_LOAD_ASSIGN_NAME_STORE_ CALL_NAME_LOAD_",
      "NAME_LOAD_ ASSIGN_ATTRIBUTE_NAME_LOAD_STORE_",
      "COMPARE_ CALL_NAME_LOAD_NAME_LOAD_",
      "SUBSCRIPT_NAME_LOAD_NAME_LOAD_LOAD_ LOAD_",
      "CONSTANT_ASSIGN_NAME_STORE_ CONSTANT_",
      "CALL_ATTRIBUTE_ NAME_LOAD_LOAD",
      "EXPR_CALL_ATTRIBUTE_NAME_LOAD_LOAD_ CALL_ATTRIBUTE_CONSTANT_LOAD_",
      "CONSTANT_A UGASSIGN_NAME_STORE_ADD_",
      "_NAME_LOAD_ ARG",
      "SUBSCRIPT_SUBSCRIPT_NAME_LOAD_CONSTANT_LOAD_ CONSTANT_LOAD_",
      "SUBSCRIPT_ SUBSCRIPT_NAME_LOAD_NAME_LOAD_LOAD_",
      "TUPLE_ ATTRIBUTE_NAME_LOAD_LOAD_",
      "MODULE_FUNCTIONDEF_ARGUMENTS_ARG_ARG_ARG_ARG _ARG",
      "CALL_ATTRIBUTE_ SUBSCRIPT_NAME_LOAD_CONSTANT_LOAD_LOAD_",
      "BI T",
      "CALL_ATTRIBUTE_ATTRIBUTE_NAME_LOAD_LOAD_LOAD_ CONSTANT_",
      "CALL_ATTRIBUTE_ATTRIBUTE_NAME_LOAD_LOAD_LOAD_ NAME_LOAD_NAME_LOAD_",
      "DICT_CONSTANT_ CONSTANT_",
      "KEYWORD_NAME_LOAD_KEYWORD_NAME_LOAD_ KEYWORD_NAME_LOAD_KEYWORD_NAME_LOAD_",
      "NAME_LOAD_ASSIGN_NAME_STORE_ CALL_NAME_LOAD_NAME_LOAD_",
      "TUPLE_NAME_STORE_NAME_STORE_ NAME_STORE_STORE_",
      "IF_COMPARE_ SUBSCRIPT_NAME_LOAD_CONSTANT_LOAD_",
      "MODULE_FUNCTIONDEF_ARGUMENTS _ARG",
      "ATTRIBUTE_ ATTRIBUTE_ATTRIBUTE_NAME_LOAD_LOAD_LOAD_LOAD_",
      "UNARYOP_USUB _CONSTANT_",
      "MODULE_FUNCTIONDEF_ARGUMENTS _EXPR_",
      "G TE_",
      "CALL_ATTRIBUTE_CALL_ATTRIBUTE_NAME_LOAD_LOAD_ LOAD_",
      "IMPORT FROM",
      "IMPORTFROM _ALIAS",
      "LISTCOMP _NAME_LOAD_",
      "BINOP_CONSTANT_MOD_ NAME_LOAD_",
      "RETUR N_ATTRIBUTE_",
      "CONSTANT_IF_ CALL_NAME_LOAD_NAME_LOAD_",
      "BINOP_ATTRIBUTE_NAME_LOAD_LOAD_ ADD_",
      "GENERATOR EXP_",
      "IF EXP",
      "FOR_NAME_STORE_ CALL_ATTRIBUTE_NAME_LOAD_LOAD_",
      "RETURN_ CONSTANT",
      "CONSTANT_IF_ UNARYOP_NOT_NAME_LOAD_",
      "L TE_",
      "ASSIGN_NAME_STORE_ CALL_NAME_LOAD_NAME_LOAD_",
      "ASSIGN_NAME_STORE_ CONSTANT_",
      "LIST _NAME_LOAD_",
      "DICT_CONSTANT_ CONSTANT_CONSTANT_CONSTANT_CONSTANT_",
      "IF_ CALL_ATTRIBUTE_NAME_LOAD_LOAD_",
      "_NAME_LOAD_ EXPR_",
      "MODULE_FUNCTIONDEF_ARGUMENTS_ARG_EXPR_ CONSTANT_ASSIGN_NAME_STORE_CALL_ATTRIBUTE_NAME_LOAD_LOAD_",
      "SUBSCRIPT_NAME_LOAD_CONSTANT_LOAD_ SUBSCRIPT_NAME_LOAD_CONSTANT_LOAD_",
      "BOOLOP_OR _NAME_LOAD_",
      "RAISE_CALL_NAME_LOAD_ CALL_ATTRIBUTE_CONSTANT_LOAD_",
      "LAMBDA_ARGUMENTS _ARG",
      "LOAD_ LOAD_",
      "CONSTANT_ LOAD",
      "CALL_ATTRIBUTE_NAME_LOAD_LOAD_ CONSTANT_CONSTANT_",
      "MODULE_FUNCTIONDEF_ARGUMENTS_ARG_ARG_ARG_EXPR_ CONSTANT_ASSIGN_NAME_STORE_",
      "IF_BOOLOP_AND_ COMPARE_NAME_LOAD_",
      "IF_COMPARE_NAME_LOAD_ISNOT _CONSTANT_",
      "NAME_LOAD_ ADD_",
      "MODULE_FUNCTIONDEF_ARGUMENTS_ARG_ARG_ARG_EXPR_ CONSTANT_",
      "_ CONSTANT_ASSIGN_SUBSCRIPT_NAME_LOAD_CONSTANT_STORE_",
      "RETURN_ CALL_NAME_LOAD_NAME_LOAD_",
      "FOR_NAME_STORE_ NAME_LOAD_ASSIGN_NAME_STORE_",
      "RETURN_ CONSTANT_RETURN_",
      "IF_ CALL_NAME_LOAD_NAME_LOAD_NAME_LOAD_",
      "MODULE_FUNCTIONDEF_ARGUMENTS_ARG_ARG_ARG _CONSTANT_CONSTANT_EXPR_",
      "_CONSTANT_CONSTANT_CONSTANT_ EXPR_",
      "TUPLE_NAME_LOAD_NAME_LOAD_ LOAD",
      "S S",
      "EXPR_CALL_ATTRIBUTE_ NAME_LOAD_LOAD",
      "_A SSIGN_",
      "SUBSCRIPT _ATTRIBUTE_ATTRIBUTE_NAME_LOAD_LOAD_LOAD_",
      "SSIGN_ATTRIBUTE_ ATTRIBUTE_NAME_LOAD_LOAD_STORE_",
      "IF_COMPARE_NAME_LOAD_ IN_",
      "ATTRIBUTE_NAME_LOAD_LOAD_ LOAD",
      "ATTRIBUTE_NAME_LOAD_LOAD_ ASSIGN_ATTRIBUTE_NAME_LOAD_STORE_",
      "NAME_LOAD_NAME_LOAD_ NAME_LOAD_",
      "FOR_TUPLE_NAME_STORE_NAME_STORE_STORE_ CALL_ATTRIBUTE_NAME_LOAD_LOAD_",
      "COMPARE_ SUBSCRIPT_NAME_LOAD_CONSTANT_LOAD_",
      "PASS _",
      "COMPREHENSION_ TUPLE_NAME_STORE_NAME_STORE_STORE_",
      "EXPR_CALL_ATTRIBUTE_NAME_LOAD_LOAD_CONSTANT_ NAME_LOAD_",
      "BREAK _",
      "CONSTANT_A SS",
      "MODULE_FUNCTIONDEF_ARGUMENTS_ARG_ARG_CONSTANT_EXPR_ CONSTANT_",
      "CONSTANT_ASSIGN_NAME_STORE_ CONSTANT_ASSIGN_NAME_STORE_",
      "EXPR_CALL_ATTRIBUTE_NAME_LOAD_LOAD_ BINOP_CONSTANT_MOD_",
      "MODULE_FUNCTIONDEF_ARGUMENTS_ARG_ARG_EXPR_ CONSTANT_ASSIGN_NAME_STORE_CALL_ATTRIBUTE_NAME_LOAD_LOAD_",
      "TUPLE_ CONSTANT_",
      "DICT _ASSIGN_NAME_STORE_",
      "NAME_LOAD_LOAD_ ASSIGN_NAME_STORE_",
      "NOT IN_NAME_LOAD_",
      "RETURN_ATTRIBUTE_ NAME_LOAD_LOAD",
      "LAMBDA_ARGUMENTS_ARG _",
      "E TE_",
      "DEL ETE_",
      "IF_COMPARE_CONSTANT_ IN_NAME_LOAD_",
      "LIST_CONSTANT_ CONSTANT_LOAD_",
      "ASSIGN_SUBSCRIPT_ATTRIBUTE_NAME_LOAD_LOAD_ NAME_LOAD_STORE_",
      "FOR_NAME_STORE_ CALL_NAME_LOAD_",
      "SUB _",
      "ASS ERT_",
      "CONSTANT_ASS ERT_",
      "_ARG_ARG _ARG_ARG",
      "IFEXP _NAME_LOAD_",
      "EXPR_CALL_ATTRIBUTE_NAME_LOAD_LOAD_ NAME_LOAD",
      "EXPR_CALL_ATTRIBUTE_NAME_LOAD_LOAD_NAME_LOAD_ RETURN_NAME_LOAD",
      "RETURN_ CALL_ATTRIBUTE_NAME_LOAD_LOAD_NAME_LOAD_",
      "COMPARE_NAME_LOAD_ EQ_CONSTANT_",
      "NAME_LOAD_LOAD_ LOAD_",
      "A ND_",
      "BIT AND_",
      "CONSTANT_ RETURN_NAME_LOAD",
      "A UG",
      "CONSTANT_ASSIGN_NAME_STORE_ CALL_ATTRIBUTE_NAME_LOAD_LOAD_CONSTANT_",
      "COMPARE_NAME_LOAD_ IS_CONSTANT_",
      "SUBSCRIPT_ATTRIBUTE_NAME_LOAD_LOAD_CONSTANT_LOAD_ LOAD_",
      "CONSTANT_IF_ BOOLOP_OR_",
      "CALL_NAME_LOAD_ NAME_LOAD",
      "ASSIGN_NAME_STORE_ CALL_ATTRIBUTE_ATTRIBUTE_NAME_LOAD_LOAD_LOAD_",
      "M A",
      "IF_BOOLOP_AND_ NAME_LOAD_",
      "F OR",
      "CALL_NAME_LOAD_NAME_LOAD_ NAME_LOAD_LOAD_",
      "V AL",
      "TT ED",
      "MA TTED",
      "FOR MATTED",
      "VAL UE_",
      "FORMATTED VALUE_",
      "ASSIGN_SUBSCRIPT_NAME_LOAD_CONSTANT_STORE_ NAME_LOAD_",
      "IF_COMPARE_NAME_LOAD_ EQ_",
      "BINOP_BINOP_ CONSTANT_ADD_",
      "SUBSCRIPT_NAME_LOAD_SLICE_ CONSTANT_LOAD_",
      "CONSTANT_EXPR_ CALL_NAME_LOAD_",
      "CALL_ATTRIBUTE_NAME_LOAD_LOAD_ CALL_ATTRIBUTE_NAME_LOAD_LOAD_",
      "TUPLE_ SLICE_",
      "IF_COMPARE_CONSTANT_ IN_",
      "CONSTANT_CONSTANT_ CONSTANT_LOAD_",
      "BINOP_NAME_LOAD_ADD_ CONSTANT_",
      "CALL_ATTRIBUTE_CONSTANT_LOAD_ NAME_LOAD_NAME_LOAD_",
      "BINOP_ CALL_NAME_LOAD_NAME_LOAD_",
      "NOT EQ_",
      "KEYWORD_ SUBSCRIPT_NAME_LOAD_CONSTANT_LOAD_",
      "MODULE_FUNCTIONDEF_ARGUMENTS_ARG_ARG_ARG_ARG _CONSTANT_EXPR_",
      "CONSTANT_ASSIGN_NAME_STORE_ CALL_ATTRIBUTE_ATTRIBUTE_NAME_LOAD_LOAD_LOAD_",
      "TRY _EXPR_",
      "LIST_ CONSTANT_LOAD_",
      "CONSTANT_ EXPR_CALL_ATTRIBUTE_ATTRIBUTE_NAME_LOAD_LOAD_LOAD_",
      "SUBSCRIPT_ CALL_ATTRIBUTE_NAME_LOAD_LOAD_",
      "EXPR_CALL_ATTRIBUTE_NAME_LOAD_LOAD_ CONSTANT_CONSTANT_",
      "MODULE_FUNCTIONDEF_ARGUMENTS_ARG_EXPR_ CONSTANT_RETURN_",
      "CALL_NAME_LOAD_NAME_LOAD_ ATTRIBUTE_NAME_LOAD_LOAD_",
      "MODULE_FUNCTIONDEF_ARGUMENTS_ARG_ARG_ARG_ARG _CONSTANT_CONSTANT_EXPR_",
      "SUBSCRIPT_NAME_LOAD_ UNARYOP_USUB_CONSTANT_LOAD_",
      "CALL_NAME_LOAD_NAME_LOAD_CONSTANT_ NAME_STORE_",
      "IF_COMPARE_ATTRIBUTE_NAME_LOAD_LOAD_ EQ_CONSTANT_",
      "IF_COMPARE_NAME_LOAD_ IN_NAME_LOAD_",
      "ASSIGN_NAME_STORE_CALL_ATTRIBUTE_NAME_LOAD_LOAD_ NAME_LOAD_NAME_LOAD_",
      "LT _CONSTANT_",
      "EXPR_CALL_ATTRIBUTE_NAME_LOAD_LOAD_ CALL_ATTRIBUTE_NAME_LOAD_LOAD_",
      "LIST_LOAD_ FOR_NAME_STORE_",
      "CONSTANT_ IF_NAME_LOAD_",
      "RETURN_ TUPLE_",
      "RETURN _ASSIGN_NAME_STORE_",
      "LT _NAME_LOAD_",
      "CALL_ATTRIBUTE_ CALL_ATTRIBUTE_ATTRIBUTE_NAME_LOAD_LOAD_LOAD_",
      "L T_",
      "EXPR_CALL_ATTRIBUTE_NAME_LOAD_LOAD_NAME_LOAD_ EXPR_CALL_ATTRIBUTE_NAME_LOAD_LOAD_NAME_LOAD_",
      "KEYWORD_NAME_LOAD_KEYWORD_NAME_LOAD_ KEYWORD_NAME_LOAD_",
      "EXCEPTHANDLER _ATTRIBUTE_NAME_LOAD_LOAD_",
      "SUBSCRIPT_ SUBSCRIPT_ATTRIBUTE_NAME_LOAD_LOAD_NAME_LOAD_LOAD_",
      "RAISE_ CALL_ATTRIBUTE_NAME_LOAD_LOAD_",
      "CONSTANT_ASSIGN_ATTRIBUTE_NAME_LOAD_STORE_ CONSTANT_ASSIGN_ATTRIBUTE_NAME_LOAD_STORE_",
      "BINOP_NAME_LOAD_SUB _NAME_LOAD_",
      "EXPR_CALL_ATTRIBUTE_NAME_LOAD_LOAD_ NAME_LOAD_ASSIGN_NAME_STORE_",
      "SUBSCRIPT_ATTRIBUTE_NAME_LOAD_LOAD_NAME_LOAD_LOAD_ LOAD_",
      "COMPARE_CONSTANT_ IN_NAME_LOAD_",
      "A SSIGN_ATTRIBUTE_ATTRIBUTE_NAME_LOAD_LOAD_STORE_",
      "IF_COMPARE_NAME_LOAD_ EQ_NAME_LOAD_",
      "MODULE_FUNCTIONDEF_ARGUMENTS_ARG_EXPR_ CONSTANT_IF_",
      "ATTRIBUTE_NAME_LOAD_LOAD_ NAME_LOAD_",
      "IMPORT _ALIAS",
      "_CONSTANT_ CONSTANT_CONSTANT_CONSTANT_CONSTANT_",
      "KEYWORD_ NAME_LOAD_ASSIGN_NAME_STORE_",
      "GT _",
      "SUBSCRIPT_NAME_LOAD_ ATTRIBUTE_NAME_LOAD_LOAD_LOAD_",
      "IF_COMPARE_NAME_LOAD_ISNOT _CONSTANT_ASSIGN_NAME_STORE_",
      "COMPREHENSION_NAME_STORE_ ATTRIBUTE_NAME_LOAD_LOAD_",
      "GT _CONSTANT_ASSIGN_NAME_STORE_",
      "SUBSCRIPT_ CALL_ATTRIBUTE_NAME_LOAD_LOAD_CONSTANT_",
      "COMPARE_NAME_LOAD_ ISNOT_CONSTANT_",
      "KEYWORD_CONSTANT_KEYWORD_CONSTANT_ KEYWORD_CONSTANT_",
      "WITH_WITHITEM_ CALL_NAME_LOAD_NAME_LOAD_CONSTANT_NAME_STORE_",
      "CONSTANT_ IF_COMPARE_NAME_LOAD_IS_CONSTANT_ASSIGN_NAME_STORE_",
      "CALL_NAME_LOAD_ CALL_NAME_LOAD_",
      "EXCEPTHANDLER_ TUPLE_NAME_LOAD_NAME_LOAD_LOAD_",
      "BINOP_ CALL_ATTRIBUTE_NAME_LOAD_LOAD_",
      "RETURN _ATTRIBUTE_NAME_LOAD_LOAD_",
      "ATTRIBUTE_NAME_LOAD_LOAD_ ASSIGN_NAME_STORE_CALL_ATTRIBUTE_NAME_LOAD_LOAD_",
      "DIV _",
      "IF_COMPARE_NAME_LOAD_NOT IN_NAME_LOAD_",
      "KEYWORD_ CONSTANT",
      "CALL_NAME_LOAD_ATTRIBUTE_NAME_LOAD_LOAD_ NAME_LOAD_",
      "MODULE_FUNCTIONDEF_ARGUMENTS_ARG_EXPR_CONSTANT_ IF_COMPARE_ATTRIBUTE_NAME_LOAD_LOAD_",
      "BINOP_CONSTANT_MOD_ TUPLE_",
      "SUBSCRIPT_ATTRIBUTE_NAME_LOAD_LOAD_ SLICE_",
      "NOT IN_",
      "IF_COMPARE_ CALL_ATTRIBUTE_NAME_LOAD_LOAD_",
      "BINOP_ BINOP_NAME_LOAD_ADD_",
      "MODULE_FUNCTIONDEF_ARGUMENTS_ARG_EXPR_CONSTANT_ASSIGN_NAME_STORE_ CALL_NAME_LOAD_",
      "ATTRIBUTE_NAME_LOAD_LOAD_ATTRIBUTE_NAME_LOAD_LOAD_ ATTRIBUTE_NAME_LOAD_LOAD_ATTRIBUTE_NAME_LOAD_LOAD_",
      "CALL_ATTRIBUTE_NAME_LOAD_LOAD_ LOAD_",
      "CALL_ATTRIBUTE_NAME_LOAD_LOAD_ ASSIGN_NAME_STORE_",
      "CONSTANT_ASSIGN_ SUBSCRIPT_ATTRIBUTE_NAME_LOAD_LOAD_",
      "_ CONSTANT_ASSIGN_ATTRIBUTE_NAME_LOAD_STORE_",
      "ASSIGN_SUBSCRIPT_ATTRIBUTE_NAME_LOAD_LOAD_ CONSTANT_STORE_",
      "DICT COMP",
      "LIST_LOAD_ FOR_NAME_STORE_NAME_LOAD_",
      "TRY_ASSIGN_NAME_STORE_ CALL_NAME_LOAD_NAME_LOAD_",
      "SUBSCRIPT_ SUBSCRIPT_ATTRIBUTE_NAME_LOAD_LOAD_CONSTANT_LOAD_",
      "LIST _ATTRIBUTE_NAME_LOAD_LOAD_",
      "RETURN_CONSTANT_RETURN_ CONSTANT",
      "RETURN_ TUPLE_NAME_LOAD_NAME_LOAD_LOAD",
      "MODULE_FUNCTIONDEF_ARGUMENTS_ARG_ARG_CONSTANT_EXPR_ CONSTANT_ASSIGN_NAME_STORE_",
      "NOT EQ_NAME_LOAD_",
      "ADD_ CONSTANT_",
      "NAME_LOAD_ NAME_LOAD",
      "CALL_NAME_LOAD_ CALL_NAME_LOAD_NAME_LOAD_",
      "CALL_ATTRIBUTE_ CALL_ATTRIBUTE_",
      "ADD_ CONSTANT_ADD_",
      "KEYWORD_CONSTANT_KEYWORD_CONSTANT_ KEYWORD_CONSTANT_KEYWORD_CONSTANT_",
      "IF_COMPARE_NAME_LOAD_ IN_ATTRIBUTE_NAME_LOAD_LOAD_",
      "SUB _CONSTANT_",
      "GT _NAME_LOAD_",
      "CONSTANT_A TTRIBUTE_",
      "MODULE_FUNCTIONDEF_ARGUMENTS_ARG_ARG_ARG_ARG _ARG_EXPR_",
      "DICT_CONSTANT_CONSTANT_CONSTANT_ CONSTANT_",
      "EXPR_CALL_ATTRIBUTE_NAME_LOAD_LOAD_ EXPR_CALL_ATTRIBUTE_NAME_LOAD_LOAD_",
      "EXPR_CALL_ATTRIBUTE_ ATTRIBUTE_ATTRIBUTE_NAME_LOAD_LOAD_LOAD_LOAD_",
      "DEL _",
      "FOR_TUPLE_NAME_STORE_NAME_STORE_STORE_ CALL_NAME_LOAD_NAME_LOAD_",
      "CALL_ATTRIBUTE_NAME_LOAD_LOAD_ NAME_LOAD",
      "J O",
      "ST R",
      "IN ED",
      "JO INED",
      "JOINED STR",
      "_CONSTANT_CONSTANT_CONSTANT_ CONSTANT_EXPR_",
      "CALL_ATTRIBUTE_ CALL_NAME_LOAD_NAME_LOAD_NAME_LOAD_LOAD_",
      "EXPR_ CALL_NAME_LOAD_NAME_LOAD_NAME_LOAD_",
      "SUB _NAME_LOAD_",
      "NAME_LOAD_ IF_NAME_LOAD_",
      "IF_ UNARYOP_NOT_ATTRIBUTE_NAME_LOAD_LOAD_",
      "EXPR_CALL_NAME_LOAD_ CONSTANT_",
      "CALL_ATTRIBUTE_CONSTANT_LOAD_ ATTRIBUTE_NAME_LOAD_LOAD_",
      "IF_COMPARE_NAME_LOAD_ISNOT _CONSTANT_ASSIGN_SUBSCRIPT_NAME_LOAD_CONSTANT_STORE_",
      "NAME_LOAD_ CONSTANT_",
      "EXCEPTHANDLER_NAME_LOAD_ ASSIGN_NAME_STORE_",
      "RETURN_CALL_ATTRIBUTE_NAME_LOAD_LOAD_ NAME_LOAD",
      "RAISE_CALL_NAME_LOAD_ CALL_ATTRIBUTE_CONSTANT_LOAD_NAME_LOAD_",
      "IMPORTFROM_ALIAS _",
      "TUPLE_ATTRIBUTE_NAME_LOAD_LOAD_ ATTRIBUTE_NAME_LOAD_LOAD_LOAD_",
      "SUBSCRIPT_NAME_LOAD_SLICE_ UNARYOP_USUB_CONSTANT_LOAD_",
      "NAME_LOAD_ASSIGN_NAME_STORE_ CONSTANT_",
      "KEYWORD_NAME_LOAD_ KEYWORD_CONSTANT_",
      "EXPR_CALL_ATTRIBUTE_NAME_LOAD_LOAD_NAME_LOAD_ EXPR_CALL_ATTRIBUTE_NAME_LOAD_LOAD_",
      "LIST_CONSTANT_ CONSTANT_CONSTANT_LOAD_",
      "KEYWORD_NAME_LOAD_ KEYWORD_NAME_LOAD",
      "KEYWORD_ CONSTANT_ASSIGN_NAME_STORE_",
      "RAISE_CALL_NAME_LOAD_ CONSTANT_ASSIGN_NAME_STORE_",
      "RAISE_ CALL_NAME_LOAD_NAME_LOAD_",
      "BINOP_CONSTANT_MOD_ TUPLE_NAME_LOAD_NAME_LOAD_LOAD_",
      "H IF",
      "S HIF",
      "MODULE_FUNCTIONDEF_ARGUMENTS_ARG_ARG_EXPR_ CONSTANT_RETURN_",
      "CALL_ATTRIBUTE_ATTRIBUTE_NAME_LOAD_LOAD_LOAD_ NAME_LOAD_ASSIGN_NAME_STORE_",
      "TUPLE_NAME_STORE_NAME_STORE_ NAME_STORE_NAME_STORE_",
      "_NAME_LOAD_ARG _NAME_LOAD_ARG",
      "IF_COMPARE_NAME_LOAD_ EQ_ATTRIBUTE_NAME_LOAD_LOAD_",
      "IF_NAME_LOAD_ EXPR_CALL_ATTRIBUTE_NAME_LOAD_LOAD_",
      "ASSIGN_ATTRIBUTE_NAME_LOAD_STORE_ ADD_",
      "ASSIGN_NAME_STORE_ ATTRIBUTE_NAME_LOAD_LOAD_",
      "SUBSCRIPT_NAME_LOAD_ CONSTANT_LOAD",
      "TRY_ASSIGN_NAME_STORE_ CALL_ATTRIBUTE_NAME_LOAD_LOAD_",
      "IF_COMPARE_ATTRIBUTE_NAME_LOAD_LOAD_ ISNOT",
      "CALL_NAME_LOAD_ SUBSCRIPT_NAME_LOAD_NAME_LOAD_LOAD_",
      "IF_COMPARE_ATTRIBUTE_NAME_LOAD_LOAD_ ISNOT_CONSTANT_",
      "EXCEPTHANDLER_NAME_LOAD_ PASS_",
      "IF_COMPARE_CALL_NAME_LOAD_NAME_LOAD_ EQ_CONSTANT_",
      "KEYWORD_ATTRIBUTE_NAME_LOAD_LOAD_ KEYWORD_",
      "EXPR_CALL_ATTRIBUTE_ATTRIBUTE_NAME_LOAD_LOAD_LOAD_ CONSTANT_",
      "RETURN_ NAME_LOAD_RETURN_",
      "CALL_NAME_LOAD_ GENERATOREXP_",
      "LISTCOMP_NAME_LOAD_ COMPREHENSION_NAME_STORE_NAME_LOAD_",
      "CONSTANT_ASSIGN_SUBSCRIPT_NAME_LOAD_ NAME_LOAD_STORE_",
      "FOR_NAME_STORE_ CALL_NAME_LOAD_NAME_LOAD_",
      "DIV _NAME_LOAD_",
      "MODULE_FUNCTIONDEF_ARGUMENTS_ARG_ARG_ARG_CONSTANT_EXPR_ CONSTANT_",
      "EXPR_CALL_ATTRIBUTE_NAME_LOAD_LOAD_ CALL_ATTRIBUTE_CONSTANT_LOAD_NAME_LOAD_",
      "CALL_ATTRIBUTE_ CALL_NAME_LOAD_NAME_LOAD_LOAD_",
      "EXPR_CALL_ATTRIBUTE_ATTRIBUTE_NAME_LOAD_LOAD_LOAD_ NAME_LOAD",
      "MODULE_FUNCTIONDEF_ARGUMENTS_ARG_ARG_ARG_ARG_ARG_ARG _ARG_ARG",
      "IF_COMPARE_NAME_LOAD_NOT IN_ATTRIBUTE_NAME_LOAD_LOAD_",
      "ATTRIBUTE_ATTRIBUTE_NAME_LOAD_LOAD_LOAD_ ASSIGN_NAME_STORE_",
      "LISTCOMP_ CALL_NAME_LOAD_NAME_LOAD_",
      "TUPLE_NAME_LOAD_NAME_LOAD_ NAME_LOAD_LOAD_",
      "RETURN_CALL_NAME_LOAD_ NAME_LOAD",
      "NAME_LOAD_ NAME_LOAD_LOAD_",
      "SUBSCRIPT_NAME_LOAD_CONSTANT_LOAD_ ASSIGN_SUBSCRIPT_NAME_LOAD_CONSTANT_STORE_",
      "MODULE_FUNCTIONDEF_ARGUMENTS_ARG_ARG_ARG_ARG _CONSTANT_CONSTANT_CONSTANT_EXPR_",
      "_A SSIGN_ATTRIBUTE_NAME_LOAD_STORE_",
      "CONSTANT_CONSTANT_ CONSTANT_",
      "EXPR_CALL_ATTRIBUTE_ATTRIBUTE_NAME_LOAD_LOAD_LOAD_ ATTRIBUTE_NAME_LOAD_LOAD_",
      "ATTRIBUTE_ NAME_LOAD_STORE_",
      "CALL_ SUBSCRIPT_NAME_LOAD_CONSTANT_LOAD_",
      "ASSIGN_ TUPLE_NAME_STORE_NAME_STORE_NAME_STORE_STORE_",
      "EXPR_CALL_ATTRIBUTE_NAME_LOAD_LOAD_CONSTANT_ EXPR_CALL_ATTRIBUTE_NAME_LOAD_LOAD_",
      "ATTRIBUTE_ATTRIBUTE_ATTRIBUTE_NAME_LOAD_LOAD_LOAD_LOAD_ LOAD_",
      "CALL_ATTRIBUTE_NAME_LOAD_LOAD_CONSTANT_ NAME_LOAD_",
      "UNARYOP_USUB _",
      "CALL_NAME_LOAD_NAME_LOAD_ASSIGN_NAME_STORE_ CALL_NAME_LOAD_NAME_LOAD_",
      "TRY_ASSIGN_NAME_STORE_ CALL_ATTRIBUTE_NAME_LOAD_LOAD_NAME_LOAD_",
      "CONSTANT_CONSTANT_ CONSTANT_CONSTANT_LOAD_",
      "MODULE_FUNCTIONDEF_ARGUMENTS_ARG_ARG_ARG_CONSTANT_EXPR_ CONSTANT_ASSIGN_NAME_STORE_",
      "CALL_ATTRIBUTE_CALL_ATTRIBUTE_NAME_LOAD_LOAD_ NAME_LOAD_LOAD_",
      "SUBSCRIPT _ATTRIBUTE_",
      "CALL_NAME_LOAD_ATTRIBUTE_NAME_LOAD_LOAD_ ATTRIBUTE_NAME_LOAD_LOAD_",
      "IF_ATTRIBUTE_NAME_LOAD_LOAD_ ASSIGN_NAME_STORE_",
      "TRY _ASSIGN_",
      "CALL_ATTRIBUTE_NAME_LOAD_LOAD_NAME_LOAD_ CONSTANT_",
      "COMPARE_NAME_LOAD_ IN_",
      "CONSTANT_ASSIGN_ATTRIBUTE_NAME_LOAD_STORE_ NAME_LOAD_",
      "JOINEDSTR _CONSTANT_",
      "CALL_ATTRIBUTE_NAME_LOAD_LOAD_ NAME_LOAD_ASSIGN_NAME_STORE_",
      "IF_UNARYOP_NOT_ CALL_NAME_LOAD_NAME_LOAD_",
      "EXPR_CALL_ATTRIBUTE_NAME_LOAD_LOAD_ CONSTANT_ATTRIBUTE_NAME_LOAD_LOAD_",
      "DICT_CONSTANT_ CONSTANT_CONSTANT_CONSTANT_CONSTANT_CONSTANT_CONSTANT_CONSTANT_CONSTANT_",
      "MODULE_FUNCTIONDEF_ARGUMENTS_ARG_ARG_EXPR_ CONSTANT_IF_",
      "RETURN_ CONSTANT_ASSIGN_NAME_STORE_",
      "CONSTANT_ASSIGN_NAME_STORE_CALL_ATTRIBUTE_NAME_LOAD_LOAD_ NAME_LOAD_NAME_LOAD_",
      "BINOP_NAME_LOAD_ADD_ CONSTANT_LOAD_",
      "NAME_LOAD_ASSIGN_NAME_STORE_CALL_ATTRIBUTE_NAME_LOAD_LOAD_ NAME_LOAD_NAME_LOAD_",
      "ASSIGN_ATTRIBUTE_NAME_LOAD_STORE_ CALL_ATTRIBUTE_NAME_LOAD_LOAD_",
      "SUBSCRIPT_SUBSCRIPT_NAME_LOAD_NAME_LOAD_LOAD_ CONSTANT_LOAD_",
      "LISTCOMP_NAME_LOAD_ COMPREHENSION_NAME_STORE_",
      "KEYWORD_ CALL_ATTRIBUTE_NAME_LOAD_LOAD_",
      "SUBSCRIPT_ATTRIBUTE_NAME_LOAD_LOAD_ ATTRIBUTE_NAME_LOAD_LOAD_LOAD_",
      "IF_ CALL_ATTRIBUTE_NAME_LOAD_LOAD_NAME_LOAD_",
      "SUBSCRIPT_ SUBSCRIPT_",
      "LISTCOMP_ CALL_ATTRIBUTE_NAME_LOAD_LOAD_",
      "CONSTANT_IF_UNARYOP_NOT_ CALL_NAME_LOAD_NAME_LOAD_NAME_LOAD_",
      "JOINEDSTR_CONSTANT_ FORMATTEDVALUE_",
      "COMPARE_ATTRIBUTE_NAME_LOAD_LOAD_ EQ_CONSTANT_",
      "COMPARE_NAME_LOAD_ IN_NAME_LOAD_",
      "SUBSCRIPT_NAME_LOAD_ TUPLE_SLICE_",
      "EXPR_ CONSTANT_ASSIGN_NAME_STORE_",
      "TRY_ EXPR_CALL_ATTRIBUTE_NAME_LOAD_LOAD_",
      "ATTRIBUTE_ SUBSCRIPT_NAME_LOAD_CONSTANT_LOAD_LOAD_",
      "IF_COMPARE_ATTRIBUTE_NAME_LOAD_LOAD_ EQ_CONSTANT_ASSIGN_NAME_STORE_",
      "CALL_NAME_LOAD_NAME_LOAD_ CALL_NAME_LOAD_NAME_LOAD_",
      "CALL_ATTRIBUTE_ CALL_NAME_LOAD_",
      "NOT EQ_ATTRIBUTE_NAME_LOAD_LOAD_",
      "SHIF T",
      "ATTRIBUTE_NAME_LOAD_LOAD_ASSIGN_NAME_STORE_ ATTRIBUTE_NAME_LOAD_LOAD_ASSIGN_NAME_STORE_",
      "COMPREHENSION_NAME_STORE_ NAME_LOAD_ASSIGN_NAME_STORE_",
      "CALL_ NAME_LOAD_LOAD_",
      "SUBSCRIPT_NAME_LOAD_NAME_LOAD_LOAD_ ASSIGN_NAME_STORE_",
      "BINOP_NAME_LOAD_ MOD_",
      "CONSTANT_A UG",
      "IF_COMPARE_NAME_LOAD_NOT IN_",
      "ATTRIBUTE_ CALL_ATTRIBUTE_NAME_LOAD_LOAD_",
      "RAISE_CALL_NAME_LOAD_ CONSTANT",
      "ATTRIBUTE_NAME_LOAD_LOAD_ RETURN_NAME_LOAD",
      "IMPORTFROM_ALIAS _ASSIGN_NAME_STORE_",
      "IF_COMPARE_ ATTRIBUTE_ATTRIBUTE_NAME_LOAD_LOAD_LOAD_",
      "DICT_CONSTANT_ NAME_LOAD_",
      "BOOLOP_OR _ATTRIBUTE_NAME_LOAD_LOAD_",
      "KEYWORD_ CALL_NAME_LOAD_",
      "MODULE_FUNCTIONDEF_ARGUMENTS_ARG_ARG_ARG_ARG_ARG_ARG _ARG",
      "NOT IN_ATTRIBUTE_NAME_LOAD_LOAD_",
      "DICTCOMP _NAME_LOAD_",
      "MODULE_FUNCTIONDEF_ARGUMENTS_ARG_ARG_ARG_ARG_ARG_ARG _ARG_ARG_ARG_ARG",
      "IF_CALL_NAME_LOAD_NAME_LOAD_ NAME_LOAD_ASSIGN_NAME_STORE_",
      "DIV _CONSTANT_",
      "ATTRIBUTE_NAME_LOAD_LOAD_ RETURN_",
      "COMPARE_ CALL_ATTRIBUTE_NAME_LOAD_LOAD_",
      "CONTINUE_ ASSIGN_NAME_STORE_",
      "MODULE_FUNCTIONDEF_ARGUMENTS_ARG_ARG _NAME_LOAD_EXPR_",
      "MODULE_FUNCTIONDEF_ARGUMENTS_ARG_ARG_EXPR_CONSTANT_ASSIGN_NAME_STORE_ CALL_ATTRIBUTE_NAME_LOAD_LOAD_NAME_LOAD_",
      "SUBSCRIPT_NAME_LOAD_ NAME_LOAD_LOAD",
      "MODULE_FUNCTIONDEF_ARGUMENTS_ARG_ARG_ARG_ARG_EXPR_ CONSTANT_ASSIGN_NAME_STORE_",
      "CONSTANT_IF_UNARYOP_NOT_ CALL_NAME_LOAD_NAME_LOAD_",
      "CONSTANT_RETURN_ CALL_ATTRIBUTE_NAME_LOAD_LOAD_",
      "BINOP_NAME_LOAD_SUB _",
      "IF_COMPARE_CONSTANT_ IN_ATTRIBUTE_NAME_LOAD_LOAD_",
      "ATTRIBUTE_ATTRIBUTE_NAME_LOAD_LOAD_LOAD_ ATTRIBUTE_ATTRIBUTE_NAME_LOAD_LOAD_LOAD_",
      "IF_COMPARE_ CALL_NAME_LOAD_ATTRIBUTE_NAME_LOAD_LOAD_",
      "SUBSCRIPT_ATTRIBUTE_NAME_LOAD_LOAD_CONSTANT_LOAD_ ASSIGN_NAME_STORE_",
      "A UGASSIGN_NAME_STORE_",
      "MODULE_FUNCTIONDEF_ARGUMENTS_ARG _CONSTANT_EXPR_",
      "CALL_ATTRIBUTE_NAME_LOAD_LOAD_ CONSTANT_ASSIGN_NAME_STORE_",
      "EXPR_CALL_ATTRIBUTE_ SUBSCRIPT_NAME_LOAD_CONSTANT_LOAD_LOAD_",
      "ATTRIBUTE_NAME_LOAD_LOAD_ EXPR_CALL_ATTRIBUTE_NAME_LOAD_LOAD_",
      "BINOP_ SUBSCRIPT_NAME_LOAD_CONSTANT_LOAD_",
      "BINOP_NAME_LOAD_ADD_ NAME_LOAD_",
      "ASSIGN_ATTRIBUTE_NAME_LOAD_STORE_ NAME_LOAD_",
      "BINOP_BINOP_ BINOP_BINOP_",
      "CONSTANT_ASSIGN_ TUPLE_NAME_STORE_NAME_STORE_NAME_STORE_STORE_",
      "TRY_ RETURN_",
      "BI TOR",
      "IF_ CALL_ATTRIBUTE_NAME_LOAD_LOAD_CONSTANT_",
      "NAME_LOAD_ASSIGN_NAME_STORE_ CALL_ATTRIBUTE_NAME_LOAD_LOAD_CONSTANT_",
      "IMPORT_ALIAS _",
      "LOAD_ ASSIGN_NAME_STORE_",
      "CALL_NAME_LOAD_ATTRIBUTE_NAME_LOAD_LOAD_ ASSIGN_NAME_STORE_",
      "COMPARE_NAME_LOAD_ EQ_",
      "EXPR_ CONSTANT_",
      "CALL_ATTRIBUTE_ATTRIBUTE_NAME_LOAD_LOAD_LOAD_ CONSTANT_NAME_LOAD_",
      "EXPR_CALL_ATTRIBUTE_NAME_LOAD_LOAD_CONSTANT_ NAME_LOAD_NAME_LOAD_",
      "SUBSCRIPT_NAME_LOAD_ CONSTANT_STORE_",
      "IF_ CALL_ATTRIBUTE_ATTRIBUTE_NAME_LOAD_LOAD_LOAD_NAME_LOAD_",
      "RETURN_ CALL_ATTRIBUTE_CONSTANT_LOAD_",
      "FOR_NAME_STORE_ CALL_ATTRIBUTE_ATTRIBUTE_NAME_LOAD_LOAD_LOAD_",
      "MODULE_FUNCTIONDEF_ARGUMENTS_ARG_ARG_ARG_EXPR_ CONSTANT_ASSIGN_NAME_STORE_CALL_ATTRIBUTE_NAME_LOAD_LOAD_",
      "CALL_ATTRIBUTE_ SUBSCRIPT_NAME_LOAD_NAME_LOAD_LOAD_LOAD_",
      "AUG ASSIGN_ATTRIBUTE_NAME_LOAD_STORE_ADD_",
      "DICT_CONSTANT_CONSTANT_ NAME_LOAD_NAME_LOAD_",
      "TUPLE_ CONSTANT_CONSTANT_CONSTANT_LOAD_",
      "EXPR_CALL_NAME_LOAD_ BINOP_CONSTANT_MOD_",
      "BINOP_CONSTANT_ADD_ NAME_LOAD_",
      "FOR_TUPLE_NAME_STORE_NAME_STORE_STORE_ CALL_ATTRIBUTE_ATTRIBUTE_NAME_LOAD_LOAD_LOAD_",
      "LIST_NAME_LOAD_ NAME_LOAD_LOAD_",
      "KEYWORD_NAME_LOAD_ KEYWORD_ATTRIBUTE_NAME_LOAD_LOAD_KEYWORD_ATTRIBUTE_NAME_LOAD_LOAD_",
      "SUBSCRIPT_NAME_LOAD_ TUPLE_NAME_LOAD_NAME_LOAD_LOAD_",
      "DICT _NAME_LOAD_",
      "EXPR_CALL_ATTRIBUTE_NAME_LOAD_LOAD_CONSTANT_ EXPR_CALL_ATTRIBUTE_NAME_LOAD_LOAD_CONSTANT_",
      "KEYWORD_SUBSCRIPT_NAME_LOAD_CONSTANT_LOAD_ KEYWORD_SUBSCRIPT_NAME_LOAD_CONSTANT_LOAD_",
      "IF_NAME_LOAD_ ASSIGN_NAME_STORE_CALL_ATTRIBUTE_NAME_LOAD_LOAD_",
      "LISTCOMP _ATTRIBUTE_NAME_LOAD_LOAD_",
      "WITH_WITHITEM_ CALL_NAME_LOAD_",
      "DELETE_ SUBSCRIPT_NAME_LOAD_",
      "BINOP_ CALL_NAME_LOAD_",
      "EXPR_CALL_NAME_LOAD_ CALL_ATTRIBUTE_CONSTANT_LOAD_",
      "RETURN_ CALL_ATTRIBUTE_ATTRIBUTE_NAME_LOAD_LOAD_LOAD_",
      "IF_UNARYOP_NOT_NAME_LOAD_ ASSIGN_NAME_STORE_",
      "GENERATOR EXP",
      "EXPR_ CALL_NAME_LOAD_NAME_LOAD_NAME_LOAD_NAME_LOAD_",
      "IS _CONSTANT_ASSIGN_ATTRIBUTE_NAME_LOAD_STORE_",
      "BINOP_BINOP_CONSTANT_ADD_ NAME_LOAD_ADD_",
      "COMPARE_ ATTRIBUTE_ATTRIBUTE_NAME_LOAD_LOAD_LOAD_",
      "EXPR_CALL_ATTRIBUTE_NAME_LOAD_LOAD_ CALL_NAME_LOAD_",
      "BINOP_NAME_LOAD_SUB _CONSTANT_",
      "CONSTANT_ATTRIBUTE_ ATTRIBUTE_NAME_LOAD_LOAD_LOAD_",
      "IF_COMPARE_ATTRIBUTE_NAME_LOAD_LOAD_ EQ_ATTRIBUTE_NAME_LOAD_LOAD_",
      "SUBSCRIPT_NAME_LOAD_CONSTANT_LOAD_ ASSIGN_ATTRIBUTE_NAME_LOAD_STORE_",
      "IF _ATTRIBUTE_ATTRIBUTE_NAME_LOAD_LOAD_LOAD_",
      "DICT _ASSIGN_",
      "SUBSCRIPT_NAME_LOAD_SLICE_ CONSTANT_CONSTANT_LOAD_",
      "RETURN_ CALL_ATTRIBUTE_NAME_LOAD_LOAD",
      "KEYWORD_ ATTRIBUTE_ATTRIBUTE_NAME_LOAD_LOAD_LOAD_",
      "MODULE_FUNCTIONDEF_ARGUMENTS_ARG_ARG_EXPR_CONSTANT_ASSIGN_NAME_STORE_ CALL_NAME_LOAD_",
      "_ SUBSCRIPT_NAME_LOAD_NAME_LOAD_LOAD_",
      "ATTRIBUTE_NAME_LOAD_LOAD_ASSIGN_NAME_STORE_ CALL_ATTRIBUTE_NAME_LOAD_LOAD_NAME_LOAD_",
      "EXCEPTHANDLER_NAME_LOAD_ PASS",
      "CALL_NAME_LOAD_NAME_LOAD_ASSIGN_NAME_STORE_ CALL_NAME_LOAD_",
      "IF_COMPARE_ATTRIBUTE_NAME_LOAD_LOAD_ IS_CONSTANT_",
      "WHILE_ COMPARE_NAME_LOAD_",
      "SUBSCRIPT_NAME_LOAD_SLICE_ NAME_LOAD_LOAD_",
      "IF_COMPARE_CONSTANT_IN_ NAME_LOAD_ASSIGN_NAME_STORE_",
      "CONSTANT_ASSIGN_SUBSCRIPT_NAME_LOAD_CONSTANT_STORE_ CONSTANT_ASSIGN_SUBSCRIPT_NAME_LOAD_CONSTANT_STORE_",
      "CALL_ATTRIBUTE_ATTRIBUTE_ATTRIBUTE_NAME_LOAD_LOAD_LOAD_LOAD_ NAME_LOAD_",
      "ATTRIBUTE_NAME_LOAD_LOAD_ATTRIBUTE_NAME_LOAD_LOAD_ ATTRIBUTE_NAME_LOAD_LOAD_",
      "COMPARE_CONSTANT_ IN_",
      "KEYWORD_ ATTRIBUTE_NAME_LOAD_LOAD",
      "CONSTANT_ASSIGN_SUBSCRIPT_ATTRIBUTE_NAME_LOAD_LOAD_ CONSTANT_STORE_",
      "ASSIGN_SUBSCRIPT_NAME_LOAD_NAME_LOAD_STORE_ NAME_LOAD_",
      "BINOP_NAME_LOAD_ BITAND_",
      "CONSTANT_ASSIGN_ATTRIBUTE_NAME_LOAD_STORE_ CALL_ATTRIBUTE_NAME_LOAD_LOAD_",
      "COMPARE_NAME_LOAD_ EQ_NAME_LOAD_",
      "EQ _ATTRIBUTE_ATTRIBUTE_NAME_LOAD_LOAD_LOAD_",
      "CONSTANT_EXPR_ CALL_ATTRIBUTE_NAME_LOAD_LOAD",
      "IF_COMPARE_NAME_LOAD_IS_CONSTANT_ RETURN_",
      "CONSTANT_RETURN_ CALL_NAME_LOAD_",
      "ASSIGN_ SUBSCRIPT_SUBSCRIPT_NAME_LOAD_CONSTANT_LOAD_",
      "EXPR_CALL_ATTRIBUTE_NAME_LOAD_LOAD_ CALL_NAME_LOAD_NAME_LOAD_",
      "EXPR_CALL_ATTRIBUTE_NAME_LOAD_LOAD_NAME_LOAD_ NAME_LOAD",
      "CONSTANT_EXPR_ CALL_NAME_LOAD_NAME_LOAD_",
      "TUPLE_NAME_STORE_NAME_STORE_NAME_STORE_NAME_STORE_ STORE_",
      "NAME_LOAD_ASSIGN_NAME_STORE_ CALL_ATTRIBUTE_ATTRIBUTE_NAME_LOAD_LOAD_LOAD_",
      "MODULE_FUNCTIONDEF_ARGUMENTS_ARG_EXPR_CONSTANT_ASSIGN_NAME_STORE_ CALL_ATTRIBUTE_ATTRIBUTE_NAME_LOAD_LOAD_LOAD_",
      "IF_COMPARE_NAME_LOAD_NOT EQ_CONSTANT_",
      "MODULE_FUNCTIONDEF_ARGUMENTS_ARG_ARG_ARG_ARG_ARG _CONSTANT_CONSTANT_CONSTANT_EXPR_",
      "ASSIGN_TUPLE_NAME_STORE_NAME_STORE_STORE_ CALL_ATTRIBUTE_NAME_LOAD_LOAD_",
      "IS _CONSTANT_ASSIGN_NAME_STORE_",
      "BIT OR_",
      "AUGASSIGN_NAME_STORE_ADD_ CONSTANT_",
      "TUPLE_CONSTANT_ NAME_LOAD_LOAD_",
      "COMPREHENSION_NAME_STORE_ NAME_LOAD",
      "ASSIGN_NAME_STORE_CALL_ATTRIBUTE_NAME_LOAD_LOAD_ ASSIGN_NAME_STORE_",
      "CALL_ATTRIBUTE_ SUBSCRIPT_ATTRIBUTE_NAME_LOAD_LOAD_CONSTANT_LOAD_LOAD_",
      "CONSTANT_A SSIGN_ATTRIBUTE_ATTRIBUTE_NAME_LOAD_LOAD_STORE_",
      "ASSIGN_ATTRIBUTE_NAME_LOAD_STORE_ NAME_LOAD_ASSIGN_ATTRIBUTE_NAME_LOAD_STORE_",
      "SUBSCRIPT_ATTRIBUTE_ATTRIBUTE_NAME_LOAD_LOAD_LOAD_ CONSTANT_LOAD_",
      "MODULE_FUNCTIONDEF_ARGUMENTS_EXPR_ CONSTANT_",
      "COMPARE_ATTRIBUTE_NAME_LOAD_LOAD_ ISNOT",
      "CONSTANT_IF_BOOLOP_AND_ NAME_LOAD_",
      "CONSTANT_ASSIGN_NAME_STORE_ CALL_ATTRIBUTE_ATTRIBUTE_NAME_LOAD_LOAD_LOAD_NAME_LOAD_",
      "IF_UNARYOP_NOT_ CALL_ATTRIBUTE_ATTRIBUTE_NAME_LOAD_LOAD_LOAD_NAME_LOAD_",
      "IF_NAME_LOAD_ RETURN_",
      "KEYWORD_NAME_LOAD_ RETURN_NAME_LOAD",
      "IF_UNARYOP_NOT_ CALL_ATTRIBUTE_NAME_LOAD_LOAD_",
      "KEYWORD_ SUBSCRIPT_ATTRIBUTE_NAME_LOAD_LOAD_CONSTANT_LOAD_",
      "CONSTANT_CONSTANT_CONSTANT_CONSTANT_CONSTANT_CONSTANT_CONSTANT_CONSTANT_ CONSTANT_CONSTANT_CONSTANT_CONSTANT_CONSTANT_CONSTANT_CONSTANT_CONSTANT_",
      "EXPR_CALL_ATTRIBUTE_ ATTRIBUTE_NAME_LOAD_LOAD_LOAD",
      "CONSTANT_ASSIGN_NAME_STORE_ LIST_LOAD_",
      "NAME_LOAD_NAME_LOAD_NAME_LOAD_NAME_LOAD_ NAME_LOAD_NAME_LOAD_",
      "MODULE_FUNCTIONDEF_ARGUMENTS_ARG_EXPR_CONSTANT_ IF_ATTRIBUTE_NAME_LOAD_LOAD_",
      "CALL_NAME_LOAD_NAME_LOAD_ NAME_LOAD",
      "IF_COMPARE_CALL_NAME_LOAD_NAME_LOAD_ GT_CONSTANT_",
      "IF_UNARYOP_NOT_ CALL_NAME_LOAD_NAME_LOAD_NAME_LOAD_",
      "TUPLE_ NAME_LOAD_LOAD_",
      "SUBSCRIPT_ CALL_ATTRIBUTE_NAME_LOAD_LOAD_NAME_LOAD_",
      "KEYWORD_CONSTANT_KEYWORD_ DICT_CONSTANT_",
      "MODULE_FUNCTIONDEF_ARGUMENTS_ARG_EXPR_CONSTANT_ EXPR_CALL_ATTRIBUTE_NAME_LOAD_LOAD_",
      "TRY_ EXPR_CALL_ATTRIBUTE_NAME_LOAD_LOAD_NAME_LOAD_",
      "IF_BOOLOP_AND_COMPARE_NAME_LOAD_ ISNOT_CONSTANT_",
      "CALL_NAME_LOAD_ ATTRIBUTE_ATTRIBUTE_NAME_LOAD_LOAD_LOAD_",
      "CALL_ATTRIBUTE_NAME_LOAD_LOAD_NAME_LOAD_ KEYWORD_",
      "IF_COMPARE_CONSTANT_ NOTIN_NAME_LOAD_",
      "IS _NAME_LOAD_",
      "FOR_ TUPLE_NAME_STORE_NAME_STORE_NAME_STORE_STORE_",
      "LIST_CONSTANT_ CONSTANT_CONSTANT_CONSTANT_CONSTANT_",
      "RETURN_ CALL_ATTRIBUTE_NAME_LOAD_LOAD_NAME_LOAD_NAME_LOAD_",
      "BINOP_BINOP_NAME_LOAD_ADD_ CONSTANT_ADD_",
      "KEYWORD_CONSTANT_ KEYWORD_NAME_LOAD_",
      "COMPARE_CALL_NAME_LOAD_NAME_LOAD_ EQ_CONSTANT_",
      "A SSIGN_ATTRIBUTE_",
      "CONSTANT_ FOR_NAME_STORE_",
      "ASSIGN_SUBSCRIPT_NAME_LOAD_CONSTANT_STORE_ ATTRIBUTE_NAME_LOAD_LOAD_",
      "CALL_ATTRIBUTE_NAME_LOAD_LOAD_ NAME_LOAD_LOAD_",
      "CONSTANT_ EXPR_CALL_ATTRIBUTE_NAME_LOAD_LOAD_NAME_LOAD_",
      "NAME_LOAD_ EXCEPTHANDLER_NAME_LOAD_",
      "NAME_LOAD_ASSIGN_NAME_STORE_CALL_ATTRIBUTE_NAME_LOAD_LOAD_ NAME_LOAD_ASSIGN_NAME_STORE_CALL_ATTRIBUTE_NAME_LOAD_LOAD_",
      "EXPR_CALL_ATTRIBUTE_NAME_LOAD_LOAD_ SUBSCRIPT_NAME_LOAD_CONSTANT_LOAD_",
      "BOOLOP_AND_ NAME_LOAD_",
      "IF_COMPARE_NAME_LOAD_NOT EQ_NAME_LOAD_",
      "CALL_ATTRIBUTE_ CALL_ATTRIBUTE_NAME_LOAD_LOAD_CONSTANT_",
      "COMPARE_NAME_LOAD_ GTE_",
      "WITH_WITHITEM_ CALL_ATTRIBUTE_NAME_LOAD_LOAD_",
      "ASSIGN_NAME_STORE_CALL_ATTRIBUTE_NAME_LOAD_LOAD_ ATTRIBUTE_NAME_LOAD_LOAD_",
      "COMPARE_ATTRIBUTE_NAME_LOAD_LOAD_ EQ_ATTRIBUTE_NAME_LOAD_LOAD_",
      "MODULE_FUNCTIONDEF_ARGUMENTS_ARG_EXPR_CONSTANT_ASSIGN_NAME_STORE_ LIST_LOAD_",
      "WITH_WITHITEM_ CALL_NAME_LOAD_NAME_LOAD_",
      "SUBSCRIPT_CALL_ATTRIBUTE_NAME_LOAD_LOAD_ CONSTANT_LOAD_",
      "_WITH _WITHITEM",
      "EXPR_CALL_ATTRIBUTE_ SUBSCRIPT_NAME_LOAD_NAME_LOAD_LOAD_LOAD_",
      "KEYWORD_ CALL_ATTRIBUTE_NAME_LOAD_LOAD_CONSTANT_",
      "RAISE_CALL_NAME_LOAD_BINOP_CONSTANT_MOD_ NAME_LOAD_",
      "ASSIGN_NAME_STORE_ CALL_ATTRIBUTE_NAME_LOAD_LOAD_CONSTANT_",
      "B AL",
      "G LO",
      "RETURN_ CALL_NAME_LOAD_NAME_LOAD_NAME_LOAD_",
      "IF_COMPARE_NAME_LOAD_ GTE_",
      "GLO BAL",
      "YIEL D",
      "CONSTANT_ASSIGN_NAME_STORE_ DICT_",
      "NAME_LOAD_ASSIGN_NAME_STORE_ CALL_ATTRIBUTE_ATTRIBUTE_NAME_LOAD_LOAD_LOAD_NAME_LOAD_",
      "ATTRIBUTE_NAME_LOAD_LOAD_ASSIGN_NAME_STORE_ ATTRIBUTE_NAME_LOAD_LOAD_",
      "MODULE_FUNCTIONDEF_ARGUMENTS_ARG_ARG_EXPR_CONSTANT_ASSIGN_NAME_STORE_ CALL_NAME_LOAD_NAME_LOAD_",
      "EXPR_CALL_ATTRIBUTE_NAME_LOAD_LOAD_ CALL_ATTRIBUTE_NAME_LOAD_LOAD_NAME_LOAD_",
      "MODULE_FUNCTIONDEF_ARGUMENTS_ARG_EXPR_CONSTANT_IF_ UNARYOP_NOT_ATTRIBUTE_NAME_LOAD_LOAD_",
      "DELETE_ SUBSCRIPT_ATTRIBUTE_NAME_LOAD_LOAD_",
      "IF_COMPARE_NAME_LOAD_ISNOT_CONSTANT_ASSIGN_SUBSCRIPT_NAME_LOAD_CONSTANT_STORE_ CALL_ATTRIBUTE_ATTRIBUTE_NAME_LOAD_LOAD_LOAD_CONSTANT_NAME_LOAD_",
      "STORE_ NAME_LOAD_",
      "SUBSCRIPT_ SUBSCRIPT_SUBSCRIPT_NAME_LOAD_CONSTANT_LOAD_CONSTANT_LOAD_",
      "SUBSCRIPT_NAME_LOAD_CONSTANT_LOAD_ASSIGN_NAME_STORE_ SUBSCRIPT_NAME_LOAD_CONSTANT_LOAD_",
      "YIELD FROM",
      "DICT_CONSTANT_ CONSTANT_NAME_LOAD_",
      "CALL_ATTRIBUTE_CALL_ATTRIBUTE_NAME_LOAD_LOAD_ CONSTANT_LOAD_",
      "CALL_ATTRIBUTE_ATTRIBUTE_NAME_LOAD_LOAD_LOAD_ CONSTANT_CONSTANT_",
      "ASSIGN_NAME_STORE_ CALL_ATTRIBUTE_ATTRIBUTE_NAME_LOAD_LOAD_LOAD_NAME_LOAD_",
      "ASSIGN_SUBSCRIPT_NAME_LOAD_ ATTRIBUTE_NAME_LOAD_LOAD_STORE_",
      "COMPARE_ATTRIBUTE_NAME_LOAD_LOAD_ EQ_NAME_LOAD_",
      "COMPARE_ATTRIBUTE_NAME_LOAD_LOAD_ ISNOT_CONSTANT_",
      "IF_COMPARE_ATTRIBUTE_NAME_LOAD_LOAD_ EQ_NAME_LOAD_",
      "TUPLE_CONSTANT_CONSTANT_LOAD_ TUPLE_CONSTANT_CONSTANT_LOAD_",
      "CALL_NAME_LOAD_NAME_LOAD_ RETURN_NAME_LOAD",
      "EXCEPTHANDLER _ATTRIBUTE_ATTRIBUTE_NAME_LOAD_LOAD_LOAD_",
      "NAME_LOAD_ DEL_",
      "_WITH_WITHITEM _",
      "CONSTANT_IF_ CALL_NAME_LOAD_NAME_LOAD_NAME_LOAD_",
      "MODULE_FUNCTIONDEF_ARGUMENTS_ARG_EXPR_ CONSTANT_ASSIGN_ATTRIBUTE_NAME_LOAD_STORE_",
      "IFEXP _ATTRIBUTE_NAME_LOAD_LOAD_",
      "TUPLE_ SUBSCRIPT_NAME_LOAD_CONSTANT_LOAD_",
      "NAME_LOAD_ASSIGN_NAME_STORE_ NAME_LOAD_",
      "CONSTANT_IF_ UNARYOP_NOT_ATTRIBUTE_NAME_LOAD_LOAD_",
      "TUPLE_NAME_LOAD_NAME_LOAD_ NAME_LOAD_LOAD",
      "IF_BOOLOP_AND_ ATTRIBUTE_NAME_LOAD_LOAD_",
      "MODULE_FUNCTIONDEF_ARGUMENTS_ARG_ARG_ARG_ARG_EXPR_ CONSTANT_",
      "YIELDFROM _",
      "EXPR_YIELD_ NAME_LOAD",
      "UNARYOP_NOT_ CALL_ATTRIBUTE_NAME_LOAD_LOAD_",
      "MODULE_FUNCTIONDEF_ARGUMENTS_ARG_ARG_ARG_ARG_ARG _CONSTANT_CONSTANT_EXPR_",
      "COMPREHENSION_NAME_STORE_ CALL_ATTRIBUTE_NAME_LOAD_LOAD_",
      "RAISE_CALL_NAME_LOAD_ CONSTANT_RETURN_",
      "CALL_NAME_LOAD_ATTRIBUTE_NAME_LOAD_LOAD_ CONSTANT_",
      "KEYWORD_NAME_LOAD_ KEYWORD_ATTRIBUTE_NAME_LOAD_LOAD_",
      "SUBSCRIPT_SUBSCRIPT_ATTRIBUTE_NAME_LOAD_LOAD_CONSTANT_LOAD_ CONSTANT_LOAD_",
      "ASSIGN_NAME_STORE_ NAME_LOAD_",
      "MODULE_FUNCTIONDEF_ARGUMENTS_ARG_EXPR_CONSTANT_ASSIGN_NAME_STORE_ DICT_",
      "MODULE_FUNCTIONDEF_ARGUMENTS_ARG_ARG_ARG_CONSTANT_EXPR_ CONSTANT_IF_CALL_NAME_LOAD_NAME_LOAD_",
      "KEYWORD_ LAMBDA_ARGUMENTS_ARG_",
      "LISTCOMP_ CALL_ATTRIBUTE_NAME_LOAD_LOAD_NAME_LOAD_",
      "ASSIGN_ SUBSCRIPT_SUBSCRIPT_NAME_LOAD_NAME_LOAD_LOAD_",
      "KEYWORD_NAME_LOAD_KEYWORD_NAME_LOAD_ KEYWORD_NAME_LOAD",
      "S E",
      "ADD_ NAME_LOAD_",
      "ASSIGN_ TUPLE_",
      "COMPARE_ATTRIBUTE_NAME_LOAD_LOAD_ IS_CONSTANT_",
      "DICT_ LOAD_",
      "CALL_ATTRIBUTE_NAME_LOAD_LOAD_CONSTANT_ CALL_ATTRIBUTE_NAME_LOAD_LOAD_CONSTANT_",
      "LIST_CONSTANT_ CONSTANT_CONSTANT_CONSTANT_LOAD_",
      "IF_COMPARE_NAME_LOAD_ISNOT _",
      "IF_UNARYOP_NOT_NAME_LOAD_ RETURN_",
      "BINOP_NAME_LOAD_SUB _CONSTANT_LOAD_",
      "BINOP_CONSTANT_MOD_ TUPLE_NAME_LOAD_",
      "WITH_WITHITEM _ATTRIBUTE_NAME_LOAD_LOAD_",
      "I N_ATTRIBUTE_",
      "IF_COMPARE_SUBSCRIPT_NAME_LOAD_CONSTANT_LOAD_ EQ_CONSTANT_",
      "MODULE_FUNCTIONDEF_ARGUMENTS_ARG_ARG_ARG_ARG_ARG _CONSTANT_EXPR_",
      "CALL_ATTRIBUTE_CONSTANT_LOAD_ NAME_LOAD_ASSIGN_NAME_STORE_",
      "KEYWORD_ CONSTANT_ASSIGN_NAME_STORE_CALL_ATTRIBUTE_NAME_LOAD_LOAD_",
      "LISTCOMP_ SUBSCRIPT_NAME_LOAD_CONSTANT_LOAD_",
      "COMPARE_SUBSCRIPT_NAME_LOAD_CONSTANT_LOAD_ EQ_CONSTANT_",
      "SUBSCRIPT_SUBSCRIPT_NAME_LOAD_NAME_LOAD_LOAD_ NAME_LOAD_LOAD_",
      "COMPARE_ CALL_NAME_LOAD_ATTRIBUTE_NAME_LOAD_LOAD_",
      "NOT EQ_CONSTANT_ASSIGN_NAME_STORE_",
      "CALL_NAME_LOAD_ CALL_ATTRIBUTE_ATTRIBUTE_NAME_LOAD_LOAD_LOAD_",
      "CALL_ATTRIBUTE_ CALL_NAME_LOAD_LOAD_",
      "COMPREHENSION_NAME_STORE_ NAME_LOAD_RETURN_",
      "NAME_LOAD_NAME_LOAD_ ASSIGN_NAME_STORE_",
      "RETURN_ CALL_ATTRIBUTE_NAME_LOAD_LOAD_CONSTANT_",
      "_NAME_LOAD_ CONSTANT_EXPR_",
      "EXCEPTHANDLER_NAME_LOAD_ EXPR_CALL_ATTRIBUTE_NAME_LOAD_LOAD_CONSTANT_",
      "MODULE_FUNCTIONDEF_ARGUMENTS_ARG _NAME_LOAD_EXPR_",
      "MODULE_FUNCTIONDEF_ARGUMENTS_ARG_ARG_ARG_ARG_ARG _CONSTANT_CONSTANT_CONSTANT_CONSTANT_EXPR_",
      "MODULE_FUNCTIONDEF_ARGUMENTS_ARG_EXPR_CONSTANT_ASSIGN_NAME_STORE_ CALL_NAME_LOAD_NAME_LOAD_",
      "MODULE_FUNCTIONDEF_ARGUMENTS_ARG_ARG _",
      "ASSIGN_ATTRIBUTE_NAME_LOAD_STORE_ CALL_NAME_LOAD_",
      "IF_ CALL_ATTRIBUTE_ATTRIBUTE_NAME_LOAD_LOAD_LOAD_",
      "BREAK _ASSIGN_NAME_STORE_",
      "BINOP_CONSTANT_MOD_ ATTRIBUTE_NAME_LOAD_LOAD_",
      "IF_COMPARE_NAME_LOAD_NOT EQ_",
      "IF_BOOLOP_AND_ CALL_NAME_LOAD_NAME_LOAD_CONSTANT_",
      "SE T",
      "CONSTANT_RETURN_ CONSTANT",
      "ER T",
      "EXCEPTHANDLER_TUPLE_NAME_LOAD_NAME_LOAD_LOAD_ RAISE_CALL_NAME_LOAD_",
      "SUBSCRIPT_SUBSCRIPT_NAME_LOAD_CONSTANT_LOAD_ NAME_LOAD_LOAD_",
      "CONSTANT_ FOR_NAME_STORE_NAME_LOAD_",
      "IMPORT_ALIAS _ASSIGN_NAME_STORE_",
      "NAME_LOAD_ EXPR_CALL_ATTRIBUTE_NAME_LOAD_LOAD_NAME_LOAD_",
      "IF_NAME_LOAD_ EXPR_CALL_ATTRIBUTE_NAME_LOAD_LOAD_NAME_LOAD_",
      "KEYWORD_NAME_LOAD_ EXPR_CALL_ATTRIBUTE_NAME_LOAD_LOAD_",
      "EXPR_CALL_ATTRIBUTE_NAME_LOAD_LOAD_CONSTANT_ KEYWORD_CONSTANT_KEYWORD_CONSTANT_",
      "COMPARE_NAME_LOAD_ NOTEQ_CONSTANT_",
      "TUPLE_NAME_LOAD_ CONSTANT_LOAD_",
      "EXPR_CALL_ATTRIBUTE_ATTRIBUTE_NAME_LOAD_LOAD_LOAD_ NAME_LOAD_NAME_LOAD_",
      "COMPARE_NAME_LOAD_ IN_ATTRIBUTE_NAME_LOAD_LOAD_",
      "CALL_ATTRIBUTE_ ATTRIBUTE_NAME_LOAD_LOAD_LOAD",
      "ASSIGN_ATTRIBUTE_NAME_LOAD_STORE_ CONSTANT_",
      "CALL_ATTRIBUTE_NAME_LOAD_LOAD_ CONSTANT_LOAD_",
      "ASSIGN_NAME_STORE_CALL_ATTRIBUTE_NAME_LOAD_LOAD_ NAME_LOAD_ASSIGN_NAME_STORE_",
      "KEYWORD_ CALL_NAME_LOAD_NAME_LOAD_",
      "RETURN_CALL_NAME_LOAD_NAME_LOAD_ NAME_LOAD",
      "SUBSCRIPT_NAME_LOAD_ SUBSCRIPT_NAME_LOAD_CONSTANT_LOAD_LOAD_",
      "FOR_NAME_STORE_ SUBSCRIPT_NAME_LOAD_CONSTANT_LOAD_",
      "EXPR_ CALL_NAME_LOAD_ATTRIBUTE_NAME_LOAD_LOAD_",
      "GT _ATTRIBUTE_NAME_LOAD_LOAD_",
      "IF_NAME_LOAD_ ASSIGN_SUBSCRIPT_NAME_LOAD_CONSTANT_STORE_",
      "LIST_LOAD_ LIST_LOAD_",
      "COMPARE_CALL_NAME_LOAD_NAME_LOAD_ GT_CONSTANT_",
      "UNARYOP_USUB _CONSTANT_ASSIGN_NAME_STORE_",
      "IF_CALL_NAME_LOAD_NAME_LOAD_ CONSTANT_EXPR_CALL_ATTRIBUTE_NAME_LOAD_LOAD",
      "COMPARE_ SUBSCRIPT_ATTRIBUTE_NAME_LOAD_LOAD_CONSTANT_LOAD_",
      "FOR_NAME_STORE_ CALL_NAME_LOAD_CONSTANT_",
      "COMPREHENSION_TUPLE_NAME_STORE_NAME_STORE_STORE_ CALL_ATTRIBUTE_NAME_LOAD_LOAD_",
      "IF_COMPARE_ATTRIBUTE_NAME_LOAD_LOAD_ EQ_",
      "R SHIFT",
      "CONSTANT_ASSIGN_NAME_STORE_CALL_ATTRIBUTE_NAME_LOAD_LOAD_NAME_LOAD_ TRY_ASSIGN_NAME_STORE_CALL_NAME_LOAD_NAME_LOAD_",
      "IF_COMPARE_ CALL_ATTRIBUTE_NAME_LOAD_LOAD_CONSTANT_",
      "DICT_CONSTANT_CONSTANT_CONSTANT_CONSTANT_CONSTANT_ CONSTANT_ASSIGN_ATTRIBUTE_NAME_LOAD_STORE_NAME_LOAD_",
      "EXCEPTHANDLER_TUPLE_NAME_LOAD_NAME_LOAD_LOAD_RAISE_CALL_NAME_LOAD_ DICT_CONSTANT_CONSTANT_CONSTANT_CONSTANT_CONSTANT_CONSTANT_ASSIGN_ATTRIBUTE_NAME_LOAD_STORE_NAME_LOAD_",
      "EXCEPTHANDLER_TUPLE_NAME_LOAD_NAME_LOAD_LOAD_RAISE_CALL_NAME_LOAD_DICT_CONSTANT_CONSTANT_CONSTANT_CONSTANT_CONSTANT_CONSTANT_ASSIGN_ATTRIBUTE_NAME_LOAD_STORE_NAME_LOAD_ IF_CALL_NAME_LOAD_NAME_LOAD_CONSTANT_EXPR_CALL_ATTRIBUTE_NAME_LOAD_LOAD",
      "KEYWORD_CONSTANT_ EXPR_CALL_ATTRIBUTE_NAME_LOAD_LOAD_",
      "MODULE_FUNCTIONDEF_ARGUMENTS_ARG_ARG _NAME_LOAD_ARG",
      "CONSTANT_IF_ CALL_ATTRIBUTE_NAME_LOAD_LOAD_",
      "MODULE_FUNCTIONDEF_ARGUMENTS_ARG_ARG_ARG_CONSTANT_EXPR_CONSTANT_IF_CALL_NAME_LOAD_NAME_LOAD_ CONSTANT_ASSIGN_NAME_STORE_CALL_ATTRIBUTE_NAME_LOAD_LOAD_NAME_LOAD_TRY_ASSIGN_NAME_STORE_CALL_NAME_LOAD_NAME_LOAD_",
      "CALL_ATTRIBUTE_NAME_LOAD_LOAD_ SUBSCRIPT_NAME_LOAD_CONSTANT_LOAD_",
      "ATTRIBUTE_ SUBSCRIPT_NAME_LOAD_NAME_LOAD_LOAD_LOAD_",
      "SUB _ATTRIBUTE_NAME_LOAD_LOAD_",
      "CALL_NAME_LOAD_NAME_LOAD_ NAME_LOAD_ASSIGN_NAME_STORE_",
      "CONSTANT_ASSIGN_NAME_STORE_ CALL_ATTRIBUTE_CONSTANT_LOAD_",
      "CALL_ATTRIBUTE_NAME_LOAD_LOAD_NAME_LOAD_ RETURN_NAME_LOAD",
      "MODULE_FUNCTIONDEF_ARGUMENTS_ARG_ARG_EXPR_ CONSTANT_ASSIGN_ATTRIBUTE_NAME_LOAD_STORE_",
      "CONSTANT_ASSIGN_NAME_STORE_ ATTRIBUTE_NAME_LOAD_LOAD_",
      "ASSIGN_NAME_STORE_ LIST_LOAD_",
      "CALL_ATTRIBUTE_NAME_LOAD_LOAD_NAME_LOAD_NAME_LOAD_ NAME_LOAD_",
      "LT _ATTRIBUTE_NAME_LOAD_LOAD_",
      "FOR_NAME_STORE_ ATTRIBUTE_NAME_LOAD_LOAD_ASSIGN_NAME_STORE_",
      "NAME_LOAD_NAME_LOAD_NAME_LOAD_NAME_LOAD_ NAME_LOAD_",
      "IF_COMPARE_ SUBSCRIPT_ATTRIBUTE_NAME_LOAD_LOAD_CONSTANT_LOAD_",
      "FOR_NAME_STORE_NAME_LOAD_ EXPR_CALL_ATTRIBUTE_NAME_LOAD_LOAD_",
      "ASSIGN_TUPLE_NAME_STORE_NAME_STORE_STORE_ CALL_ATTRIBUTE_NAME_LOAD_LOAD_NAME_LOAD_",
      "CONSTANT_LOAD_ CONSTANT_LOAD_",
      "TUPLE_ATTRIBUTE_NAME_LOAD_LOAD_ NAME_LOAD_LOAD_",
      "CALL_ATTRIBUTE_ SUBSCRIPT_ATTRIBUTE_NAME_LOAD_LOAD_NAME_LOAD_LOAD_LOAD_",
      "IF_CALL_NAME_LOAD_NAME_LOAD_ ATTRIBUTE_NAME_LOAD_LOAD_",
      "CALL_NAME_LOAD_NAME_LOAD_NAME_LOAD_NAME_LOAD_ NAME_LOAD_",
      "MODULE_FUNCTIONDEF_ARGUMENTS_ARG_ARG_ARG_ARG_ARG_ARG _EXPR_",
      "CALL_ATTRIBUTE_CALL_ATTRIBUTE_ATTRIBUTE_NAME_LOAD_LOAD_LOAD_ LOAD_",
      "ASSIGN_ATTRIBUTE_NAME_LOAD_STORE_ NAME_LOAD",
      "RETURN_ NAME_LOAD_ASSIGN_NAME_STORE_",
      "IF_COMPARE_ SUBSCRIPT_NAME_LOAD_NAME_LOAD_LOAD_",
      "FOR_NAME_STORE_ CALL_ATTRIBUTE_NAME_LOAD_LOAD_NAME_LOAD_",
      "LIST_ATTRIBUTE_NAME_LOAD_LOAD_ LOAD_",
      "F LO",
      "NAME_LOAD_ASSIGN_ATTRIBUTE_NAME_LOAD_STORE_ NAME_LOAD_ASSIGN_ATTRIBUTE_NAME_LOAD_STORE_",
      "FLO OR",
      "KEYWORD_ NAME_LOAD_ASSIGN_NAME_STORE_CALL_ATTRIBUTE_NAME_LOAD_LOAD_",
      "CALL_ATTRIBUTE_NAME_LOAD_LOAD_NAME_LOAD_ NAME_LOAD",
      "SUBSCRIPT_ATTRIBUTE_NAME_LOAD_LOAD_ UNARYOP_USUB_CONSTANT_LOAD_",
      "COMPARE_NAME_LOAD_ ISNOT",
      "TRY_ASSIGN_NAME_STORE_ CALL_NAME_LOAD_",
      "EXPR_CALL_NAME_LOAD_ CALL_ATTRIBUTE_CONSTANT_LOAD_NAME_LOAD_",
      "IF_COMPARE_ATTRIBUTE_NAME_LOAD_LOAD_ NOTEQ_CONSTANT_",
      "COMPARE_ATTRIBUTE_NAME_LOAD_LOAD_ EQ_",
      "FOR_NAME_STORE_ NAME_LOAD_ASSIGN_NAME_STORE_CALL_ATTRIBUTE_NAME_LOAD_LOAD_",
      "MODULE_FUNCTIONDEF_ARGUMENTS_ARG_EXPR_ CONSTANT_IF_UNARYOP_NOT_",
      "COMPARE_NAME_LOAD_ NOTIN_NAME_LOAD_",
      "KEYWORD_CONSTANT_KEYWORD_CONSTANT_KEYWORD_CONSTANT_KEYWORD_CONSTANT_ EXCEPTHANDLER_TUPLE_NAME_LOAD_NAME_LOAD_LOAD_RAISE_CALL_NAME_LOAD_DICT_CONSTANT_CONSTANT_CONSTANT_CONSTANT_CONSTANT_CONSTANT_ASSIGN_ATTRIBUTE_NAME_LOAD_STORE_NAME_LOAD_IF_CALL_NAME_LOAD_NAME_LOAD_CONSTANT_EXPR_CALL_ATTRIBUTE_NAME_LOAD_LOAD",
      "IF_UNARYOP_NOT_ CALL_ATTRIBUTE_NAME_LOAD_LOAD_NAME_LOAD_",
      "KEYWORD_NAME_LOAD_ RETURN_",
      "NAME_LOAD_NAME_LOAD_ NAME_LOAD",
      "SUBSCRIPT_NAME_LOAD_CONSTANT_LOAD_ASSIGN_NAME_STORE_ SUBSCRIPT_NAME_LOAD_CONSTANT_LOAD_ASSIGN_NAME_STORE_",
      "TUPLE_NAME_LOAD_NAME_LOAD_LOAD_ ASSIGN_NAME_STORE_",
      "KEYWORD_ NAME_LOAD_LOAD_",
      "IF_COMPARE_CALL_NAME_LOAD_NAME_LOAD_ NOTEQ_CONSTANT_",
      "EXPR_CALL_ATTRIBUTE_NAME_LOAD_LOAD_ CONSTANT",
      "SUBSCRIPT_NAME_LOAD_TUPLE_NAME_LOAD_NAME_LOAD_LOAD_ LOAD_",
      "ATTRIBUTE_ ATTRIBUTE_NAME_LOAD_LOAD_LOAD",
      "NAME_LOAD_RETURN_ CONSTANT",
      "WITH_WITHITEM_CALL_NAME_LOAD_NAME_LOAD_ NAME_STORE_",
      "SLICE_ CONSTANT_LOAD_",
      "BINOP_NAME_LOAD_ DIV_NAME_LOAD_",
      "GENERATOREXP _NAME_LOAD_",
      "SUBSCRIPT_SUBSCRIPT_ATTRIBUTE_NAME_LOAD_LOAD_NAME_LOAD_LOAD_ CONSTANT_LOAD_",
      "IF_COMPARE_NAME_LOAD_ LT_CONSTANT_",
      "CALL_ATTRIBUTE_ATTRIBUTE_NAME_LOAD_LOAD_LOAD_NAME_LOAD_ CONSTANT_",
      "IF_ATTRIBUTE_NAME_LOAD_LOAD_ EXPR_CALL_ATTRIBUTE_NAME_LOAD_LOAD_",
      "MODULE_FUNCTIONDEF_ARGUMENTS_ARG _NAME_LOAD_ARG",
      "IF_BOOLOP_AND_ UNARYOP_NOT_NAME_LOAD_",
      "SUBSCRIPT_NAME_LOAD_SLICE_ NAME_LOAD_",
      "CALL_ NAME_LOAD",
      "IF_COMPARE_ CALL_NAME_LOAD_",
      "KEYWORD_NAME_LOAD_KEYWORD_ATTRIBUTE_NAME_LOAD_LOAD_KEYWORD_ATTRIBUTE_NAME_LOAD_LOAD_ KEYWORD_CONSTANT_KEYWORD_DICT_CONSTANT_",
      "FOR_TUPLE_NAME_STORE_NAME_STORE_STORE_ NAME_LOAD_",
      "CONSTANT_ASSIGN_TUPLE_NAME_STORE_NAME_STORE_STORE_ CALL_ATTRIBUTE_NAME_LOAD_LOAD_",
      "ASSIGN_SUBSCRIPT_SUBSCRIPT_NAME_LOAD_CONSTANT_LOAD_ CONSTANT_STORE_",
      "MODULE_FUNCTIONDEF_ARGUMENTS_ARG_ARG _CONSTANT_CONSTANT_EXPR_",
      "ASSIGN_ SUBSCRIPT_",
      "TRY _WITH_WITHITEM_",
      "SUBSCRIPT_NAME_LOAD_CONSTANT_LOAD_ STORE_",
      "UNARYOP_NOT_ CALL_NAME_LOAD_NAME_LOAD_NAME_LOAD_",
      "ATTRIBUTE_NAME_LOAD_STORE_ ATTRIBUTE_NAME_LOAD_STORE_",
      "ASSIGN_NAME_STORE_CALL_ATTRIBUTE_NAME_LOAD_LOAD_ ASSIGN_NAME_STORE_CALL_ATTRIBUTE_NAME_LOAD_LOAD_",
      "LIST_CONSTANT_ CONSTANT_CONSTANT_CONSTANT_CONSTANT_LOAD_",
      "KEYWORD_ATTRIBUTE_NAME_LOAD_LOAD_KEYWORD_ATTRIBUTE_NAME_LOAD_LOAD_ KEYWORD_ATTRIBUTE_NAME_LOAD_LOAD_KEYWORD_ATTRIBUTE_NAME_LOAD_LOAD_",
      "BINOP_CONSTANT_ADD_ CALL_NAME_LOAD_NAME_LOAD_",
      "IF_COMPARE_NAME_LOAD_EQ_CONSTANT_ RETURN_",
      "COMPARE_CONSTANT_ IN_ATTRIBUTE_NAME_LOAD_LOAD_",
      "BINOP _ATTRIBUTE_ATTRIBUTE_NAME_LOAD_LOAD_LOAD_",
      "MODULE_FUNCTIONDEF_ARGUMENTS_ARG_ARG_ARG_CONSTANT_CONSTANT_EXPR_ CONSTANT_",
      "SUBSCRIPT_NAME_LOAD_ TUPLE_NAME_LOAD_",
      "CONSTANT_ATTRIBUTE_NAME_LOAD_LOAD_ LOAD_",
      "CALL_ATTRIBUTE_ ATTRIBUTE_ATTRIBUTE_ATTRIBUTE_NAME_LOAD_LOAD_LOAD_LOAD_LOAD_",
      "TUPLE_ LOAD_",
      "BINOP_ BINOP_ATTRIBUTE_NAME_LOAD_LOAD_ADD_",
      "COMPARE_ SUBSCRIPT_NAME_LOAD_NAME_LOAD_LOAD_",
      "ATTRIBUTE_NAME_LOAD_LOAD_ASSIGN_NAME_STORE_ CALL_NAME_LOAD_",
      "DICT_CONSTANT_CONSTANT_CONSTANT_CONSTANT_CONSTANT_ CONSTANT_",
      "CONSTANT_ASSIGN_NAME_STORE_ IFEXP_",
      "IF_COMPARE_CALL_NAME_LOAD_NAME_LOAD_ EQ_",
      "TRY_ASSIGN_ TUPLE_NAME_STORE_NAME_STORE_STORE_",
      "SUBSCRIPT_ CALL_ATTRIBUTE_ATTRIBUTE_NAME_LOAD_LOAD_LOAD_",
      "LTE_ NAME_LOAD_",
      "NAME_LOAD_RETURN_ NAME_LOAD_",
      "CONSTANT_ATTRIBUTE_NAME_LOAD_LOAD_ ATTRIBUTE_NAME_LOAD_LOAD_",
      "ASSIGN_ATTRIBUTE_NAME_LOAD_STORE_ CONSTANT_ASSIGN_ATTRIBUTE_NAME_LOAD_STORE_",
      "MODULE_FUNCTIONDEF_ARGUMENTS_ARG_EXPR_ CONSTANT_IF_BOOLOP_AND_",
      "CONSTANT_ UNARYOP_USUB_CONSTANT_LOAD_",
      "LIST_CONSTANT_ CONSTANT_CONSTANT_",
      "LISTCOMP_CALL_NAME_LOAD_NAME_LOAD_ COMPREHENSION_NAME_STORE_",
      "CONSTANT_CONSTANT_ EXPR_",
      "IF_COMPARE_CALL_NAME_LOAD_NAME_LOAD_ EQ_CONSTANT_ASSIGN_NAME_STORE_",
      "ASSIGN_NAME_STORE_ CALL_ATTRIBUTE_CONSTANT_LOAD_",
      "EXPR_CALL_ATTRIBUTE_NAME_LOAD_LOAD_CONSTANT_ RETURN_",
      "CALL_ATTRIBUTE_NAME_LOAD_LOAD_NAME_LOAD_ CALL_ATTRIBUTE_NAME_LOAD_LOAD_NAME_LOAD_",
      "MODULE_FUNCTIONDEF_ARGUMENTS_ARG_ARG_EXPR_ CONSTANT_IF_UNARYOP_NOT_",
      "EXPR_CALL_ATTRIBUTE_ATTRIBUTE_NAME_LOAD_LOAD_LOAD_ EXPR_CALL_ATTRIBUTE_ATTRIBUTE_NAME_LOAD_LOAD_LOAD_",
      "CONSTANT_A UGASSIGN_NAME_STORE_",
      "NAME_LOAD_ADD_ CONSTANT_ADD_",
      "CONSTANT_ASSIGN_NAME_STORE_CALL_ATTRIBUTE_NAME_LOAD_LOAD_ CONSTANT_CONSTANT_",
      "SUB _CONSTANT_ASSIGN_NAME_STORE_",
      "MODULE_FUNCTIONDEF_ARGUMENTS_EXPR_ CONSTANT_ASSIGN_NAME_STORE_",
      "ASSIGN_ATTRIBUTE_NAME_LOAD_STORE_ CONSTANT",
      "SUBSCRIPT_NAME_LOAD_CONSTANT_LOAD_ RETURN_NAME_LOAD",
      "SUBSCRIPT_CALL_ATTRIBUTE_NAME_LOAD_LOAD_CONSTANT_ CONSTANT_LOAD_",
      "KEYWORD_ CONSTANT_LOAD_",
      "COMPARE_NAME_LOAD_ GT_CONSTANT_",
      "SUBSCRIPT_SUBSCRIPT_NAME_LOAD_CONSTANT_LOAD_ CONSTANT_LOAD_ASSIGN_NAME_STORE_",
      "EXPR_CALL_ATTRIBUTE_NAME_LOAD_LOAD_CALL_ATTRIBUTE_CONSTANT_LOAD_ NAME_LOAD_NAME_LOAD_",
      "UNARYOP_NOT _ATTRIBUTE_ATTRIBUTE_NAME_LOAD_LOAD_LOAD_",
      "ATTRIBUTE_ SUBSCRIPT_ATTRIBUTE_NAME_LOAD_LOAD_CONSTANT_LOAD_LOAD_",
      "NAME_LOAD_ASSIGN_NAME_STORE_ CALL_NAME_LOAD_NAME_LOAD_NAME_LOAD_",
      "EXCEPTHANDLER_NAME_LOAD_ RAISE_CALL_NAME_LOAD_",
      "BINOP_ATTRIBUTE_NAME_LOAD_LOAD_ADD_ CONSTANT_",
      "MODULE_FUNCTIONDEF_ARGUMENTS_ARG_ARG_EXPR_ CONSTANT_IF_BOOLOP_AND_",
      "NAME_LOAD_NAME_LOAD_NAME_LOAD_NAME_LOAD_ NAME_LOAD_NAME_LOAD_NAME_LOAD_NAME_LOAD_",
      "CONSTANT_EXPR_CALL_ATTRIBUTE_NAME_LOAD_LOAD_ NAME_LOAD_NAME_LOAD_",
      "MODULE_FUNCTIONDEF_ARGUMENTS_EXPR_ CONSTANT_ASSIGN_NAME_STORE_CALL_NAME_LOAD_",
      "RETURN_CALL_ATTRIBUTE_NAME_LOAD_LOAD_NAME_LOAD_ NAME_LOAD",
      "EXPR_CALL_NAME_LOAD_ NAME_LOAD",
      "IF_COMPARE_CALL_NAME_LOAD_NAME_LOAD_ GT_CONSTANT_ASSIGN_NAME_STORE_",
      "SLICE_ LOAD_LOAD_",
      "EXPR_YIELD_ NAME_LOAD_",
      "COMPARE_ATTRIBUTE_NAME_LOAD_LOAD_ISNOT _CONSTANT_ASSIGN_SUBSCRIPT_NAME_LOAD_CONSTANT_STORE_",
      "EXCEPTHANDLER_NAME_LOAD_ RETURN_",
      "CALL_NAME_LOAD_NAME_LOAD_ RETURN_",
      "ASSIGN_NAME_STORE_ CONSTANT_ASSIGN_NAME_STORE_",
      "MODULE_FUNCTIONDEF_ARGUMENTS_ARG_ARG_EXPR_ CONSTANT_IF_CALL_NAME_LOAD_NAME_LOAD_",
      "KEYWORD_NAME_LOAD_ KEYWORD_CONSTANT_KEYWORD_CONSTANT_",
      "IF_COMPARE_NAME_LOAD_ GT_NAME_LOAD_",
      "IF_BOOLOP_AND_CALL_NAME_LOAD_NAME_LOAD_CONSTANT_ COMPARE_ATTRIBUTE_NAME_LOAD_LOAD_ISNOT_CONSTANT_ASSIGN_SUBSCRIPT_NAME_LOAD_CONSTANT_STORE_",
      "TRY_ASSIGN_NAME_STORE_ CALL_ATTRIBUTE_ATTRIBUTE_NAME_LOAD_LOAD_LOAD_",
      "CONSTANT_ IF_COMPARE_NAME_LOAD_EQ_CONSTANT_ASSIGN_NAME_STORE_",
      "CALL_NAME_LOAD_ ATTRIBUTE_NAME_LOAD_LOAD_LOAD_",
      "LIST_CONSTANT_ CONSTANT_LOAD_ASSIGN_NAME_STORE_",
      "LT _CONSTANT_ASSIGN_NAME_STORE_",
      "MODULE_FUNCTIONDEF_ARGUMENTS_ARG_EXPR_ CONSTANT_IF_CALL_NAME_LOAD_NAME_LOAD_",
      "IF_COMPARE_ATTRIBUTE_NAME_LOAD_LOAD_ IN_",
      "EXPR_CALL_ATTRIBUTE_NAME_LOAD_LOAD_ CONSTANT_ASSIGN_NAME_STORE_",
      "ATTRIBUTE_NAME_LOAD_LOAD_ASSIGN_NAME_STORE_ CALL_NAME_LOAD_NAME_LOAD_",
      "CONSTANT_ASSIGN_SUBSCRIPT_ATTRIBUTE_NAME_LOAD_LOAD_ NAME_LOAD_STORE_",
      "NAME_LOAD_ DEL",
      "EXPR_CALL_ATTRIBUTE_ SUBSCRIPT_ATTRIBUTE_NAME_LOAD_LOAD_NAME_LOAD_LOAD_LOAD_",
      "MODULE_FUNCTIONDEF_ARGUMENTS_ARG_ARG_EXPR_ CONSTANT_ASSERT_",
      "L SHIFT",
      "CALL_ATTRIBUTE_ ATTRIBUTE_",
      "ASSIGN_SUBSCRIPT_NAME_LOAD_CONSTANT_STORE_NAME_LOAD_ ASSIGN_SUBSCRIPT_NAME_LOAD_CONSTANT_STORE_NAME_LOAD_",
      "_CONSTANT_CONSTANT_CONSTANT_CONSTANT_CONSTANT_ CONSTANT_EXPR_",
      "IS _",
      "ASSIGN_SUBSCRIPT_NAME_LOAD_NAME_LOAD_STORE_ NAME_LOAD_RETURN_NAME_LOAD",
      "LIST_LOAD_ASSIGN_NAME_STORE_ LIST_LOAD_",
      "NAME_LOAD_ ASSIGN_SUBSCRIPT_NAME_LOAD_CONSTANT_STORE_",
      "CALL_NAME_LOAD_NAME_LOAD_ ADD_",
      "CALL_NAME_LOAD_ CONSTANT_CONSTANT_",
      "IF_NAME_LOAD_ AUGASSIGN_NAME_STORE_ADD_",
      "ATTRIBUTE_NAME_LOAD_LOAD_ASSIGN_ATTRIBUTE_NAME_LOAD_STORE_ ATTRIBUTE_NAME_LOAD_LOAD_ASSIGN_ATTRIBUTE_NAME_LOAD_STORE_",
      "KEYWORD_CONSTANT_ EXPR_CALL_ATTRIBUTE_NAME_LOAD_LOAD_CONSTANT_",
      "BITOR _ATTRIBUTE_NAME_LOAD_LOAD_",
      "BINOP_ CALL_NAME_LOAD_ATTRIBUTE_NAME_LOAD_LOAD_",
      "COMPARE_NAME_LOAD_ LT_CONSTANT_",
      "CALL_NAME_LOAD_NAME_LOAD_ASSIGN_NAME_STORE_ CALL_ATTRIBUTE_NAME_LOAD_LOAD_NAME_LOAD_",
      "TUPLE_NAME_LOAD_ ATTRIBUTE_NAME_LOAD_LOAD_LOAD_",
      "CONSTANT_ CONSTANT_ASSIGN_NAME_STORE_",
      "BINOP_NAME_LOAD_ DIV_",
      "CALL_ATTRIBUTE_ SUBSCRIPT_",
      "DICT_ASSIGN_ SUBSCRIPT_NAME_LOAD_CONSTANT_STORE_",
      "IF_ CALL_NAME_LOAD_",
      "BINOP_NAME_LOAD_ADD_ CONSTANT_ASSIGN_NAME_STORE_",
      "MODULE_FUNCTIONDEF_ARGUMENTS_ARG_ARG_ARG_CONSTANT_CONSTANT_EXPR_ CONSTANT_ASSIGN_NAME_STORE_",
      "IF_COMPARE_NAME_LOAD_ LTE_",
      "CONSTANT_IF_UNARYOP_NOT_CALL_NAME_LOAD_NAME_LOAD_NAME_LOAD_ RAISE_CALL_NAME_LOAD_",
      "IF_NAME_LOAD_ ASSIGN_SUBSCRIPT_NAME_LOAD_CONSTANT_STORE_NAME_LOAD_",
      "RAISE_ NAME_LOAD_",
      "BINOP_CALL_NAME_LOAD_NAME_LOAD_ ADD_",
      "CALL_ATTRIBUTE_ATTRIBUTE_NAME_LOAD_LOAD_LOAD_ NAME_LOAD",
      "SUBSCRIPT_NAME_LOAD_CONSTANT_LOAD_ ASSIGN_NAME_STORE_CALL_NAME_LOAD_",
      "SUBSCRIPT_SUBSCRIPT_NAME_LOAD_CONSTANT_LOAD_ CONSTANT_LOAD_LOAD_",
      "IF_COMPARE_ATTRIBUTE_NAME_LOAD_LOAD_ISNOT _CONSTANT_ASSIGN_NAME_STORE_",
      "CALL_ATTRIBUTE_CONSTANT_LOAD_ NAME_LOAD",
      "ASSIGN_NAME_STORE_ CALL_NAME_LOAD_NAME_LOAD_NAME_LOAD_",
      "UNARYOP_ IN",
      "UNARYOP_IN V",
      "IF_COMPARE_NAME_LOAD_ GT_CONSTANT_",
      "_CONSTANT_EXPR_ CALL_NAME_LOAD_",
      "MODULE_FUNCTIONDEF_ARGUMENTS_ARG_ARG_EXPR_CONSTANT_ EXPR_CALL_ATTRIBUTE_NAME_LOAD_LOAD_",
      "IF_COMPARE_SUBSCRIPT_NAME_LOAD_CONSTANT_LOAD_ EQ_CONSTANT_ASSIGN_NAME_STORE_",
      "IF_BOOLOP_AND_COMPARE_NAME_LOAD_ EQ_CONSTANT_",
      "MODULE_FUNCTIONDEF_ARGUMENTS_ARG_ARG_ARG_EXPR_ CONSTANT_RETURN_",
      "MODULE_FUNCTIONDEF_ARGUMENTS_ARG_EXPR_ CONSTANT_ASSIGN_TUPLE_NAME_STORE_NAME_STORE_STORE_",
      "RETURN_NAME_LOAD_RETURN_ CONSTANT",
      "IF_BOOLOP_OR_ COMPARE_NAME_LOAD_IS_CONSTANT_",
      "CONSTANT_ EXPR_CALL_ATTRIBUTE_NAME_LOAD_LOAD_CONSTANT_",
      "SUBSCRIPT_ATTRIBUTE_NAME_LOAD_LOAD_ CONSTANT_LOAD",
      "CALL_ATTRIBUTE_NAME_LOAD_LOAD_NAME_LOAD_ KEYWORD_CONSTANT_",
      "MODULE_FUNCTIONDEF_ARGUMENTS_ARG_ARG_EXPR_ CONSTANT_ASSIGN_TUPLE_NAME_STORE_NAME_STORE_STORE_",
      "MODULE_FUNCTIONDEF_ARGUMENTS_ARG_ARG_CONSTANT_EXPR_ CONSTANT_ASSIGN_NAME_STORE_CALL_ATTRIBUTE_NAME_LOAD_LOAD_",
      "IN_ATTRIBUTE_ ATTRIBUTE_NAME_LOAD_LOAD_LOAD_",
      "MODULE_FUNCTIONDEF_ARGUMENTS_ARG_ARG_CONSTANT_EXPR_CONSTANT_ IF_COMPARE_NAME_LOAD_IS_CONSTANT_ASSIGN_NAME_STORE_",
      "CONSTANT_ IF_NAME_LOAD_ASSIGN_NAME_STORE_",
      "CALL_ATTRIBUTE_CONSTANT_LOAD_ GENERATOREXP_",
      "FOR_TUPLE_NAME_STORE_NAME_STORE_STORE_ CALL_NAME_LOAD_ATTRIBUTE_NAME_LOAD_LOAD_",
      "FOR_NAME_STORE_CALL_NAME_LOAD_ CALL_NAME_LOAD_NAME_LOAD_",
      "IF_COMPARE_ATTRIBUTE_NAME_LOAD_LOAD_ISNOT _CONSTANT_ASSIGN_SUBSCRIPT_NAME_LOAD_CONSTANT_STORE_",
      "CONSTANT_CONSTANT_ CONSTANT_EXPR_",
      "NAME_LOAD_ASSIGN_NAME_STORE_ ATTRIBUTE_NAME_LOAD_LOAD_",
      "COMPARE_CONSTANT_ NOTIN_NAME_LOAD_",
      "EXPR_CALL_ATTRIBUTE_NAME_LOAD_LOAD_CALL_ATTRIBUTE_CONSTANT_LOAD_ ATTRIBUTE_NAME_LOAD_LOAD_",
      "ASSIGN_NAME_STORE_ SUBSCRIPT_ATTRIBUTE_NAME_LOAD_LOAD_NAME_LOAD_LOAD_",
      "RETURN_ TUPLE_NAME_LOAD_",
      "TUPLE_ CONSTANT_CONSTANT_",
      "IF_COMPARE_NAME_LOAD_ LT_NAME_LOAD_",
      "KEYWORD_NAME_LOAD_KEYWORD_NAME_LOAD_ KEYWORD_",
      "ATTRIBUTE_NAME_LOAD_LOAD_ CONSTANT_",
      "GLOBAL _",
      "LIST_ LOAD",
      "IF_COMPARE_NAME_LOAD_IN_ NAME_LOAD_ASSIGN_NAME_STORE_",
      "COMPARE_ CALL_ATTRIBUTE_NAME_LOAD_LOAD_CONSTANT_",
      "TRY _ASSIGN_ATTRIBUTE_NAME_LOAD_STORE_",
      "SUBSCRIPT_ATTRIBUTE_ATTRIBUTE_NAME_LOAD_LOAD_LOAD_ NAME_LOAD_LOAD_",
      "IF_NAME_LOAD_ EXPR_CALL_ATTRIBUTE_NAME_LOAD_LOAD_CONSTANT_",
      "MODULE_FUNCTIONDEF_ARGUMENTS_ARG_ARG_EXPR_CONSTANT_ASSIGN_NAME_STORE_ CALL_ATTRIBUTE_ATTRIBUTE_NAME_LOAD_LOAD_LOAD_",
      "NAME_LOAD_ AUGASSIGN_NAME_STORE_ADD_",
      "EXPR_CALL_ATTRIBUTE_NAME_LOAD_LOAD_ BINOP_CONSTANT_MOD_NAME_LOAD_",
      "UNARYOP_NOT_ CALL_NAME_LOAD_NAME_LOAD_",
      "MODULE_FUNCTIONDEF_ARGUMENTS_ARG_EXPR_CONSTANT_IF_COMPARE_ATTRIBUTE_NAME_LOAD_LOAD_ IS_CONSTANT_ASSIGN_ATTRIBUTE_NAME_LOAD_STORE_",
      "NAME_LOAD_ASSIGN_NAME_STORE_ LIST_LOAD_",
      "FOR_NAME_STORE_ CALL_NAME_LOAD_ATTRIBUTE_NAME_LOAD_LOAD_",
      "BINOP_ CALL_ATTRIBUTE_NAME_LOAD_LOAD_NAME_LOAD_",
      "SLICE_ UNARYOP_USUB_CONSTANT_LOAD_",
      "MODULE_FUNCTIONDEF_ARGUMENTS_ARG_ARG_ARG _",
      "ASSIGN_NAME_STORE_CALL_ATTRIBUTE_NAME_LOAD_LOAD_ CONSTANT_CONSTANT_",
      "IF_BOOLOP_OR_ UNARYOP_NOT_NAME_LOAD_",
      "KEYWORD_NAME_LOAD_KEYWORD_NAME_LOAD_ KEYWORD_NAME_LOAD_KEYWORD_",
      "ASSIGN_TUPLE_NAME_STORE_NAME_STORE_STORE_ TUPLE_",
      "RETURN_ CALL_ATTRIBUTE_ATTRIBUTE_NAME_LOAD_LOAD_LOAD_NAME_LOAD_",
      "IF_CALL_ATTRIBUTE_NAME_LOAD_LOAD_ CONSTANT_ASSIGN_NAME_STORE_",
      "_CONSTANT_CONSTANT_CONSTANT_CONSTANT_CONSTANT_ EXPR_",
      "NAME_LOAD_CONSTANT_ FORMATTEDVALUE_",
      "COMPARE_ CALL_NAME_LOAD_",
      "DICT_ FOR_NAME_STORE_NAME_LOAD_",
      "CONSTANT_LOAD_LOAD_ LOAD_",
      "SUBSCRIPT_NAME_LOAD_CONSTANT_LOAD_ NAME_LOAD_",
      "SUBSCRIPT_ CALL_NAME_LOAD_NAME_LOAD_",
      "MODULE_FUNCTIONDEF_ARGUMENTS_ARG_ARG_EXPR_CONSTANT_ASSIGN_NAME_STORE_ LIST_LOAD_",
      "ATTRIBUTE_ CALL_NAME_LOAD_NAME_LOAD_LOAD_",
      "RAISE_ CALL_ATTRIBUTE_NAME_LOAD_LOAD_CONSTANT_",
      "DIV _CONSTANT_ASSIGN_NAME_STORE_",
      "MODULE_FUNCTIONDEF_ARGUMENTS_ARG_ARG_ARG_ARG_ARG_ARG_ARG_ARG _ARG",
      "IF_NAME_LOAD_ ASSIGN_NAME_STORE_CALL_NAME_LOAD_",
      "UNARYOP_USUB _NAME_LOAD_",
      "SUBSCRIPT_NAME_LOAD_SLICE_ CONSTANT_LOAD_ASSIGN_NAME_STORE_",
      "MODULE_FUNCTIONDEF_ARGUMENTS_ARG_ARG_ARG_ARG_ARG_ARG _CONSTANT_CONSTANT_CONSTANT_CONSTANT_EXPR_",
      "IF_COMPARE_NAME_LOAD_ GT_CONSTANT_ASSIGN_NAME_STORE_",
      "MODULE_FUNCTIONDEF_ARGUMENTS_ARG_EXPR_CONSTANT_ASSIGN_NAME_STORE_ CONSTANT_",
      "CONSTANT_ NAME_LOAD_LOAD_",
      "ASSIGN_ATTRIBUTE_NAME_LOAD_STORE_ ATTRIBUTE_NAME_LOAD_LOAD_",
      "COMPARE_NAME_LOAD_ LTE_",
      "CALL_NAME_LOAD_ CONSTANT_NAME_LOAD_",
      "CALL_ATTRIBUTE_NAME_LOAD_LOAD_NAME_LOAD_ ATTRIBUTE_NAME_LOAD_LOAD_",
      "MODULE_FUNCTIONDEF_ARGUMENTS_ARG_EXPR_CONSTANT_ EXPR_CALL_ATTRIBUTE_ATTRIBUTE_NAME_LOAD_LOAD_LOAD_",
      "ASSIGN_TUPLE_NAME_STORE_NAME_STORE_STORE_ CALL_NAME_LOAD_NAME_LOAD_",
      "CONSTANT_IF_UNARYOP_NOT_NAME_LOAD_ ASSIGN_NAME_STORE_",
      "KEYWORD_CONSTANT_ RETURN_NAME_LOAD",
      "CONSTANT_AUGASSIGN_NAME_STORE_ADD_ CONSTANT_",
      "FOR_TUPLE_NAME_STORE_NAME_STORE_STORE_ CALL_NAME_LOAD_",
      "MODULE_FUNCTIONDEF_ARGUMENTS_ARG_EXPR_CONSTANT_ASSIGN_NAME_STORE_ CALL_ATTRIBUTE_NAME_LOAD_LOAD_CONSTANT_",
      "DICT_CONSTANT_CONSTANT_CONSTANT_CONSTANT_CONSTANT_ CONSTANT_CONSTANT_",
      "CONSTANT_IF_UNARYOP_NOT_NAME_LOAD_ RETURN_",
      "EQ _ATTRIBUTE_",
      "_SUBSCRIPT_NAME_LOAD_NAME_LOAD_LOAD_ ARG",
      "EXPR_CALL_ATTRIBUTE_NAME_LOAD_LOAD_NAME_LOAD_ RETURN_",
      "KEYWORD_ATTRIBUTE_NAME_LOAD_LOAD_ KEYWORD_NAME_LOAD_",
      "NAME_LOAD_ASSIGN_NAME_STORE_CALL_ATTRIBUTE_NAME_LOAD_LOAD_ NAME_LOAD_ASSIGN_NAME_STORE_",
      "EXPR_CALL_ATTRIBUTE_NAME_LOAD_LOAD_CONSTANT_ NAME_LOAD_RETURN_",
      "BINOP_NAME_LOAD_ RSHIFT",
      "CALL_NAME_LOAD_ KEYWORD_",
      "RAISE_CALL_NAME_LOAD_ CONSTANT_ASSIGN_NAME_STORE_CALL_ATTRIBUTE_NAME_LOAD_LOAD_",
      "IF_COMPARE_ATTRIBUTE_NAME_LOAD_LOAD_ NOTEQ_ATTRIBUTE_NAME_LOAD_LOAD_",
      "ATTRIBUTE_NAME_LOAD_LOAD_ ADD_",
      "LIST_NAME_LOAD_LOAD_ ASSIGN_NAME_STORE_",
      "COMPARE_NAME_LOAD_EQ_CONSTANT_ COMPARE_NAME_LOAD_EQ_CONSTANT_",
      "IF_BOOLOP_AND_ CALL_NAME_LOAD_NAME_LOAD_NAME_LOAD_",
      "COMPARE_NAME_LOAD_ EQ_ATTRIBUTE_NAME_LOAD_LOAD_",
      "COMPARE_NAME_LOAD_ LT_NAME_LOAD_",
      "BINOP_BINOP_NAME_LOAD_ADD_ NAME_LOAD_ADD_",
      "MODULE_FUNCTIONDEF_ARGUMENTS_EXPR_ CONSTANT_ASSIGN_NAME_STORE_CALL_ATTRIBUTE_NAME_LOAD_LOAD_",
      "CALL_ATTRIBUTE_CONSTANT_LOAD_ NAME_LOAD_LOAD_",
      "BINOP_CONSTANT_MOD_ NAME_LOAD_ASSIGN_NAME_STORE_",
      "EXPR_CALL_ATTRIBUTE_ATTRIBUTE_NAME_LOAD_LOAD_LOAD_NAME_LOAD_ EXPR_CALL_ATTRIBUTE_ATTRIBUTE_NAME_LOAD_LOAD_LOAD_",
      "CONSTANT_AUG ASSIGN_ATTRIBUTE_NAME_LOAD_STORE_ADD_",
      "_CONSTANT_ CONSTANT_CONSTANT_CONSTANT_CONSTANT_CONSTANT_CONSTANT_CONSTANT_CONSTANT_",
      "CALL_ATTRIBUTE_NAME_LOAD_LOAD_NAME_LOAD_ RETURN_",
      "SUBSCRIPT_NAME_LOAD_ATTRIBUTE_NAME_LOAD_LOAD_LOAD_ LOAD_",
      "EXPR_CALL_ATTRIBUTE_NAME_LOAD_LOAD_NAME_LOAD_NAME_LOAD_ NAME_LOAD_",
      "DICT _EXPR_",
      "CALL_ATTRIBUTE_ SUBSCRIPT_NAME_LOAD_SLICE_",
      "EXPR_CALL_ATTRIBUTE_NAME_LOAD_LOAD_ RETURN_NAME_LOAD",
      "IF_BOOLOP_AND_ COMPARE_CONSTANT_IN_NAME_LOAD_",
      "MODULE_FUNCTIONDEF_ARGUMENTS_ARG_EXPR_CONSTANT_ TRY_",
      "LIST_LOAD_ASSIGN_NAME_STORE_ LIST_LOAD_ASSIGN_NAME_STORE_",
      "ASSIGN_SUBSCRIPT_ATTRIBUTE_NAME_LOAD_LOAD_NAME_LOAD_STORE_ NAME_LOAD_",
      "IF_COMPARE_NAME_LOAD_ISNOT_CONSTANT_ASSIGN_SUBSCRIPT_NAME_LOAD_CONSTANT_STORE_CALL_ATTRIBUTE_ATTRIBUTE_NAME_LOAD_LOAD_LOAD_CONSTANT_NAME_LOAD_ CONSTANT_",
      "MODULE_FUNCTIONDEF_ARGUMENTS_ARG_EXPR_CONSTANT_ASSIGN_NAME_STORE_ ATTRIBUTE_NAME_LOAD_LOAD_",
      "CALL_NAME_LOAD_NAME_LOAD_NAME_LOAD_ RETURN_NAME_LOAD",
      "SUBSCRIPT_ATTRIBUTE_NAME_LOAD_LOAD_CONSTANT_LOAD_ SUBSCRIPT_ATTRIBUTE_NAME_LOAD_LOAD_CONSTANT_LOAD_",
      "EXCEPTHANDLER_NAME_LOAD_ EXPR_CALL_NAME_LOAD_",
      "TUPLE_ ATTRIBUTE_NAME_LOAD_LOAD_ATTRIBUTE_NAME_LOAD_LOAD_",
      "MODULE_FUNCTIONDEF_ARGUMENTS_ARG_EXPR_CONSTANT_ASSIGN_NAME_STORE_ CALL_NAME_LOAD_ATTRIBUTE_NAME_LOAD_LOAD_",
      "SUBSCRIPT_NAME_LOAD_ NAME_LOAD_STORE_",
      "TUPLE_ CONSTANT_LOAD_",
      "CALL_ATTRIBUTE_NAME_LOAD_LOAD_CONSTANT_ LIST_LOAD_",
      "ASSIGN_ATTRIBUTE_NAME_LOAD_STORE_ CALL_NAME_LOAD_ATTRIBUTE_NAME_LOAD_LOAD_",
      "LISTCOMP_CALL_ATTRIBUTE_NAME_LOAD_LOAD_ COMPREHENSION_NAME_STORE_",
      "SUBSCRIPT_ CALL_ATTRIBUTE_ATTRIBUTE_NAME_LOAD_LOAD_LOAD_NAME_LOAD_",
      "COMPARE_NAME_LOAD_ EQ_CONSTANT_ASSIGN_NAME_STORE_",
      "RETURN_NAME_LOAD_ NAME_LOAD",
      "IF_COMPARE_SUBSCRIPT_NAME_LOAD_CONSTANT_LOAD_ EQ_",
      "RETURN_CALL_ATTRIBUTE_CONSTANT_LOAD_ NAME_LOAD",
      "CALL_ATTRIBUTE_CONSTANT_LOAD_ NAME_LOAD_RETURN_",
      "COMPARE_NAME_LOAD_ NOTEQ_NAME_LOAD_",
      "DELETE_SUBSCRIPT_NAME_LOAD_ CONSTANT_",
      "MODULE_FUNCTIONDEF_ARGUMENTS_ARG_EXPR_ CONSTANT_EXPR_",
      "IF_COMPARE_ATTRIBUTE_NAME_LOAD_LOAD_ IS_CONSTANT_ASSIGN_ATTRIBUTE_NAME_LOAD_STORE_",
      "DICTCOMP _",
      "ASSIGN_NAME_STORE_ CALL_NAME_LOAD_ATTRIBUTE_NAME_LOAD_LOAD_",
      "EXCEPTHANDLER_NAME_LOAD_ RAISE_",
      "KEYWORD_ DICT_CONSTANT_",
      "EXPR_CALL_ATTRIBUTE_ SUBSCRIPT_ATTRIBUTE_NAME_LOAD_LOAD_CONSTANT_LOAD_LOAD_",
      "MODULE_FUNCTIONDEF_ARGUMENTS_ARG_EXPR_CONSTANT_IF_COMPARE_ATTRIBUTE_NAME_LOAD_LOAD_ IS_CONSTANT_",
      "SUBSCRIPT_ATTRIBUTE_NAME_LOAD_LOAD_ NAME_LOAD_LOAD",
      "ATTRIBUTE_ATTRIBUTE_NAME_LOAD_LOAD_LOAD_ STORE_",
      "COMPARE_NAME_LOAD_ NOTIN_",
      "LISTCOMP_ATTRIBUTE_NAME_LOAD_LOAD_ COMPREHENSION_NAME_STORE_",
      "IF_COMPARE_NAME_LOAD_NOTIN_NAME_LOAD_ ASSIGN_SUBSCRIPT_NAME_LOAD_NAME_LOAD_STORE_",
      "IF_ CALL_NAME_LOAD_ATTRIBUTE_NAME_LOAD_LOAD_",
      "SUBSCRIPT_NAME_LOAD_ BINOP_NAME_LOAD_SUB_CONSTANT_LOAD_",
      "SUBSCRIPT_NAME_LOAD_CONSTANT_LOAD_ RETURN_",
      "ASSIGN_ATTRIBUTE_NAME_LOAD_STORE_ CALL_ATTRIBUTE_ATTRIBUTE_NAME_LOAD_LOAD_LOAD_",
      "ASSIGN_SUBSCRIPT_NAME_LOAD_CONSTANT_STORE_ CONSTANT_ASSIGN_SUBSCRIPT_NAME_LOAD_CONSTANT_STORE_",
      "MODULE_FUNCTIONDEF_ARGUMENTS_ARG_ARG_EXPR_CONSTANT_ IF_ATTRIBUTE_NAME_LOAD_LOAD_",
      "EXCEPTHANDLER_NAME_LOAD_ EXPR_CALL_ATTRIBUTE_NAME_LOAD_LOAD_",
      "AUG ASSIGN_ATTRIBUTE_NAME_LOAD_STORE_",
      "SUBSCRIPT_NAME_LOAD_CONSTANT_LOAD_ASSIGN_ATTRIBUTE_NAME_LOAD_STORE_ SUBSCRIPT_NAME_LOAD_CONSTANT_LOAD_ASSIGN_ATTRIBUTE_NAME_LOAD_STORE_",
      "CONSTANT_ TRY_ASSIGN_NAME_STORE_",
      "BINOP_BINOP_ BINOP_CONSTANT_ADD_",
      "NAME_LOAD_EXPR_CALL_ATTRIBUTE_NAME_LOAD_LOAD_ NAME_LOAD_NAME_LOAD_",
      "LISTCOMP_NAME_LOAD_ COMPREHENSION_NAME_STORE_ATTRIBUTE_NAME_LOAD_LOAD_",
      "CALL_ATTRIBUTE_ATTRIBUTE_NAME_LOAD_LOAD_LOAD_ CALL_ATTRIBUTE_ATTRIBUTE_NAME_LOAD_LOAD_LOAD_",
      "RAISE_CALL_NAME_LOAD_ NAME_LOAD",
      "MODULE_FUNCTIONDEF_ARGUMENTS_ARG_ARG_ARG_ARG_CONSTANT_EXPR_ CONSTANT_ASSIGN_NAME_STORE_",
      "MODULE_FUNCTIONDEF_ARGUMENTS_ARG_ARG_EXPR_CONSTANT_ EXPR_CALL_ATTRIBUTE_ATTRIBUTE_NAME_LOAD_LOAD_LOAD_",
      "IF_COMPARE_NAME_LOAD_IS_CONSTANT_ RAISE_CALL_NAME_LOAD_",
      "IF_COMPARE_NAME_LOAD_ LT_",
      "ASSIGN_SUBSCRIPT_ATTRIBUTE_NAME_LOAD_LOAD_ ATTRIBUTE_NAME_LOAD_LOAD_STORE_",
      "CALL_ATTRIBUTE_SUBSCRIPT_NAME_LOAD_CONSTANT_LOAD_LOAD_ CONSTANT_",
      "DICT_ CONSTANT_ATTRIBUTE_NAME_LOAD_LOAD_",
      "WHILE_ BOOLOP_AND_",
      "LIST_ CONSTANT_LOAD_LOAD_",
      "IF_BOOLOP_AND_ NAME_LOAD_NAME_LOAD_",
      "KEYWORD_NAME_LOAD_KEYWORD_NAME_LOAD_KEYWORD_NAME_LOAD_KEYWORD_NAME_LOAD_ KEYWORD_NAME_LOAD_KEYWORD_NAME_LOAD_KEYWORD_NAME_LOAD_KEYWORD_NAME_LOAD_",
      "SUBSCRIPT_NAME_LOAD_CONSTANT_LOAD_ ASSIGN_NAME_STORE_CALL_ATTRIBUTE_NAME_LOAD_LOAD_",
      "KEYWORD_CONSTANT_ NAME_STORE_",
      "NAME_LOAD_ ATTRIBUTE_NAME_LOAD_LOAD_",
      "ASSIGN_ATTRIBUTE_NAME_LOAD_STORE_ CALL_NAME_LOAD_NAME_LOAD_",
      "CALL_ATTRIBUTE_NAME_LOAD_LOAD_ CONSTANT",
      "MODULE_FUNCTIONDEF_ARGUMENTS_ARG_ARG_EXPR_ CONSTANT_EXPR_",
      "ASSIGN_NAME_STORE_ BINOP_",
      "EXPR_CALL_ATTRIBUTE_ CALL_ATTRIBUTE_NAME_LOAD_LOAD_LOAD_",
      "IF_COMPARE_NAME_LOAD_EQ_CONSTANT_ EXPR_CALL_ATTRIBUTE_NAME_LOAD_LOAD_",
      "DICT_CONSTANT_CONSTANT_CONSTANT_ CONSTANT_NAME_LOAD_",
      "FOR_NAME_STORE_ ATTRIBUTE_ATTRIBUTE_NAME_LOAD_LOAD_LOAD_",
      "CONSTANT_ IF_ATTRIBUTE_NAME_LOAD_LOAD_",
      "MODULE_FUNCTIONDEF_ARGUMENTS_ARG_ARG_ARG_EXPR_ CONSTANT_ASSIGN_NAME_STORE_CALL_ATTRIBUTE_NAME_LOAD_LOAD_NAME_LOAD_",
      "SUBSCRIPT_SUBSCRIPT_SUBSCRIPT_NAME_LOAD_CONSTANT_LOAD_CONSTANT_LOAD_ CONSTANT_LOAD_",
      "ATTRIBUTE_ CALL_ATTRIBUTE_NAME_LOAD_LOAD_LOAD_",
      "CALL_NAME_LOAD_NAME_LOAD_ ASSIGN_NAME_STORE_CALL_ATTRIBUTE_NAME_LOAD_LOAD_",
      "SUBSCRIPT_NAME_LOAD_CONSTANT_LOAD_ EXPR_CALL_ATTRIBUTE_NAME_LOAD_LOAD_",
      "DICTCOMP_NAME_LOAD_ NAME_LOAD_",
      "SUBSCRIPT_ATTRIBUTE_NAME_LOAD_LOAD_SLICE_ CONSTANT_LOAD_",
      "SUB _CONSTANT_LOAD_",
      "BINOP_NAME_LOAD_ADD_ NAME_LOAD_LOAD_",
      "MODULE_FUNCTIONDEF_ARGUMENTS_ARG_ARG_ARG_EXPR_ CONSTANT_ASSIGN_NAME_STORE_CALL_NAME_LOAD_",
      "MODULE_FUNCTIONDEF_ARGUMENTS_ARG _NAME_LOAD_ARG_NAME_LOAD_ARG",
      "EXPR_CALL_ATTRIBUTE_NAME_LOAD_LOAD_NAME_LOAD_ ATTRIBUTE_NAME_LOAD_LOAD_",
      "MODULE_FUNCTIONDEF_ARGUMENTS_ARG_ARG_ARG_ARG_CONSTANT_CONSTANT_EXPR_ CONSTANT_ASSIGN_NAME_STORE_",
      "IF_COMPARE_NAME_LOAD_ISNOT_CONSTANT_ASSIGN_SUBSCRIPT_NAME_LOAD_CONSTANT_STORE_ NAME_LOAD_",
      "ATTRIBUTE_ SUBSCRIPT_ATTRIBUTE_NAME_LOAD_LOAD_NAME_LOAD_LOAD_LOAD_",
      "MODULE_FUNCTIONDEF_ARGUMENTS_ARG_ARG_ARG_CONSTANT_EXPR_CONSTANT_IF_CALL_NAME_LOAD_NAME_LOAD_CONSTANT_ASSIGN_NAME_STORE_CALL_ATTRIBUTE_NAME_LOAD_LOAD_NAME_LOAD_TRY_ASSIGN_NAME_STORE_CALL_NAME_LOAD_NAME_LOAD_ KEYWORD_ATTRIBUTE_NAME_LOAD_LOAD_",
      "EXCEPTHANDLER_NAME_LOAD_ ASSIGN_NAME_STORE_CONSTANT_",
      "CALL_NAME_LOAD_NAME_LOAD_ASSIGN_NAME_STORE_ CALL_NAME_LOAD_NAME_LOAD_ASSIGN_NAME_STORE_",
      "CALL_ATTRIBUTE_NAME_LOAD_LOAD_ KEYWORD_CONSTANT_",
      "IFEXP_ COMPARE_NAME_LOAD_IS_CONSTANT_",
      "EXPR_CALL_ATTRIBUTE_NAME_LOAD_LOAD_ NAME_LOAD_ASSIGN_NAME_STORE_CALL_ATTRIBUTE_NAME_LOAD_LOAD_",
      "CONSTANT_ASSIGN_ATTRIBUTE_NAME_LOAD_STORE_CONSTANT_ASSIGN_ATTRIBUTE_NAME_LOAD_STORE_ CONSTANT_ASSIGN_ATTRIBUTE_NAME_LOAD_STORE_CONSTANT_ASSIGN_ATTRIBUTE_NAME_LOAD_STORE_",
      "CALL_ATTRIBUTE_ CALL_ATTRIBUTE_NAME_LOAD_LOAD_NAME_LOAD_",
      "EXCEPTHANDLER_NAME_LOAD_ EXPR_CALL_ATTRIBUTE_ATTRIBUTE_NAME_LOAD_LOAD_LOAD_",
      "CALL_ATTRIBUTE_NAME_LOAD_LOAD_ KEYWORD_",
      "LISTCOMP_ CALL_NAME_LOAD_",
      "ASSIGN_ TUPLE_NAME_STORE_NAME_STORE_NAME_STORE_NAME_STORE_STORE_",
      "TRY_EXPR_ CALL_ATTRIBUTE_ATTRIBUTE_NAME_LOAD_LOAD_LOAD_",
      "FOR_NAME_STORE_NAME_LOAD_ EXPR_CALL_ATTRIBUTE_NAME_LOAD_LOAD_NAME_LOAD_",
      "SUBSCRIPT_NAME_LOAD_TUPLE_SLICE_ CONSTANT_LOAD_LOAD_",
      "RAISE_CALL_NAME_LOAD_CALL_ATTRIBUTE_CONSTANT_LOAD_ NAME_LOAD",
      "CONSTANT_EXPR_CALL_NAME_LOAD_ CONSTANT_EXPR_CALL_NAME_LOAD_",
      "CONSTANT_STORE_ NAME_LOAD_",
      "DICT_CONSTANT_CONSTANT_CONSTANT_ NAME_LOAD_NAME_LOAD_",
      "IF_COMPARE_NAME_LOAD_ISNOT _CONSTANT_ASSIGN_ATTRIBUTE_NAME_LOAD_STORE_",
      "BINOP_SUBSCRIPT_NAME_LOAD_CONSTANT_LOAD_ ADD_",
      "CONSTANT_ UNARYOP_USUB_CONSTANT_",
      "CALL_ATTRIBUTE_ATTRIBUTE_NAME_LOAD_LOAD_LOAD_ ASSIGN_NAME_STORE_",
      "COMPREHENSION_NAME_STORE_ CALL_NAME_LOAD_",
      "MODULE_FUNCTIONDEF_ARGUMENTS_ARG_EXPR_CONSTANT_ TRY_ASSIGN_NAME_STORE_",
      "CALL_ATTRIBUTE_NAME_LOAD_LOAD_ ASSIGN_NAME_STORE_CALL_ATTRIBUTE_NAME_LOAD_LOAD_",
      "BINOP_CONSTANT_MOD_ TUPLE_ATTRIBUTE_NAME_LOAD_LOAD_",
      "CONSTANT_ASSIGN_NAME_STORE_CALL_ATTRIBUTE_NAME_LOAD_LOAD_ ATTRIBUTE_NAME_LOAD_LOAD_",
      "KEYWORD_ATTRIBUTE_NAME_LOAD_LOAD_KEYWORD_ATTRIBUTE_NAME_LOAD_LOAD_ KEYWORD_ATTRIBUTE_NAME_LOAD_LOAD_",
      "CONSTANT_EXPR_CALL_ATTRIBUTE_NAME_LOAD_LOAD_ ATTRIBUTE_NAME_LOAD_LOAD_",
      "EXPR_CALL_ATTRIBUTE_NAME_LOAD_LOAD_ ATTRIBUTE_NAME_LOAD_LOAD_ATTRIBUTE_NAME_LOAD_LOAD_",
      "TUPLE_ NAME_STORE_",
      "CONSTANT_ NAME_LOAD",
      "COMPARE_NAME_LOAD_ NOTEQ_",
      "CONSTANT_IF_BOOLOP_AND_ COMPARE_NAME_LOAD_ISNOT_CONSTANT_",
      "NAME_LOAD_ EXPR_CALL_ATTRIBUTE_ATTRIBUTE_NAME_LOAD_LOAD_LOAD_",
      "SUBSCRIPT_NAME_LOAD_ BINOP_NAME_LOAD_ADD_CONSTANT_LOAD_",
      "NAME_LOAD_ASSIGN_NAME_STORE_CALL_ATTRIBUTE_NAME_LOAD_LOAD_ CONSTANT_CONSTANT_",
      "ASSIGN_SUBSCRIPT_NAME_LOAD_CONSTANT_STORE_ CALL_ATTRIBUTE_NAME_LOAD_LOAD_",
      "RAISE_CALL_NAME_LOAD_BINOP_CONSTANT_MOD_ NAME_LOAD",
      "KEYWORD_CONSTANT_ KEYWORD_ATTRIBUTE_NAME_LOAD_LOAD_",
      "IF_NAME_LOAD_ASSIGN_NAME_STORE_ CALL_NAME_LOAD_NAME_LOAD_",
      "EXPR_CALL_ATTRIBUTE_NAME_LOAD_LOAD_CONSTANT_CONSTANT_ KEYWORD_CONSTANT_KEYWORD_CONSTANT_",
      "SUBSCRIPT_NAME_LOAD_ TUPLE_",
      "IF_COMPARE_NAME_LOAD_ GT_",
      "KEYWORD_ CONSTANT_ASSIGN_NAME_STORE_CALL_NAME_LOAD_",
      "_ATTRIBUTE_NAME_LOAD_LOAD_ EXPR_",
      "RAIS E",
      "SUBSCRIPT_SUBSCRIPT_ATTRIBUTE_NAME_LOAD_LOAD_NAME_LOAD_LOAD_ NAME_LOAD_LOAD_",
      "TUPLE_ CONSTANT_CONSTANT_CONSTANT_CONSTANT_LOAD_",
      "CALL_ATTRIBUTE_NAME_LOAD_LOAD_ RETURN_",
      "CONSTANT_ASSIGN_ATTRIBUTE_NAME_LOAD_STORE_ CALL_NAME_LOAD_",
      "EXPR_CALL_ATTRIBUTE_NAME_LOAD_LOAD_ LIST_CONSTANT_",
      "SUBSCRIPT_NAME_LOAD_NAME_LOAD_LOAD_ RETURN_NAME_LOAD",
      "CONSTANT_IF_UNARYOP_NOT_ CALL_ATTRIBUTE_ATTRIBUTE_NAME_LOAD_LOAD_LOAD_NAME_LOAD_",
      "KEYWORD_CONSTANT_KEYWORD_ CONSTANT",
      "KEYWORD_NAME_LOAD_KEYWORD_NAME_LOAD_KEYWORD_NAME_LOAD_ KEYWORD_NAME_LOAD",
      "ERT _NAME_LOAD_",
      "IF_COMPARE_NAME_LOAD_IS_CONSTANT_ASSIGN_NAME_STORE_ CALL_NAME_LOAD_",
      "LIST_CONSTANT_CONSTANT_LOAD_ LIST_CONSTANT_CONSTANT_LOAD_",
      "CALL_NAME_LOAD_NAME_LOAD_ CONSTANT_CONSTANT_",
      "RAISE_CALL_NAME_LOAD_ BINOP_CONSTANT_ADD_",
      "EXPR_CALL_ATTRIBUTE_NAME_LOAD_LOAD_ ASSIGN_NAME_STORE_",
      "IF_NAME_LOAD_ EXPR_CALL_NAME_LOAD_",
      "RETURN_CONSTANT_ IF_COMPARE_ATTRIBUTE_NAME_LOAD_LOAD_ISNOT_CONSTANT_",
      "COMPARE_CALL_NAME_LOAD_NAME_LOAD_ EQ_",
      "JOINEDSTR _",
      "COMPARE_NAME_LOAD_ LT_",
      "CALL_ATTRIBUTE_NAME_LOAD_LOAD_ATTRIBUTE_NAME_LOAD_LOAD_ NAME_LOAD_",
      "SUBSCRIPT_NAME_LOAD_CONSTANT_LOAD_ SUBSCRIPT_NAME_LOAD_CONSTANT_LOAD_LOAD_",
      "MODULE_FUNCTIONDEF_ARGUMENTS_ARG_EXPR_CONSTANT_ASSIGN_NAME_STORE_ CALL_ATTRIBUTE_NAME_LOAD_LOAD_NAME_LOAD_",
      "IF_COMPARE_ CALL_ATTRIBUTE_NAME_LOAD_LOAD_NAME_LOAD_",
      "FOR_NAME_STORE_ NAME_LOAD_ASSIGN_NAME_STORE_CALL_ATTRIBUTE_NAME_LOAD_LOAD_NAME_LOAD_",
      "CONSTANT_ASSIGN_NAME_STORE_CALL_ATTRIBUTE_NAME_LOAD_LOAD_ NAME_LOAD_ASSIGN_NAME_STORE_",
      "ASSIGN_NAME_STORE_CALL_NAME_LOAD_ CALL_ATTRIBUTE_NAME_LOAD_LOAD_",
      "CONSTANT_ADD_ CONSTANT_ADD_",
      "IFEXP_ COMPARE_NAME_LOAD_ISNOT_CONSTANT_",
      "DICT _ATTRIBUTE_NAME_LOAD_LOAD_",
      "EXPR_ YIELDFROM_",
      "BINOP_CALL_ATTRIBUTE_NAME_LOAD_LOAD_ ADD_",
      "TUPLE_SUBSCRIPT_NAME_LOAD_CONSTANT_LOAD_ SUBSCRIPT_NAME_LOAD_CONSTANT_LOAD_LOAD_",
      "IF_ATTRIBUTE_NAME_LOAD_LOAD_ EXPR_CALL_ATTRIBUTE_ATTRIBUTE_NAME_LOAD_LOAD_LOAD_",
      "JOINEDSTR_ FORMATTEDVALUE_",
      "CONSTANT_RETURN_ CALL_NAME_LOAD_NAME_LOAD_",
      "MODULE_FUNCTIONDEF_ARGUMENTS_ARG_ARG_EXPR_ CONSTANT_IF_BOOLOP_OR_",
      "IF_ BOOLOP_OR_NAME_LOAD_",
      "BINOP_NAME_LOAD_ DIV_CONSTANT_",
      "CONSTANT_ASSIGN_NAME_STORE_CALL_ATTRIBUTE_NAME_LOAD_LOAD_ CONSTANT_ASSIGN_NAME_STORE_CALL_ATTRIBUTE_NAME_LOAD_LOAD_",
      "IF_COMPARE_NAME_LOAD_IN_ TUPLE_CONSTANT_CONSTANT_LOAD_",
      "BITOR _NAME_LOAD_",
      "FOR_TUPLE_NAME_STORE_NAME_STORE_STORE_ CALL_NAME_LOAD_NAME_LOAD_ASSIGN_NAME_STORE_",
      "CALL_ATTRIBUTE_ATTRIBUTE_ATTRIBUTE_NAME_LOAD_LOAD_LOAD_LOAD_ CONSTANT_",
      "RAISE_CALL_NAME_LOAD_BINOP_CONSTANT_MOD_ TUPLE_",
      "LAMBDA_ARGUMENTS _ARG_ARG",
      "COMPARE_ CALL_ATTRIBUTE_NAME_LOAD_LOAD_NAME_LOAD_",
      "COMPARE_NAME_LOAD_ GT_NAME_LOAD_",
      "RAISE_CALL_NAME_LOAD_CALL_ATTRIBUTE_CONSTANT_LOAD_ NAME_LOAD_NAME_LOAD_",
      "CONSTANT_CONSTANT_ NAME_STORE_",
      "MODULE_FUNCTIONDEF_ARGUMENTS_ARG_EXPR_ CONSTANT_IF_BOOLOP_OR_",
      "EXPR_CALL_ATTRIBUTE_NAME_LOAD_LOAD_CONSTANT_ KEYWORD_CONSTANT_KEYWORD_CONSTANT_KEYWORD_CONSTANT_",
      "IF_COMPARE_NAME_LOAD_NOT EQ_CONSTANT_ASSIGN_NAME_STORE_",
      "RAISE_CALL_NAME_LOAD_CONSTANT_ RETURN_NAME_LOAD",
      "NAME_LOAD_ASSIGN_NAME_STORE_ CALL_ATTRIBUTE_CONSTANT_LOAD_",
      "IF_COMPARE_NAME_LOAD_IS _NAME_LOAD_",
      "GTE_ CONSTANT_",
      "SLICE_ LOAD_",
      "SUBSCRIPT_NAME_LOAD_CONSTANT_LOAD_SUBSCRIPT_NAME_LOAD_CONSTANT_LOAD_ SUBSCRIPT_NAME_LOAD_CONSTANT_LOAD_SUBSCRIPT_NAME_LOAD_CONSTANT_LOAD_",
      "DELETE_ NAME_",
      "TUPLE_NAME_LOAD_NAME_LOAD_ NAME_LOAD_NAME_LOAD_LOAD_",
      "NAME_LOAD_EXPR_CALL_ATTRIBUTE_NAME_LOAD_LOAD_ NAME_LOAD",
      "IMPORTFROM_ALIAS _ALIAS",
      "CONSTANT_ASSIGN_NAME_STORE_ NAME_LOAD_",
      "IF_COMPARE_CONSTANT_ NOTIN_",
      "LSHIFT _CONSTANT_",
[...]
