{
  "version": "1.0",
  "truncation": null,
  "padding": null,
  "added_tokens": [
    {
      "id": 0,
      "content": "[UNK]",
      "single_word": false,
      "lstrip": false,
      "rstrip": false,
      "normalized": false,
      "special": true
    },
    {
      "id": 1,
      "content": "[CLS]",
      "single_word": false,
      "lstrip": false,
      "rstrip": false,
      "normalized": false,
      "special": true
    },
    {
      "id": 2,
      "content": "[SEP]",
      "single_word": false,
      "lstrip": false,
      "rstrip": false,
      "normalized": false,
      "special": true
    },
    {
      "id": 3,
      "content": "[PAD]",
      "single_word": false,
      "lstrip": false,
      "rstrip": false,
      "normalized": false,
      "special": true
    },
    {
      "id": 4,
      "content": "[MASK]",
      "single_word": false,
      "lstrip": false,
      "rstrip": false,
      "normalized": false,
      "special": true
    }
  ],
  "normalizer": null,
  "pre_tokenizer": {
    "type": "Whitespace"
  },
  "post_processor": null,
  "decoder": null,
  "model": {
    "type": "BPE",
    "dropout": null,
    "unk_token": "[UNK]",
    "continuing_subword_prefix": null,
    "end_of_word_suffix": null,
    "fuse_unk": false,
    "byte_fallback": false,
    "ignore_merges": false,
    "vocab": {
      "[UNK]": 0,
      "[CLS]": 1,
      "[SEP]": 2,
      "[PAD]": 3,
      "[MASK]": 4,
      "A": 5,
      "B": 6,
      "C": 7,
      "D": 8,
      "E": 9,
      "F": 10,
      "G": 11,
      "H": 12,
      "I": 13,
      "J": 14,
      "K": 15,
      "L": 16,
      "M": 17,
      "N": 18,
      "O": 19,
      "P": 20,
      "Q": 21,
      "R": 22,
      "S": 23,
      "T": 24,
      "U": 25,
      "V": 26,
      "W": 27,
      "X": 28,
      "Y": 29,
      "_": 30,
      "E_": 31,
      "D_": 32,
      "LO": 33,
      "LOA": 34,
      "LOAD_": 35,
      "NA": 36,
      "ME_": 37,
      "NAME_": 38,
      "NAME_LOAD_": 39,
      "ST": 40,
      "_A": 41,
      "RI": 42,
      "CO": 43,
      "NT": 44,
      "TE_": 45,
      "TT": 46,
      "BU": 47,
      "RIBU": 48,
      "TTRIBU": 49,
      "TTRIBUTE_": 50,
      "ANT": 51,
      "NST": 52,
      "CONST": 53,
      "CONSTANT": 54,
      "OR": 55,
      "NAME_LOAD_LOAD_": 56,
      "AL": 57,
      "CAL": 58,
      "CALL": 59,
      "CONSTANT_": 60,
      "TTRIBUTE_NAME_LOAD_LOAD_": 61,
      "STOR": 62,
      "STORE_": 63,
      "N_": 64,
      "_NAME_LOAD_": 65,
      "CALL_A": 66,
      "NAME_STORE_": 67,
      "SI": 68,
      "RG": 69,
      "SSI": 70,
      "SSIG": 71,
      "_ARG": 72,
      "SSIGN_": 73,
      "EX": 74,
      "PR": 75,
      "CALL_ATTRIBUTE_NAME_LOAD_LOAD_": 76,
      "SSIGN_NAME_STORE_": 77,
      "EXPR": 78,
      "EXPR_": 79,
      "ATTRIBUTE_NAME_LOAD_LOAD_": 80,
      "CALL_NAME_LOAD_": 81,
      "SU": 82,
      "SUB": 83,
      "PT": 84,
      "IF": 85,
      "TU": 86,
      "LE_": 87,
      "CRI": 88,
      "SCRI": 89,
      "SUBSCRI": 90,
      "SUBSCRIPT": 91,
      "CONSTANT_A": 92,
      "ASSIGN_NAME_STORE_": 93,
      "COM": 94,
      "_ARG_ARG": 95,
      "IF_": 96,
      "CONSTANT_LOAD_": 97,
      "COMP": 98,
      "CALL_ATTRIBUTE_": 99,
      "CT": 100,
      "NO": 101,
      "MO": 102,
      "ND": 103,
      "EY": 104,
      "KEY": 105,
      "WOR": 106,
      "KEYWOR": 107,
      "KEYWORD_": 108,
      "AR": 109,
      "COMPAR": 110,
      "COMPARE_": 111,
      "SUBSCRIPT_NAME_LOAD_": 112,
      "_CONSTANT_": 113,
      "RE": 114,
      "TUR": 115,
      "RETUR": 116,
      "ENT": 117,
      "MENT": 118,
      "UMENT": 119,
      "_ARGUMENT": 120,
      "_ARGUMENTS": 121,
      "CALL_NAME_LOAD_NAME_LOAD_": 122,
      "CONSTANT_ASSIGN_NAME_STORE_": 123,
      "EF": 124,
      "FU": 125,
      "IO": 126,
      "NCT": 127,
      "NDEF": 128,
      "FUNCT": 129,
      "IONDEF": 130,
      "FUNCTIONDEF": 131,
      "FUNCTIONDEF_ARGUMENTS": 132,
      "DU": 133,
      "MODU": 134,
      "MODULE_": 135,
      "MODULE_FUNCTIONDEF_ARGUMENTS": 136,
      "ATTRIBUTE_NAME_LOAD_LOAD_LOAD_": 137,
      "RETURN_": 138,
      "EXPR_CALL_ATTRIBUTE_NAME_LOAD_LOAD_": 139,
      "LOAD": 140,
      "P_": 141,
      "IF_COMPARE_": 142,
      "_EXPR_": 143,
      "BI": 144,
      "CONSTANT_CONSTANT_": 145,
      "BINO": 146,
      "MODULE_FUNCTIONDEF_ARGUMENTS_ARG_ARG": 147,
      "_ATTRIBUTE_NAME_LOAD_LOAD_": 148,
      "LI": 149,
      "CALL_ATTRIBUTE_ATTRIBUTE_NAME_LOAD_LOAD_LOAD_": 150,
      "PLE_": 151,
      "TUPLE_": 152,
      "NAME_LOAD_NAME_LOAD_": 153,
      "NOT": 154,
      "NAME_LOAD": 155,
      "RY": 156,
      "IS": 157,
      "SUBSCRIPT_NAME_LOAD_CONSTANT_LOAD_": 158,
      "OR_": 159,
      "LIST": 160,
      "EQ": 161,
      "_ATTRIBUTE_": 162,
      "NAME_LOAD_ASSIGN_NAME_STORE_": 163,
      "DD_": 164,
      "NAME_LOAD_STORE_": 165,
      "IF_COMPARE_NAME_LOAD_": 166,
      "BINOP": 167,
      "FOR_": 168,
      "OP_": 169,
      "UNA": 170,
      "RYOP_": 171,
      "UNARYOP_": 172,
      "_ARG_EXPR_": 173,
      "KEYWORD_NAME_LOAD_": 174,
      "N_ATTRIBUTE_": 175,
      "ATTRIBUTE_": 176,
      "CALL_ATTRIBUTE_NAME_LOAD_LOAD_NAME_LOAD_": 177,
      "SSIGN_ATTRIBUTE_": 178,
      "ADD_": 179,
      "SSIGN_ATTRIBUTE_NAME_LOAD_STORE_": 180,
      "DI": 181,
      "FOR_NAME_STORE_": 182,
      "ASSIGN_": 183,
      "SUBSCRIPT_ATTRIBUTE_NAME_LOAD_LOAD_": 184,
      "RA": 185,
      "KEYWORD_CONSTANT_": 186,
      "MODULE_FUNCTIONDEF_ARGUMENTS_ARG_EXPR_": 187,
      "UNARYOP_NOT": 188,
      "BO": 189,
      "OLO": 190,
      "BOOLO": 191,
      "NAME_STORE_NAME_STORE_": 192,
      "BINOP_": 193,
      "DICT": 194,
      "RAIS": 195,
      "CALL_ATTRIBUTE_CONSTANT_LOAD_": 196,
      "RAISE_": 197,
      "LIST_": 198,
      "MODULE_FUNCTIONDEF_ARGUMENTS_ARG_ARG_EXPR_": 199,
      "RETURN_NAME_LOAD": 200,
      "SUBSCRIPT_": 201,
      "ER": 202,
      "TUPLE_NAME_STORE_NAME_STORE_": 203,
      "ATTRIBUTE_ATTRIBUTE_NAME_LOAD_LOAD_LOAD_": 204,
      "CONSTANT_IF_": 205,
      "CONSTANT_STORE_": 206,
      "CALL_ATTRIBUTE_NAME_LOAD_LOAD_CONSTANT_": 207,
      "EXPR_CALL_ATTRIBUTE_NAME_LOAD_LOAD_NAME_LOAD_": 208,
      "ASSIGN_ATTRIBUTE_NAME_LOAD_STORE_": 209,
      "ND_": 210,
      "RAISE_CALL_NAME_LOAD_": 211,
      "IN_": 212,
      "EN": 213,
      "EXPR_CALL_ATTRIBUTE_ATTRIBUTE_NAME_LOAD_LOAD_LOAD_": 214,
      "COMPARE_NAME_LOAD_": 215,
      "IT": 216,
      "TUPLE_NAME_STORE_NAME_STORE_STORE_": 217,
      "IF_NAME_LOAD_": 218,
      "MOD_": 219,
      "P_A": 220,
      "BOOLOP_A": 221,
      "BOOLOP_AND_": 222,
      "AND": 223,
      "CE": 224,
      "HAND": 225,
      "LER": 226,
      "EXCE": 227,
      "PTHAND": 228,
      "EXCEPTHAND": 229,
      "EXCEPTHANDLER": 230,
      "_CONSTANT_ASSIGN_NAME_STORE_": 231,
      "EQ_CONSTANT_": 232,
      "BINOP_NAME_LOAD_": 233,
      "ASSIGN_SUBSCRIPT_NAME_LOAD_": 234,
      "BINOP_CONSTANT_": 235,
      "TRY": 236,
      "MODULE_FUNCTIONDEF_ARGUMENTS_ARG_ARG_ARG_ARG": 237,
      "BINOP_CONSTANT_MOD_": 238,
      "CONSTANT_CONSTANT_CONSTANT_CONSTANT_": 239,
      "CALL_NAME_LOAD_NAME_LOAD_NAME_LOAD_": 240,
      "SUBSCRIPT_NAME_LOAD_NAME_LOAD_LOAD_": 241,
      "EH": 242,
      "ON_": 243,
      "SION_": 244,
      "PREH": 245,
      "COMPREH": 246,
      "ENSION_": 247,
      "COMPREHENSION_": 248,
      "ASSIGN_NAME_STORE_CALL_ATTRIBUTE_NAME_LOAD_LOAD_": 249,
      "CALL_NAME_LOAD_ATTRIBUTE_NAME_LOAD_LOAD_": 250,
      "EXPR_CALL_ATTRIBUTE_NAME_LOAD_LOAD_CONSTANT_": 251,
      "DICT_CONSTANT_": 252,
      "_CONSTANT_EXPR_": 253,
      "NAME_LOAD_LOAD": 254,
      "KEYWORD_NAME_LOAD_KEYWORD_NAME_LOAD_": 255,
      "IF_COMPARE_NAME_LOAD_IS": 256,
      "LIST_LOAD_": 257,
      "_ASSIGN_NAME_STORE_": 258,
      "CONSTANT_ASSIGN_NAME_STORE_CALL_ATTRIBUTE_NAME_LOAD_LOAD_": 259,
      "CONSTANT_ASSIGN_": 260,
      "UNARYOP_NOT_": 261,
      "CONSTANT_RETURN_": 262,
      "CONSTANT_EXPR_": 263,
      "CE_": 264,
      "SLI": 265,
      "SLICE_": 266,
      "COMPREHENSION_NAME_STORE_": 267,
      "KEYWORD_ATTRIBUTE_NAME_LOAD_LOAD_": 268,
      "UG": 269,
      "WIT": 270,
      "WITH": 271,
      "EXCEPTHANDLER_NAME_LOAD_": 272,
      "TUPLE_NAME_LOAD_": 273,
      "IF_COMPARE_ATTRIBUTE_NAME_LOAD_LOAD_": 274,
      "IN": 275,
      "CALL_ATTRIBUTE_ATTRIBUTE_NAME_LOAD_LOAD_LOAD_NAME_LOAD_": 276,
      "SUBSCRIPT_ATTRIBUTE_NAME_LOAD_LOAD_CONSTANT_LOAD_": 277,
      "LISTCOMP": 278,
      "MODULE_FUNCTIONDEF_ARGUMENTS_ARG_EXPR_CONSTANT_ASSIGN_NAME_STORE_": 279,
      "BOOLOP_": 280,
      "CONSTANT_ASSIGN_ATTRIBUTE_NAME_LOAD_STORE_": 281,
      "UNARYOP_NOT_NAME_LOAD_": 282,
      "CONSTANT_ADD_": 283,
      "IF_BOOLOP_AND_": 284,
      "BINOP_NAME_LOAD_ADD_": 285,
      "IN_NAME_LOAD_": 286,
      "UNARYOP_U": 287,
      "UNARYOP_USUB": 288,
      "UGASSIGN_NAME_STORE_": 289,
      "KEYWORD_CONSTANT_KEYWORD_CONSTANT_": 290,
      "AS": 291,
      "ATTRIBUTE_NAME_LOAD_LOAD_ATTRIBUTE_NAME_LOAD_LOAD_": 292,
      "ASSIGN_SUBSCRIPT_NAME_LOAD_CONSTANT_STORE_": 293,
      "ATTRIBUTE_ATTRIBUTE_NAME_LOAD_LOAD_LOAD_LOAD_": 294,
      "FOR_NAME_STORE_NAME_LOAD_": 295,
      "ATTRIBUTE_NAME_LOAD_LOAD_ASSIGN_NAME_STORE_": 296,
      "MODULE_FUNCTIONDEF_ARGUMENTS_ARG_ARG_EXPR_CONSTANT_ASSIGN_NAME_STORE_": 297,
      "MODULE_FUNCTIONDEF_ARGUMENTS_ARG_ARG_ARG_EXPR_": 298,
      "UGASSIGN_NAME_STORE_ADD_": 299,
      "EXPR_CALL_NAME_LOAD_": 300,
      "MODULE_FUNCTIONDEF_ARGUMENTS_ARG_EXPR_CONSTANT_": 301,
      "EQ_": 302,
      "EXPR_CALL_ATTRIBUTE_": 303,
      "NAME_LOAD_ASSIGN_NAME_STORE_CALL_ATTRIBUTE_NAME_LOAD_LOAD_": 304,
      "MODULE_FUNCTIONDEF_ARGUMENTS_ARG_ARG_ARG": 305,
      "CONSTANT_CONSTANT_LOAD_": 306,
      "TRY_ASSIGN_NAME_STORE_": 307,
      "NAME_LOAD_RETURN_": 308,
      "EL": 309,
      "GT": 310,
      "TUPLE_NAME_LOAD_NAME_LOAD_LOAD_": 311,
      "SUBSCRIPT_NAME_LOAD_SLICE_": 312,
      "CONSTANT_ASSIGN_SUBSCRIPT_NAME_LOAD_": 313,
      "FOR_TUPLE_NAME_STORE_NAME_STORE_STORE_": 314,
      "LISTCOMP_": 315,
      "CALL_NAME_LOAD_NAME_LOAD_ASSIGN_NAME_STORE_": 316,
      "BOOLOP_OR_": 317,
      "LIST_CONSTANT_": 318,
      "BINOP_BINOP_": 319,
      "MODULE_FUNCTIONDEF_ARGUMENTS_ARG_ARG_EXPR_CONSTANT_": 320,
      "IF_ATTRIBUTE_NAME_LOAD_LOAD_": 321,
      "EQ_CONSTANT_ASSIGN_NAME_STORE_": 322,
      "EQ_NAME_LOAD_": 323,
      "CALL_ATTRIBUTE_CONSTANT_LOAD_NAME_LOAD_": 324,
      "ISNOT": 325,
      "SUBSCRIPT_ATTRIBUTE_NAME_LOAD_LOAD_NAME_LOAD_LOAD_": 326,
      "SUBSCRIPT_NAME_LOAD_CONSTANT_LOAD_LOAD_": 327,
      "COMPARE_ATTRIBUTE_NAME_LOAD_LOAD_": 328,
      "_WITH": 329,
      "UE_": 330,
      "EXP_": 331,
      "CONSTANT_ATTRIBUTE_NAME_LOAD_LOAD_": 332,
      "EM": 333,
      "ITEM": 334,
      "_WITHITEM": 335,
      "NAME_LOAD_NAME_LOAD_NAME_LOAD_NAME_LOAD_": 336,
      "_CONSTANT_LOAD_": 337,
      "ASSIGN_NAME_STORE_CALL_NAME_LOAD_": 338,
      "IF_UNARYOP_NOT_": 339,
      "CONSTANT_ASSIGN_SUBSCRIPT_NAME_LOAD_CONSTANT_STORE_": 340,
      "DICT_": 341,
      "IF_COMPARE_NAME_LOAD_ISNOT": 342,
      "CONSTANT_EXPR_CALL_ATTRIBUTE_NAME_LOAD_LOAD_": 343,
      "IF_COMPARE_CONSTANT_": 344,
      "_ATTRIBUTE_ATTRIBUTE_NAME_LOAD_LOAD_LOAD_": 345,
      "T_": 346,
      "AUGASSIGN_NAME_STORE_ADD_": 347,
      "MODULE_FUNCTIONDEF_ARGUMENTS_ARG_ARG_CONSTANT_EXPR_": 348,
      "TRY_": 349,
      "CALL_ATTRIBUTE_CALL_ATTRIBUTE_NAME_LOAD_LOAD_": 350,
      "IF_COMPARE_CALL_NAME_LOAD_NAME_LOAD_": 351,
      "WITH_WITHITEM": 352,
      "SUBSCRIPT_SUBSCRIPT_NAME_LOAD_CONSTANT_LOAD_": 353,
      "IF_COMPARE_NAME_LOAD_NOT": 354,
      "CONSTANT_NAME_LOAD_": 355,
      "IN_ATTRIBUTE_NAME_LOAD_LOAD_": 356,
      "ASS": 357,
      "CALL_ATTRIBUTE_NAME_LOAD_LOAD_NAME_LOAD_NAME_LOAD_": 358,
      "CONSTANT_ASSIGN_NAME_STORE_CALL_NAME_LOAD_": 359,
      "IF_UNARYOP_NOT_NAME_LOAD_": 360,
      "ASSIGN_SUBSCRIPT_NAME_LOAD_NAME_LOAD_STORE_": 361,
      "_CONSTANT_CONSTANT_EXPR_": 362,
      "UNARYOP_USUB_CONSTANT_LOAD_": 363,
      "MODULE_FUNCTIONDEF_ARGUMENTS_ARG_ARG_ARG_CONSTANT_EXPR_": 364,
      "ATTRIBUTE_NAME_LOAD_LOAD": 365,
      "WITH_WITHITEM_": 366,
      "CONT": 367,
      "CONTIN": 368,
      "CONTINUE_": 369,
      "KEYWORD_NAME_LOAD": 370,
      "ASSIGN_TUPLE_NAME_STORE_NAME_STORE_STORE_": 371,
      "MODULE_FUNCTIONDEF_ARGUMENTS_ARG_ARG_ARG_ARG_ARG_ARG": 372,
      "TUPLE_NAME_LOAD_NAME_LOAD_": 373,
      "CALL_NAME_LOAD_NAME_LOAD_CONSTANT_": 374,
      "IF_CALL_NAME_LOAD_NAME_LOAD_": 375,
      "RETURN_CALL_NAME_LOAD_": 376,
      "EQ_ATTRIBUTE_NAME_LOAD_LOAD_": 377,
      "IF_COMPARE_NAME_LOAD_IS_CONSTANT_ASSIGN_NAME_STORE_": 378,
      "BINOP_ATTRIBUTE_NAME_LOAD_LOAD_": 379,
      "NAME_LOAD_RETURN_NAME_LOAD": 380,
      "_ALI": 381,
      "_ALIAS": 382,
      "RETURN_CALL_ATTRIBUTE_NAME_LOAD_LOAD_": 383,
      "BINOP_CONSTANT_ADD_": 384,
      "CONSTANT_LOAD_ASSIGN_NAME_STORE_": 385,
      "IEL": 386,
      "YIEL": 387,
      "ISNOT_CONSTANT_": 388,
      "CONSTANT_IF_BOOLOP_AND_": 389,
      "CONSTANT_IF_UNARYOP_NOT_": 390,
      "CONSTANT_LOAD_LOAD_": 391,
      "CALL_NAME_LOAD_NAME_LOAD_NAME_LOAD_NAME_LOAD_": 392,
      "IS_CONSTANT_": 393,
      "CALL_ATTRIBUTE_ATTRIBUTE_ATTRIBUTE_NAME_LOAD_LOAD_LOAD_LOAD_": 394,
      "IF_COMPARE_NAME_LOAD_EQ_CONSTANT_": 395,
      "NAME_LOAD_EXPR_CALL_ATTRIBUTE_NAME_LOAD_LOAD_": 396,
      "SUBSCRIPT_NAME_LOAD_CONSTANT_LOAD_ASSIGN_NAME_STORE_": 397,
      "IF_NAME_LOAD_ASSIGN_NAME_STORE_": 398,
      "ERT_": 399,
      "CALL_NAME_LOAD_CONSTANT_": 400,
      "CALL_ATTRIBUTE_NAME_LOAD_LOAD_ATTRIBUTE_NAME_LOAD_LOAD_": 401,
      "LT": 402,
      "IFEXP_": 403,
      "ASSIGN_SUBSCRIPT_ATTRIBUTE_NAME_LOAD_LOAD_": 404,
      "TOR": 405,
      "IM": 406,
      "POR": 407,
      "DIV": 408,
      "IMPOR": 409,
      "IMPORT": 410,
      "DEL": 411,
      "KEYWORD_ATTRIBUTE_NAME_LOAD_LOAD_KEYWORD_ATTRIBUTE_NAME_LOAD_LOAD_": 412,
      "BINOP_NAME_LOAD_SUB": 413,
      "UNARYOP_NOT_ATTRIBUTE_NAME_LOAD_LOAD_": 414,
      "DICT_CONSTANT_CONSTANT_CONSTANT_": 415,
      "HI": 416,
      "WHI": 417,
      "WHILE_": 418,
      "IF_COMPARE_NAME_LOAD_IS_CONSTANT_": 419,
      "CONSTANT_CONSTANT_CONSTANT_CONSTANT_CONSTANT_CONSTANT_CONSTANT_CONSTANT_": 420,
      "COMPREHENSION_NAME_STORE_NAME_LOAD_": 421,
      "RETURN": 422,
      "_CONSTANT_CONSTANT_CONSTANT_": 423,
      "YIELD_": 424,
      "FOR_NAME_STORE_ATTRIBUTE_NAME_LOAD_LOAD_": 425,
      "ARG": 426,
      "CONSTANT_ASSIGN_NAME_STORE_CALL_ATTRIBUTE_NAME_LOAD_LOAD_NAME_LOAD_": 427,
      "EXPR_CALL_ATTRIBUTE_NAME_LOAD_LOAD_NAME_LOAD_NAME_LOAD_": 428,
      "NAME_LOAD_ASSIGN_NAME_STORE_CALL_ATTRIBUTE_NAME_LOAD_LOAD_NAME_LOAD_": 429,
      "COMPARE_CONSTANT_": 430,
      "CALL_": 431,
      "ASSIGN_NAME_STORE_CALL_ATTRIBUTE_NAME_LOAD_LOAD_NAME_LOAD_": 432,
      "CALL_NAME_LOAD_SUBSCRIPT_NAME_LOAD_CONSTANT_LOAD_": 433,
      "CALL_NAME_LOAD_NAME_LOAD_LOAD_": 434,
      "TUPLE_CONSTANT_CONSTANT_LOAD_": 435,
      "RETURN_NAME_LOAD_": 436,
      "KEYWORD_NAME_LOAD_KEYWORD_": 437,
      "ATTRIBUTE_NAME_LOAD_LOAD_STORE_": 438,
      "NAME_STORE_STORE_": 439,
      "EXPR_CALL_ATTRIBUTE_ATTRIBUTE_NAME_LOAD_LOAD_LOAD_NAME_LOAD_": 440,
      "KEYWORD_CONSTANT_KEYWORD_": 441,
      "RAISE_CALL_NAME_LOAD_BINOP_CONSTANT_MOD_": 442,
      "CONSTANT_ASSIGN_TUPLE_NAME_STORE_NAME_STORE_STORE_": 443,
      "RETURN_CONSTANT_": 444,
      "BOOLOP_OR": 445,
      "IF_BOOLOP_OR_": 446,
      "PASS": 447,
      "EXPR_CALL_ATTRIBUTE_NAME_LOAD_LOAD_ATTRIBUTE_NAME_LOAD_LOAD_": 448,
      "CALL_NAME_LOAD_CALL_ATTRIBUTE_NAME_LOAD_LOAD_": 449,
      "ERA": 450,
      "GEN": 451,
      "ERATOR": 452,
      "GENERATOR": 453,
      "EXP": 454,
      "MODULE_FUNCTIONDEF_ARGUMENTS_ARG_ARG_ARG_ARG_EXPR_": 455,
      "EXPR_CALL_NAME_LOAD_NAME_LOAD_": 456,
      "AK": 457,
      "BRE": 458,
      "BREAK": 459,
      "FR": 460,
      "OM": 461,
      "FROM": 462,
      "LIST_NAME_LOAD_LOAD_": 463,
      "RAISE_CALL_NAME_LOAD_CONSTANT_": 464,
      "GT_CONSTANT_": 465,
      "EXCEPTHANDLER_": 466,
      "IF_COMPARE_NAME_LOAD_EQ_CONSTANT_ASSIGN_NAME_STORE_": 467,
      "CONSTANT_ASSIGN_NAME_STORE_CALL_NAME_LOAD_NAME_LOAD_": 468,
      "LIST_LOAD_ASSIGN_NAME_STORE_": 469,
      "CALL_ATTRIBUTE_ATTRIBUTE_NAME_LOAD_LOAD_LOAD_ATTRIBUTE_NAME_LOAD_LOAD_": 470,
      "ED": 471,
      "EXPR_YIELD_": 472,
      "AM": 473,
      "A_ARGUMENTS": 474,
      "BD": 475,
      "LAM": 476,
      "BDA_ARGUMENTS": 477,
      "LAMBDA_ARGUMENTS": 478,
      "NOTEQ_CONSTANT_": 479,
      "NAME_LOAD_ASSIGN_NAME_STORE_CALL_NAME_LOAD_": 480,
      "NAME_LOAD_ASSIGN_ATTRIBUTE_NAME_LOAD_STORE_": 481,
      "COMPARE_CALL_NAME_LOAD_NAME_LOAD_": 482,
      "SUBSCRIPT_NAME_LOAD_NAME_LOAD_LOAD_LOAD_": 483,
      "CONSTANT_ASSIGN_NAME_STORE_CONSTANT_": 484,
      "CALL_ATTRIBUTE_NAME_LOAD_LOAD": 485,
      "EXPR_CALL_ATTRIBUTE_NAME_LOAD_LOAD_CALL_ATTRIBUTE_CONSTANT_LOAD_": 486,
      "CONSTANT_AUGASSIGN_NAME_STORE_ADD_": 487,
      "_NAME_LOAD_ARG": 488,
      "SUBSCRIPT_SUBSCRIPT_NAME_LOAD_CONSTANT_LOAD_CONSTANT_LOAD_": 489,
      "SUBSCRIPT_SUBSCRIPT_NAME_LOAD_NAME_LOAD_LOAD_": 490,
      "TUPLE_ATTRIBUTE_NAME_LOAD_LOAD_": 491,
      "MODULE_FUNCTIONDEF_ARGUMENTS_ARG_ARG_ARG_ARG_ARG": 492,
      "CALL_ATTRIBUTE_SUBSCRIPT_NAME_LOAD_CONSTANT_LOAD_LOAD_": 493,
      "BIT": 494,
      "CALL_ATTRIBUTE_ATTRIBUTE_NAME_LOAD_LOAD_LOAD_CONSTANT_": 495,
      "CALL_ATTRIBUTE_ATTRIBUTE_NAME_LOAD_LOAD_LOAD_NAME_LOAD_NAME_LOAD_": 496,
      "DICT_CONSTANT_CONSTANT_": 497,
      "KEYWORD_NAME_LOAD_KEYWORD_NAME_LOAD_KEYWORD_NAME_LOAD_KEYWORD_NAME_LOAD_": 498,
      "NAME_LOAD_ASSIGN_NAME_STORE_CALL_NAME_LOAD_NAME_LOAD_": 499,
      "TUPLE_NAME_STORE_NAME_STORE_NAME_STORE_STORE_": 500,
      "IF_COMPARE_SUBSCRIPT_NAME_LOAD_CONSTANT_LOAD_": 501,
      "MODULE_FUNCTIONDEF_ARGUMENTS_ARG": 502,
      "ATTRIBUTE_ATTRIBUTE_ATTRIBUTE_NAME_LOAD_LOAD_LOAD_LOAD_": 503,
      "UNARYOP_USUB_CONSTANT_": 504,
      "MODULE_FUNCTIONDEF_ARGUMENTS_EXPR_": 505,
      "GTE_": 506,
      "CALL_ATTRIBUTE_CALL_ATTRIBUTE_NAME_LOAD_LOAD_LOAD_": 507,
      "IMPORTFROM": 508,
      "IMPORTFROM_ALIAS": 509,
      "LISTCOMP_NAME_LOAD_": 510,
      "BINOP_CONSTANT_MOD_NAME_LOAD_": 511,
      "RETURN_ATTRIBUTE_": 512,
      "CONSTANT_IF_CALL_NAME_LOAD_NAME_LOAD_": 513,
      "BINOP_ATTRIBUTE_NAME_LOAD_LOAD_ADD_": 514,
      "GENERATOREXP_": 515,
      "IFEXP": 516,
      "FOR_NAME_STORE_CALL_ATTRIBUTE_NAME_LOAD_LOAD_": 517,
      "RETURN_CONSTANT": 518,
      "CONSTANT_IF_UNARYOP_NOT_NAME_LOAD_": 519,
      "LTE_": 520,
      "ASSIGN_NAME_STORE_CALL_NAME_LOAD_NAME_LOAD_": 521,
      "ASSIGN_NAME_STORE_CONSTANT_": 522,
      "LIST_NAME_LOAD_": 523,
      "DICT_CONSTANT_CONSTANT_CONSTANT_CONSTANT_CONSTANT_": 524,
      "IF_CALL_ATTRIBUTE_NAME_LOAD_LOAD_": 525,
      "_NAME_LOAD_EXPR_": 526,
      "MODULE_FUNCTIONDEF_ARGUMENTS_ARG_EXPR_CONSTANT_ASSIGN_NAME_STORE_CALL_ATTRIBUTE_NAME_LOAD_LOAD_": 527,
      "SUBSCRIPT_NAME_LOAD_CONSTANT_LOAD_SUBSCRIPT_NAME_LOAD_CONSTANT_LOAD_": 528,
      "BOOLOP_OR_NAME_LOAD_": 529,
      "RAISE_CALL_NAME_LOAD_CALL_ATTRIBUTE_CONSTANT_LOAD_": 530,
      "LAMBDA_ARGUMENTS_ARG": 531,
      "LOAD_LOAD_": 532,
      "CONSTANT_LOAD": 533,
      "CALL_ATTRIBUTE_NAME_LOAD_LOAD_CONSTANT_CONSTANT_": 534,
      "MODULE_FUNCTIONDEF_ARGUMENTS_ARG_ARG_ARG_EXPR_CONSTANT_ASSIGN_NAME_STORE_": 535,
      "IF_BOOLOP_AND_COMPARE_NAME_LOAD_": 536,
      "IF_COMPARE_NAME_LOAD_ISNOT_CONSTANT_": 537,
      "NAME_LOAD_ADD_": 538,
      "MODULE_FUNCTIONDEF_ARGUMENTS_ARG_ARG_ARG_EXPR_CONSTANT_": 539,
      "_CONSTANT_ASSIGN_SUBSCRIPT_NAME_LOAD_CONSTANT_STORE_": 540,
      "RETURN_CALL_NAME_LOAD_NAME_LOAD_": 541,
      "FOR_NAME_STORE_NAME_LOAD_ASSIGN_NAME_STORE_": 542,
      "RETURN_CONSTANT_RETURN_": 543,
      "IF_CALL_NAME_LOAD_NAME_LOAD_NAME_LOAD_": 544,
      "MODULE_FUNCTIONDEF_ARGUMENTS_ARG_ARG_ARG_CONSTANT_CONSTANT_EXPR_": 545,
      "_CONSTANT_CONSTANT_CONSTANT_EXPR_": 546,
      "TUPLE_NAME_LOAD_NAME_LOAD_LOAD": 547,
      "SS": 548,
      "EXPR_CALL_ATTRIBUTE_NAME_LOAD_LOAD": 549,
      "_ASSIGN_": 550,
      "SUBSCRIPT_ATTRIBUTE_ATTRIBUTE_NAME_LOAD_LOAD_LOAD_": 551,
      "SSIGN_ATTRIBUTE_ATTRIBUTE_NAME_LOAD_LOAD_STORE_": 552,
      "IF_COMPARE_NAME_LOAD_IN_": 553,
      "ATTRIBUTE_NAME_LOAD_LOAD_LOAD": 554,
      "ATTRIBUTE_NAME_LOAD_LOAD_ASSIGN_ATTRIBUTE_NAME_LOAD_STORE_": 555,
      "NAME_LOAD_NAME_LOAD_NAME_LOAD_": 556,
      "FOR_TUPLE_NAME_STORE_NAME_STORE_STORE_CALL_ATTRIBUTE_NAME_LOAD_LOAD_": 557,
      "COMPARE_SUBSCRIPT_NAME_LOAD_CONSTANT_LOAD_": 558,
      "PASS_": 559,
      "COMPREHENSION_TUPLE_NAME_STORE_NAME_STORE_STORE_": 560,
      "EXPR_CALL_ATTRIBUTE_NAME_LOAD_LOAD_CONSTANT_NAME_LOAD_": 561,
      "BREAK_": 562,
      "CONSTANT_ASS": 563,
      "MODULE_FUNCTIONDEF_ARGUMENTS_ARG_ARG_CONSTANT_EXPR_CONSTANT_": 564,
      "CONSTANT_ASSIGN_NAME_STORE_CONSTANT_ASSIGN_NAME_STORE_": 565,
      "EXPR_CALL_ATTRIBUTE_NAME_LOAD_LOAD_BINOP_CONSTANT_MOD_": 566,
      "MODULE_FUNCTIONDEF_ARGUMENTS_ARG_ARG_EXPR_CONSTANT_ASSIGN_NAME_STORE_CALL_ATTRIBUTE_NAME_LOAD_LOAD_": 567,
      "TUPLE_CONSTANT_": 568,
      "DICT_ASSIGN_NAME_STORE_": 569,
      "NAME_LOAD_LOAD_ASSIGN_NAME_STORE_": 570,
      "NOTIN_NAME_LOAD_": 571,
      "RETURN_ATTRIBUTE_NAME_LOAD_LOAD": 572,
      "LAMBDA_ARGUMENTS_ARG_": 573,
      "ETE_": 574,
      "DELETE_": 575,
      "IF_COMPARE_CONSTANT_IN_NAME_LOAD_": 576,
      "LIST_CONSTANT_CONSTANT_LOAD_": 577,
      "ASSIGN_SUBSCRIPT_ATTRIBUTE_NAME_LOAD_LOAD_NAME_LOAD_STORE_": 578,
      "FOR_NAME_STORE_CALL_NAME_LOAD_": 579,
      "SUB_": 580,
      "ASSERT_": 581,
      "CONSTANT_ASSERT_": 582,
      "_ARG_ARG_ARG_ARG": 583,
      "IFEXP_NAME_LOAD_": 584,
      "EXPR_CALL_ATTRIBUTE_NAME_LOAD_LOAD_NAME_LOAD": 585,
      "EXPR_CALL_ATTRIBUTE_NAME_LOAD_LOAD_NAME_LOAD_RETURN_NAME_LOAD": 586,
      "RETURN_CALL_ATTRIBUTE_NAME_LOAD_LOAD_NAME_LOAD_": 587,
      "COMPARE_NAME_LOAD_EQ_CONSTANT_": 588,
      "NAME_LOAD_LOAD_LOAD_": 589,
      "AND_": 590,
      "BITAND_": 591,
      "CONSTANT_RETURN_NAME_LOAD": 592,
      "AUG": 593,
      "CONSTANT_ASSIGN_NAME_STORE_CALL_ATTRIBUTE_NAME_LOAD_LOAD_CONSTANT_": 594,
      "COMPARE_NAME_LOAD_IS_CONSTANT_": 595,
      "SUBSCRIPT_ATTRIBUTE_NAME_LOAD_LOAD_CONSTANT_LOAD_LOAD_": 596,
      "CONSTANT_IF_BOOLOP_OR_": 597,
      "CALL_NAME_LOAD_NAME_LOAD": 598,
      "ASSIGN_NAME_STORE_CALL_ATTRIBUTE_ATTRIBUTE_NAME_LOAD_LOAD_LOAD_": 599,
      "MA": 600,
      "IF_BOOLOP_AND_NAME_LOAD_": 601,
      "FOR": 602,
      "CALL_NAME_LOAD_NAME_LOAD_NAME_LOAD_LOAD_": 603,
      "VAL": 604,
      "TTED": 605,
      "MATTED": 606,
      "FORMATTED": 607,
      "VALUE_": 608,
      "FORMATTEDVALUE_": 609,
      "ASSIGN_SUBSCRIPT_NAME_LOAD_CONSTANT_STORE_NAME_LOAD_": 610,
      "IF_COMPARE_NAME_LOAD_EQ_": 611,
      "BINOP_BINOP_CONSTANT_ADD_": 612,
      "SUBSCRIPT_NAME_LOAD_SLICE_CONSTANT_LOAD_": 613,
      "CONSTANT_EXPR_CALL_NAME_LOAD_": 614,
      "CALL_ATTRIBUTE_NAME_LOAD_LOAD_CALL_ATTRIBUTE_NAME_LOAD_LOAD_": 615,
      "TUPLE_SLICE_": 616,
      "IF_COMPARE_CONSTANT_IN_": 617,
      "CONSTANT_CONSTANT_CONSTANT_LOAD_": 618,
      "BINOP_NAME_LOAD_ADD_CONSTANT_": 619,
      "CALL_ATTRIBUTE_CONSTANT_LOAD_NAME_LOAD_NAME_LOAD_": 620,
      "BINOP_CALL_NAME_LOAD_NAME_LOAD_": 621,
      "NOTEQ_": 622,
      "KEYWORD_SUBSCRIPT_NAME_LOAD_CONSTANT_LOAD_": 623,
      "MODULE_FUNCTIONDEF_ARGUMENTS_ARG_ARG_ARG_ARG_CONSTANT_EXPR_": 624,
      "CONSTANT_ASSIGN_NAME_STORE_CALL_ATTRIBUTE_ATTRIBUTE_NAME_LOAD_LOAD_LOAD_": 625,
      "TRY_EXPR_": 626,
      "LIST_CONSTANT_LOAD_": 627,
      "CONSTANT_EXPR_CALL_ATTRIBUTE_ATTRIBUTE_NAME_LOAD_LOAD_LOAD_": 628,
      "SUBSCRIPT_CALL_ATTRIBUTE_NAME_LOAD_LOAD_": 629,
      "EXPR_CALL_ATTRIBUTE_NAME_LOAD_LOAD_CONSTANT_CONSTANT_": 630,
      "MODULE_FUNCTIONDEF_ARGUMENTS_ARG_EXPR_CONSTANT_RETURN_": 631,
      "CALL_NAME_LOAD_NAME_LOAD_ATTRIBUTE_NAME_LOAD_LOAD_": 632,
      "MODULE_FUNCTIONDEF_ARGUMENTS_ARG_ARG_ARG_ARG_CONSTANT_CONSTANT_EXPR_": 633,
      "SUBSCRIPT_NAME_LOAD_UNARYOP_USUB_CONSTANT_LOAD_": 634,
      "CALL_NAME_LOAD_NAME_LOAD_CONSTANT_NAME_STORE_": 635,
      "IF_COMPARE_ATTRIBUTE_NAME_LOAD_LOAD_EQ_CONSTANT_": 636,
      "IF_COMPARE_NAME_LOAD_IN_NAME_LOAD_": 637,
      "ASSIGN_NAME_STORE_CALL_ATTRIBUTE_NAME_LOAD_LOAD_NAME_LOAD_NAME_LOAD_": 638,
      "LT_CONSTANT_": 639,
      "EXPR_CALL_ATTRIBUTE_NAME_LOAD_LOAD_CALL_ATTRIBUTE_NAME_LOAD_LOAD_": 640,
      "LIST_LOAD_FOR_NAME_STORE_": 641,
      "CONSTANT_IF_NAME_LOAD_": 642,
      "RETURN_TUPLE_": 643,
      "RETURN_ASSIGN_NAME_STORE_": 644,
      "LT_NAME_LOAD_": 645,
      "CALL_ATTRIBUTE_CALL_ATTRIBUTE_ATTRIBUTE_NAME_LOAD_LOAD_LOAD_": 646,
      "LT_": 647,
      "EXPR_CALL_ATTRIBUTE_NAME_LOAD_LOAD_NAME_LOAD_EXPR_CALL_ATTRIBUTE_NAME_LOAD_LOAD_NAME_LOAD_": 648,
      "KEYWORD_NAME_LOAD_KEYWORD_NAME_LOAD_KEYWORD_NAME_LOAD_": 649,
      "EXCEPTHANDLER_ATTRIBUTE_NAME_LOAD_LOAD_": 650,
      "SUBSCRIPT_SUBSCRIPT_ATTRIBUTE_NAME_LOAD_LOAD_NAME_LOAD_LOAD_": 651,
      "RAISE_CALL_ATTRIBUTE_NAME_LOAD_LOAD_": 652,
      "CONSTANT_ASSIGN_ATTRIBUTE_NAME_LOAD_STORE_CONSTANT_ASSIGN_ATTRIBUTE_NAME_LOAD_STORE_": 653,
      "BINOP_NAME_LOAD_SUB_NAME_LOAD_": 654,
      "EXPR_CALL_ATTRIBUTE_NAME_LOAD_LOAD_NAME_LOAD_ASSIGN_NAME_STORE_": 655,
      "SUBSCRIPT_ATTRIBUTE_NAME_LOAD_LOAD_NAME_LOAD_LOAD_LOAD_": 656,
      "COMPARE_CONSTANT_IN_NAME_LOAD_": 657,
      "ASSIGN_ATTRIBUTE_ATTRIBUTE_NAME_LOAD_LOAD_STORE_": 658,
      "IF_COMPARE_NAME_LOAD_EQ_NAME_LOAD_": 659,
      "MODULE_FUNCTIONDEF_ARGUMENTS_ARG_EXPR_CONSTANT_IF_": 660,
      "ATTRIBUTE_NAME_LOAD_LOAD_NAME_LOAD_": 661,
      "IMPORT_ALIAS": 662,
      "_CONSTANT_CONSTANT_CONSTANT_CONSTANT_CONSTANT_": 663,
      "KEYWORD_NAME_LOAD_ASSIGN_NAME_STORE_": 664,
      "GT_": 665,
      "SUBSCRIPT_NAME_LOAD_ATTRIBUTE_NAME_LOAD_LOAD_LOAD_": 666,
      "IF_COMPARE_NAME_LOAD_ISNOT_CONSTANT_ASSIGN_NAME_STORE_": 667,
      "COMPREHENSION_NAME_STORE_ATTRIBUTE_NAME_LOAD_LOAD_": 668,
      "GT_CONSTANT_ASSIGN_NAME_STORE_": 669,
      "SUBSCRIPT_CALL_ATTRIBUTE_NAME_LOAD_LOAD_CONSTANT_": 670,
      "COMPARE_NAME_LOAD_ISNOT_CONSTANT_": 671,
      "KEYWORD_CONSTANT_KEYWORD_CONSTANT_KEYWORD_CONSTANT_": 672,
      "WITH_WITHITEM_CALL_NAME_LOAD_NAME_LOAD_CONSTANT_NAME_STORE_": 673,
      "CONSTANT_IF_COMPARE_NAME_LOAD_IS_CONSTANT_ASSIGN_NAME_STORE_": 674,
      "CALL_NAME_LOAD_CALL_NAME_LOAD_": 675,
      "EXCEPTHANDLER_TUPLE_NAME_LOAD_NAME_LOAD_LOAD_": 676,
      "BINOP_CALL_ATTRIBUTE_NAME_LOAD_LOAD_": 677,
      "RETURN_ATTRIBUTE_NAME_LOAD_LOAD_": 678,
      "ATTRIBUTE_NAME_LOAD_LOAD_ASSIGN_NAME_STORE_CALL_ATTRIBUTE_NAME_LOAD_LOAD_": 679,
      "DIV_": 680,
      "IF_COMPARE_NAME_LOAD_NOTIN_NAME_LOAD_": 681,
      "KEYWORD_CONSTANT": 682,
      "CALL_NAME_LOAD_ATTRIBUTE_NAME_LOAD_LOAD_NAME_LOAD_": 683,
      "MODULE_FUNCTIONDEF_ARGUMENTS_ARG_EXPR_CONSTANT_IF_COMPARE_ATTRIBUTE_NAME_LOAD_LOAD_": 684,
      "BINOP_CONSTANT_MOD_TUPLE_": 685,
      "SUBSCRIPT_ATTRIBUTE_NAME_LOAD_LOAD_SLICE_": 686,
      "NOTIN_": 687,
      "IF_COMPARE_CALL_ATTRIBUTE_NAME_LOAD_LOAD_": 688,
      "BINOP_BINOP_NAME_LOAD_ADD_": 689,
      "MODULE_FUNCTIONDEF_ARGUMENTS_ARG_EXPR_CONSTANT_ASSIGN_NAME_STORE_CALL_NAME_LOAD_": 690,
      "ATTRIBUTE_NAME_LOAD_LOAD_ATTRIBUTE_NAME_LOAD_LOAD_ATTRIBUTE_NAME_LOAD_LOAD_ATTRIBUTE_NAME_LOAD_LOAD_": 691,
      "CALL_ATTRIBUTE_NAME_LOAD_LOAD_LOAD_": 692,
      "CALL_ATTRIBUTE_NAME_LOAD_LOAD_ASSIGN_NAME_STORE_": 693,
      "CONSTANT_ASSIGN_SUBSCRIPT_ATTRIBUTE_NAME_LOAD_LOAD_": 694,
      "_CONSTANT_ASSIGN_ATTRIBUTE_NAME_LOAD_STORE_": 695,
      "ASSIGN_SUBSCRIPT_ATTRIBUTE_NAME_LOAD_LOAD_CONSTANT_STORE_": 696,
      "DICTCOMP": 697,
      "LIST_LOAD_FOR_NAME_STORE_NAME_LOAD_": 698,
      "TRY_ASSIGN_NAME_STORE_CALL_NAME_LOAD_NAME_LOAD_": 699,
      "SUBSCRIPT_SUBSCRIPT_ATTRIBUTE_NAME_LOAD_LOAD_CONSTANT_LOAD_": 700,
      "LIST_ATTRIBUTE_NAME_LOAD_LOAD_": 701,
      "RETURN_CONSTANT_RETURN_CONSTANT": 702,
      "RETURN_TUPLE_NAME_LOAD_NAME_LOAD_LOAD": 703,
      "MODULE_FUNCTIONDEF_ARGUMENTS_ARG_ARG_CONSTANT_EXPR_CONSTANT_ASSIGN_NAME_STORE_": 704,
      "NOTEQ_NAME_LOAD_": 705,
      "ADD_CONSTANT_": 706,
      "NAME_LOAD_NAME_LOAD": 707,
      "CALL_NAME_LOAD_CALL_NAME_LOAD_NAME_LOAD_": 708,
      "CALL_ATTRIBUTE_CALL_ATTRIBUTE_": 709,
      "ADD_CONSTANT_ADD_": 710,
      "KEYWORD_CONSTANT_KEYWORD_CONSTANT_KEYWORD_CONSTANT_KEYWORD_CONSTANT_": 711,
      "IF_COMPARE_NAME_LOAD_IN_ATTRIBUTE_NAME_LOAD_LOAD_": 712,
      "SUB_CONSTANT_": 713,
      "GT_NAME_LOAD_": 714,
      "CONSTANT_ATTRIBUTE_": 715,
      "MODULE_FUNCTIONDEF_ARGUMENTS_ARG_ARG_ARG_ARG_ARG_EXPR_": 716,
      "DICT_CONSTANT_CONSTANT_CONSTANT_CONSTANT_": 717,
      "EXPR_CALL_ATTRIBUTE_NAME_LOAD_LOAD_EXPR_CALL_ATTRIBUTE_NAME_LOAD_LOAD_": 718,
      "EXPR_CALL_ATTRIBUTE_ATTRIBUTE_ATTRIBUTE_NAME_LOAD_LOAD_LOAD_LOAD_": 719,
      "DEL_": 720,
      "FOR_TUPLE_NAME_STORE_NAME_STORE_STORE_CALL_NAME_LOAD_NAME_LOAD_": 721,
      "CALL_ATTRIBUTE_NAME_LOAD_LOAD_NAME_LOAD": 722,
      "JO": 723,
      "STR": 724,
      "INED": 725,
      "JOINED": 726,
      "JOINEDSTR": 727,
      "_CONSTANT_CONSTANT_CONSTANT_CONSTANT_EXPR_": 728,
      "CALL_ATTRIBUTE_CALL_NAME_LOAD_NAME_LOAD_NAME_LOAD_LOAD_": 729,
      "EXPR_CALL_NAME_LOAD_NAME_LOAD_NAME_LOAD_": 730,
      "SUB_NAME_LOAD_": 731,
      "NAME_LOAD_IF_NAME_LOAD_": 732,
      "IF_UNARYOP_NOT_ATTRIBUTE_NAME_LOAD_LOAD_": 733,
      "EXPR_CALL_NAME_LOAD_CONSTANT_": 734,
      "CALL_ATTRIBUTE_CONSTANT_LOAD_ATTRIBUTE_NAME_LOAD_LOAD_": 735,
      "IF_COMPARE_NAME_LOAD_ISNOT_CONSTANT_ASSIGN_SUBSCRIPT_NAME_LOAD_CONSTANT_STORE_": 736,
      "NAME_LOAD_CONSTANT_": 737,
      "EXCEPTHANDLER_NAME_LOAD_ASSIGN_NAME_STORE_": 738,
      "RETURN_CALL_ATTRIBUTE_NAME_LOAD_LOAD_NAME_LOAD": 739,
      "RAISE_CALL_NAME_LOAD_CALL_ATTRIBUTE_CONSTANT_LOAD_NAME_LOAD_": 740,
      "IMPORTFROM_ALIAS_": 741,
      "TUPLE_ATTRIBUTE_NAME_LOAD_LOAD_ATTRIBUTE_NAME_LOAD_LOAD_LOAD_": 742,
      "SUBSCRIPT_NAME_LOAD_SLICE_UNARYOP_USUB_CONSTANT_LOAD_": 743,
      "NAME_LOAD_ASSIGN_NAME_STORE_CONSTANT_": 744,
      "KEYWORD_NAME_LOAD_KEYWORD_CONSTANT_": 745,
      "EXPR_CALL_ATTRIBUTE_NAME_LOAD_LOAD_NAME_LOAD_EXPR_CALL_ATTRIBUTE_NAME_LOAD_LOAD_": 746,
      "LIST_CONSTANT_CONSTANT_CONSTANT_LOAD_": 747,
      "KEYWORD_NAME_LOAD_KEYWORD_NAME_LOAD": 748,
      "KEYWORD_CONSTANT_ASSIGN_NAME_STORE_": 749,
      "RAISE_CALL_NAME_LOAD_CONSTANT_ASSIGN_NAME_STORE_": 750,
      "RAISE_CALL_NAME_LOAD_NAME_LOAD_": 751,
      "BINOP_CONSTANT_MOD_TUPLE_NAME_LOAD_NAME_LOAD_LOAD_": 752,
      "HIF": 753,
      "SHIF": 754,
      "MODULE_FUNCTIONDEF_ARGUMENTS_ARG_ARG_EXPR_CONSTANT_RETURN_": 755,
      "CALL_ATTRIBUTE_ATTRIBUTE_NAME_LOAD_LOAD_LOAD_NAME_LOAD_ASSIGN_NAME_STORE_": 756,
      "TUPLE_NAME_STORE_NAME_STORE_NAME_STORE_NAME_STORE_": 757,
      "_NAME_LOAD_ARG_NAME_LOAD_ARG": 758,
      "IF_COMPARE_NAME_LOAD_EQ_ATTRIBUTE_NAME_LOAD_LOAD_": 759,
      "IF_NAME_LOAD_EXPR_CALL_ATTRIBUTE_NAME_LOAD_LOAD_": 760,
      "ASSIGN_ATTRIBUTE_NAME_LOAD_STORE_ADD_": 761,
      "ASSIGN_NAME_STORE_ATTRIBUTE_NAME_LOAD_LOAD_": 762,
      "SUBSCRIPT_NAME_LOAD_CONSTANT_LOAD": 763,
      "TRY_ASSIGN_NAME_STORE_CALL_ATTRIBUTE_NAME_LOAD_LOAD_": 764,
      "IF_COMPARE_ATTRIBUTE_NAME_LOAD_LOAD_ISNOT": 765,
      "CALL_NAME_LOAD_SUBSCRIPT_NAME_LOAD_NAME_LOAD_LOAD_": 766,
      "IF_COMPARE_ATTRIBUTE_NAME_LOAD_LOAD_ISNOT_CONSTANT_": 767,
      "EXCEPTHANDLER_NAME_LOAD_PASS_": 768,
      "IF_COMPARE_CALL_NAME_LOAD_NAME_LOAD_EQ_CONSTANT_": 769,
      "KEYWORD_ATTRIBUTE_NAME_LOAD_LOAD_KEYWORD_": 770,
      "EXPR_CALL_ATTRIBUTE_ATTRIBUTE_NAME_LOAD_LOAD_LOAD_CONSTANT_": 771,
      "RETURN_NAME_LOAD_RETURN_": 772,
      "CALL_NAME_LOAD_GENERATOREXP_": 773,
      "LISTCOMP_NAME_LOAD_COMPREHENSION_NAME_STORE_NAME_LOAD_": 774,
      "CONSTANT_ASSIGN_SUBSCRIPT_NAME_LOAD_NAME_LOAD_STORE_": 775,
      "FOR_NAME_STORE_CALL_NAME_LOAD_NAME_LOAD_": 776,
      "DIV_NAME_LOAD_": 777,
      "MODULE_FUNCTIONDEF_ARGUMENTS_ARG_ARG_ARG_CONSTANT_EXPR_CONSTANT_": 778,
      "EXPR_CALL_ATTRIBUTE_NAME_LOAD_LOAD_CALL_ATTRIBUTE_CONSTANT_LOAD_NAME_LOAD_": 779,
      "CALL_ATTRIBUTE_CALL_NAME_LOAD_NAME_LOAD_LOAD_": 780,
      "EXPR_CALL_ATTRIBUTE_ATTRIBUTE_NAME_LOAD_LOAD_LOAD_NAME_LOAD": 781,
      "MODULE_FUNCTIONDEF_ARGUMENTS_ARG_ARG_ARG_ARG_ARG_ARG_ARG_ARG": 782,
      "IF_COMPARE_NAME_LOAD_NOTIN_ATTRIBUTE_NAME_LOAD_LOAD_": 783,
      "ATTRIBUTE_ATTRIBUTE_NAME_LOAD_LOAD_LOAD_ASSIGN_NAME_STORE_": 784,
      "LISTCOMP_CALL_NAME_LOAD_NAME_LOAD_": 785,
      "TUPLE_NAME_LOAD_NAME_LOAD_NAME_LOAD_LOAD_": 786,
      "RETURN_CALL_NAME_LOAD_NAME_LOAD": 787,
      "NAME_LOAD_NAME_LOAD_LOAD_": 788,
      "SUBSCRIPT_NAME_LOAD_CONSTANT_LOAD_ASSIGN_SUBSCRIPT_NAME_LOAD_CONSTANT_STORE_": 789,
      "MODULE_FUNCTIONDEF_ARGUMENTS_ARG_ARG_ARG_ARG_CONSTANT_CONSTANT_CONSTANT_EXPR_": 790,
      "_ASSIGN_ATTRIBUTE_NAME_LOAD_STORE_": 791,
      "CONSTANT_CONSTANT_CONSTANT_": 792,
      "EXPR_CALL_ATTRIBUTE_ATTRIBUTE_NAME_LOAD_LOAD_LOAD_ATTRIBUTE_NAME_LOAD_LOAD_": 793,
      "ATTRIBUTE_NAME_LOAD_STORE_": 794,
      "CALL_SUBSCRIPT_NAME_LOAD_CONSTANT_LOAD_": 795,
      "ASSIGN_TUPLE_NAME_STORE_NAME_STORE_NAME_STORE_STORE_": 796,
      "EXPR_CALL_ATTRIBUTE_NAME_LOAD_LOAD_CONSTANT_EXPR_CALL_ATTRIBUTE_NAME_LOAD_LOAD_": 797,
      "ATTRIBUTE_ATTRIBUTE_ATTRIBUTE_NAME_LOAD_LOAD_LOAD_LOAD_LOAD_": 798,
      "CALL_ATTRIBUTE_NAME_LOAD_LOAD_CONSTANT_NAME_LOAD_": 799,
      "UNARYOP_USUB_": 800,
      "CALL_NAME_LOAD_NAME_LOAD_ASSIGN_NAME_STORE_CALL_NAME_LOAD_NAME_LOAD_": 801,
      "TRY_ASSIGN_NAME_STORE_CALL_ATTRIBUTE_NAME_LOAD_LOAD_NAME_LOAD_": 802,
      "CONSTANT_CONSTANT_CONSTANT_CONSTANT_LOAD_": 803,
      "MODULE_FUNCTIONDEF_ARGUMENTS_ARG_ARG_ARG_CONSTANT_EXPR_CONSTANT_ASSIGN_NAME_STORE_": 804,
      "CALL_ATTRIBUTE_CALL_ATTRIBUTE_NAME_LOAD_LOAD_NAME_LOAD_LOAD_": 805,
      "SUBSCRIPT_ATTRIBUTE_": 806,
      "CALL_NAME_LOAD_ATTRIBUTE_NAME_LOAD_LOAD_ATTRIBUTE_NAME_LOAD_LOAD_": 807,
      "IF_ATTRIBUTE_NAME_LOAD_LOAD_ASSIGN_NAME_STORE_": 808,
      "TRY_ASSIGN_": 809,
      "CALL_ATTRIBUTE_NAME_LOAD_LOAD_NAME_LOAD_CONSTANT_": 810,
      "COMPARE_NAME_LOAD_IN_": 811,
      "CONSTANT_ASSIGN_ATTRIBUTE_NAME_LOAD_STORE_NAME_LOAD_": 812,
      "JOINEDSTR_CONSTANT_": 813,
      "CALL_ATTRIBUTE_NAME_LOAD_LOAD_NAME_LOAD_ASSIGN_NAME_STORE_": 814,
      "IF_UNARYOP_NOT_CALL_NAME_LOAD_NAME_LOAD_": 815,
      "EXPR_CALL_ATTRIBUTE_NAME_LOAD_LOAD_CONSTANT_ATTRIBUTE_NAME_LOAD_LOAD_": 816,
      "DICT_CONSTANT_CONSTANT_CONSTANT_CONSTANT_CONSTANT_CONSTANT_CONSTANT_CONSTANT_CONSTANT_": 817,
      "MODULE_FUNCTIONDEF_ARGUMENTS_ARG_ARG_EXPR_CONSTANT_IF_": 818,
      "RETURN_CONSTANT_ASSIGN_NAME_STORE_": 819,
      "CONSTANT_ASSIGN_NAME_STORE_CALL_ATTRIBUTE_NAME_LOAD_LOAD_NAME_LOAD_NAME_LOAD_": 820,
      "BINOP_NAME_LOAD_ADD_CONSTANT_LOAD_": 821,
      "NAME_LOAD_ASSIGN_NAME_STORE_CALL_ATTRIBUTE_NAME_LOAD_LOAD_NAME_LOAD_NAME_LOAD_": 822,
      "ASSIGN_ATTRIBUTE_NAME_LOAD_STORE_CALL_ATTRIBUTE_NAME_LOAD_LOAD_": 823,
      "SUBSCRIPT_SUBSCRIPT_NAME_LOAD_NAME_LOAD_LOAD_CONSTANT_LOAD_": 824,
      "LISTCOMP_NAME_LOAD_COMPREHENSION_NAME_STORE_": 825,
      "KEYWORD_CALL_ATTRIBUTE_NAME_LOAD_LOAD_": 826,
      "SUBSCRIPT_ATTRIBUTE_NAME_LOAD_LOAD_ATTRIBUTE_NAME_LOAD_LOAD_LOAD_": 827,
      "IF_CALL_ATTRIBUTE_NAME_LOAD_LOAD_NAME_LOAD_": 828,
      "SUBSCRIPT_SUBSCRIPT_": 829,
      "LISTCOMP_CALL_ATTRIBUTE_NAME_LOAD_LOAD_": 830,
      "CONSTANT_IF_UNARYOP_NOT_CALL_NAME_LOAD_NAME_LOAD_NAME_LOAD_": 831,
      "JOINEDSTR_CONSTANT_FORMATTEDVALUE_": 832,
      "COMPARE_ATTRIBUTE_NAME_LOAD_LOAD_EQ_CONSTANT_": 833,
      "COMPARE_NAME_LOAD_IN_NAME_LOAD_": 834,
      "SUBSCRIPT_NAME_LOAD_TUPLE_SLICE_": 835,
      "EXPR_CONSTANT_ASSIGN_NAME_STORE_": 836,
      "TRY_EXPR_CALL_ATTRIBUTE_NAME_LOAD_LOAD_": 837,
      "ATTRIBUTE_SUBSCRIPT_NAME_LOAD_CONSTANT_LOAD_LOAD_": 838,
      "IF_COMPARE_ATTRIBUTE_NAME_LOAD_LOAD_EQ_CONSTANT_ASSIGN_NAME_STORE_": 839,
      "CALL_NAME_LOAD_NAME_LOAD_CALL_NAME_LOAD_NAME_LOAD_": 840,
      "CALL_ATTRIBUTE_CALL_NAME_LOAD_": 841,
      "NOTEQ_ATTRIBUTE_NAME_LOAD_LOAD_": 842,
      "SHIFT": 843,
      "ATTRIBUTE_NAME_LOAD_LOAD_ASSIGN_NAME_STORE_ATTRIBUTE_NAME_LOAD_LOAD_ASSIGN_NAME_STORE_": 844,
      "COMPREHENSION_NAME_STORE_NAME_LOAD_ASSIGN_NAME_STORE_": 845,
      "CALL_NAME_LOAD_LOAD_": 846,
      "SUBSCRIPT_NAME_LOAD_NAME_LOAD_LOAD_ASSIGN_NAME_STORE_": 847,
      "BINOP_NAME_LOAD_MOD_": 848,
      "CONSTANT_AUG": 849,
      "IF_COMPARE_NAME_LOAD_NOTIN_": 850,
      "ATTRIBUTE_CALL_ATTRIBUTE_NAME_LOAD_LOAD_": 851,
      "RAISE_CALL_NAME_LOAD_CONSTANT": 852,
      "ATTRIBUTE_NAME_LOAD_LOAD_RETURN_NAME_LOAD": 853,
      "IMPORTFROM_ALIAS_ASSIGN_NAME_STORE_": 854,
      "IF_COMPARE_ATTRIBUTE_ATTRIBUTE_NAME_LOAD_LOAD_LOAD_": 855,
      "DICT_CONSTANT_NAME_LOAD_": 856,
      "BOOLOP_OR_ATTRIBUTE_NAME_LOAD_LOAD_": 857,
      "KEYWORD_CALL_NAME_LOAD_": 858,
      "MODULE_FUNCTIONDEF_ARGUMENTS_ARG_ARG_ARG_ARG_ARG_ARG_ARG": 859,
      "NOTIN_ATTRIBUTE_NAME_LOAD_LOAD_": 860,
      "DICTCOMP_NAME_LOAD_": 861,
      "MODULE_FUNCTIONDEF_ARGUMENTS_ARG_ARG_ARG_ARG_ARG_ARG_ARG_ARG_ARG_ARG": 862,
      "IF_CALL_NAME_LOAD_NAME_LOAD_NAME_LOAD_ASSIGN_NAME_STORE_": 863,
      "DIV_CONSTANT_": 864,
      "ATTRIBUTE_NAME_LOAD_LOAD_RETURN_": 865,
      "COMPARE_CALL_ATTRIBUTE_NAME_LOAD_LOAD_": 866,
      "CONTINUE_ASSIGN_NAME_STORE_": 867,
      "MODULE_FUNCTIONDEF_ARGUMENTS_ARG_ARG_NAME_LOAD_EXPR_": 868,
      "MODULE_FUNCTIONDEF_ARGUMENTS_ARG_ARG_EXPR_CONSTANT_ASSIGN_NAME_STORE_CALL_ATTRIBUTE_NAME_LOAD_LOAD_NAME_LOAD_": 869,
      "SUBSCRIPT_NAME_LOAD_NAME_LOAD_LOAD": 870,
      "MODULE_FUNCTIONDEF_ARGUMENTS_ARG_ARG_ARG_ARG_EXPR_CONSTANT_ASSIGN_NAME_STORE_": 871,
      "CONSTANT_IF_UNARYOP_NOT_CALL_NAME_LOAD_NAME_LOAD_": 872,
      "CONSTANT_RETURN_CALL_ATTRIBUTE_NAME_LOAD_LOAD_": 873,
      "BINOP_NAME_LOAD_SUB_": 874,
      "IF_COMPARE_CONSTANT_IN_ATTRIBUTE_NAME_LOAD_LOAD_": 875,
      "ATTRIBUTE_ATTRIBUTE_NAME_LOAD_LOAD_LOAD_ATTRIBUTE_ATTRIBUTE_NAME_LOAD_LOAD_LOAD_": 876,
      "IF_COMPARE_CALL_NAME_LOAD_ATTRIBUTE_NAME_LOAD_LOAD_": 877,
      "SUBSCRIPT_ATTRIBUTE_NAME_LOAD_LOAD_CONSTANT_LOAD_ASSIGN_NAME_STORE_": 878,
      "AUGASSIGN_NAME_STORE_": 879,
      "MODULE_FUNCTIONDEF_ARGUMENTS_ARG_CONSTANT_EXPR_": 880,
      "CALL_ATTRIBUTE_NAME_LOAD_LOAD_CONSTANT_ASSIGN_NAME_STORE_": 881,
      "EXPR_CALL_ATTRIBUTE_SUBSCRIPT_NAME_LOAD_CONSTANT_LOAD_LOAD_": 882,
      "ATTRIBUTE_NAME_LOAD_LOAD_EXPR_CALL_ATTRIBUTE_NAME_LOAD_LOAD_": 883,
      "BINOP_SUBSCRIPT_NAME_LOAD_CONSTANT_LOAD_": 884,
      "BINOP_NAME_LOAD_ADD_NAME_LOAD_": 885,
      "ASSIGN_ATTRIBUTE_NAME_LOAD_STORE_NAME_LOAD_": 886,
      "BINOP_BINOP_BINOP_BINOP_": 887,
      "CONSTANT_ASSIGN_TUPLE_NAME_STORE_NAME_STORE_NAME_STORE_STORE_": 888,
      "TRY_RETURN_": 889,
      "BITOR": 890,
      "IF_CALL_ATTRIBUTE_NAME_LOAD_LOAD_CONSTANT_": 891,
      "NAME_LOAD_ASSIGN_NAME_STORE_CALL_ATTRIBUTE_NAME_LOAD_LOAD_CONSTANT_": 892,
      "IMPORT_ALIAS_": 893,
      "LOAD_ASSIGN_NAME_STORE_": 894,
      "CALL_NAME_LOAD_ATTRIBUTE_NAME_LOAD_LOAD_ASSIGN_NAME_STORE_": 895,
      "COMPARE_NAME_LOAD_EQ_": 896,
      "EXPR_CONSTANT_": 897,
      "CALL_ATTRIBUTE_ATTRIBUTE_NAME_LOAD_LOAD_LOAD_CONSTANT_NAME_LOAD_": 898,
      "EXPR_CALL_ATTRIBUTE_NAME_LOAD_LOAD_CONSTANT_NAME_LOAD_NAME_LOAD_": 899,
      "SUBSCRIPT_NAME_LOAD_CONSTANT_STORE_": 900,
      "IF_CALL_ATTRIBUTE_ATTRIBUTE_NAME_LOAD_LOAD_LOAD_NAME_LOAD_": 901,
      "RETURN_CALL_ATTRIBUTE_CONSTANT_LOAD_": 902,
      "FOR_NAME_STORE_CALL_ATTRIBUTE_ATTRIBUTE_NAME_LOAD_LOAD_LOAD_": 903,
      "MODULE_FUNCTIONDEF_ARGUMENTS_ARG_ARG_ARG_EXPR_CONSTANT_ASSIGN_NAME_STORE_CALL_ATTRIBUTE_NAME_LOAD_LOAD_": 904,
      "CALL_ATTRIBUTE_SUBSCRIPT_NAME_LOAD_NAME_LOAD_LOAD_LOAD_": 905,
      "AUGASSIGN_ATTRIBUTE_NAME_LOAD_STORE_ADD_": 906,
      "DICT_CONSTANT_CONSTANT_NAME_LOAD_NAME_LOAD_": 907,
      "TUPLE_CONSTANT_CONSTANT_CONSTANT_LOAD_": 908,
      "EXPR_CALL_NAME_LOAD_BINOP_CONSTANT_MOD_": 909,
      "BINOP_CONSTANT_ADD_NAME_LOAD_": 910,
      "FOR_TUPLE_NAME_STORE_NAME_STORE_STORE_CALL_ATTRIBUTE_ATTRIBUTE_NAME_LOAD_LOAD_LOAD_": 911,
      "LIST_NAME_LOAD_NAME_LOAD_LOAD_": 912,
      "KEYWORD_NAME_LOAD_KEYWORD_ATTRIBUTE_NAME_LOAD_LOAD_KEYWORD_ATTRIBUTE_NAME_LOAD_LOAD_": 913,
      "SUBSCRIPT_NAME_LOAD_TUPLE_NAME_LOAD_NAME_LOAD_LOAD_": 914,
      "DICT_NAME_LOAD_": 915,
      "EXPR_CALL_ATTRIBUTE_NAME_LOAD_LOAD_CONSTANT_EXPR_CALL_ATTRIBUTE_NAME_LOAD_LOAD_CONSTANT_": 916,
      "KEYWORD_SUBSCRIPT_NAME_LOAD_CONSTANT_LOAD_KEYWORD_SUBSCRIPT_NAME_LOAD_CONSTANT_LOAD_": 917,
      "IF_NAME_LOAD_ASSIGN_NAME_STORE_CALL_ATTRIBUTE_NAME_LOAD_LOAD_": 918,
      "LISTCOMP_ATTRIBUTE_NAME_LOAD_LOAD_": 919,
      "WITH_WITHITEM_CALL_NAME_LOAD_": 920,
      "DELETE_SUBSCRIPT_NAME_LOAD_": 921,
      "BINOP_CALL_NAME_LOAD_": 922,
      "EXPR_CALL_NAME_LOAD_CALL_ATTRIBUTE_CONSTANT_LOAD_": 923,
      "RETURN_CALL_ATTRIBUTE_ATTRIBUTE_NAME_LOAD_LOAD_LOAD_": 924,
      "IF_UNARYOP_NOT_NAME_LOAD_ASSIGN_NAME_STORE_": 925,
      "GENERATOREXP": 926,
      "EXPR_CALL_NAME_LOAD_NAME_LOAD_NAME_LOAD_NAME_LOAD_": 927,
      "IS_CONSTANT_ASSIGN_ATTRIBUTE_NAME_LOAD_STORE_": 928,
      "BINOP_BINOP_CONSTANT_ADD_NAME_LOAD_ADD_": 929,
      "COMPARE_ATTRIBUTE_ATTRIBUTE_NAME_LOAD_LOAD_LOAD_": 930,
      "EXPR_CALL_ATTRIBUTE_NAME_LOAD_LOAD_CALL_NAME_LOAD_": 931,
      "BINOP_NAME_LOAD_SUB_CONSTANT_": 932,
      "CONSTANT_ATTRIBUTE_ATTRIBUTE_NAME_LOAD_LOAD_LOAD_": 933,
      "IF_COMPARE_ATTRIBUTE_NAME_LOAD_LOAD_EQ_ATTRIBUTE_NAME_LOAD_LOAD_": 934,
      "SUBSCRIPT_NAME_LOAD_CONSTANT_LOAD_ASSIGN_ATTRIBUTE_NAME_LOAD_STORE_": 935,
      "IF_ATTRIBUTE_ATTRIBUTE_NAME_LOAD_LOAD_LOAD_": 936,
      "DICT_ASSIGN_": 937,
      "SUBSCRIPT_NAME_LOAD_SLICE_CONSTANT_CONSTANT_LOAD_": 938,
      "RETURN_CALL_ATTRIBUTE_NAME_LOAD_LOAD": 939,
      "KEYWORD_ATTRIBUTE_ATTRIBUTE_NAME_LOAD_LOAD_LOAD_": 940,
      "MODULE_FUNCTIONDEF_ARGUMENTS_ARG_ARG_EXPR_CONSTANT_ASSIGN_NAME_STORE_CALL_NAME_LOAD_": 941,
      "_SUBSCRIPT_NAME_LOAD_NAME_LOAD_LOAD_": 942,
      "ATTRIBUTE_NAME_LOAD_LOAD_ASSIGN_NAME_STORE_CALL_ATTRIBUTE_NAME_LOAD_LOAD_NAME_LOAD_": 943,
      "EXCEPTHANDLER_NAME_LOAD_PASS": 944,
      "CALL_NAME_LOAD_NAME_LOAD_ASSIGN_NAME_STORE_CALL_NAME_LOAD_": 945,
      "IF_COMPARE_ATTRIBUTE_NAME_LOAD_LOAD_IS_CONSTANT_": 946,
      "WHILE_COMPARE_NAME_LOAD_": 947,
      "SUBSCRIPT_NAME_LOAD_SLICE_NAME_LOAD_LOAD_": 948,
      "IF_COMPARE_CONSTANT_IN_NAME_LOAD_ASSIGN_NAME_STORE_": 949,
      "CONSTANT_ASSIGN_SUBSCRIPT_NAME_LOAD_CONSTANT_STORE_CONSTANT_ASSIGN_SUBSCRIPT_NAME_LOAD_CONSTANT_STORE_": 950,
      "CALL_ATTRIBUTE_ATTRIBUTE_ATTRIBUTE_NAME_LOAD_LOAD_LOAD_LOAD_NAME_LOAD_": 951,
      "ATTRIBUTE_NAME_LOAD_LOAD_ATTRIBUTE_NAME_LOAD_LOAD_ATTRIBUTE_NAME_LOAD_LOAD_": 952,
      "COMPARE_CONSTANT_IN_": 953,
      "KEYWORD_ATTRIBUTE_NAME_LOAD_LOAD": 954,
      "CONSTANT_ASSIGN_SUBSCRIPT_ATTRIBUTE_NAME_LOAD_LOAD_CONSTANT_STORE_": 955,
      "ASSIGN_SUBSCRIPT_NAME_LOAD_NAME_LOAD_STORE_NAME_LOAD_": 956,
      "BINOP_NAME_LOAD_BITAND_": 957,
      "CONSTANT_ASSIGN_ATTRIBUTE_NAME_LOAD_STORE_CALL_ATTRIBUTE_NAME_LOAD_LOAD_": 958,
      "COMPARE_NAME_LOAD_EQ_NAME_LOAD_": 959,
      "EQ_ATTRIBUTE_ATTRIBUTE_NAME_LOAD_LOAD_LOAD_": 960,
      "CONSTANT_EXPR_CALL_ATTRIBUTE_NAME_LOAD_LOAD": 961,
      "IF_COMPARE_NAME_LOAD_IS_CONSTANT_RETURN_": 962,
      "CONSTANT_RETURN_CALL_NAME_LOAD_": 963,
      "ASSIGN_SUBSCRIPT_SUBSCRIPT_NAME_LOAD_CONSTANT_LOAD_": 964,
      "EXPR_CALL_ATTRIBUTE_NAME_LOAD_LOAD_CALL_NAME_LOAD_NAME_LOAD_": 965,
      "EXPR_CALL_ATTRIBUTE_NAME_LOAD_LOAD_NAME_LOAD_NAME_LOAD": 966,
      "CONSTANT_EXPR_CALL_NAME_LOAD_NAME_LOAD_": 967,
      "TUPLE_NAME_STORE_NAME_STORE_NAME_STORE_NAME_STORE_STORE_": 968,
      "NAME_LOAD_ASSIGN_NAME_STORE_CALL_ATTRIBUTE_ATTRIBUTE_NAME_LOAD_LOAD_LOAD_": 969,
      "MODULE_FUNCTIONDEF_ARGUMENTS_ARG_EXPR_CONSTANT_ASSIGN_NAME_STORE_CALL_ATTRIBUTE_ATTRIBUTE_NAME_LOAD_LOAD_LOAD_": 970,
      "IF_COMPARE_NAME_LOAD_NOTEQ_CONSTANT_": 971,
      "MODULE_FUNCTIONDEF_ARGUMENTS_ARG_ARG_ARG_ARG_ARG_CONSTANT_CONSTANT_CONSTANT_EXPR_": 972,
      "ASSIGN_TUPLE_NAME_STORE_NAME_STORE_STORE_CALL_ATTRIBUTE_NAME_LOAD_LOAD_": 973,
      "IS_CONSTANT_ASSIGN_NAME_STORE_": 974,
      "BITOR_": 975,
      "AUGASSIGN_NAME_STORE_ADD_CONSTANT_": 976,
      "TUPLE_CONSTANT_NAME_LOAD_LOAD_": 977,
      "COMPREHENSION_NAME_STORE_NAME_LOAD": 978,
      "ASSIGN_NAME_STORE_CALL_ATTRIBUTE_NAME_LOAD_LOAD_ASSIGN_NAME_STORE_": 979,
      "CALL_ATTRIBUTE_SUBSCRIPT_ATTRIBUTE_NAME_LOAD_LOAD_CONSTANT_LOAD_LOAD_": 980,
      "CONSTANT_ASSIGN_ATTRIBUTE_ATTRIBUTE_NAME_LOAD_LOAD_STORE_": 981,
      "ASSIGN_ATTRIBUTE_NAME_LOAD_STORE_NAME_LOAD_ASSIGN_ATTRIBUTE_NAME_LOAD_STORE_": 982,
      "SUBSCRIPT_ATTRIBUTE_ATTRIBUTE_NAME_LOAD_LOAD_LOAD_CONSTANT_LOAD_": 983,
      "MODULE_FUNCTIONDEF_ARGUMENTS_EXPR_CONSTANT_": 984,
      "COMPARE_ATTRIBUTE_NAME_LOAD_LOAD_ISNOT": 985,
      "CONSTANT_IF_BOOLOP_AND_NAME_LOAD_": 986,
      "CONSTANT_ASSIGN_NAME_STORE_CALL_ATTRIBUTE_ATTRIBUTE_NAME_LOAD_LOAD_LOAD_NAME_LOAD_": 987,
      "IF_UNARYOP_NOT_CALL_ATTRIBUTE_ATTRIBUTE_NAME_LOAD_LOAD_LOAD_NAME_LOAD_": 988,
      "IF_NAME_LOAD_RETURN_": 989,
      "KEYWORD_NAME_LOAD_RETURN_NAME_LOAD": 990,
      "IF_UNARYOP_NOT_CALL_ATTRIBUTE_NAME_LOAD_LOAD_": 991,
      "KEYWORD_SUBSCRIPT_ATTRIBUTE_NAME_LOAD_LOAD_CONSTANT_LOAD_": 992,
      "CONSTANT_CONSTANT_CONSTANT_CONSTANT_CONSTANT_CONSTANT_CONSTANT_CONSTANT_CONSTANT_CONSTANT_CONSTANT_CONSTANT_CONSTANT_CONSTANT_CONSTANT_CONSTANT_": 993,
      "EXPR_CALL_ATTRIBUTE_ATTRIBUTE_NAME_LOAD_LOAD_LOAD": 994,
      "CONSTANT_ASSIGN_NAME_STORE_LIST_LOAD_": 995,
      "NAME_LOAD_NAME_LOAD_NAME_LOAD_NAME_LOAD_NAME_LOAD_NAME_LOAD_": 996,
      "MODULE_FUNCTIONDEF_ARGUMENTS_ARG_EXPR_CONSTANT_IF_ATTRIBUTE_NAME_LOAD_LOAD_": 997,
      "CALL_NAME_LOAD_NAME_LOAD_NAME_LOAD": 998,
      "IF_COMPARE_CALL_NAME_LOAD_NAME_LOAD_GT_CONSTANT_": 999,
      "IF_UNARYOP_NOT_CALL_NAME_LOAD_NAME_LOAD_NAME_LOAD_": 1000,
      "TUPLE_NAME_LOAD_LOAD_": 1001,
      "SUBSCRIPT_CALL_ATTRIBUTE_NAME_LOAD_LOAD_NAME_LOAD_": 1002,
      "KEYWORD_CONSTANT_KEYWORD_DICT_CONSTANT_": 1003,
      "MODULE_FUNCTIONDEF_ARGUMENTS_ARG_EXPR_CONSTANT_EXPR_CALL_ATTRIBUTE_NAME_LOAD_LOAD_": 1004,
      "TRY_EXPR_CALL_ATTRIBUTE_NAME_LOAD_LOAD_NAME_LOAD_": 1005,
      "IF_BOOLOP_AND_COMPARE_NAME_LOAD_ISNOT_CONSTANT_": 1006,
      "CALL_NAME_LOAD_ATTRIBUTE_ATTRIBUTE_NAME_LOAD_LOAD_LOAD_": 1007,
      "CALL_ATTRIBUTE_NAME_LOAD_LOAD_NAME_LOAD_KEYWORD_": 1008,
      "IF_COMPARE_CONSTANT_NOTIN_NAME_LOAD_": 1009,
      "IS_NAME_LOAD_": 1010,
      "FOR_TUPLE_NAME_STORE_NAME_STORE_NAME_STORE_STORE_": 1011,
      "LIST_CONSTANT_CONSTANT_CONSTANT_CONSTANT_CONSTANT_": 1012,
      "RETURN_CALL_ATTRIBUTE_NAME_LOAD_LOAD_NAME_LOAD_NAME_LOAD_": 1013,
      "BINOP_BINOP_NAME_LOAD_ADD_CONSTANT_ADD_": 1014,
      "KEYWORD_CONSTANT_KEYWORD_NAME_LOAD_": 1015,
      "COMPARE_CALL_NAME_LOAD_NAME_LOAD_EQ_CONSTANT_": 1016,
      "ASSIGN_ATTRIBUTE_": 1017,
      "CONSTANT_FOR_NAME_STORE_": 1018,
      "ASSIGN_SUBSCRIPT_NAME_LOAD_CONSTANT_STORE_ATTRIBUTE_NAME_LOAD_LOAD_": 1019,
      "CALL_ATTRIBUTE_NAME_LOAD_LOAD_NAME_LOAD_LOAD_": 1020,
      "CONSTANT_EXPR_CALL_ATTRIBUTE_NAME_LOAD_LOAD_NAME_LOAD_": 1021,
      "NAME_LOAD_EXCEPTHANDLER_NAME_LOAD_": 1022,
      "NAME_LOAD_ASSIGN_NAME_STORE_CALL_ATTRIBUTE_NAME_LOAD_LOAD_NAME_LOAD_ASSIGN_NAME_STORE_CALL_ATTRIBUTE_NAME_LOAD_LOAD_": 1023,
      "EXPR_CALL_ATTRIBUTE_NAME_LOAD_LOAD_SUBSCRIPT_NAME_LOAD_CONSTANT_LOAD_": 1024,
      "BOOLOP_AND_NAME_LOAD_": 1025,
      "IF_COMPARE_NAME_LOAD_NOTEQ_NAME_LOAD_": 1026,
      "CALL_ATTRIBUTE_CALL_ATTRIBUTE_NAME_LOAD_LOAD_CONSTANT_": 1027,
      "COMPARE_NAME_LOAD_GTE_": 1028,
      "WITH_WITHITEM_CALL_ATTRIBUTE_NAME_LOAD_LOAD_": 1029,
      "ASSIGN_NAME_STORE_CALL_ATTRIBUTE_NAME_LOAD_LOAD_ATTRIBUTE_NAME_LOAD_LOAD_": 1030,
      "COMPARE_ATTRIBUTE_NAME_LOAD_LOAD_EQ_ATTRIBUTE_NAME_LOAD_LOAD_": 1031,
      "MODULE_FUNCTIONDEF_ARGUMENTS_ARG_EXPR_CONSTANT_ASSIGN_NAME_STORE_LIST_LOAD_": 1032,
      "WITH_WITHITEM_CALL_NAME_LOAD_NAME_LOAD_": 1033,
      "SUBSCRIPT_CALL_ATTRIBUTE_NAME_LOAD_LOAD_CONSTANT_LOAD_": 1034,
      "_WITH_WITHITEM": 1035,
      "EXPR_CALL_ATTRIBUTE_SUBSCRIPT_NAME_LOAD_NAME_LOAD_LOAD_LOAD_": 1036,
      "KEYWORD_CALL_ATTRIBUTE_NAME_LOAD_LOAD_CONSTANT_": 1037,
      "RAISE_CALL_NAME_LOAD_BINOP_CONSTANT_MOD_NAME_LOAD_": 1038,
      "ASSIGN_NAME_STORE_CALL_ATTRIBUTE_NAME_LOAD_LOAD_CONSTANT_": 1039,
      "BAL": 1040,
      "GLO": 1041,
      "RETURN_CALL_NAME_LOAD_NAME_LOAD_NAME_LOAD_": 1042,
      "IF_COMPARE_NAME_LOAD_GTE_": 1043,
      "GLOBAL": 1044,
      "YIELD": 1045,
      "CONSTANT_ASSIGN_NAME_STORE_DICT_": 1046,
      "NAME_LOAD_ASSIGN_NAME_STORE_CALL_ATTRIBUTE_ATTRIBUTE_NAME_LOAD_LOAD_LOAD_NAME_LOAD_": 1047,
      "ATTRIBUTE_NAME_LOAD_LOAD_ASSIGN_NAME_STORE_ATTRIBUTE_NAME_LOAD_LOAD_": 1048,
      "MODULE_FUNCTIONDEF_ARGUMENTS_ARG_ARG_EXPR_CONSTANT_ASSIGN_NAME_STORE_CALL_NAME_LOAD_NAME_LOAD_": 1049,
      "EXPR_CALL_ATTRIBUTE_NAME_LOAD_LOAD_CALL_ATTRIBUTE_NAME_LOAD_LOAD_NAME_LOAD_": 1050,
      "MODULE_FUNCTIONDEF_ARGUMENTS_ARG_EXPR_CONSTANT_IF_UNARYOP_NOT_ATTRIBUTE_NAME_LOAD_LOAD_": 1051,
      "DELETE_SUBSCRIPT_ATTRIBUTE_NAME_LOAD_LOAD_": 1052,
      "IF_COMPARE_NAME_LOAD_ISNOT_CONSTANT_ASSIGN_SUBSCRIPT_NAME_LOAD_CONSTANT_STORE_CALL_ATTRIBUTE_ATTRIBUTE_NAME_LOAD_LOAD_LOAD_CONSTANT_NAME_LOAD_": 1053,
      "STORE_NAME_LOAD_": 1054,
      "SUBSCRIPT_SUBSCRIPT_SUBSCRIPT_NAME_LOAD_CONSTANT_LOAD_CONSTANT_LOAD_": 1055,
      "SUBSCRIPT_NAME_LOAD_CONSTANT_LOAD_ASSIGN_NAME_STORE_SUBSCRIPT_NAME_LOAD_CONSTANT_LOAD_": 1056,
      "YIELDFROM": 1057,
      "DICT_CONSTANT_CONSTANT_NAME_LOAD_": 1058,
      "CALL_ATTRIBUTE_CALL_ATTRIBUTE_NAME_LOAD_LOAD_CONSTANT_LOAD_": 1059,
      "CALL_ATTRIBUTE_ATTRIBUTE_NAME_LOAD_LOAD_LOAD_CONSTANT_CONSTANT_": 1060,
      "ASSIGN_NAME_STORE_CALL_ATTRIBUTE_ATTRIBUTE_NAME_LOAD_LOAD_LOAD_NAME_LOAD_": 1061,
      "ASSIGN_SUBSCRIPT_NAME_LOAD_ATTRIBUTE_NAME_LOAD_LOAD_STORE_": 1062,
      "COMPARE_ATTRIBUTE_NAME_LOAD_LOAD_EQ_NAME_LOAD_": 1063,
      "COMPARE_ATTRIBUTE_NAME_LOAD_LOAD_ISNOT_CONSTANT_": 1064,
      "IF_COMPARE_ATTRIBUTE_NAME_LOAD_LOAD_EQ_NAME_LOAD_": 1065,
      "TUPLE_CONSTANT_CONSTANT_LOAD_TUPLE_CONSTANT_CONSTANT_LOAD_": 1066,
      "CALL_NAME_LOAD_NAME_LOAD_RETURN_NAME_LOAD": 1067,
      "EXCEPTHANDLER_ATTRIBUTE_ATTRIBUTE_NAME_LOAD_LOAD_LOAD_": 1068,
      "NAME_LOAD_DEL_": 1069,
      "_WITH_WITHITEM_": 1070,
      "CONSTANT_IF_CALL_NAME_LOAD_NAME_LOAD_NAME_LOAD_": 1071,
      "MODULE_FUNCTIONDEF_ARGUMENTS_ARG_EXPR_CONSTANT_ASSIGN_ATTRIBUTE_NAME_LOAD_STORE_": 1072,
      "IFEXP_ATTRIBUTE_NAME_LOAD_LOAD_": 1073,
      "TUPLE_SUBSCRIPT_NAME_LOAD_CONSTANT_LOAD_": 1074,
      "NAME_LOAD_ASSIGN_NAME_STORE_NAME_LOAD_": 1075,
      "CONSTANT_IF_UNARYOP_NOT_ATTRIBUTE_NAME_LOAD_LOAD_": 1076,
      "TUPLE_NAME_LOAD_NAME_LOAD_NAME_LOAD_LOAD": 1077,
      "IF_BOOLOP_AND_ATTRIBUTE_NAME_LOAD_LOAD_": 1078,
      "MODULE_FUNCTIONDEF_ARGUMENTS_ARG_ARG_ARG_ARG_EXPR_CONSTANT_": 1079,
      "YIELDFROM_": 1080,
      "EXPR_YIELD_NAME_LOAD": 1081,
      "UNARYOP_NOT_CALL_ATTRIBUTE_NAME_LOAD_LOAD_": 1082,
      "MODULE_FUNCTIONDEF_ARGUMENTS_ARG_ARG_ARG_ARG_ARG_CONSTANT_CONSTANT_EXPR_": 1083,
      "COMPREHENSION_NAME_STORE_CALL_ATTRIBUTE_NAME_LOAD_LOAD_": 1084,
      "RAISE_CALL_NAME_LOAD_CONSTANT_RETURN_": 1085,
      "CALL_NAME_LOAD_ATTRIBUTE_NAME_LOAD_LOAD_CONSTANT_": 1086,
      "KEYWORD_NAME_LOAD_KEYWORD_ATTRIBUTE_NAME_LOAD_LOAD_": 1087,
      "SUBSCRIPT_SUBSCRIPT_ATTRIBUTE_NAME_LOAD_LOAD_CONSTANT_LOAD_CONSTANT_LOAD_": 1088,
      "ASSIGN_NAME_STORE_NAME_LOAD_": 1089,
      "MODULE_FUNCTIONDEF_ARGUMENTS_ARG_EXPR_CONSTANT_ASSIGN_NAME_STORE_DICT_": 1090,
      "MODULE_FUNCTIONDEF_ARGUMENTS_ARG_ARG_ARG_CONSTANT_EXPR_CONSTANT_IF_CALL_NAME_LOAD_NAME_LOAD_": 1091,
      "KEYWORD_LAMBDA_ARGUMENTS_ARG_": 1092,
      "LISTCOMP_CALL_ATTRIBUTE_NAME_LOAD_LOAD_NAME_LOAD_": 1093,
      "ASSIGN_SUBSCRIPT_SUBSCRIPT_NAME_LOAD_NAME_LOAD_LOAD_": 1094,
      "KEYWORD_NAME_LOAD_KEYWORD_NAME_LOAD_KEYWORD_NAME_LOAD": 1095,
      "SE": 1096,
      "ADD_NAME_LOAD_": 1097,
      "ASSIGN_TUPLE_": 1098,
      "COMPARE_ATTRIBUTE_NAME_LOAD_LOAD_IS_CONSTANT_": 1099,
      "DICT_LOAD_": 1100,
      "CALL_ATTRIBUTE_NAME_LOAD_LOAD_CONSTANT_CALL_ATTRIBUTE_NAME_LOAD_LOAD_CONSTANT_": 1101,
      "LIST_CONSTANT_CONSTANT_CONSTANT_CONSTANT_LOAD_": 1102,
      "IF_COMPARE_NAME_LOAD_ISNOT_": 1103,
      "IF_UNARYOP_NOT_NAME_LOAD_RETURN_": 1104,
      "BINOP_NAME_LOAD_SUB_CONSTANT_LOAD_": 1105,
      "BINOP_CONSTANT_MOD_TUPLE_NAME_LOAD_": 1106,
      "WITH_WITHITEM_ATTRIBUTE_NAME_LOAD_LOAD_": 1107,
      "IN_ATTRIBUTE_": 1108,
      "IF_COMPARE_SUBSCRIPT_NAME_LOAD_CONSTANT_LOAD_EQ_CONSTANT_": 1109,
      "MODULE_FUNCTIONDEF_ARGUMENTS_ARG_ARG_ARG_ARG_ARG_CONSTANT_EXPR_": 1110,
      "CALL_ATTRIBUTE_CONSTANT_LOAD_NAME_LOAD_ASSIGN_NAME_STORE_": 1111,
      "KEYWORD_CONSTANT_ASSIGN_NAME_STORE_CALL_ATTRIBUTE_NAME_LOAD_LOAD_": 1112,
      "LISTCOMP_SUBSCRIPT_NAME_LOAD_CONSTANT_LOAD_": 1113,
      "COMPARE_SUBSCRIPT_NAME_LOAD_CONSTANT_LOAD_EQ_CONSTANT_": 1114,
      "SUBSCRIPT_SUBSCRIPT_NAME_LOAD_NAME_LOAD_LOAD_NAME_LOAD_LOAD_": 1115,
      "COMPARE_CALL_NAME_LOAD_ATTRIBUTE_NAME_LOAD_LOAD_": 1116,
      "NOTEQ_CONSTANT_ASSIGN_NAME_STORE_": 1117,
      "CALL_NAME_LOAD_CALL_ATTRIBUTE_ATTRIBUTE_NAME_LOAD_LOAD_LOAD_": 1118,
      "CALL_ATTRIBUTE_CALL_NAME_LOAD_LOAD_": 1119,
      "COMPREHENSION_NAME_STORE_NAME_LOAD_RETURN_": 1120,
      "NAME_LOAD_NAME_LOAD_ASSIGN_NAME_STORE_": 1121,
      "RETURN_CALL_ATTRIBUTE_NAME_LOAD_LOAD_CONSTANT_": 1122,
      "_NAME_LOAD_CONSTANT_EXPR_": 1123,
      "EXCEPTHANDLER_NAME_LOAD_EXPR_CALL_ATTRIBUTE_NAME_LOAD_LOAD_CONSTANT_": 1124,
      "MODULE_FUNCTIONDEF_ARGUMENTS_ARG_NAME_LOAD_EXPR_": 1125,
      "MODULE_FUNCTIONDEF_ARGUMENTS_ARG_ARG_ARG_ARG_ARG_CONSTANT_CONSTANT_CONSTANT_CONSTANT_EXPR_": 1126,
      "MODULE_FUNCTIONDEF_ARGUMENTS_ARG_EXPR_CONSTANT_ASSIGN_NAME_STORE_CALL_NAME_LOAD_NAME_LOAD_": 1127,
      "MODULE_FUNCTIONDEF_ARGUMENTS_ARG_ARG_": 1128,
      "ASSIGN_ATTRIBUTE_NAME_LOAD_STORE_CALL_NAME_LOAD_": 1129,
      "IF_CALL_ATTRIBUTE_ATTRIBUTE_NAME_LOAD_LOAD_LOAD_": 1130,
      "BREAK_ASSIGN_NAME_STORE_": 1131,
      "BINOP_CONSTANT_MOD_ATTRIBUTE_NAME_LOAD_LOAD_": 1132,
      "IF_COMPARE_NAME_LOAD_NOTEQ_": 1133,
      "IF_BOOLOP_AND_CALL_NAME_LOAD_NAME_LOAD_CONSTANT_": 1134,
      "SET": 1135,
      "CONSTANT_RETURN_CONSTANT": 1136,
      "ERT": 1137,
      "EXCEPTHANDLER_TUPLE_NAME_LOAD_NAME_LOAD_LOAD_RAISE_CALL_NAME_LOAD_": 1138,
      "SUBSCRIPT_SUBSCRIPT_NAME_LOAD_CONSTANT_LOAD_NAME_LOAD_LOAD_": 1139,
      "CONSTANT_FOR_NAME_STORE_NAME_LOAD_": 1140,
      "IMPORT_ALIAS_ASSIGN_NAME_STORE_": 1141,
      "NAME_LOAD_EXPR_CALL_ATTRIBUTE_NAME_LOAD_LOAD_NAME_LOAD_": 1142,
      "IF_NAME_LOAD_EXPR_CALL_ATTRIBUTE_NAME_LOAD_LOAD_NAME_LOAD_": 1143,
      "KEYWORD_NAME_LOAD_EXPR_CALL_ATTRIBUTE_NAME_LOAD_LOAD_": 1144,
      "EXPR_CALL_ATTRIBUTE_NAME_LOAD_LOAD_CONSTANT_KEYWORD_CONSTANT_KEYWORD_CONSTANT_": 1145,
      "COMPARE_NAME_LOAD_NOTEQ_CONSTANT_": 1146,
      "TUPLE_NAME_LOAD_CONSTANT_LOAD_": 1147,
      "EXPR_CALL_ATTRIBUTE_ATTRIBUTE_NAME_LOAD_LOAD_LOAD_NAME_LOAD_NAME_LOAD_": 1148,
      "COMPARE_NAME_LOAD_IN_ATTRIBUTE_NAME_LOAD_LOAD_": 1149,
      "CALL_ATTRIBUTE_ATTRIBUTE_NAME_LOAD_LOAD_LOAD": 1150,
      "ASSIGN_ATTRIBUTE_NAME_LOAD_STORE_CONSTANT_": 1151,
      "CALL_ATTRIBUTE_NAME_LOAD_LOAD_CONSTANT_LOAD_": 1152,
      "ASSIGN_NAME_STORE_CALL_ATTRIBUTE_NAME_LOAD_LOAD_NAME_LOAD_ASSIGN_NAME_STORE_": 1153,
      "KEYWORD_CALL_NAME_LOAD_NAME_LOAD_": 1154,
      "RETURN_CALL_NAME_LOAD_NAME_LOAD_NAME_LOAD": 1155,
      "SUBSCRIPT_NAME_LOAD_SUBSCRIPT_NAME_LOAD_CONSTANT_LOAD_LOAD_": 1156,
      "FOR_NAME_STORE_SUBSCRIPT_NAME_LOAD_CONSTANT_LOAD_": 1157,
      "EXPR_CALL_NAME_LOAD_ATTRIBUTE_NAME_LOAD_LOAD_": 1158,
      "GT_ATTRIBUTE_NAME_LOAD_LOAD_": 1159,
      "IF_NAME_LOAD_ASSIGN_SUBSCRIPT_NAME_LOAD_CONSTANT_STORE_": 1160,
      "LIST_LOAD_LIST_LOAD_": 1161,
      "COMPARE_CALL_NAME_LOAD_NAME_LOAD_GT_CONSTANT_": 1162,
      "UNARYOP_USUB_CONSTANT_ASSIGN_NAME_STORE_": 1163,
      "IF_CALL_NAME_LOAD_NAME_LOAD_CONSTANT_EXPR_CALL_ATTRIBUTE_NAME_LOAD_LOAD": 1164,
      "COMPARE_SUBSCRIPT_ATTRIBUTE_NAME_LOAD_LOAD_CONSTANT_LOAD_": 1165,
      "FOR_NAME_STORE_CALL_NAME_LOAD_CONSTANT_": 1166,
      "COMPREHENSION_TUPLE_NAME_STORE_NAME_STORE_STORE_CALL_ATTRIBUTE_NAME_LOAD_LOAD_": 1167,
      "IF_COMPARE_ATTRIBUTE_NAME_LOAD_LOAD_EQ_": 1168,
      "RSHIFT": 1169,
      "CONSTANT_ASSIGN_NAME_STORE_CALL_ATTRIBUTE_NAME_LOAD_LOAD_NAME_LOAD_TRY_ASSIGN_NAME_STORE_CALL_NAME_LOAD_NAME_LOAD_": 1170,
      "IF_COMPARE_CALL_ATTRIBUTE_NAME_LOAD_LOAD_CONSTANT_": 1171,
      "DICT_CONSTANT_CONSTANT_CONSTANT_CONSTANT_CONSTANT_CONSTANT_ASSIGN_ATTRIBUTE_NAME_LOAD_STORE_NAME_LOAD_": 1172,
      "EXCEPTHANDLER_TUPLE_NAME_LOAD_NAME_LOAD_LOAD_RAISE_CALL_NAME_LOAD_DICT_CONSTANT_CONSTANT_CONSTANT_CONSTANT_CONSTANT_CONSTANT_ASSIGN_ATTRIBUTE_NAME_LOAD_STORE_NAME_LOAD_": 1173,
      "EXCEPTHANDLER_TUPLE_NAME_LOAD_NAME_LOAD_LOAD_RAISE_CALL_NAME_LOAD_DICT_CONSTANT_CONSTANT_CONSTANT_CONSTANT_CONSTANT_CONSTANT_ASSIGN_ATTRIBUTE_NAME_LOAD_STORE_NAME_LOAD_IF_CALL_NAME_LOAD_NAME_LOAD_CONSTANT_EXPR_CALL_ATTRIBUTE_NAME_LOAD_LOAD": 1174,
      "KEYWORD_CONSTANT_EXPR_CALL_ATTRIBUTE_NAME_LOAD_LOAD_": 1175,
      "MODULE_FUNCTIONDEF_ARGUMENTS_ARG_ARG_NAME_LOAD_ARG": 1176,
      "CONSTANT_IF_CALL_ATTRIBUTE_NAME_LOAD_LOAD_": 1177,
      "MODULE_FUNCTIONDEF_ARGUMENTS_ARG_ARG_ARG_CONSTANT_EXPR_CONSTANT_IF_CALL_NAME_LOAD_NAME_LOAD_CONSTANT_ASSIGN_NAME_STORE_CALL_ATTRIBUTE_NAME_LOAD_LOAD_NAME_LOAD_TRY_ASSIGN_NAME_STORE_CALL_NAME_LOAD_NAME_LOAD_": 1178,
      "CALL_ATTRIBUTE_NAME_LOAD_LOAD_SUBSCRIPT_NAME_LOAD_CONSTANT_LOAD_": 1179,
      "ATTRIBUTE_SUBSCRIPT_NAME_LOAD_NAME_LOAD_LOAD_LOAD_": 1180,
      "SUB_ATTRIBUTE_NAME_LOAD_LOAD_": 1181,
      "CALL_NAME_LOAD_NAME_LOAD_NAME_LOAD_ASSIGN_NAME_STORE_": 1182,
      "CONSTANT_ASSIGN_NAME_STORE_CALL_ATTRIBUTE_CONSTANT_LOAD_": 1183,
      "CALL_ATTRIBUTE_NAME_LOAD_LOAD_NAME_LOAD_RETURN_NAME_LOAD": 1184,
      "MODULE_FUNCTIONDEF_ARGUMENTS_ARG_ARG_EXPR_CONSTANT_ASSIGN_ATTRIBUTE_NAME_LOAD_STORE_": 1185,
      "CONSTANT_ASSIGN_NAME_STORE_ATTRIBUTE_NAME_LOAD_LOAD_": 1186,
      "ASSIGN_NAME_STORE_LIST_LOAD_": 1187,
      "CALL_ATTRIBUTE_NAME_LOAD_LOAD_NAME_LOAD_NAME_LOAD_NAME_LOAD_": 1188,
      "LT_ATTRIBUTE_NAME_LOAD_LOAD_": 1189,
      "FOR_NAME_STORE_ATTRIBUTE_NAME_LOAD_LOAD_ASSIGN_NAME_STORE_": 1190,
      "NAME_LOAD_NAME_LOAD_NAME_LOAD_NAME_LOAD_NAME_LOAD_": 1191,
      "IF_COMPARE_SUBSCRIPT_ATTRIBUTE_NAME_LOAD_LOAD_CONSTANT_LOAD_": 1192,
      "FOR_NAME_STORE_NAME_LOAD_EXPR_CALL_ATTRIBUTE_NAME_LOAD_LOAD_": 1193,
      "ASSIGN_TUPLE_NAME_STORE_NAME_STORE_STORE_CALL_ATTRIBUTE_NAME_LOAD_LOAD_NAME_LOAD_": 1194,
      "CONSTANT_LOAD_CONSTANT_LOAD_": 1195,
      "TUPLE_ATTRIBUTE_NAME_LOAD_LOAD_NAME_LOAD_LOAD_": 1196,
      "CALL_ATTRIBUTE_SUBSCRIPT_ATTRIBUTE_NAME_LOAD_LOAD_NAME_LOAD_LOAD_LOAD_": 1197,
      "IF_CALL_NAME_LOAD_NAME_LOAD_ATTRIBUTE_NAME_LOAD_LOAD_": 1198,
      "CALL_NAME_LOAD_NAME_LOAD_NAME_LOAD_NAME_LOAD_NAME_LOAD_": 1199,
      "MODULE_FUNCTIONDEF_ARGUMENTS_ARG_ARG_ARG_ARG_ARG_ARG_EXPR_": 1200,
      "CALL_ATTRIBUTE_CALL_ATTRIBUTE_ATTRIBUTE_NAME_LOAD_LOAD_LOAD_LOAD_": 1201,
      "ASSIGN_ATTRIBUTE_NAME_LOAD_STORE_NAME_LOAD": 1202,
      "RETURN_NAME_LOAD_ASSIGN_NAME_STORE_": 1203,
      "IF_COMPARE_SUBSCRIPT_NAME_LOAD_NAME_LOAD_LOAD_": 1204,
      "FOR_NAME_STORE_CALL_ATTRIBUTE_NAME_LOAD_LOAD_NAME_LOAD_": 1205,
      "LIST_ATTRIBUTE_NAME_LOAD_LOAD_LOAD_": 1206,
      "FLO": 1207,
      "NAME_LOAD_ASSIGN_ATTRIBUTE_NAME_LOAD_STORE_NAME_LOAD_ASSIGN_ATTRIBUTE_NAME_LOAD_STORE_": 1208,
      "FLOOR": 1209,
      "KEYWORD_NAME_LOAD_ASSIGN_NAME_STORE_CALL_ATTRIBUTE_NAME_LOAD_LOAD_": 1210,
      "CALL_ATTRIBUTE_NAME_LOAD_LOAD_NAME_LOAD_NAME_LOAD": 1211,
      "SUBSCRIPT_ATTRIBUTE_NAME_LOAD_LOAD_UNARYOP_USUB_CONSTANT_LOAD_": 1212,
      "COMPARE_NAME_LOAD_ISNOT": 1213,
      "TRY_ASSIGN_NAME_STORE_CALL_NAME_LOAD_": 1214,
      "EXPR_CALL_NAME_LOAD_CALL_ATTRIBUTE_CONSTANT_LOAD_NAME_LOAD_": 1215,
      "IF_COMPARE_ATTRIBUTE_NAME_LOAD_LOAD_NOTEQ_CONSTANT_": 1216,
      "COMPARE_ATTRIBUTE_NAME_LOAD_LOAD_EQ_": 1217,
      "FOR_NAME_STORE_NAME_LOAD_ASSIGN_NAME_STORE_CALL_ATTRIBUTE_NAME_LOAD_LOAD_": 1218,
      "MODULE_FUNCTIONDEF_ARGUMENTS_ARG_EXPR_CONSTANT_IF_UNARYOP_NOT_": 1219,
      "COMPARE_NAME_LOAD_NOTIN_NAME_LOAD_": 1220,
      "KEYWORD_CONSTANT_KEYWORD_CONSTANT_KEYWORD_CONSTANT_KEYWORD_CONSTANT_EXCEPTHANDLER_TUPLE_NAME_LOAD_NAME_LOAD_LOAD_RAISE_CALL_NAME_LOAD_DICT_CONSTANT_CONSTANT_CONSTANT_CONSTANT_CONSTANT_CONSTANT_ASSIGN_ATTRIBUTE_NAME_LOAD_STORE_NAME_LOAD_IF_CALL_NAME_LOAD_NAME_LOAD_CONSTANT_EXPR_CALL_ATTRIBUTE_NAME_LOAD_LOAD": 1221,
      "IF_UNARYOP_NOT_CALL_ATTRIBUTE_NAME_LOAD_LOAD_NAME_LOAD_": 1222,
      "KEYWORD_NAME_LOAD_RETURN_": 1223,
      "NAME_LOAD_NAME_LOAD_NAME_LOAD": 1224,
      "SUBSCRIPT_NAME_LOAD_CONSTANT_LOAD_ASSIGN_NAME_STORE_SUBSCRIPT_NAME_LOAD_CONSTANT_LOAD_ASSIGN_NAME_STORE_": 1225,
      "TUPLE_NAME_LOAD_NAME_LOAD_LOAD_ASSIGN_NAME_STORE_": 1226,
      "KEYWORD_NAME_LOAD_LOAD_": 1227,
      "IF_COMPARE_CALL_NAME_LOAD_NAME_LOAD_NOTEQ_CONSTANT_": 1228,
      "EXPR_CALL_ATTRIBUTE_NAME_LOAD_LOAD_CONSTANT": 1229,
      "SUBSCRIPT_NAME_LOAD_TUPLE_NAME_LOAD_NAME_LOAD_LOAD_LOAD_": 1230,
      "ATTRIBUTE_ATTRIBUTE_NAME_LOAD_LOAD_LOAD": 1231,
      "NAME_LOAD_RETURN_CONSTANT": 1232,
      "WITH_WITHITEM_CALL_NAME_LOAD_NAME_LOAD_NAME_STORE_": 1233,
      "SLICE_CONSTANT_LOAD_": 1234,
      "BINOP_NAME_LOAD_DIV_NAME_LOAD_": 1235,
      "GENERATOREXP_NAME_LOAD_": 1236,
      "SUBSCRIPT_SUBSCRIPT_ATTRIBUTE_NAME_LOAD_LOAD_NAME_LOAD_LOAD_CONSTANT_LOAD_": 1237,
      "IF_COMPARE_NAME_LOAD_LT_CONSTANT_": 1238,
      "CALL_ATTRIBUTE_ATTRIBUTE_NAME_LOAD_LOAD_LOAD_NAME_LOAD_CONSTANT_": 1239,
      "IF_ATTRIBUTE_NAME_LOAD_LOAD_EXPR_CALL_ATTRIBUTE_NAME_LOAD_LOAD_": 1240,
      "MODULE_FUNCTIONDEF_ARGUMENTS_ARG_NAME_LOAD_ARG": 1241,
      "IF_BOOLOP_AND_UNARYOP_NOT_NAME_LOAD_": 1242,
      "SUBSCRIPT_NAME_LOAD_SLICE_NAME_LOAD_": 1243,
      "CALL_NAME_LOAD": 1244,
      "IF_COMPARE_CALL_NAME_LOAD_": 1245,
      "KEYWORD_NAME_LOAD_KEYWORD_ATTRIBUTE_NAME_LOAD_LOAD_KEYWORD_ATTRIBUTE_NAME_LOAD_LOAD_KEYWORD_CONSTANT_KEYWORD_DICT_CONSTANT_": 1246,
      "FOR_TUPLE_NAME_STORE_NAME_STORE_STORE_NAME_LOAD_": 1247,
      "CONSTANT_ASSIGN_TUPLE_NAME_STORE_NAME_STORE_STORE_CALL_ATTRIBUTE_NAME_LOAD_LOAD_": 1248,
      "ASSIGN_SUBSCRIPT_SUBSCRIPT_NAME_LOAD_CONSTANT_LOAD_CONSTANT_STORE_": 1249,
      "MODULE_FUNCTIONDEF_ARGUMENTS_ARG_ARG_CONSTANT_CONSTANT_EXPR_": 1250,
      "ASSIGN_SUBSCRIPT_": 1251,
      "TRY_WITH_WITHITEM_": 1252,
      "SUBSCRIPT_NAME_LOAD_CONSTANT_LOAD_STORE_": 1253,
      "UNARYOP_NOT_CALL_NAME_LOAD_NAME_LOAD_NAME_LOAD_": 1254,
      "ATTRIBUTE_NAME_LOAD_STORE_ATTRIBUTE_NAME_LOAD_STORE_": 1255,
      "ASSIGN_NAME_STORE_CALL_ATTRIBUTE_NAME_LOAD_LOAD_ASSIGN_NAME_STORE_CALL_ATTRIBUTE_NAME_LOAD_LOAD_": 1256,
      "LIST_CONSTANT_CONSTANT_CONSTANT_CONSTANT_CONSTANT_LOAD_": 1257,
      "KEYWORD_ATTRIBUTE_NAME_LOAD_LOAD_KEYWORD_ATTRIBUTE_NAME_LOAD_LOAD_KEYWORD_ATTRIBUTE_NAME_LOAD_LOAD_KEYWORD_ATTRIBUTE_NAME_LOAD_LOAD_": 1258,
      "BINOP_CONSTANT_ADD_CALL_NAME_LOAD_NAME_LOAD_": 1259,
      "IF_COMPARE_NAME_LOAD_EQ_CONSTANT_RETURN_": 1260,
      "COMPARE_CONSTANT_IN_ATTRIBUTE_NAME_LOAD_LOAD_": 1261,
      "BINOP_ATTRIBUTE_ATTRIBUTE_NAME_LOAD_LOAD_LOAD_": 1262,
      "MODULE_FUNCTIONDEF_ARGUMENTS_ARG_ARG_ARG_CONSTANT_CONSTANT_EXPR_CONSTANT_": 1263,
      "SUBSCRIPT_NAME_LOAD_TUPLE_NAME_LOAD_": 1264,
      "CONSTANT_ATTRIBUTE_NAME_LOAD_LOAD_LOAD_": 1265,
      "CALL_ATTRIBUTE_ATTRIBUTE_ATTRIBUTE_ATTRIBUTE_NAME_LOAD_LOAD_LOAD_LOAD_LOAD_": 1266,
      "TUPLE_LOAD_": 1267,
      "BINOP_BINOP_ATTRIBUTE_NAME_LOAD_LOAD_ADD_": 1268,
      "COMPARE_SUBSCRIPT_NAME_LOAD_NAME_LOAD_LOAD_": 1269,
      "ATTRIBUTE_NAME_LOAD_LOAD_ASSIGN_NAME_STORE_CALL_NAME_LOAD_": 1270,
      "DICT_CONSTANT_CONSTANT_CONSTANT_CONSTANT_CONSTANT_CONSTANT_": 1271,
      "CONSTANT_ASSIGN_NAME_STORE_IFEXP_": 1272,
      "IF_COMPARE_CALL_NAME_LOAD_NAME_LOAD_EQ_": 1273,
      "TRY_ASSIGN_TUPLE_NAME_STORE_NAME_STORE_STORE_": 1274,
      "SUBSCRIPT_CALL_ATTRIBUTE_ATTRIBUTE_NAME_LOAD_LOAD_LOAD_": 1275,
      "LTE_NAME_LOAD_": 1276,
      "NAME_LOAD_RETURN_NAME_LOAD_": 1277,
      "CONSTANT_ATTRIBUTE_NAME_LOAD_LOAD_ATTRIBUTE_NAME_LOAD_LOAD_": 1278,
      "ASSIGN_ATTRIBUTE_NAME_LOAD_STORE_CONSTANT_ASSIGN_ATTRIBUTE_NAME_LOAD_STORE_": 1279,
      "MODULE_FUNCTIONDEF_ARGUMENTS_ARG_EXPR_CONSTANT_IF_BOOLOP_AND_": 1280,
      "CONSTANT_UNARYOP_USUB_CONSTANT_LOAD_": 1281,
      "LIST_CONSTANT_CONSTANT_CONSTANT_": 1282,
      "LISTCOMP_CALL_NAME_LOAD_NAME_LOAD_COMPREHENSION_NAME_STORE_": 1283,
      "CONSTANT_CONSTANT_EXPR_": 1284,
      "IF_COMPARE_CALL_NAME_LOAD_NAME_LOAD_EQ_CONSTANT_ASSIGN_NAME_STORE_": 1285,
      "ASSIGN_NAME_STORE_CALL_ATTRIBUTE_CONSTANT_LOAD_": 1286,
      "EXPR_CALL_ATTRIBUTE_NAME_LOAD_LOAD_CONSTANT_RETURN_": 1287,
      "CALL_ATTRIBUTE_NAME_LOAD_LOAD_NAME_LOAD_CALL_ATTRIBUTE_NAME_LOAD_LOAD_NAME_LOAD_": 1288,
      "MODULE_FUNCTIONDEF_ARGUMENTS_ARG_ARG_EXPR_CONSTANT_IF_UNARYOP_NOT_": 1289,
      "EXPR_CALL_ATTRIBUTE_ATTRIBUTE_NAME_LOAD_LOAD_LOAD_EXPR_CALL_ATTRIBUTE_ATTRIBUTE_NAME_LOAD_LOAD_LOAD_": 1290,
      "CONSTANT_AUGASSIGN_NAME_STORE_": 1291,
      "NAME_LOAD_ADD_CONSTANT_ADD_": 1292,
      "CONSTANT_ASSIGN_NAME_STORE_CALL_ATTRIBUTE_NAME_LOAD_LOAD_CONSTANT_CONSTANT_": 1293,
      "SUB_CONSTANT_ASSIGN_NAME_STORE_": 1294,
      "MODULE_FUNCTIONDEF_ARGUMENTS_EXPR_CONSTANT_ASSIGN_NAME_STORE_": 1295,
      "ASSIGN_ATTRIBUTE_NAME_LOAD_STORE_CONSTANT": 1296,
      "SUBSCRIPT_NAME_LOAD_CONSTANT_LOAD_RETURN_NAME_LOAD": 1297,
      "SUBSCRIPT_CALL_ATTRIBUTE_NAME_LOAD_LOAD_CONSTANT_CONSTANT_LOAD_": 1298,
      "KEYWORD_CONSTANT_LOAD_": 1299,
      "COMPARE_NAME_LOAD_GT_CONSTANT_": 1300,
      "SUBSCRIPT_SUBSCRIPT_NAME_LOAD_CONSTANT_LOAD_CONSTANT_LOAD_ASSIGN_NAME_STORE_": 1301,
      "EXPR_CALL_ATTRIBUTE_NAME_LOAD_LOAD_CALL_ATTRIBUTE_CONSTANT_LOAD_NAME_LOAD_NAME_LOAD_": 1302,
      "UNARYOP_NOT_ATTRIBUTE_ATTRIBUTE_NAME_LOAD_LOAD_LOAD_": 1303,
      "ATTRIBUTE_SUBSCRIPT_ATTRIBUTE_NAME_LOAD_LOAD_CONSTANT_LOAD_LOAD_": 1304,
      "NAME_LOAD_ASSIGN_NAME_STORE_CALL_NAME_LOAD_NAME_LOAD_NAME_LOAD_": 1305,
      "EXCEPTHANDLER_NAME_LOAD_RAISE_CALL_NAME_LOAD_": 1306,
      "BINOP_ATTRIBUTE_NAME_LOAD_LOAD_ADD_CONSTANT_": 1307,
      "MODULE_FUNCTIONDEF_ARGUMENTS_ARG_ARG_EXPR_CONSTANT_IF_BOOLOP_AND_": 1308,
      "NAME_LOAD_NAME_LOAD_NAME_LOAD_NAME_LOAD_NAME_LOAD_NAME_LOAD_NAME_LOAD_NAME_LOAD_": 1309,
      "CONSTANT_EXPR_CALL_ATTRIBUTE_NAME_LOAD_LOAD_NAME_LOAD_NAME_LOAD_": 1310,
      "MODULE_FUNCTIONDEF_ARGUMENTS_EXPR_CONSTANT_ASSIGN_NAME_STORE_CALL_NAME_LOAD_": 1311,
      "RETURN_CALL_ATTRIBUTE_NAME_LOAD_LOAD_NAME_LOAD_NAME_LOAD": 1312,
      "EXPR_CALL_NAME_LOAD_NAME_LOAD": 1313,
      "IF_COMPARE_CALL_NAME_LOAD_NAME_LOAD_GT_CONSTANT_ASSIGN_NAME_STORE_": 1314,
      "SLICE_LOAD_LOAD_": 1315,
      "EXPR_YIELD_NAME_LOAD_": 1316,
      "COMPARE_ATTRIBUTE_NAME_LOAD_LOAD_ISNOT_CONSTANT_ASSIGN_SUBSCRIPT_NAME_LOAD_CONSTANT_STORE_": 1317,
      "EXCEPTHANDLER_NAME_LOAD_RETURN_": 1318,
      "CALL_NAME_LOAD_NAME_LOAD_RETURN_": 1319,
      "ASSIGN_NAME_STORE_CONSTANT_ASSIGN_NAME_STORE_": 1320,
      "MODULE_FUNCTIONDEF_ARGUMENTS_ARG_ARG_EXPR_CONSTANT_IF_CALL_NAME_LOAD_NAME_LOAD_": 1321,
      "KEYWORD_NAME_LOAD_KEYWORD_CONSTANT_KEYWORD_CONSTANT_": 1322,
      "IF_COMPARE_NAME_LOAD_GT_NAME_LOAD_": 1323,
      "IF_BOOLOP_AND_CALL_NAME_LOAD_NAME_LOAD_CONSTANT_COMPARE_ATTRIBUTE_NAME_LOAD_LOAD_ISNOT_CONSTANT_ASSIGN_SUBSCRIPT_NAME_LOAD_CONSTANT_STORE_": 1324,
      "TRY_ASSIGN_NAME_STORE_CALL_ATTRIBUTE_ATTRIBUTE_NAME_LOAD_LOAD_LOAD_": 1325,
      "CONSTANT_IF_COMPARE_NAME_LOAD_EQ_CONSTANT_ASSIGN_NAME_STORE_": 1326,
      "CALL_NAME_LOAD_ATTRIBUTE_NAME_LOAD_LOAD_LOAD_": 1327,
      "LIST_CONSTANT_CONSTANT_LOAD_ASSIGN_NAME_STORE_": 1328,
      "LT_CONSTANT_ASSIGN_NAME_STORE_": 1329,
      "MODULE_FUNCTIONDEF_ARGUMENTS_ARG_EXPR_CONSTANT_IF_CALL_NAME_LOAD_NAME_LOAD_": 1330,
      "IF_COMPARE_ATTRIBUTE_NAME_LOAD_LOAD_IN_": 1331,
      "EXPR_CALL_ATTRIBUTE_NAME_LOAD_LOAD_CONSTANT_ASSIGN_NAME_STORE_": 1332,
      "ATTRIBUTE_NAME_LOAD_LOAD_ASSIGN_NAME_STORE_CALL_NAME_LOAD_NAME_LOAD_": 1333,
      "CONSTANT_ASSIGN_SUBSCRIPT_ATTRIBUTE_NAME_LOAD_LOAD_NAME_LOAD_STORE_": 1334,
      "NAME_LOAD_DEL": 1335,
      "EXPR_CALL_ATTRIBUTE_SUBSCRIPT_ATTRIBUTE_NAME_LOAD_LOAD_NAME_LOAD_LOAD_LOAD_": 1336,
      "MODULE_FUNCTIONDEF_ARGUMENTS_ARG_ARG_EXPR_CONSTANT_ASSERT_": 1337,
      "LSHIFT": 1338,
      "CALL_ATTRIBUTE_ATTRIBUTE_": 1339,
      "ASSIGN_SUBSCRIPT_NAME_LOAD_CONSTANT_STORE_NAME_LOAD_ASSIGN_SUBSCRIPT_NAME_LOAD_CONSTANT_STORE_NAME_LOAD_": 1340,
      "_CONSTANT_CONSTANT_CONSTANT_CONSTANT_CONSTANT_CONSTANT_EXPR_": 1341,
      "IS_": 1342,
      "ASSIGN_SUBSCRIPT_NAME_LOAD_NAME_LOAD_STORE_NAME_LOAD_RETURN_NAME_LOAD": 1343,
      "LIST_LOAD_ASSIGN_NAME_STORE_LIST_LOAD_": 1344,
      "NAME_LOAD_ASSIGN_SUBSCRIPT_NAME_LOAD_CONSTANT_STORE_": 1345,
      "CALL_NAME_LOAD_NAME_LOAD_ADD_": 1346,
      "CALL_NAME_LOAD_CONSTANT_CONSTANT_": 1347,
      "IF_NAME_LOAD_AUGASSIGN_NAME_STORE_ADD_": 1348,
      "ATTRIBUTE_NAME_LOAD_LOAD_ASSIGN_ATTRIBUTE_NAME_LOAD_STORE_ATTRIBUTE_NAME_LOAD_LOAD_ASSIGN_ATTRIBUTE_NAME_LOAD_STORE_": 1349,
      "KEYWORD_CONSTANT_EXPR_CALL_ATTRIBUTE_NAME_LOAD_LOAD_CONSTANT_": 1350,
      "BITOR_ATTRIBUTE_NAME_LOAD_LOAD_": 1351,
      "BINOP_CALL_NAME_LOAD_ATTRIBUTE_NAME_LOAD_LOAD_": 1352,
      "COMPARE_NAME_LOAD_LT_CONSTANT_": 1353,
      "CALL_NAME_LOAD_NAME_LOAD_ASSIGN_NAME_STORE_CALL_ATTRIBUTE_NAME_LOAD_LOAD_NAME_LOAD_": 1354,
      "TUPLE_NAME_LOAD_ATTRIBUTE_NAME_LOAD_LOAD_LOAD_": 1355,
      "CONSTANT_CONSTANT_ASSIGN_NAME_STORE_": 1356,
      "BINOP_NAME_LOAD_DIV_": 1357,
      "CALL_ATTRIBUTE_SUBSCRIPT_": 1358,
      "DICT_ASSIGN_SUBSCRIPT_NAME_LOAD_CONSTANT_STORE_": 1359,
      "IF_CALL_NAME_LOAD_": 1360,
      "BINOP_NAME_LOAD_ADD_CONSTANT_ASSIGN_NAME_STORE_": 1361,
      "MODULE_FUNCTIONDEF_ARGUMENTS_ARG_ARG_ARG_CONSTANT_CONSTANT_EXPR_CONSTANT_ASSIGN_NAME_STORE_": 1362,
      "IF_COMPARE_NAME_LOAD_LTE_": 1363,
      "CONSTANT_IF_UNARYOP_NOT_CALL_NAME_LOAD_NAME_LOAD_NAME_LOAD_RAISE_CALL_NAME_LOAD_": 1364,
      "IF_NAME_LOAD_ASSIGN_SUBSCRIPT_NAME_LOAD_CONSTANT_STORE_NAME_LOAD_": 1365,
      "RAISE_NAME_LOAD_": 1366,
      "BINOP_CALL_NAME_LOAD_NAME_LOAD_ADD_": 1367,
      "CALL_ATTRIBUTE_ATTRIBUTE_NAME_LOAD_LOAD_LOAD_NAME_LOAD": 1368,
      "SUBSCRIPT_NAME_LOAD_CONSTANT_LOAD_ASSIGN_NAME_STORE_CALL_NAME_LOAD_": 1369,
      "SUBSCRIPT_SUBSCRIPT_NAME_LOAD_CONSTANT_LOAD_CONSTANT_LOAD_LOAD_": 1370,
      "IF_COMPARE_ATTRIBUTE_NAME_LOAD_LOAD_ISNOT_CONSTANT_ASSIGN_NAME_STORE_": 1371,
      "CALL_ATTRIBUTE_CONSTANT_LOAD_NAME_LOAD": 1372,
      "ASSIGN_NAME_STORE_CALL_NAME_LOAD_NAME_LOAD_NAME_LOAD_": 1373,
      "UNARYOP_IN": 1374,
      "UNARYOP_INV": 1375,
      "IF_COMPARE_NAME_LOAD_GT_CONSTANT_": 1376,
      "_CONSTANT_EXPR_CALL_NAME_LOAD_": 1377,
      "MODULE_FUNCTIONDEF_ARGUMENTS_ARG_ARG_EXPR_CONSTANT_EXPR_CALL_ATTRIBUTE_NAME_LOAD_LOAD_": 1378,
      "IF_COMPARE_SUBSCRIPT_NAME_LOAD_CONSTANT_LOAD_EQ_CONSTANT_ASSIGN_NAME_STORE_": 1379,
      "IF_BOOLOP_AND_COMPARE_NAME_LOAD_EQ_CONSTANT_": 1380,
      "MODULE_FUNCTIONDEF_ARGUMENTS_ARG_ARG_ARG_EXPR_CONSTANT_RETURN_": 1381,
      "MODULE_FUNCTIONDEF_ARGUMENTS_ARG_EXPR_CONSTANT_ASSIGN_TUPLE_NAME_STORE_NAME_STORE_STORE_": 1382,
      "RETURN_NAME_LOAD_RETURN_CONSTANT": 1383,
      "IF_BOOLOP_OR_COMPARE_NAME_LOAD_IS_CONSTANT_": 1384,
      "CONSTANT_EXPR_CALL_ATTRIBUTE_NAME_LOAD_LOAD_CONSTANT_": 1385,
      "SUBSCRIPT_ATTRIBUTE_NAME_LOAD_LOAD_CONSTANT_LOAD": 1386,
      "CALL_ATTRIBUTE_NAME_LOAD_LOAD_NAME_LOAD_KEYWORD_CONSTANT_": 1387,
      "MODULE_FUNCTIONDEF_ARGUMENTS_ARG_ARG_EXPR_CONSTANT_ASSIGN_TUPLE_NAME_STORE_NAME_STORE_STORE_": 1388,
      "MODULE_FUNCTIONDEF_ARGUMENTS_ARG_ARG_CONSTANT_EXPR_CONSTANT_ASSIGN_NAME_STORE_CALL_ATTRIBUTE_NAME_LOAD_LOAD_": 1389,
      "IN_ATTRIBUTE_ATTRIBUTE_NAME_LOAD_LOAD_LOAD_": 1390,
      "MODULE_FUNCTIONDEF_ARGUMENTS_ARG_ARG_CONSTANT_EXPR_CONSTANT_IF_COMPARE_NAME_LOAD_IS_CONSTANT_ASSIGN_NAME_STORE_": 1391,
      "CONSTANT_IF_NAME_LOAD_ASSIGN_NAME_STORE_": 1392,
      "CALL_ATTRIBUTE_CONSTANT_LOAD_GENERATOREXP_": 1393,
      "FOR_TUPLE_NAME_STORE_NAME_STORE_STORE_CALL_NAME_LOAD_ATTRIBUTE_NAME_LOAD_LOAD_": 1394,
      "FOR_NAME_STORE_CALL_NAME_LOAD_CALL_NAME_LOAD_NAME_LOAD_": 1395,
      "IF_COMPARE_ATTRIBUTE_NAME_LOAD_LOAD_ISNOT_CONSTANT_ASSIGN_SUBSCRIPT_NAME_LOAD_CONSTANT_STORE_": 1396,
      "CONSTANT_CONSTANT_CONSTANT_EXPR_": 1397,
      "NAME_LOAD_ASSIGN_NAME_STORE_ATTRIBUTE_NAME_LOAD_LOAD_": 1398,
      "COMPARE_CONSTANT_NOTIN_NAME_LOAD_": 1399,
      "EXPR_CALL_ATTRIBUTE_NAME_LOAD_LOAD_CALL_ATTRIBUTE_CONSTANT_LOAD_ATTRIBUTE_NAME_LOAD_LOAD_": 1400,
      "ASSIGN_NAME_STORE_SUBSCRIPT_ATTRIBUTE_NAME_LOAD_LOAD_NAME_LOAD_LOAD_": 1401,
      "RETURN_TUPLE_NAME_LOAD_": 1402,
      "TUPLE_CONSTANT_CONSTANT_": 1403,
      "IF_COMPARE_NAME_LOAD_LT_NAME_LOAD_": 1404,
      "KEYWORD_NAME_LOAD_KEYWORD_NAME_LOAD_KEYWORD_": 1405,
      "ATTRIBUTE_NAME_LOAD_LOAD_CONSTANT_": 1406,
      "GLOBAL_": 1407,
      "LIST_LOAD": 1408,
      "IF_COMPARE_NAME_LOAD_IN_NAME_LOAD_ASSIGN_NAME_STORE_": 1409,
      "COMPARE_CALL_ATTRIBUTE_NAME_LOAD_LOAD_CONSTANT_": 1410,
      "TRY_ASSIGN_ATTRIBUTE_NAME_LOAD_STORE_": 1411,
      "SUBSCRIPT_ATTRIBUTE_ATTRIBUTE_NAME_LOAD_LOAD_LOAD_NAME_LOAD_LOAD_": 1412,
      "IF_NAME_LOAD_EXPR_CALL_ATTRIBUTE_NAME_LOAD_LOAD_CONSTANT_": 1413,
      "MODULE_FUNCTIONDEF_ARGUMENTS_ARG_ARG_EXPR_CONSTANT_ASSIGN_NAME_STORE_CALL_ATTRIBUTE_ATTRIBUTE_NAME_LOAD_LOAD_LOAD_": 1414,
      "NAME_LOAD_AUGASSIGN_NAME_STORE_ADD_": 1415,
      "EXPR_CALL_ATTRIBUTE_NAME_LOAD_LOAD_BINOP_CONSTANT_MOD_NAME_LOAD_": 1416,
      "UNARYOP_NOT_CALL_NAME_LOAD_NAME_LOAD_": 1417,
      "MODULE_FUNCTIONDEF_ARGUMENTS_ARG_EXPR_CONSTANT_IF_COMPARE_ATTRIBUTE_NAME_LOAD_LOAD_IS_CONSTANT_ASSIGN_ATTRIBUTE_NAME_LOAD_STORE_": 1418,
      "NAME_LOAD_ASSIGN_NAME_STORE_LIST_LOAD_": 1419,
      "FOR_NAME_STORE_CALL_NAME_LOAD_ATTRIBUTE_NAME_LOAD_LOAD_": 1420,
      "BINOP_CALL_ATTRIBUTE_NAME_LOAD_LOAD_NAME_LOAD_": 1421,
      "SLICE_UNARYOP_USUB_CONSTANT_LOAD_": 1422,
      "MODULE_FUNCTIONDEF_ARGUMENTS_ARG_ARG_ARG_": 1423,
      "ASSIGN_NAME_STORE_CALL_ATTRIBUTE_NAME_LOAD_LOAD_CONSTANT_CONSTANT_": 1424,
      "IF_BOOLOP_OR_UNARYOP_NOT_NAME_LOAD_": 1425,
      "KEYWORD_NAME_LOAD_KEYWORD_NAME_LOAD_KEYWORD_NAME_LOAD_KEYWORD_": 1426,
      "ASSIGN_TUPLE_NAME_STORE_NAME_STORE_STORE_TUPLE_": 1427,
      "RETURN_CALL_ATTRIBUTE_ATTRIBUTE_NAME_LOAD_LOAD_LOAD_NAME_LOAD_": 1428,
      "IF_CALL_ATTRIBUTE_NAME_LOAD_LOAD_CONSTANT_ASSIGN_NAME_STORE_": 1429,
      "_CONSTANT_CONSTANT_CONSTANT_CONSTANT_CONSTANT_EXPR_": 1430,
      "NAME_LOAD_CONSTANT_FORMATTEDVALUE_": 1431,
      "COMPARE_CALL_NAME_LOAD_": 1432,
      "DICT_FOR_NAME_STORE_NAME_LOAD_": 1433,
      "CONSTANT_LOAD_LOAD_LOAD_": 1434,
      "SUBSCRIPT_NAME_LOAD_CONSTANT_LOAD_NAME_LOAD_": 1435,
      "SUBSCRIPT_CALL_NAME_LOAD_NAME_LOAD_": 1436,
      "MODULE_FUNCTIONDEF_ARGUMENTS_ARG_ARG_EXPR_CONSTANT_ASSIGN_NAME_STORE_LIST_LOAD_": 1437,
      "ATTRIBUTE_CALL_NAME_LOAD_NAME_LOAD_LOAD_": 1438,
      "RAISE_CALL_ATTRIBUTE_NAME_LOAD_LOAD_CONSTANT_": 1439,
      "DIV_CONSTANT_ASSIGN_NAME_STORE_": 1440,
      "MODULE_FUNCTIONDEF_ARGUMENTS_ARG_ARG_ARG_ARG_ARG_ARG_ARG_ARG_ARG": 1441,
      "IF_NAME_LOAD_ASSIGN_NAME_STORE_CALL_NAME_LOAD_": 1442,
      "UNARYOP_USUB_NAME_LOAD_": 1443,
      "SUBSCRIPT_NAME_LOAD_SLICE_CONSTANT_LOAD_ASSIGN_NAME_STORE_": 1444,
      "MODULE_FUNCTIONDEF_ARGUMENTS_ARG_ARG_ARG_ARG_ARG_ARG_CONSTANT_CONSTANT_CONSTANT_CONSTANT_EXPR_": 1445,
      "IF_COMPARE_NAME_LOAD_GT_CONSTANT_ASSIGN_NAME_STORE_": 1446,
      "MODULE_FUNCTIONDEF_ARGUMENTS_ARG_EXPR_CONSTANT_ASSIGN_NAME_STORE_CONSTANT_": 1447,
      "CONSTANT_NAME_LOAD_LOAD_": 1448,
      "ASSIGN_ATTRIBUTE_NAME_LOAD_STORE_ATTRIBUTE_NAME_LOAD_LOAD_": 1449,
      "COMPARE_NAME_LOAD_LTE_": 1450,
      "CALL_NAME_LOAD_CONSTANT_NAME_LOAD_": 1451,
      "CALL_ATTRIBUTE_NAME_LOAD_LOAD_NAME_LOAD_ATTRIBUTE_NAME_LOAD_LOAD_": 1452,
      "MODULE_FUNCTIONDEF_ARGUMENTS_ARG_EXPR_CONSTANT_EXPR_CALL_ATTRIBUTE_ATTRIBUTE_NAME_LOAD_LOAD_LOAD_": 1453,
      "ASSIGN_TUPLE_NAME_STORE_NAME_STORE_STORE_CALL_NAME_LOAD_NAME_LOAD_": 1454,
      "CONSTANT_IF_UNARYOP_NOT_NAME_LOAD_ASSIGN_NAME_STORE_": 1455,
      "KEYWORD_CONSTANT_RETURN_NAME_LOAD": 1456,
      "CONSTANT_AUGASSIGN_NAME_STORE_ADD_CONSTANT_": 1457,
      "FOR_TUPLE_NAME_STORE_NAME_STORE_STORE_CALL_NAME_LOAD_": 1458,
      "MODULE_FUNCTIONDEF_ARGUMENTS_ARG_EXPR_CONSTANT_ASSIGN_NAME_STORE_CALL_ATTRIBUTE_NAME_LOAD_LOAD_CONSTANT_": 1459,
      "DICT_CONSTANT_CONSTANT_CONSTANT_CONSTANT_CONSTANT_CONSTANT_CONSTANT_": 1460,
      "CONSTANT_IF_UNARYOP_NOT_NAME_LOAD_RETURN_": 1461,
      "EQ_ATTRIBUTE_": 1462,
      "_SUBSCRIPT_NAME_LOAD_NAME_LOAD_LOAD_ARG": 1463,
      "EXPR_CALL_ATTRIBUTE_NAME_LOAD_LOAD_NAME_LOAD_RETURN_": 1464,
      "KEYWORD_ATTRIBUTE_NAME_LOAD_LOAD_KEYWORD_NAME_LOAD_": 1465,
      "NAME_LOAD_ASSIGN_NAME_STORE_CALL_ATTRIBUTE_NAME_LOAD_LOAD_NAME_LOAD_ASSIGN_NAME_STORE_": 1466,
      "EXPR_CALL_ATTRIBUTE_NAME_LOAD_LOAD_CONSTANT_NAME_LOAD_RETURN_": 1467,
      "BINOP_NAME_LOAD_RSHIFT": 1468,
      "CALL_NAME_LOAD_KEYWORD_": 1469,
      "RAISE_CALL_NAME_LOAD_CONSTANT_ASSIGN_NAME_STORE_CALL_ATTRIBUTE_NAME_LOAD_LOAD_": 1470,
      "IF_COMPARE_ATTRIBUTE_NAME_LOAD_LOAD_NOTEQ_ATTRIBUTE_NAME_LOAD_LOAD_": 1471,
      "ATTRIBUTE_NAME_LOAD_LOAD_ADD_": 1472,
      "LIST_NAME_LOAD_LOAD_ASSIGN_NAME_STORE_": 1473,
      "COMPARE_NAME_LOAD_EQ_CONSTANT_COMPARE_NAME_LOAD_EQ_CONSTANT_": 1474,
      "IF_BOOLOP_AND_CALL_NAME_LOAD_NAME_LOAD_NAME_LOAD_": 1475,
      "COMPARE_NAME_LOAD_EQ_ATTRIBUTE_NAME_LOAD_LOAD_": 1476,
      "COMPARE_NAME_LOAD_LT_NAME_LOAD_": 1477,
      "BINOP_BINOP_NAME_LOAD_ADD_NAME_LOAD_ADD_": 1478,
      "MODULE_FUNCTIONDEF_ARGUMENTS_EXPR_CONSTANT_ASSIGN_NAME_STORE_CALL_ATTRIBUTE_NAME_LOAD_LOAD_": 1479,
      "CALL_ATTRIBUTE_CONSTANT_LOAD_NAME_LOAD_LOAD_": 1480,
      "BINOP_CONSTANT_MOD_NAME_LOAD_ASSIGN_NAME_STORE_": 1481,
      "EXPR_CALL_ATTRIBUTE_ATTRIBUTE_NAME_LOAD_LOAD_LOAD_NAME_LOAD_EXPR_CALL_ATTRIBUTE_ATTRIBUTE_NAME_LOAD_LOAD_LOAD_": 1482,
      "CONSTANT_AUGASSIGN_ATTRIBUTE_NAME_LOAD_STORE_ADD_": 1483,
      "_CONSTANT_CONSTANT_CONSTANT_CONSTANT_CONSTANT_CONSTANT_CONSTANT_CONSTANT_CONSTANT_": 1484,
      "CALL_ATTRIBUTE_NAME_LOAD_LOAD_NAME_LOAD_RETURN_": 1485,
      "SUBSCRIPT_NAME_LOAD_ATTRIBUTE_NAME_LOAD_LOAD_LOAD_LOAD_": 1486,
      "EXPR_CALL_ATTRIBUTE_NAME_LOAD_LOAD_NAME_LOAD_NAME_LOAD_NAME_LOAD_": 1487,
      "DICT_EXPR_": 1488,
      "CALL_ATTRIBUTE_SUBSCRIPT_NAME_LOAD_SLICE_": 1489,
      "EXPR_CALL_ATTRIBUTE_NAME_LOAD_LOAD_RETURN_NAME_LOAD": 1490,
      "IF_BOOLOP_AND_COMPARE_CONSTANT_IN_NAME_LOAD_": 1491,
      "MODULE_FUNCTIONDEF_ARGUMENTS_ARG_EXPR_CONSTANT_TRY_": 1492,
      "LIST_LOAD_ASSIGN_NAME_STORE_LIST_LOAD_ASSIGN_NAME_STORE_": 1493,
      "ASSIGN_SUBSCRIPT_ATTRIBUTE_NAME_LOAD_LOAD_NAME_LOAD_STORE_NAME_LOAD_": 1494,
      "IF_COMPARE_NAME_LOAD_ISNOT_CONSTANT_ASSIGN_SUBSCRIPT_NAME_LOAD_CONSTANT_STORE_CALL_ATTRIBUTE_ATTRIBUTE_NAME_LOAD_LOAD_LOAD_CONSTANT_NAME_LOAD_CONSTANT_": 1495,
      "MODULE_FUNCTIONDEF_ARGUMENTS_ARG_EXPR_CONSTANT_ASSIGN_NAME_STORE_ATTRIBUTE_NAME_LOAD_LOAD_": 1496,
      "CALL_NAME_LOAD_NAME_LOAD_NAME_LOAD_RETURN_NAME_LOAD": 1497,
      "SUBSCRIPT_ATTRIBUTE_NAME_LOAD_LOAD_CONSTANT_LOAD_SUBSCRIPT_ATTRIBUTE_NAME_LOAD_LOAD_CONSTANT_LOAD_": 1498,
      "EXCEPTHANDLER_NAME_LOAD_EXPR_CALL_NAME_LOAD_": 1499,
      "TUPLE_ATTRIBUTE_NAME_LOAD_LOAD_ATTRIBUTE_NAME_LOAD_LOAD_": 1500,
      "MODULE_FUNCTIONDEF_ARGUMENTS_ARG_EXPR_CONSTANT_ASSIGN_NAME_STORE_CALL_NAME_LOAD_ATTRIBUTE_NAME_LOAD_LOAD_": 1501,
      "SUBSCRIPT_NAME_LOAD_NAME_LOAD_STORE_": 1502,
      "TUPLE_CONSTANT_LOAD_": 1503,
      "CALL_ATTRIBUTE_NAME_LOAD_LOAD_CONSTANT_LIST_LOAD_": 1504,
      "ASSIGN_ATTRIBUTE_NAME_LOAD_STORE_CALL_NAME_LOAD_ATTRIBUTE_NAME_LOAD_LOAD_": 1505,
      "LISTCOMP_CALL_ATTRIBUTE_NAME_LOAD_LOAD_COMPREHENSION_NAME_STORE_": 1506,
      "SUBSCRIPT_CALL_ATTRIBUTE_ATTRIBUTE_NAME_LOAD_LOAD_LOAD_NAME_LOAD_": 1507,
      "COMPARE_NAME_LOAD_EQ_CONSTANT_ASSIGN_NAME_STORE_": 1508,
      "RETURN_NAME_LOAD_NAME_LOAD": 1509,
      "IF_COMPARE_SUBSCRIPT_NAME_LOAD_CONSTANT_LOAD_EQ_": 1510,
      "RETURN_CALL_ATTRIBUTE_CONSTANT_LOAD_NAME_LOAD": 1511,
      "CALL_ATTRIBUTE_CONSTANT_LOAD_NAME_LOAD_RETURN_": 1512,
      "COMPARE_NAME_LOAD_NOTEQ_NAME_LOAD_": 1513,
      "DELETE_SUBSCRIPT_NAME_LOAD_CONSTANT_": 1514,
      "MODULE_FUNCTIONDEF_ARGUMENTS_ARG_EXPR_CONSTANT_EXPR_": 1515,
      "IF_COMPARE_ATTRIBUTE_NAME_LOAD_LOAD_IS_CONSTANT_ASSIGN_ATTRIBUTE_NAME_LOAD_STORE_": 1516,
      "DICTCOMP_": 1517,
      "ASSIGN_NAME_STORE_CALL_NAME_LOAD_ATTRIBUTE_NAME_LOAD_LOAD_": 1518,
      "EXCEPTHANDLER_NAME_LOAD_RAISE_": 1519,
      "KEYWORD_DICT_CONSTANT_": 1520,
      "EXPR_CALL_ATTRIBUTE_SUBSCRIPT_ATTRIBUTE_NAME_LOAD_LOAD_CONSTANT_LOAD_LOAD_": 1521,
      "MODULE_FUNCTIONDEF_ARGUMENTS_ARG_EXPR_CONSTANT_IF_COMPARE_ATTRIBUTE_NAME_LOAD_LOAD_IS_CONSTANT_": 1522,
      "SUBSCRIPT_ATTRIBUTE_NAME_LOAD_LOAD_NAME_LOAD_LOAD": 1523,
      "ATTRIBUTE_ATTRIBUTE_NAME_LOAD_LOAD_LOAD_STORE_": 1524,
      "COMPARE_NAME_LOAD_NOTIN_": 1525,
      "LISTCOMP_ATTRIBUTE_NAME_LOAD_LOAD_COMPREHENSION_NAME_STORE_": 1526,
      "IF_COMPARE_NAME_LOAD_NOTIN_NAME_LOAD_ASSIGN_SUBSCRIPT_NAME_LOAD_NAME_LOAD_STORE_": 1527,
      "IF_CALL_NAME_LOAD_ATTRIBUTE_NAME_LOAD_LOAD_": 1528,
      "SUBSCRIPT_NAME_LOAD_BINOP_NAME_LOAD_SUB_CONSTANT_LOAD_": 1529,
      "SUBSCRIPT_NAME_LOAD_CONSTANT_LOAD_RETURN_": 1530,
      "ASSIGN_ATTRIBUTE_NAME_LOAD_STORE_CALL_ATTRIBUTE_ATTRIBUTE_NAME_LOAD_LOAD_LOAD_": 1531,
      "ASSIGN_SUBSCRIPT_NAME_LOAD_CONSTANT_STORE_CONSTANT_ASSIGN_SUBSCRIPT_NAME_LOAD_CONSTANT_STORE_": 1532,
      "MODULE_FUNCTIONDEF_ARGUMENTS_ARG_ARG_EXPR_CONSTANT_IF_ATTRIBUTE_NAME_LOAD_LOAD_": 1533,
      "EXCEPTHANDLER_NAME_LOAD_EXPR_CALL_ATTRIBUTE_NAME_LOAD_LOAD_": 1534,
      "AUGASSIGN_ATTRIBUTE_NAME_LOAD_STORE_": 1535,
      "SUBSCRIPT_NAME_LOAD_CONSTANT_LOAD_ASSIGN_ATTRIBUTE_NAME_LOAD_STORE_SUBSCRIPT_NAME_LOAD_CONSTANT_LOAD_ASSIGN_ATTRIBUTE_NAME_LOAD_STORE_": 1536,
      "CONSTANT_TRY_ASSIGN_NAME_STORE_": 1537,
      "BINOP_BINOP_BINOP_CONSTANT_ADD_": 1538,
      "NAME_LOAD_EXPR_CALL_ATTRIBUTE_NAME_LOAD_LOAD_NAME_LOAD_NAME_LOAD_": 1539,
      "LISTCOMP_NAME_LOAD_COMPREHENSION_NAME_STORE_ATTRIBUTE_NAME_LOAD_LOAD_": 1540,
      "CALL_ATTRIBUTE_ATTRIBUTE_NAME_LOAD_LOAD_LOAD_CALL_ATTRIBUTE_ATTRIBUTE_NAME_LOAD_LOAD_LOAD_": 1541,
      "RAISE_CALL_NAME_LOAD_NAME_LOAD": 1542,
      "MODULE_FUNCTIONDEF_ARGUMENTS_ARG_ARG_ARG_ARG_CONSTANT_EXPR_CONSTANT_ASSIGN_NAME_STORE_": 1543,
      "MODULE_FUNCTIONDEF_ARGUMENTS_ARG_ARG_EXPR_CONSTANT_EXPR_CALL_ATTRIBUTE_ATTRIBUTE_NAME_LOAD_LOAD_LOAD_": 1544,
      "IF_COMPARE_NAME_LOAD_IS_CONSTANT_RAISE_CALL_NAME_LOAD_": 1545,
      "IF_COMPARE_NAME_LOAD_LT_": 1546,
      "ASSIGN_SUBSCRIPT_ATTRIBUTE_NAME_LOAD_LOAD_ATTRIBUTE_NAME_LOAD_LOAD_STORE_": 1547,
      "CALL_ATTRIBUTE_SUBSCRIPT_NAME_LOAD_CONSTANT_LOAD_LOAD_CONSTANT_": 1548,
      "DICT_CONSTANT_ATTRIBUTE_NAME_LOAD_LOAD_": 1549,
      "WHILE_BOOLOP_AND_": 1550,
      "LIST_CONSTANT_LOAD_LOAD_": 1551,
      "IF_BOOLOP_AND_NAME_LOAD_NAME_LOAD_": 1552,
      "KEYWORD_NAME_LOAD_KEYWORD_NAME_LOAD_KEYWORD_NAME_LOAD_KEYWORD_NAME_LOAD_KEYWORD_NAME_LOAD_KEYWORD_NAME_LOAD_KEYWORD_NAME_LOAD_KEYWORD_NAME_LOAD_": 1553,
      "SUBSCRIPT_NAME_LOAD_CONSTANT_LOAD_ASSIGN_NAME_STORE_CALL_ATTRIBUTE_NAME_LOAD_LOAD_": 1554,
      "KEYWORD_CONSTANT_NAME_STORE_": 1555,
      "NAME_LOAD_ATTRIBUTE_NAME_LOAD_LOAD_": 1556,
      "ASSIGN_ATTRIBUTE_NAME_LOAD_STORE_CALL_NAME_LOAD_NAME_LOAD_": 1557,
      "CALL_ATTRIBUTE_NAME_LOAD_LOAD_CONSTANT": 1558,
      "MODULE_FUNCTIONDEF_ARGUMENTS_ARG_ARG_EXPR_CONSTANT_EXPR_": 1559,
      "ASSIGN_NAME_STORE_BINOP_": 1560,
      "EXPR_CALL_ATTRIBUTE_CALL_ATTRIBUTE_NAME_LOAD_LOAD_LOAD_": 1561,
      "IF_COMPARE_NAME_LOAD_EQ_CONSTANT_EXPR_CALL_ATTRIBUTE_NAME_LOAD_LOAD_": 1562,
      "DICT_CONSTANT_CONSTANT_CONSTANT_CONSTANT_NAME_LOAD_": 1563,
      "FOR_NAME_STORE_ATTRIBUTE_ATTRIBUTE_NAME_LOAD_LOAD_LOAD_": 1564,
      "CONSTANT_IF_ATTRIBUTE_NAME_LOAD_LOAD_": 1565,
      "MODULE_FUNCTIONDEF_ARGUMENTS_ARG_ARG_ARG_EXPR_CONSTANT_ASSIGN_NAME_STORE_CALL_ATTRIBUTE_NAME_LOAD_LOAD_NAME_LOAD_": 1566,
      "SUBSCRIPT_SUBSCRIPT_SUBSCRIPT_NAME_LOAD_CONSTANT_LOAD_CONSTANT_LOAD_CONSTANT_LOAD_": 1567,
      "ATTRIBUTE_CALL_ATTRIBUTE_NAME_LOAD_LOAD_LOAD_": 1568,
      "CALL_NAME_LOAD_NAME_LOAD_ASSIGN_NAME_STORE_CALL_ATTRIBUTE_NAME_LOAD_LOAD_": 1569,
      "SUBSCRIPT_NAME_LOAD_CONSTANT_LOAD_EXPR_CALL_ATTRIBUTE_NAME_LOAD_LOAD_": 1570,
      "DICTCOMP_NAME_LOAD_NAME_LOAD_": 1571,
      "SUBSCRIPT_ATTRIBUTE_NAME_LOAD_LOAD_SLICE_CONSTANT_LOAD_": 1572,
      "SUB_CONSTANT_LOAD_": 1573,
      "BINOP_NAME_LOAD_ADD_NAME_LOAD_LOAD_": 1574,
      "MODULE_FUNCTIONDEF_ARGUMENTS_ARG_ARG_ARG_EXPR_CONSTANT_ASSIGN_NAME_STORE_CALL_NAME_LOAD_": 1575,
      "MODULE_FUNCTIONDEF_ARGUMENTS_ARG_NAME_LOAD_ARG_NAME_LOAD_ARG": 1576,
      "EXPR_CALL_ATTRIBUTE_NAME_LOAD_LOAD_NAME_LOAD_ATTRIBUTE_NAME_LOAD_LOAD_": 1577,
      "MODULE_FUNCTIONDEF_ARGUMENTS_ARG_ARG_ARG_ARG_CONSTANT_CONSTANT_EXPR_CONSTANT_ASSIGN_NAME_STORE_": 1578,
      "IF_COMPARE_NAME_LOAD_ISNOT_CONSTANT_ASSIGN_SUBSCRIPT_NAME_LOAD_CONSTANT_STORE_NAME_LOAD_": 1579,
      "ATTRIBUTE_SUBSCRIPT_ATTRIBUTE_NAME_LOAD_LOAD_NAME_LOAD_LOAD_LOAD_": 1580,
      "MODULE_FUNCTIONDEF_ARGUMENTS_ARG_ARG_ARG_CONSTANT_EXPR_CONSTANT_IF_CALL_NAME_LOAD_NAME_LOAD_CONSTANT_ASSIGN_NAME_STORE_CALL_ATTRIBUTE_NAME_LOAD_LOAD_NAME_LOAD_TRY_ASSIGN_NAME_STORE_CALL_NAME_LOAD_NAME_LOAD_KEYWORD_ATTRIBUTE_NAME_LOAD_LOAD_": 1581,
      "EXCEPTHANDLER_NAME_LOAD_ASSIGN_NAME_STORE_CONSTANT_": 1582,
      "CALL_NAME_LOAD_NAME_LOAD_ASSIGN_NAME_STORE_CALL_NAME_LOAD_NAME_LOAD_ASSIGN_NAME_STORE_": 1583,
      "CALL_ATTRIBUTE_NAME_LOAD_LOAD_KEYWORD_CONSTANT_": 1584,
      "IFEXP_COMPARE_NAME_LOAD_IS_CONSTANT_": 1585,
      "EXPR_CALL_ATTRIBUTE_NAME_LOAD_LOAD_NAME_LOAD_ASSIGN_NAME_STORE_CALL_ATTRIBUTE_NAME_LOAD_LOAD_": 1586,
      "CONSTANT_ASSIGN_ATTRIBUTE_NAME_LOAD_STORE_CONSTANT_ASSIGN_ATTRIBUTE_NAME_LOAD_STORE_CONSTANT_ASSIGN_ATTRIBUTE_NAME_LOAD_STORE_CONSTANT_ASSIGN_ATTRIBUTE_NAME_LOAD_STORE_": 1587,
      "CALL_ATTRIBUTE_CALL_ATTRIBUTE_NAME_LOAD_LOAD_NAME_LOAD_": 1588,
      "EXCEPTHANDLER_NAME_LOAD_EXPR_CALL_ATTRIBUTE_ATTRIBUTE_NAME_LOAD_LOAD_LOAD_": 1589,
      "CALL_ATTRIBUTE_NAME_LOAD_LOAD_KEYWORD_": 1590,
      "LISTCOMP_CALL_NAME_LOAD_": 1591,
      "ASSIGN_TUPLE_NAME_STORE_NAME_STORE_NAME_STORE_NAME_STORE_STORE_": 1592,
      "TRY_EXPR_CALL_ATTRIBUTE_ATTRIBUTE_NAME_LOAD_LOAD_LOAD_": 1593,
      "FOR_NAME_STORE_NAME_LOAD_EXPR_CALL_ATTRIBUTE_NAME_LOAD_LOAD_NAME_LOAD_": 1594,
      "SUBSCRIPT_NAME_LOAD_TUPLE_SLICE_CONSTANT_LOAD_LOAD_": 1595,
      "RAISE_CALL_NAME_LOAD_CALL_ATTRIBUTE_CONSTANT_LOAD_NAME_LOAD": 1596,
      "CONSTANT_EXPR_CALL_NAME_LOAD_CONSTANT_EXPR_CALL_NAME_LOAD_": 1597,
      "CONSTANT_STORE_NAME_LOAD_": 1598,
      "DICT_CONSTANT_CONSTANT_CONSTANT_NAME_LOAD_NAME_LOAD_": 1599,
      "IF_COMPARE_NAME_LOAD_ISNOT_CONSTANT_ASSIGN_ATTRIBUTE_NAME_LOAD_STORE_": 1600,
      "BINOP_SUBSCRIPT_NAME_LOAD_CONSTANT_LOAD_ADD_": 1601,
      "CONSTANT_UNARYOP_USUB_CONSTANT_": 1602,
      "CALL_ATTRIBUTE_ATTRIBUTE_NAME_LOAD_LOAD_LOAD_ASSIGN_NAME_STORE_": 1603,
      "COMPREHENSION_NAME_STORE_CALL_NAME_LOAD_": 1604,
      "MODULE_FUNCTIONDEF_ARGUMENTS_ARG_EXPR_CONSTANT_TRY_ASSIGN_NAME_STORE_": 1605,
      "CALL_ATTRIBUTE_NAME_LOAD_LOAD_ASSIGN_NAME_STORE_CALL_ATTRIBUTE_NAME_LOAD_LOAD_": 1606,
      "BINOP_CONSTANT_MOD_TUPLE_ATTRIBUTE_NAME_LOAD_LOAD_": 1607,
      "CONSTANT_ASSIGN_NAME_STORE_CALL_ATTRIBUTE_NAME_LOAD_LOAD_ATTRIBUTE_NAME_LOAD_LOAD_": 1608,
      "KEYWORD_ATTRIBUTE_NAME_LOAD_LOAD_KEYWORD_ATTRIBUTE_NAME_LOAD_LOAD_KEYWORD_ATTRIBUTE_NAME_LOAD_LOAD_": 1609,
      "CONSTANT_EXPR_CALL_ATTRIBUTE_NAME_LOAD_LOAD_ATTRIBUTE_NAME_LOAD_LOAD_": 1610,
      "EXPR_CALL_ATTRIBUTE_NAME_LOAD_LOAD_ATTRIBUTE_NAME_LOAD_LOAD_ATTRIBUTE_NAME_LOAD_LOAD_": 1611,
      "TUPLE_NAME_STORE_": 1612,
      "CONSTANT_NAME_LOAD": 1613,
      "COMPARE_NAME_LOAD_NOTEQ_": 1614,
      "CONSTANT_IF_BOOLOP_AND_COMPARE_NAME_LOAD_ISNOT_CONSTANT_": 1615,
      "NAME_LOAD_EXPR_CALL_ATTRIBUTE_ATTRIBUTE_NAME_LOAD_LOAD_LOAD_": 1616,
      "SUBSCRIPT_NAME_LOAD_BINOP_NAME_LOAD_ADD_CONSTANT_LOAD_": 1617,
      "NAME_LOAD_ASSIGN_NAME_STORE_CALL_ATTRIBUTE_NAME_LOAD_LOAD_CONSTANT_CONSTANT_": 1618,
      "ASSIGN_SUBSCRIPT_NAME_LOAD_CONSTANT_STORE_CALL_ATTRIBUTE_NAME_LOAD_LOAD_": 1619,
      "RAISE_CALL_NAME_LOAD_BINOP_CONSTANT_MOD_NAME_LOAD": 1620,
      "KEYWORD_CONSTANT_KEYWORD_ATTRIBUTE_NAME_LOAD_LOAD_": 1621,
      "IF_NAME_LOAD_ASSIGN_NAME_STORE_CALL_NAME_LOAD_NAME_LOAD_": 1622,
      "EXPR_CALL_ATTRIBUTE_NAME_LOAD_LOAD_CONSTANT_CONSTANT_KEYWORD_CONSTANT_KEYWORD_CONSTANT_": 1623,
      "SUBSCRIPT_NAME_LOAD_TUPLE_": 1624,
      "IF_COMPARE_NAME_LOAD_GT_": 1625,
      "KEYWORD_CONSTANT_ASSIGN_NAME_STORE_CALL_NAME_LOAD_": 1626,
      "_ATTRIBUTE_NAME_LOAD_LOAD_EXPR_": 1627,
      "RAISE": 1628,
      "SUBSCRIPT_SUBSCRIPT_ATTRIBUTE_NAME_LOAD_LOAD_NAME_LOAD_LOAD_NAME_LOAD_LOAD_": 1629,
      "TUPLE_CONSTANT_CONSTANT_CONSTANT_CONSTANT_LOAD_": 1630,
      "CALL_ATTRIBUTE_NAME_LOAD_LOAD_RETURN_": 1631,
      "CONSTANT_ASSIGN_ATTRIBUTE_NAME_LOAD_STORE_CALL_NAME_LOAD_": 1632,
      "EXPR_CALL_ATTRIBUTE_NAME_LOAD_LOAD_LIST_CONSTANT_": 1633,
      "SUBSCRIPT_NAME_LOAD_NAME_LOAD_LOAD_RETURN_NAME_LOAD": 1634,
      "CONSTANT_IF_UNARYOP_NOT_CALL_ATTRIBUTE_ATTRIBUTE_NAME_LOAD_LOAD_LOAD_NAME_LOAD_": 1635,
      "KEYWORD_CONSTANT_KEYWORD_CONSTANT": 1636,
      "KEYWORD_NAME_LOAD_KEYWORD_NAME_LOAD_KEYWORD_NAME_LOAD_KEYWORD_NAME_LOAD": 1637,
      "ERT_NAME_LOAD_": 1638,
      "IF_COMPARE_NAME_LOAD_IS_CONSTANT_ASSIGN_NAME_STORE_CALL_NAME_LOAD_": 1639,
      "LIST_CONSTANT_CONSTANT_LOAD_LIST_CONSTANT_CONSTANT_LOAD_": 1640,
      "CALL_NAME_LOAD_NAME_LOAD_CONSTANT_CONSTANT_": 1641,
      "RAISE_CALL_NAME_LOAD_BINOP_CONSTANT_ADD_": 1642,
      "EXPR_CALL_ATTRIBUTE_NAME_LOAD_LOAD_ASSIGN_NAME_STORE_": 1643,
      "IF_NAME_LOAD_EXPR_CALL_NAME_LOAD_": 1644,
      "RETURN_CONSTANT_IF_COMPARE_ATTRIBUTE_NAME_LOAD_LOAD_ISNOT_CONSTANT_": 1645,
      "COMPARE_CALL_NAME_LOAD_NAME_LOAD_EQ_": 1646,
      "JOINEDSTR_": 1647,
      "COMPARE_NAME_LOAD_LT_": 1648,
      "CALL_ATTRIBUTE_NAME_LOAD_LOAD_ATTRIBUTE_NAME_LOAD_LOAD_NAME_LOAD_": 1649,
      "SUBSCRIPT_NAME_LOAD_CONSTANT_LOAD_SUBSCRIPT_NAME_LOAD_CONSTANT_LOAD_LOAD_": 1650,
      "MODULE_FUNCTIONDEF_ARGUMENTS_ARG_EXPR_CONSTANT_ASSIGN_NAME_STORE_CALL_ATTRIBUTE_NAME_LOAD_LOAD_NAME_LOAD_": 1651,
      "IF_COMPARE_CALL_ATTRIBUTE_NAME_LOAD_LOAD_NAME_LOAD_": 1652,
      "FOR_NAME_STORE_NAME_LOAD_ASSIGN_NAME_STORE_CALL_ATTRIBUTE_NAME_LOAD_LOAD_NAME_LOAD_": 1653,
      "CONSTANT_ASSIGN_NAME_STORE_CALL_ATTRIBUTE_NAME_LOAD_LOAD_NAME_LOAD_ASSIGN_NAME_STORE_": 1654,
      "ASSIGN_NAME_STORE_CALL_NAME_LOAD_CALL_ATTRIBUTE_NAME_LOAD_LOAD_": 1655,
      "CONSTANT_ADD_CONSTANT_ADD_": 1656,
      "IFEXP_COMPARE_NAME_LOAD_ISNOT_CONSTANT_": 1657,
      "DICT_ATTRIBUTE_NAME_LOAD_LOAD_": 1658,
      "EXPR_YIELDFROM_": 1659,
      "BINOP_CALL_ATTRIBUTE_NAME_LOAD_LOAD_ADD_": 1660,
      "TUPLE_SUBSCRIPT_NAME_LOAD_CONSTANT_LOAD_SUBSCRIPT_NAME_LOAD_CONSTANT_LOAD_LOAD_": 1661,
      "IF_ATTRIBUTE_NAME_LOAD_LOAD_EXPR_CALL_ATTRIBUTE_ATTRIBUTE_NAME_LOAD_LOAD_LOAD_": 1662,
      "JOINEDSTR_FORMATTEDVALUE_": 1663,
      "CONSTANT_RETURN_CALL_NAME_LOAD_NAME_LOAD_": 1664,
      "MODULE_FUNCTIONDEF_ARGUMENTS_ARG_ARG_EXPR_CONSTANT_IF_BOOLOP_OR_": 1665,
      "IF_BOOLOP_OR_NAME_LOAD_": 1666,
      "BINOP_NAME_LOAD_DIV_CONSTANT_": 1667,
      "CONSTANT_ASSIGN_NAME_STORE_CALL_ATTRIBUTE_NAME_LOAD_LOAD_CONSTANT_ASSIGN_NAME_STORE_CALL_ATTRIBUTE_NAME_LOAD_LOAD_": 1668,
      "IF_COMPARE_NAME_LOAD_IN_TUPLE_CONSTANT_CONSTANT_LOAD_": 1669,
      "BITOR_NAME_LOAD_": 1670,
      "FOR_TUPLE_NAME_STORE_NAME_STORE_STORE_CALL_NAME_LOAD_NAME_LOAD_ASSIGN_NAME_STORE_": 1671,
      "CALL_ATTRIBUTE_ATTRIBUTE_ATTRIBUTE_NAME_LOAD_LOAD_LOAD_LOAD_CONSTANT_": 1672,
      "RAISE_CALL_NAME_LOAD_BINOP_CONSTANT_MOD_TUPLE_": 1673,
      "LAMBDA_ARGUMENTS_ARG_ARG": 1674,
      "COMPARE_CALL_ATTRIBUTE_NAME_LOAD_LOAD_NAME_LOAD_": 1675,
      "COMPARE_NAME_LOAD_GT_NAME_LOAD_": 1676,
      "RAISE_CALL_NAME_LOAD_CALL_ATTRIBUTE_CONSTANT_LOAD_NAME_LOAD_NAME_LOAD_": 1677,
      "CONSTANT_CONSTANT_NAME_STORE_": 1678,
      "MODULE_FUNCTIONDEF_ARGUMENTS_ARG_EXPR_CONSTANT_IF_BOOLOP_OR_": 1679,
      "EXPR_CALL_ATTRIBUTE_NAME_LOAD_LOAD_CONSTANT_KEYWORD_CONSTANT_KEYWORD_CONSTANT_KEYWORD_CONSTANT_": 1680,
      "IF_COMPARE_NAME_LOAD_NOTEQ_CONSTANT_ASSIGN_NAME_STORE_": 1681,
      "RAISE_CALL_NAME_LOAD_CONSTANT_RETURN_NAME_LOAD": 1682,
      "NAME_LOAD_ASSIGN_NAME_STORE_CALL_ATTRIBUTE_CONSTANT_LOAD_": 1683,
      "IF_COMPARE_NAME_LOAD_IS_NAME_LOAD_": 1684,
      "GTE_CONSTANT_": 1685,
      "SLICE_LOAD_": 1686,
      "SUBSCRIPT_NAME_LOAD_CONSTANT_LOAD_SUBSCRIPT_NAME_LOAD_CONSTANT_LOAD_SUBSCRIPT_NAME_LOAD_CONSTANT_LOAD_SUBSCRIPT_NAME_LOAD_CONSTANT_LOAD_": 1687,
      "DELETE_NAME_": 1688,
      "TUPLE_NAME_LOAD_NAME_LOAD_NAME_LOAD_NAME_LOAD_LOAD_": 1689,
      "NAME_LOAD_EXPR_CALL_ATTRIBUTE_NAME_LOAD_LOAD_NAME_LOAD": 1690,
      "IMPORTFROM_ALIAS_ALIAS": 1691,
      "CONSTANT_ASSIGN_NAME_STORE_NAME_LOAD_": 1692,
      "IF_COMPARE_CONSTANT_NOTIN_": 1693,
      "LSHIFT_CONSTANT_": 1694,
      "MODULE_FUNCTIONDEF_ARGUMENTS_ARG_ARG_ARG_CONSTANT_EXPR_CONSTANT_IF_CALL_NAME_LOAD_NAME_LOAD_CONSTANT_ASSIGN_NAME_STORE_CALL_ATTRIBUTE_NAME_LOAD_LOAD_NAME_LOAD_TRY_ASSIGN_NAME_STORE_CALL_NAME_LOAD_NAME_LOAD_KEYWORD_ATTRIBUTE_NAME_LOAD_LOAD_KEYWORD_CONSTANT_KEYWORD_CONSTANT_KEYWORD_CONSTANT_KEYWORD_CONSTANT_": 1695,
      "RETURN_CALL_NAME_LOAD_ATTRIBUTE_NAME_LOAD_LOAD_": 1696,
      "CONSTANT_RETURN_NAME_LOAD_": 1697,
      "CALL_ATTRIBUTE_ATTRIBUTE_NAME_LOAD_LOAD_LOAD_LOAD_": 1698,
      "EXPR_CALL_ATTRIBUTE_ATTRIBUTE_NAME_LOAD_LOAD_LOAD_CONSTANT_EXPR_CALL_ATTRIBUTE_ATTRIBUTE_NAME_LOAD_LOAD_LOAD_": 1699,
      "FOR_TUPLE_NAME_STORE_NAME_STORE_STORE_CALL_ATTRIBUTE_NAME_LOAD_LOAD_NAME_LOAD_": 1700,
      "CALL_ATTRIBUTE_NAME_LOAD_LOAD_ATTRIBUTE_NAME_LOAD_LOAD_ATTRIBUTE_NAME_LOAD_LOAD_": 1701,
      "MODULE_FUNCTIONDEF_ARGUMENTS_ARG_ARG_EXPR_CONSTANT_ASSIGN_NAME_STORE_CALL_ATTRIBUTE_ATTRIBUTE_NAME_LOAD_LOAD_LOAD_NAME_LOAD_": 1702,
      "NAME_LOAD_ASSIGN_NAME_STORE_CALL_ATTRIBUTE_NAME_LOAD_LOAD_ATTRIBUTE_NAME_LOAD_LOAD_": 1703,
      "CONSTANT_ASSIGN_NAME_STORE_CALL_NAME_LOAD_NAME_LOAD_NAME_LOAD_": 1704,
      "CALL_NAME_LOAD_NAME_LOAD_EXPR_CALL_ATTRIBUTE_NAME_LOAD_LOAD_": 1705,
      "CALL_NAME_LOAD_NAME_LOAD_TUPLE_NAME_LOAD_NAME_LOAD_LOAD_": 1706,
      "IF_COMPARE_CALL_NAME_LOAD_NAME_LOAD_EQ_NAME_LOAD_": 1707,
      "SUBSCRIPT_NAME_LOAD_UNARYOP_USUB_CONSTANT_LOAD_LOAD_": 1708,
      "ATTRIBUTE_NAME_LOAD_LOAD_ASSIGN_NAME_STORE_CALL_ATTRIBUTE_ATTRIBUTE_NAME_LOAD_LOAD_LOAD_": 1709,
      "LIST_CONSTANT_LOAD_ASSIGN_NAME_STORE_": 1710,
      "BINOP_BINOP_SUBSCRIPT_NAME_LOAD_CONSTANT_LOAD_": 1711,
      "CONSTANT_ASSIGN_TUPLE_NAME_STORE_NAME_STORE_NAME_STORE_NAME_STORE_STORE_": 1712,
      "CONSTANT_LOAD_LOAD_ASSIGN_NAME_STORE_": 1713,
      "BINOP_BINOP_ATTRIBUTE_NAME_LOAD_LOAD_ADD_CONSTANT_ADD_": 1714,
      "TUPLE_NAME_LOAD_NAME_LOAD_LOAD_LOAD_": 1715,
      "RAISE_CALL_NAME_LOAD_CONSTANT_ASSIGN_ATTRIBUTE_NAME_LOAD_STORE_": 1716,
      "ASSIGN_SUBSCRIPT_SUBSCRIPT_NAME_LOAD_NAME_LOAD_LOAD_NAME_LOAD_STORE_": 1717,
      "KEYWORD_ATTRIBUTE_NAME_LOAD_LOAD_ASSIGN_NAME_STORE_": 1718,
      "RETURN_LISTCOMP_": 1719,
      "IF_COMPARE_CONSTANT_IN_NAME_LOAD_ASSIGN_SUBSCRIPT_NAME_LOAD_CONSTANT_STORE_": 1720,
      "NAME_LOAD_ASSIGN_NAME_STORE_NAME_LOAD_ASSIGN_NAME_STORE_": 1721,
      "FOR_NAME_STORE_ATTRIBUTE_NAME_LOAD_LOAD_EXPR_CALL_ATTRIBUTE_NAME_LOAD_LOAD_": 1722,
      "CONSTANT_ATTRIBUTE_NAME_LOAD_LOAD": 1723,
      "LISTCOMP_NAME_LOAD_COMPREHENSION_TUPLE_NAME_STORE_NAME_STORE_STORE_": 1724,
      "NAME_LOAD_NAME_LOAD_NAME_LOAD_NAME_LOAD": 1725,
      "ATTRIBUTE_NAME_LOAD_LOAD_LOAD_ASSIGN_NAME_STORE_": 1726,
      "ATTRIBUTE_ATTRIBUTE_": 1727,
      "EXPR_CALL_NAME_LOAD_CONSTANT_NAME_LOAD_": 1728,
      "MODULE_FUNCTIONDEF_ARGUMENTS_ARG_ARG_EXPR_CONSTANT_ASSIGN_NAME_STORE_CALL_ATTRIBUTE_NAME_LOAD_LOAD_CONSTANT_": 1729,
      "IF_SUBSCRIPT_NAME_LOAD_CONSTANT_LOAD_": 1730,
      "MODULE_FUNCTIONDEF_ARGUMENTS_ARG_ARG_ARG_CONSTANT_EXPR_CONSTANT_IF_CALL_NAME_LOAD_NAME_LOAD_CONSTANT_ASSIGN_NAME_STORE_CALL_ATTRIBUTE_NAME_LOAD_LOAD_NAME_LOAD_TRY_ASSIGN_NAME_STORE_CALL_NAME_LOAD_NAME_LOAD_KEYWORD_ATTRIBUTE_NAME_LOAD_LOAD_KEYWORD_CONSTANT_KEYWORD_CONSTANT_KEYWORD_CONSTANT_KEYWORD_CONSTANT_KEYWORD_NAME_LOAD_KEYWORD_ATTRIBUTE_NAME_LOAD_LOAD_KEYWORD_ATTRIBUTE_NAME_LOAD_LOAD_KEYWORD_CONSTANT_KEYWORD_DICT_CONSTANT_": 1731,
      "CALL_NAME_LOAD_NAME_LOAD_CALL_NAME_LOAD_NAME_LOAD_LOAD_": 1732,
      "NAME_LOAD_RETURN_CALL_ATTRIBUTE_NAME_LOAD_LOAD_": 1733,
      "IF_COMPARE_CONSTANT_NOTIN_ATTRIBUTE_NAME_LOAD_LOAD_": 1734,
      "MODULE_FUNCTIONDEF_ARGUMENTS_ARG_ARG_EXPR_CONSTANT_TRY_ASSIGN_NAME_STORE_": 1735,
      "ISNOT_CONSTANT_ASSIGN_NAME_STORE_": 1736,
      "CONSTANT_ASSIGN_NAME_STORE_CALL_ATTRIBUTE_NAME_LOAD_LOAD_CONSTANT_CONSTANT_ASSIGN_NAME_STORE_CALL_ATTRIBUTE_NAME_LOAD_LOAD_CONSTANT_": 1737,
      "RETURN_TUPLE_NAME_LOAD_NAME_LOAD_NAME_LOAD_LOAD": 1738,
      "CALL_NAME_LOAD_CALL_ATTRIBUTE_NAME_LOAD_LOAD_CONSTANT_": 1739,
      "CALL_NAME_LOAD_LISTCOMP_": 1740,
      "EXCEPTHANDLER_NAME_LOAD_RETURN_CONSTANT": 1741,
      "UNARYOP_USUB_CONSTANT_EXPR_": 1742,
      "ASSIGN_SUBSCRIPT_ATTRIBUTE_ATTRIBUTE_NAME_LOAD_LOAD_LOAD_": 1743,
      "ASSIGN_ATTRIBUTE_NAME_LOAD_STORE_LIST_LOAD_": 1744,
      "KEYWORD_NAME_LOAD_KEYWORD_NAME_LOAD_ASSIGN_NAME_STORE_": 1745,
      "SUBSCRIPT_NAME_LOAD_CONSTANT_LOAD_CONSTANT_": 1746,
      "ASSIGN_ATTRIBUTE_NAME_LOAD_STORE_CALL_ATTRIBUTE_NAME_LOAD_LOAD_NAME_LOAD_": 1747,
      "ASSIGN_NAME_STORE_CALL_ATTRIBUTE_NAME_LOAD_LOAD_CALL_ATTRIBUTE_NAME_LOAD_LOAD_": 1748,
      "DICT_DICT_": 1749,
      "BINOP_SUBSCRIPT_NAME_LOAD_NAME_LOAD_LOAD_": 1750,
      "IF_NAME_LOAD_ASSIGN_NAME_STORE_CALL_ATTRIBUTE_NAME_LOAD_LOAD_NAME_LOAD_": 1751,
      "NAME_LOAD_RETURN_TUPLE_NAME_LOAD_NAME_LOAD_LOAD": 1752,
      "CONSTANT_ASSIGN_NAME_STORE_CALL_NAME_LOAD_NAME_LOAD_ASSIGN_NAME_STORE_": 1753,
      "TUPLE_NAME_STORE_NAME_STORE_NAME_STORE_NAME_STORE_NAME_STORE_STORE_": 1754,
      "_AUGASSIGN_NAME_STORE_ADD_": 1755,
      "NAME_LOAD_LOAD_RETURN_NAME_LOAD": 1756,
      "EXPR_CALL_ATTRIBUTE_NAME_LOAD_LOAD_CONSTANT_RETURN_NAME_LOAD": 1757,
      "ATTRIBUTE_NAME_LOAD_LOAD_LOAD_LOAD_": 1758,
      "CALL_NAME_LOAD_NAME_LOAD_NAME_LOAD_NAME_LOAD": 1759,
      "MODULE_FUNCTIONDEF_ARGUMENTS_ARG_": 1760,
      "CONSTANT_ASSIGN_TUPLE_": 1761,
      "RETURN_CALL_ATTRIBUTE_NAME_LOAD_LOAD_ATTRIBUTE_NAME_LOAD_LOAD_": 1762,
      "IF_COMPARE_CALL_ATTRIBUTE_NAME_LOAD_LOAD_EQ_CONSTANT_": 1763,
      "DICT_CONSTANT_CONSTANT_CONSTANT_CONSTANT_CONSTANT_CONSTANT_CONSTANT_CONSTANT_": 1764,
      "CONSTANT_EXPR_YIELD_": 1765,
      "CONSTANT_ASSIGN_TUPLE_NAME_STORE_NAME_STORE_STORE_CALL_ATTRIBUTE_NAME_LOAD_LOAD_NAME_LOAD_": 1766,
      "CALL_ATTRIBUTE_CALL_ATTRIBUTE_ATTRIBUTE_NAME_LOAD_LOAD_LOAD_NAME_LOAD_LOAD_": 1767,
      "SHIFT_": 1768,
      "KEYWORD_CONSTANT_KEYWORD_CONSTANT_KEYWORD_": 1769,
      "MODULE_FUNCTIONDEF_ARGUMENTS_ARG_ARG_ARG_EXPR_CONSTANT_EXPR_CALL_ATTRIBUTE_NAME_LOAD_LOAD_": 1770,
      "ASSIGN_ATTRIBUTE_NAME_LOAD_STORE_CALL_ATTRIBUTE_NAME_LOAD_LOAD_ATTRIBUTE_NAME_LOAD_LOAD_": 1771,
      "FOR_TUPLE_NAME_STORE_NAME_STORE_STORE_CALL_NAME_LOAD_CALL_ATTRIBUTE_NAME_LOAD_LOAD_": 1772,
      "WITH_WITHITEM_CALL_ATTRIBUTE_NAME_LOAD_LOAD_NAME_LOAD_": 1773,
      "BINOP_ATTRIBUTE_NAME_LOAD_LOAD_MOD_": 1774,
      "MODULE_FUNCTIONDEF_ARGUMENTS_ARG_ARG_EXPR_CONSTANT_IF_CALL_NAME_LOAD_NAME_LOAD_NAME_LOAD_": 1775,
      "BINOP_CALL_NAME_LOAD_NAME_LOAD_SUB_CONSTANT_": 1776,
      "CALL_NAME_LOAD_SUBSCRIPT_ATTRIBUTE_NAME_LOAD_LOAD_CONSTANT_LOAD_": 1777,
      "LAMBDA_ARGUMENTS_": 1778,
      "CALL_ATTRIBUTE_NAME_LOAD_LOAD_EXPR_CALL_ATTRIBUTE_NAME_LOAD_LOAD_": 1779,
      "TUPLE_NAME_STORE_NAME_STORE_STORE_STORE_": 1780,
      "KEYWORD_NAME_LOAD_KEYWORD_CONSTANT_KEYWORD_": 1781,
      "CALL_ATTRIBUTE_CONSTANT_LOAD_NAME_LOAD_RETURN_NAME_LOAD": 1782,
      "CONSTANT_IF_COMPARE_NAME_LOAD_EQ_CONSTANT_": 1783,
      "BINOP_CALL_ATTRIBUTE_NAME_LOAD_LOAD_SUB_NAME_LOAD_": 1784,
      "DELETE_SUBSCRIPT_NAME_LOAD_NAME_LOAD_DEL_": 1785,
      "EXPR_CALL_ATTRIBUTE_NAME_LOAD_LOAD_NAME_LOAD_CONSTANT_": 1786,
      "CALL_NAME_LOAD_SUBSCRIPT_NAME_LOAD_CONSTANT_LOAD_NAME_LOAD_": 1787,
      "CALL_ATTRIBUTE_CALL_ATTRIBUTE_NAME_LOAD_LOAD_CONSTANT_CONSTANT_LOAD_": 1788,
      "BINOP_BINOP_BINOP_NAME_LOAD_ADD_": 1789,
      "MODULE_FUNCTIONDEF_ARGUMENTS_ARG_ARG_NAME_LOAD_ARG_NAME_LOAD_ARG": 1790,
      "KEYWORD_NAME_LOAD_KEYWORD_NAME_LOAD_RETURN_NAME_LOAD": 1791,
      "SUBSCRIPT_CALL_ATTRIBUTE_NAME_LOAD_LOAD_NAME_LOAD_CONSTANT_LOAD_": 1792,
      "ASSIGN_SUBSCRIPT_SUBSCRIPT_ATTRIBUTE_NAME_LOAD_LOAD_NAME_LOAD_LOAD_": 1793,
      "CONSTANT_ASSIGN_SUBSCRIPT_NAME_LOAD_CONSTANT_STORE_NAME_LOAD_": 1794,
      "CONSTANT_ASSIGN_ATTRIBUTE_": 1795,
      "CONSTANT_ASSIGN_NAME_STORE_CONSTANT_ASSIGN_NAME_STORE_CONSTANT_": 1796,
      "BINOP_BINOP_NAME_LOAD_SUB_NAME_LOAD_": 1797,
      "CALL_ATTRIBUTE_CALL_NAME_LOAD_NAME_LOAD_": 1798,
      "RAISE_NAME_LOAD": 1799,
      "TUPLE_CONSTANT_CONSTANT_LOAD_LOAD_": 1800,
      "LISTCOMP_SUBSCRIPT_NAME_LOAD_CONSTANT_LOAD_COMPREHENSION_NAME_STORE_": 1801,
      "FOR_NAME_STORE_CALL_ATTRIBUTE_NAME_LOAD_LOAD_CONSTANT_": 1802,
      "CONSTANT_ASSIGN_SUBSCRIPT_SUBSCRIPT_NAME_LOAD_CONSTANT_LOAD_": 1803,
      "CALL_NAME_LOAD_CALL_ATTRIBUTE_NAME_LOAD_LOAD_NAME_LOAD_": 1804,
      "MODULE_FUNCTIONDEF_ARGUMENTS_ARG_ARG_EXPR_CONSTANT_ASSIGN_NAME_STORE_ATTRIBUTE_NAME_LOAD_LOAD_": 1805,
      "MODULE_FUNCTIONDEF_ARGUMENTS_ARG_ARG_ARG_CONSTANT_EXPR_CONSTANT_RETURN_": 1806,
      "ATTRIBUTE_ATTRIBUTE_ATTRIBUTE_ATTRIBUTE_NAME_LOAD_LOAD_LOAD_LOAD_LOAD_": 1807,
      "MODULE_FUNCTIONDEF_ARGUMENTS_ARG_ARG_ARG_CONSTANT_EXPR_CONSTANT_IF_COMPARE_NAME_LOAD_IS_CONSTANT_ASSIGN_NAME_STORE_": 1808,
      "ASSIGN_SUBSCRIPT_NAME_LOAD_CONSTANT_STORE_NAME_LOAD_ASSIGN_SUBSCRIPT_NAME_LOAD_CONSTANT_STORE_": 1809,
      "SUBSCRIPT_NAME_LOAD_NAME_LOAD_LOAD_SUBSCRIPT_NAME_LOAD_NAME_LOAD_LOAD_": 1810,
      "BINOP_ATTRIBUTE_NAME_LOAD_LOAD_SUB_ATTRIBUTE_NAME_LOAD_LOAD_": 1811,
      "CONSTANT_ASSIGN_NAME_STORE_BOOLOP_OR_NAME_LOAD_": 1812,
      "CALL_NAME_LOAD_NAME_LOAD_NAME_LOAD_CALL_NAME_LOAD_NAME_LOAD_NAME_LOAD_": 1813,
      "RETURN_CONSTANT_IF_COMPARE_ATTRIBUTE_NAME_LOAD_LOAD_ISNOT_CONSTANT_RETURN_CONSTANT_IF_COMPARE_ATTRIBUTE_NAME_LOAD_LOAD_ISNOT_CONSTANT_": 1814,
      "CONSTANT_ASSIGN_NAME_STORE_CALL_ATTRIBUTE_NAME_LOAD_LOAD_ASSIGN_NAME_STORE_": 1815,
      "MODULE_FUNCTIONDEF_ARGUMENTS_ARG_ARG_ARG_ARG_ARG_ARG_ARG_ARG_ARG_ARG_ARG_ARG_ARG_ARG": 1816,
      "MODULE_FUNCTIONDEF_ARGUMENTS_ARG_ARG_EXPR_CONSTANT_ASSIGN_NAME_STORE_DICT_": 1817,
      "MODULE_FUNCTIONDEF_ARGUMENTS_ARG_ARG_CONSTANT_EXPR_CONSTANT_ASSIGN_NAME_STORE_CALL_NAME_LOAD_": 1818,
      "CONSTANT_IF_BOOLOP_AND_ATTRIBUTE_NAME_LOAD_LOAD_": 1819,
      "CALL_ATTRIBUTE_NAME_LOAD_LOAD_RETURN_NAME_LOAD": 1820,
      "SUBSCRIPT_ATTRIBUTE_NAME_LOAD_LOAD_TUPLE_SLICE_": 1821,
      "CALL_SUBSCRIPT_NAME_LOAD_CONSTANT_LOAD_NAME_LOAD_": 1822,
      "CONSTANT_ASSIGN_ATTRIBUTE_NAME_LOAD_STORE_NAME_LOAD_ASSIGN_ATTRIBUTE_NAME_LOAD_STORE_": 1823,
      "IF_BOOLOP_AND_COMPARE_": 1824,
      "ATTRIBUTE_ATTRIBUTE_NAME_LOAD_LOAD_LOAD_NAME_LOAD_": 1825,
      "ATTRIBUTE_NAME_LOAD_STORE_ATTRIBUTE_NAME_LOAD_STORE_STORE_": 1826,
      "MODULE_FUNCTIONDEF_ARGUMENTS_ARG_ARG_EXPR_CONSTANT_ASSIGN_NAME_STORE_CONSTANT_": 1827,
      "COMPARE_ATTRIBUTE_NAME_LOAD_LOAD_NOTEQ_CONSTANT_": 1828,
      "CALL_ATTRIBUTE_CONSTANT_LOAD_CALL_NAME_LOAD_NAME_LOAD_": 1829,
      "ASSIGN_ATTRIBUTE_NAME_LOAD_STORE_ATTRIBUTE_NAME_LOAD_LOAD_ASSIGN_ATTRIBUTE_NAME_LOAD_STORE_": 1830,
      "KEYWORD_ATTRIBUTE_NAME_LOAD_LOAD_ASSIGN_NAME_STORE_CALL_ATTRIBUTE_NAME_LOAD_LOAD_": 1831,
      "BREAK_RETURN_NAME_LOAD": 1832,
      "CONSTANT_IF_CALL_ATTRIBUTE_NAME_LOAD_LOAD_CONSTANT_": 1833,
      "IF_COMPARE_NAME_LOAD_NOTEQ_ATTRIBUTE_NAME_LOAD_LOAD_": 1834,
      "IFEXP_NAME_LOAD_CONSTANT_CONSTANT_": 1835,
      "EXPR_CALL_ATTRIBUTE_NAME_LOAD_LOAD_TUPLE_NAME_LOAD_NAME_LOAD_LOAD_": 1836,
      "LIST_LOAD_LOAD_": 1837,
      "IF_COMPARE_NAME_LOAD_EQ_CONSTANT_ASSIGN_NAME_STORE_CALL_ATTRIBUTE_NAME_LOAD_LOAD_": 1838,
      "UNARYOP_NOT_CALL_ATTRIBUTE_NAME_LOAD_LOAD_CONSTANT_": 1839,
      "EXPR_CALL_ATTRIBUTE_NAME_LOAD_LOAD_CONSTANT_CONSTANT_EXPR_CALL_ATTRIBUTE_NAME_LOAD_LOAD_CONSTANT_CONSTANT_": 1840,
      "MODULE_FUNCTIONDEF_ARGUMENTS_ARG_ARG_EXPR_CONSTANT_IF_UNARYOP_NOT_ATTRIBUTE_NAME_LOAD_LOAD_": 1841,
      "EXCEPTHANDLER_ASSIGN_NAME_STORE_": 1842,
      "DICT_CONSTANT_CONSTANT_CONSTANT_NAME_LOAD_": 1843,
      "ATTRIBUTE_ATTRIBUTE_NAME_LOAD_LOAD_LOAD_ATTRIBUTE_NAME_LOAD_LOAD_": 1844,
      "COMPARE_NAME_LOAD_NOTIN_ATTRIBUTE_NAME_LOAD_LOAD_": 1845,
      "EXPR_CALL_NAME_LOAD_BINOP_CONSTANT_MOD_NAME_LOAD_": 1846,
      "RETURN_TUPLE_NAME_LOAD_NAME_LOAD_LOAD_": 1847,
      "TUPLE_CONSTANT_CONSTANT_CONSTANT_CONSTANT_": 1848,
      "SUBSCRIPT_NAME_LOAD_SLICE_UNARYOP_USUB_": 1849,
      "DELETE_SUBSCRIPT_ATTRIBUTE_NAME_LOAD_LOAD_NAME_LOAD_DEL_": 1850,
      "CALL_ATTRIBUTE_ATTRIBUTE_NAME_LOAD_LOAD_LOAD_ATTRIBUTE_NAME_LOAD_LOAD_NAME_LOAD_": 1851,
      "COMPARE_ATTRIBUTE_NAME_LOAD_LOAD_IN_": 1852,
      "CONSTANT_EXPR_CALL_NAME_LOAD_CONSTANT_": 1853,
      "DIV_ATTRIBUTE_NAME_LOAD_LOAD_": 1854,
      "IF_COMPARE_CALL_NAME_LOAD_SUBSCRIPT_NAME_LOAD_CONSTANT_LOAD_": 1855,
      "CALL_ATTRIBUTE_NAME_LOAD_LOAD_CONSTANT_CALL_ATTRIBUTE_NAME_LOAD_LOAD_": 1856,
      "DICT_CONSTANT_CONSTANT_ATTRIBUTE_NAME_LOAD_LOAD_": 1857,
      "CONSTANT_AUGASSIGN_NAME_STORE_ADD_CONSTANT_AUGASSIGN_NAME_STORE_ADD_": 1858,
      "MODULE_FUNCTIONDEF_ARGUMENTS_ARG_EXPR_CONSTANT_ASSIGN_NAME_STORE_LIST_LOAD_ASSIGN_NAME_STORE_": 1859,
      "IF_COMPARE_NAME_LOAD_IS_CONSTANT_ASSIGN_NAME_STORE_CALL_ATTRIBUTE_NAME_LOAD_LOAD_": 1860,
      "EXPR_CALL_ATTRIBUTE_NAME_LOAD_LOAD_ATTRIBUTE_NAME_LOAD_LOAD_EXPR_CALL_ATTRIBUTE_NAME_LOAD_LOAD_ATTRIBUTE_NAME_LOAD_LOAD_": 1861,
      "ASSIGN_SUBSCRIPT_SUBSCRIPT_NAME_LOAD_NAME_LOAD_LOAD_CONSTANT_STORE_": 1862,
      "FOR_TUPLE_NAME_STORE_": 1863,
      "SUBSCRIPT_ATTRIBUTE_NAME_LOAD_LOAD_NAME_LOAD_LOAD_ASSIGN_NAME_STORE_": 1864,
      "NAME_LOAD_NAME_LOAD_NAME_LOAD_NAME_LOAD_LOAD": 1865,
      "TRY_ASSIGN_NAME_STORE_CALL_NAME_LOAD_NAME_LOAD_EXCEPTHANDLER_NAME_LOAD_": 1866,
      "MODULE_FUNCTIONDEF_ARGUMENTS_ARG_ARG_ARG_ARG_ARG_EXPR_CONSTANT_ASSIGN_NAME_STORE_": 1867,
      "RETURN_CALL_ATTRIBUTE_ATTRIBUTE_NAME_LOAD_LOAD_LOAD_NAME_LOAD": 1868,
      "EXPR_CALL_ATTRIBUTE_ATTRIBUTE_NAME_LOAD_LOAD_LOAD_BINOP_CONSTANT_MOD_": 1869,
      "IF_CALL_NAME_LOAD_NAME_LOAD_TUPLE_NAME_LOAD_NAME_LOAD_LOAD_": 1870,
      "DICT_CONSTANT_CONSTANT_DICT_CONSTANT_CONSTANT_": 1871,
      "LISTCOMP_CALL_NAME_LOAD_NAME_LOAD_COMPREHENSION_NAME_STORE_NAME_LOAD_": 1872,
      "BOOLOP_OR_BOOLOP_AND_": 1873,
      "ADD_CONSTANT_ASSIGN_NAME_STORE_": 1874,
      "CONSTANT_IF_CALL_ATTRIBUTE_ATTRIBUTE_NAME_LOAD_LOAD_LOAD_NAME_LOAD_": 1875,
      "MODULE_FUNCTIONDEF_ARGUMENTS_ARG_ARG_ARG_ARG_ARG_ARG_ARG_EXPR_": 1876,
      "MODULE_FUNCTIONDEF_ARGUMENTS_ARG_ARG_ARG_ARG_ARG_ARG_CONSTANT_CONSTANT_CONSTANT_EXPR_": 1877,
      "IFEXP_NAME_LOAD_NAME_LOAD_": 1878,
      "EXCEPTHANDLER_NAME_LOAD_PASS_ASSIGN_NAME_STORE_": 1879,
      "WHILE_CONSTANT_": 1880,
      "MODULE_FUNCTIONDEF_ARGUMENTS_ARG_ARG_ARG_ARG_EXPR_CONSTANT_RETURN_": 1881,
      "ASSIGN_SUBSCRIPT_NAME_LOAD_TUPLE_SLICE_": 1882,
      "EXPR_CALL_NAME_LOAD_CONSTANT": 1883,
      "FOR_NAME_STORE_CALL_NAME_LOAD_NAME_LOAD_ASSIGN_NAME_STORE_": 1884,
      "SUBSCRIPT_CALL_ATTRIBUTE_NAME_LOAD_LOAD_CONSTANT_CONSTANT_": 1885,
      "LIST_CONSTANT_LIST_CONSTANT_LOAD_LOAD_": 1886,
      "LIST_NAME_LOAD_LOAD": 1887,
      "COMPARE_NAME_LOAD_IS": 1888,
      "IF_COMPARE_CALL_NAME_LOAD_NAME_LOAD_LT_CONSTANT_": 1889,
      "MODULE_FUNCTIONDEF_ARGUMENTS_ARG_ARG_ARG_CONSTANT_EXPR_CONSTANT_ASSIGN_NAME_STORE_CALL_ATTRIBUTE_NAME_LOAD_LOAD_": 1890,
      "IF_COMPARE_CALL_ATTRIBUTE_ATTRIBUTE_NAME_LOAD_LOAD_LOAD_": 1891,
      "CALL_ATTRIBUTE_CALL_ATTRIBUTE_NAME_LOAD_LOAD_LOAD_CONSTANT_": 1892,
      "CONSTANT_CONSTANT_NAME_LOAD_": 1893,
      "RAISE_CALL_ATTRIBUTE_ATTRIBUTE_NAME_LOAD_LOAD_LOAD_": 1894,
      "CONSTANT_IF_CALL_NAME_LOAD_NAME_LOAD_NAME_LOAD_ASSIGN_NAME_STORE_": 1895,
      "IF_COMPARE_CALL_NAME_LOAD_NAME_LOAD_EQ_CONSTANT_RETURN_": 1896,
      "COMPARE_SUBSCRIPT_NAME_LOAD_CONSTANT_LOAD_EQ_": 1897,
      "JOINEDSTR_CONSTANT_FORMATTEDVALUE_NAME_LOAD_": 1898,
      "IF_COMPARE_CALL_NAME_LOAD_NAME_LOAD_NOTEQ_": 1899,
      "IF_BOOLOP_AND_CALL_NAME_LOAD_NAME_LOAD_CONSTANT_COMPARE_ATTRIBUTE_NAME_LOAD_LOAD_ISNOT_CONSTANT_ASSIGN_SUBSCRIPT_NAME_LOAD_CONSTANT_STORE_ATTRIBUTE_NAME_LOAD_LOAD_": 1900,
      "CONSTANT_IF_BOOLOP_AND_UNARYOP_NOT_NAME_LOAD_": 1901,
      "_ATTRIBUTE_ATTRIBUTE_ATTRIBUTE_NAME_LOAD_LOAD_LOAD_LOAD_": 1902,
      "SUBSCRIPT_CALL_NAME_LOAD_": 1903,
      "IF_COMPARE_ATTRIBUTE_NAME_LOAD_LOAD_IN_NAME_LOAD_": 1904,
      "DICT_CONSTANT_CONSTANT_CONSTANT_CONSTANT_CONSTANT_CONSTANT_CONSTANT_CONSTANT_CONSTANT_CONSTANT_CONSTANT_CONSTANT_CONSTANT_": 1905,
      "MODULE_FUNCTIONDEF_ARGUMENTS_ARG_ARG_ARG_ARG_": 1906,
      "EXPR_CALL_ATTRIBUTE_NAME_LOAD_LOAD_BINOP_CONSTANT_MOD_TUPLE_NAME_LOAD_NAME_LOAD_LOAD_": 1907,
      "MODULE_FUNCTIONDEF_ARGUMENTS_ARG_ARG_ARG_ARG_EXPR_CONSTANT_ASSIGN_NAME_STORE_CALL_ATTRIBUTE_NAME_LOAD_LOAD_": 1908,
      "EXPR_CALL_NAME_LOAD_NAME_LOAD_NAME_LOAD": 1909,
      "CALL_NAME_LOAD_NAME_LOAD_ADD_CONSTANT_ADD_": 1910,
      "CONSTANT_CONSTANT_LOAD": 1911,
      "ASSIGN_SUBSCRIPT_ATTRIBUTE_NAME_LOAD_LOAD_NAME_LOAD_STORE_NAME_LOAD": 1912,
      "IF_COMPARE_SUBSCRIPT_NAME_LOAD_CONSTANT_LOAD_EQ_NAME_LOAD_": 1913,
      "CONSTANT_ASSIGN_NAME_STORE_CALL_NAME_LOAD_ATTRIBUTE_NAME_LOAD_LOAD_": 1914,
      "EXPR_CALL_ATTRIBUTE_ATTRIBUTE_NAME_LOAD_LOAD_LOAD_CONSTANT_NAME_LOAD_": 1915,
      "IF_COMPARE_ATTRIBUTE_NAME_LOAD_LOAD_IS_CONSTANT_ASSIGN_NAME_STORE_": 1916,
      "CONSTANT_ASSIGN_NAME_STORE_CONSTANT_ASSIGN_NAME_STORE_CONSTANT_ASSIGN_NAME_STORE_CONSTANT_ASSIGN_NAME_STORE_": 1917,
      "CONSTANT_KEYWORD_": 1918,
      "DICT_CONSTANT_CONSTANT_CONSTANT_ATTRIBUTE_NAME_LOAD_LOAD_": 1919,
      "MODULE_FUNCTIONDEF_ARGUMENTS_ARG_ARG_ARG_ARG_CONSTANT_CONSTANT_EXPR_CONSTANT_": 1920,
      "RETURN_CALL_NAME_LOAD_NAME_LOAD_NAME_LOAD_NAME_LOAD_": 1921,
      "BINOP_CALL_NAME_LOAD_NAME_LOAD_SUB_": 1922,
      "BINOP_SUBSCRIPT_ATTRIBUTE_NAME_LOAD_LOAD_CONSTANT_LOAD_": 1923,
      "SUBSCRIPT_CALL_ATTRIBUTE_NAME_LOAD_LOAD_CONSTANT_UNARYOP_USUB_CONSTANT_LOAD_": 1924,
      "KEYWORD_SUBSCRIPT_ATTRIBUTE_NAME_LOAD_LOAD_CONSTANT_LOAD_KEYWORD_SUBSCRIPT_ATTRIBUTE_NAME_LOAD_LOAD_CONSTANT_LOAD_": 1925,
      "LISTCOMP_SUBSCRIPT_NAME_LOAD_NAME_LOAD_LOAD_": 1926,
      "TUPLE_CONSTANT_CONSTANT_LOAD_ASSIGN_NAME_STORE_": 1927,
      "CALL_NAME_LOAD_ATTRIBUTE_NAME_LOAD_LOAD_CONSTANT_NAME_STORE_": 1928,
      "NAME_LOAD_RETURN_CALL_NAME_LOAD_": 1929,
      "COMPARE_SUBSCRIPT_NAME_LOAD_CONSTANT_LOAD_EQ_NAME_LOAD_": 1930,
      "ATTRIBUTE_NAME_LOAD_LOAD_ATTRIBUTE_NAME_LOAD_LOAD_ATTRIBUTE_NAME_LOAD_LOAD_ATTRIBUTE_NAME_LOAD_LOAD_ATTRIBUTE_NAME_LOAD_LOAD_ATTRIBUTE_NAME_LOAD_LOAD_ATTRIBUTE_NAME_LOAD_LOAD_ATTRIBUTE_NAME_LOAD_LOAD_": 1931,
      "EXCEPTHANDLER_NAME_LOAD_EXPR_CALL_ATTRIBUTE_NAME_LOAD_LOAD_NAME_LOAD_": 1932,
      "GENERATOREXP_ATTRIBUTE_NAME_LOAD_LOAD_": 1933,
      "ASSIGN_SUBSCRIPT_NAME_LOAD_CONSTANT_STORE_ATTRIBUTE_NAME_LOAD_LOAD_ASSIGN_SUBSCRIPT_NAME_LOAD_CONSTANT_STORE_ATTRIBUTE_NAME_LOAD_LOAD_": 1934,
      "KEYWORD_NAME_LOAD_EXPR_CALL_ATTRIBUTE_NAME_LOAD_LOAD_NAME_LOAD_": 1935,
      "COMPARE_NAME_LOAD_GT_": 1936,
      "IF_UNARYOP_NOT_CALL_ATTRIBUTE_ATTRIBUTE_NAME_LOAD_LOAD_LOAD_": 1937,
      "AUGASSIGN_NAME_STORE_ADD_NAME_LOAD_": 1938,
      "RAISE_CALL_NAME_LOAD_CALL_ATTRIBUTE_CONSTANT_LOAD_ATTRIBUTE_NAME_LOAD_LOAD_": 1939,
      "CALL_ATTRIBUTE_NAME_LOAD_LOAD_CALL_ATTRIBUTE_NAME_LOAD_LOAD_NAME_LOAD_": 1940,
      "ASSIGN_ATTRIBUTE_NAME_LOAD_STORE_NAME_LOAD_RETURN_NAME_LOAD": 1941,
      "ASSIGN_SUBSCRIPT_NAME_LOAD_SUBSCRIPT_NAME_LOAD_CONSTANT_LOAD_STORE_": 1942,
      "BINOP_ATTRIBUTE_NAME_LOAD_LOAD_BITAND_": 1943,
      "LIST_NAME_LOAD_NAME_LOAD_NAME_LOAD_": 1944,
      "EXPR_CALL_ATTRIBUTE_NAME_LOAD_LOAD_ATTRIBUTE_ATTRIBUTE_NAME_LOAD_LOAD_LOAD_": 1945,
      "MODULE_FUNCTIONDEF_ARGUMENTS_ARG_EXPR_CONSTANT_EXPR_CALL_ATTRIBUTE_NAME_LOAD_LOAD_CONSTANT_": 1946,
      "EXPR_CALL_ATTRIBUTE_NAME_LOAD_LOAD_BINOP_CONSTANT_MOD_TUPLE_": 1947,
      "GLOBAL_ASSIGN_NAME_STORE_": 1948,
      "IF_COMPARE_NAME_LOAD_IS_": 1949,
      "CONSTANT_CONSTANT": 1950,
      "RAISE_CALL_NAME_LOAD_BINOP_CONSTANT_MOD_TUPLE_NAME_LOAD_NAME_LOAD_LOAD_": 1951,
      "IF_BOOLOP_AND_COMPARE_NAME_LOAD_IS_CONSTANT_": 1952,
      "MODULE_FUNCTIONDEF_ARGUMENTS_ARG_ARG_NAME_LOAD_ARG_NAME_LOAD_EXPR_": 1953,
      "ASSIGN_NAME_STORE_CALL_ATTRIBUTE_ATTRIBUTE_NAME_LOAD_LOAD_LOAD_NAME_LOAD_NAME_LOAD_": 1954,
      "CALL_ATTRIBUTE_CONSTANT_LOAD_LISTCOMP_": 1955,
      "UNARYOP_NOT_CALL_ATTRIBUTE_NAME_LOAD_LOAD_NAME_LOAD_": 1956,
      "LIST_ATTRIBUTE_NAME_LOAD_LOAD_ATTRIBUTE_NAME_LOAD_LOAD_LOAD_": 1957,
      "ATTRIBUTE_CALL_ATTRIBUTE_NAME_LOAD_LOAD_NAME_LOAD_LOAD_": 1958,
      "KEYWORD_CONSTANT_ASSIGN_ATTRIBUTE_NAME_LOAD_STORE_": 1959,
      "CALL_NAME_LOAD_NAME_LOAD_KEYWORD_NAME_LOAD_": 1960,
      "BINOP_NAME_LOAD_FLOOR": 1961,
      "MODULE_FUNCTIONDEF_ARGUMENTS_ARG_ARG_ARG_CONSTANT_CONSTANT_CONSTANT_EXPR_": 1962,
      "DELETE_SUBSCRIPT_NAME_LOAD_CONSTANT_DEL_": 1963,
      "NAME_LOAD_STORE_NAME_LOAD_": 1964,
      "TUPLE_NAME_LOAD_NAME_LOAD_LOAD_STORE_": 1965,
      "EXPR_CALL_ATTRIBUTE_ATTRIBUTE_NAME_LOAD_LOAD_LOAD_NAME_LOAD_EXPR_CALL_ATTRIBUTE_ATTRIBUTE_NAME_LOAD_LOAD_LOAD_NAME_LOAD_": 1966,
      "IF_COMPARE_NAME_LOAD_NOTIN_ATTRIBUTE_NAME_LOAD_LOAD_ASSIGN_SUBSCRIPT_ATTRIBUTE_NAME_LOAD_LOAD_NAME_LOAD_STORE_": 1967,
      "IF_CALL_ATTRIBUTE_NAME_LOAD_LOAD_NAME_LOAD_NAME_LOAD_": 1968,
      "KEYWORD_NAME_LOAD_KEYWORD_NAME_LOAD_KEYWORD_CONSTANT_": 1969,
      "IF_COMPARE_NAME_LOAD_ISNOT_CONSTANT_EXPR_": 1970,
      "BINOP_ATTRIBUTE_NAME_LOAD_LOAD_BITOR_ATTRIBUTE_NAME_LOAD_LOAD_": 1971,
      "NAME_LOAD_EXPR_": 1972,
      "LIST_CALL_NAME_LOAD_": 1973,
      "IF_COMPARE_CALL_NAME_LOAD_NAME_LOAD_IS_NAME_LOAD_": 1974,
      "CONSTANT_RETURN_CONSTANT_": 1975,
      "IF_COMPARE_CALL_NAME_LOAD_NAME_LOAD_GT_": 1976,
      "IF_COMPARE_NAME_LOAD_LT_CONSTANT_ASSIGN_NAME_STORE_": 1977,
      "ASSIGN_TUPLE_NAME_STORE_NAME_STORE_STORE_CALL_ATTRIBUTE_NAME_LOAD_LOAD_NAME_LOAD_NAME_LOAD_": 1978,
      "CALL_NAME_LOAD_NAME_LOAD_LOAD_LOAD_": 1979,
      "MODULE_FUNCTIONDEF_ARGUMENTS_ARG_EXPR_CONSTANT_IF_CALL_NAME_LOAD_NAME_LOAD_NAME_LOAD_": 1980,
      "LIST_CONSTANT_LIST_CONSTANT_LOAD_LOAD_LIST_CONSTANT_LIST_CONSTANT_LOAD_LOAD_": 1981,
      "NAME_LOAD_NAME_LOAD_NAME_LOAD_NAME_LOAD_NAME_LOAD": 1982,
      "WITH_WITHITEM_CALL_ATTRIBUTE_NAME_LOAD_LOAD_NAME_LOAD_CONSTANT_": 1983,
      "IFEXP_COMPARE_NAME_LOAD_EQ_CONSTANT_": 1984,
      "FOR_NAME_STORE_CALL_NAME_LOAD_CALL_ATTRIBUTE_NAME_LOAD_LOAD_": 1985,
      "MODULE_FUNCTIONDEF_ARGUMENTS_ARG_ARG_ARG_ARG_CONSTANT_": 1986,
      "_ATTRIBUTE_NAME_LOAD_LOAD": 1987,
      "RAISE_CALL_NAME_LOAD_CONSTANT_ASSIGN_NAME_STORE_CALL_NAME_LOAD_": 1988,
      "IF_COMPARE_ATTRIBUTE_NAME_LOAD_LOAD_GTE_": 1989,
      "NAME_LOAD_RETURN_CALL_ATTRIBUTE_NAME_LOAD_LOAD_NAME_LOAD": 1990,
      "MODULE_FUNCTIONDEF_ARGUMENTS_ARG_ARG_ARG_ARG_CONSTANT_EXPR_CONSTANT_": 1991,
      "TUPLE_NAME_STORE_NAME_STORE_NAME_STORE_NAME_STORE_NAME_STORE_NAME_STORE_": 1992,
      "LAMBDA_ARGUMENTS_ARG_ARG_": 1993,
      "EXPR_CALL_ATTRIBUTE_NAME_LOAD_LOAD_TUPLE_": 1994,
      "SUBSCRIPT_CALL_ATTRIBUTE_": 1995,
      "MODULE_FUNCTIONDEF_ARGUMENTS_ARG_ARG_ARG_EXPR_CONSTANT_ASSIGN_NAME_STORE_CALL_NAME_LOAD_NAME_LOAD_": 1996,
      "ASSIGN_NAME_STORE_LISTCOMP_": 1997,
      "CALL_ATTRIBUTE_NAME_LOAD_LOAD_CONSTANT_CONSTANT_LOAD_": 1998,
      "SUBSCRIPT_NAME_LOAD_SUBSCRIPT_NAME_LOAD_NAME_LOAD_LOAD_LOAD_": 1999,
      "CONSTANT_IF_UNARYOP_NOT_CALL_ATTRIBUTE_NAME_LOAD_LOAD_": 2000,
      "BITX": 2001,
      "MODULE_FUNCTIONDEF_ARGUMENTS_ARG_NAME_LOAD_ARG_NAME_LOAD_EXPR_": 2002,
      "MODULE_FUNCTIONDEF_ARGUMENTS_ARG_ARG_ARG_ARG_ARG_ARG_ARG_ARG_ARG_ARG_ARG_ARG": 2003,
      "DELETE_SUBSCRIPT_ATTRIBUTE_NAME_LOAD_LOAD_NAME_LOAD_DEL": 2004,
      "ATTRIBUTE_NAME_LOAD_LOAD_IF_ATTRIBUTE_NAME_LOAD_LOAD_": 2005,
      "IF_NAME_LOAD_EXPR_CALL_ATTRIBUTE_ATTRIBUTE_NAME_LOAD_LOAD_LOAD_": 2006,
      "CONSTANT_CONSTANT_LOAD_LOAD_": 2007,
      "COMPARE_NAME_LOAD_ISNOT_CONSTANT_ASSIGN_NAME_STORE_": 2008,
      "MODULE_FUNCTIONDEF_ARGUMENTS_ARG_EXPR_CONSTANT_FOR_NAME_STORE_ATTRIBUTE_NAME_LOAD_LOAD_": 2009,
      "MODULE_FUNCTIONDEF_ARGUMENTS_ARG_ARG_EXPR_CONSTANT_TRY_": 2010,
      "RETURN_ASSIGN_ATTRIBUTE_NAME_LOAD_STORE_": 2011,
      "ATTRIBUTE_NAME_LOAD_LOAD_EXPR_CALL_ATTRIBUTE_ATTRIBUTE_NAME_LOAD_LOAD_LOAD_": 2012,
      "CALL_NAME_LOAD_NAME_LOAD_COMPREHENSION_NAME_STORE_": 2013,
      "CONSTANT_ASSIGN_TUPLE_NAME_STORE_NAME_STORE_STORE_CALL_NAME_LOAD_NAME_LOAD_": 2014,
      "EXCEPTHANDLER_PASS_": 2015,
      "ATTRIBUTE_SUBSCRIPT_NAME_LOAD_CONSTANT_LOAD_LOAD_LOAD_": 2016,
      "KEYWORD_CONSTANT_RETURN_": 2017,
      "CONSTANT_IF_CALL_ATTRIBUTE_ATTRIBUTE_NAME_LOAD_LOAD_LOAD_": 2018,
      "ASSIGN_TUPLE_NAME_STORE_NAME_STORE_STORE_CALL_ATTRIBUTE_NAME_LOAD_LOAD_CONSTANT_": 2019,
      "IF_CALL_NAME_LOAD_NAME_LOAD_ATTRIBUTE_NAME_LOAD_LOAD_ASSIGN_NAME_STORE_": 2020,
      "KEYWORD_CONSTANT_KEYWORD_CONSTANT_KEYWORD_CONSTANT_KEYWORD_NAME_LOAD_KEYWORD_ATTRIBUTE_NAME_LOAD_LOAD_KEYWORD_ATTRIBUTE_NAME_LOAD_LOAD_KEYWORD_CONSTANT_KEYWORD_DICT_CONSTANT_": 2021,
      "CALL_ATTRIBUTE_CONSTANT_LOAD_SUBSCRIPT_NAME_LOAD_CONSTANT_LOAD_": 2022,
      "RETURN_CALL_ATTRIBUTE_NAME_LOAD_LOAD_CONSTANT_NAME_LOAD": 2023,
      "NAME_LOAD_ASSIGN_NAME_STORE_CONSTANT_ASSIGN_NAME_STORE_": 2024,
      "LIST_NAME_LOAD_NAME_LOAD_NAME_LOAD_LOAD_": 2025,
      "NAME_LOAD_ASSIGN_NAME_STORE_CALL_NAME_LOAD_NAME_LOAD_ASSIGN_NAME_STORE_": 2026,
      "CALL_ATTRIBUTE_NAME_LOAD_LOAD_NAME_LOAD_KEYWORD_NAME_LOAD_": 2027,
      "CONSTANT_ASSIGN_SUBSCRIPT_NAME_LOAD_CONSTANT_STORE_CONSTANT_ASSIGN_SUBSCRIPT_NAME_LOAD_CONSTANT_STORE_CONSTANT_ASSIGN_SUBSCRIPT_NAME_LOAD_CONSTANT_STORE_CONSTANT_ASSIGN_SUBSCRIPT_NAME_LOAD_CONSTANT_STORE_": 2028,
      "ASSIGN_NAME_STORE_CALL_ATTRIBUTE_NAME_LOAD_LOAD_NAME_LOAD_ASSIGN_NAME_STORE_CALL_ATTRIBUTE_NAME_LOAD_LOAD_": 2029,
      "DICT_FOR_TUPLE_NAME_STORE_NAME_STORE_STORE_CALL_ATTRIBUTE_NAME_LOAD_LOAD_": 2030,
      "EXPR_CALL_NAME_LOAD_NAME_LOAD_CONSTANT_": 2031,
      "CALL_ATTRIBUTE_CONSTANT_LOAD_ATTRIBUTE_NAME_LOAD_LOAD_ATTRIBUTE_NAME_LOAD_LOAD_": 2032,
      "EXPR_CALL_ATTRIBUTE_CALL_NAME_LOAD_NAME_LOAD_NAME_LOAD_LOAD_": 2033,
      "AUGASSIGN_SUBSCRIPT_NAME_LOAD_NAME_LOAD_STORE_": 2034,
      "TRY_ASSIGN_NAME_STORE_CALL_ATTRIBUTE_NAME_LOAD_LOAD_NAME_LOAD_EXCEPTHANDLER_NAME_LOAD_": 2035,
      "CALL_NAME_LOAD_ASSIGN_NAME_STORE_": 2036,
      "IF_CALL_NAME_LOAD_NAME_LOAD_CONSTANT_": 2037,
      "MODULE_FUNCTIONDEF_ARGUMENTS_ARG_EXPR_CONSTANT_ASSIGN_NAME_STORE_CALL_ATTRIBUTE_CALL_NAME_LOAD_NAME_LOAD_NAME_LOAD_LOAD_": 2038,
      "KEYWORD_CONSTANT_KEYWORD_CONSTANT_ASSIGN_NAME_STORE_": 2039,
      "CONSTANT_NAME_LOAD_NAME_LOAD_": 2040,
      "CALL_ATTRIBUTE_CALL_ATTRIBUTE_NAME_LOAD_LOAD_CONSTANT_DICT_LOAD_": 2041,
      "CALL_NAME_LOAD_ATTRIBUTE_NAME_LOAD_LOAD_ATTRIBUTE_NAME_LOAD_LOAD_ATTRIBUTE_NAME_LOAD_LOAD_": 2042,
      "ASSIGN_SUBSCRIPT_NAME_LOAD_NAME_LOAD_STORE_CALL_ATTRIBUTE_NAME_LOAD_LOAD_": 2043,
      "COMPARE_CONSTANT_LTE_": 2044,
      "CONSTANT_RETURN_CALL_ATTRIBUTE_ATTRIBUTE_NAME_LOAD_LOAD_LOAD_": 2045,
      "ASSIGN_SUBSCRIPT_NAME_LOAD_CONSTANT_STORE_ADD_": 2046,
      "TRY_EXPR_CALL_ATTRIBUTE_NAME_LOAD_LOAD_NAME_LOAD_NAME_LOAD_": 2047,
      "LISTCOMP_CALL_ATTRIBUTE_NAME_LOAD_LOAD_NAME_LOAD_COMPREHENSION_NAME_STORE_": 2048,
      "NNA": 2049,
      "KEYWORD_LIST_NAME_LOAD_LOAD_": 2050,
      "IF_NAME_LOAD_ASSIGN_ATTRIBUTE_NAME_LOAD_STORE_": 2051,
      "SUBSCRIPT_CALL_ATTRIBUTE_NAME_LOAD_LOAD_CONSTANT_CONSTANT_LOAD_LOAD_": 2052,
      "CONSTANT_EXPR_CONSTANT_": 2053,
      "KEYWORD_ATTRIBUTE_NAME_LOAD_LOAD_KEYWORD_ATTRIBUTE_NAME_LOAD_LOAD": 2054,
      "CONSTANT_ADD_NAME_LOAD_ADD_": 2055,
      "EXPR_CALL_NAME_LOAD_CONSTANT_EXPR_CALL_NAME_LOAD_": 2056,
      "EXPR_CALL_ATTRIBUTE_SUBSCRIPT_NAME_LOAD_NAME_LOAD_LOAD_LOAD_NAME_LOAD_": 2057,
      "ATTRIBUTE_ATTRIBUTE_NAME_LOAD_LOAD_LOAD_LOAD": 2058,
      "ATTRIBUTE_NAME_LOAD_LOAD_ASSIGN_NAME_STORE_CONSTANT_": 2059,
      "BOOLOP_OR_COMPARE_NAME_LOAD_IS_CONSTANT_": 2060,
      "MODULE_FUNCTIONDEF_ARGUMENTS_ARG_ARG_ARG_ARG_ARG_ARG_CONSTANT_CONSTANT_EXPR_": 2061,
      "UNARYOP_NOT_CALL_ATTRIBUTE_ATTRIBUTE_NAME_LOAD_LOAD_LOAD_NAME_LOAD_": 2062,
      "CONSTANT_ASSIGN_SUBSCRIPT_NAME_LOAD_CONSTANT_STORE_CALL_ATTRIBUTE_NAME_LOAD_LOAD_": 2063,
      "IF_COMPARE_NAME_LOAD_ISNOT_CONSTANT_EXPR_CALL_ATTRIBUTE_NAME_LOAD_LOAD_NAME_LOAD_": 2064,
      "KEYWORD_NAME_LOAD_KEYWORD_NAME_LOAD_KEYWORD_NAME_LOAD_KEYWORD_NAME_LOAD_KEYWORD_NAME_LOAD_": 2065,
      "MODULE_FUNCTIONDEF_ARGUMENTS_ARG_EXPR_CONSTANT_IF_COMPARE_ATTRIBUTE_NAME_LOAD_LOAD_ISNOT_CONSTANT_": 2066,
      "SUBSCRIPT_ATTRIBUTE_ATTRIBUTE_ATTRIBUTE_NAME_LOAD_LOAD_LOAD_LOAD_": 2067,
      "CONSTANT_EXPR_CALL_ATTRIBUTE_ATTRIBUTE_ATTRIBUTE_NAME_LOAD_LOAD_LOAD_LOAD_": 2068,
      "TRY_ASSIGN_NAME_STORE_CALL_ATTRIBUTE_ATTRIBUTE_NAME_LOAD_LOAD_LOAD_NAME_LOAD_": 2069,
      "NAME_LOAD_RETURN_CALL_NAME_LOAD_NAME_LOAD": 2070,
      "ASSIGN_NAME_STORE_CALL_ATTRIBUTE_": 2071,
      "BINOP_NAME_LOAD_ADD_CONSTANT_LOAD_LOAD_": 2072,
      "CALL_ATTRIBUTE_CALL_ATTRIBUTE_NAME_LOAD_LOAD_ATTRIBUTE_NAME_LOAD_LOAD_LOAD_": 2073,
      "BINOP_NAME_LOAD_ADD_NAME_LOAD_ASSIGN_NAME_STORE_": 2074,
      "KEYWORD_CALL_ATTRIBUTE_NAME_LOAD_LOAD_CONSTANT_KEYWORD_CALL_ATTRIBUTE_NAME_LOAD_LOAD_CONSTANT_": 2075,
      "SUBSCRIPT_NAME_LOAD_SLICE_CONSTANT_UNARYOP_USUB_CONSTANT_LOAD_": 2076,
      "EXPR_YIELD_TUPLE_NAME_LOAD_": 2077,
      "BINOP_ATTRIBUTE_NAME_LOAD_LOAD_ADD_ATTRIBUTE_NAME_LOAD_LOAD_": 2078,
      "CALL_ATTRIBUTE_ATTRIBUTE_NAME_LOAD_LOAD_LOAD_NAME_LOAD_ASSIGN_NAME_STORE_CALL_ATTRIBUTE_ATTRIBUTE_NAME_LOAD_LOAD_LOAD_NAME_LOAD_": 2079,
      "UNARYOP_INVERT_": 2080,
      "NAME_LOAD_ASSIGN_NAME_STORE_LIST_NAME_LOAD_LOAD_": 2081,
      "LIST_CONSTANT_NAME_LOAD_LOAD_": 2082,
      "BINOP_ATTRIBUTE_NAME_LOAD_LOAD_SUB_": 2083,
      "EXPR_CALL_NAME_LOAD_NAME_LOAD_ASSIGN_NAME_STORE_": 2084,
      "IF_CALL_NAME_LOAD_GENERATOREXP_": 2085,
      "LIST_LOAD_FOR_NAME_STORE_NAME_LOAD_ASSIGN_NAME_STORE_": 2086,
      "CONSTANT_RETURN_TUPLE_NAME_LOAD_NAME_LOAD_LOAD": 2087,
      "MODULE_FUNCTIONDEF_ARGUMENTS_ARG_EXPR_CONSTANT_IMPORTFROM_ALIAS_": 2088,
      "MODULE_FUNCTIONDEF_ARGUMENTS_ARG_ARG_EXPR_CONSTANT_FOR_NAME_STORE_ATTRIBUTE_NAME_LOAD_LOAD_": 2089,
      "EXPR_CALL_ATTRIBUTE_NAME_LOAD_LOAD_CONSTANT_NAME_LOAD": 2090,
      "IF_UNARYOP_NOT_NAME_LOAD_CONTINUE_": 2091,
      "EXPR_CALL_ATTRIBUTE_NAME_LOAD_LOAD_NAME_LOAD_NAME_LOAD_NAME_LOAD_NAME_LOAD_": 2092,
      "SUBSCRIPT_NAME_LOAD_CONSTANT_LOAD_ASSIGN_SUBSCRIPT_NAME_LOAD_CONSTANT_STORE_SUBSCRIPT_NAME_LOAD_CONSTANT_LOAD_ASSIGN_SUBSCRIPT_NAME_LOAD_CONSTANT_STORE_": 2093,
      "LAMBDA_ARGUMENTS_ARG_ATTRIBUTE_NAME_LOAD_LOAD_": 2094,
      "BITAND_CONSTANT_": 2095,
      "TUPLE_CONSTANT_CONSTANT_LOAD_TUPLE_CONSTANT_CONSTANT_LOAD_TUPLE_CONSTANT_CONSTANT_LOAD_TUPLE_CONSTANT_CONSTANT_LOAD_": 2096,
      "CALL_ATTRIBUTE_ATTRIBUTE_NAME_LOAD_LOAD_LOAD_KEYWORD_": 2097,
      "MODULE_FUNCTIONDEF_ARGUMENTS_ARG_EXPR_CONSTANT_ASSIGN_NAME_STORE_LIST_LOAD_FOR_NAME_STORE_": 2098,
      "COMPARE_CONSTANT_NOTIN_": 2099,
      "CALL_NAME_LOAD_NAME_LOAD_LOAD": 2100,
      "RETURN_IFEXP_": 2101,
      "CALL_NAME_LOAD_NAME_LOAD_NAME_LOAD_CONSTANT_": 2102,
      "CALL_NAME_LOAD_NAME_LOAD_NAME_LOAD_NAME_LOAD_ASSIGN_NAME_STORE_": 2103,
      "TRY_EXPR_CALL_NAME_LOAD_NAME_LOAD_": 2104,
      "CONSTANT_IF_BOOLOP_OR_UNARYOP_NOT_NAME_LOAD_": 2105,
      "CALL_NAME_LOAD_ATTRIBUTE_NAME_LOAD_LOAD_CALL_NAME_LOAD_ATTRIBUTE_NAME_LOAD_LOAD_": 2106,
      "FOR_NAME_STORE_NAME_LOAD_ASSIGN_NAME_STORE_CALL_NAME_LOAD_NAME_LOAD_": 2107,
      "KEYWORD_ATTRIBUTE_NAME_LOAD_LOAD_KEYWORD_CONSTANT_": 2108,
      "BOOLOP_OR_NAME_LOAD_NAME_LOAD_": 2109,
      "MODULE_FUNCTIONDEF_ARGUMENTS_ARG_ARG_EXPR_CONSTANT_FOR_NAME_STORE_NAME_LOAD_": 2110,
      "NAME_LOAD_EXPR_CALL_ATTRIBUTE_NAME_LOAD_LOAD_ATTRIBUTE_NAME_LOAD_LOAD_": 2111,
      "ATTRIBUTE_NAME_LOAD_LOAD_ATTRIBUTE_NAME_LOAD_LOAD_LOAD_": 2112,
      "NAME_LOAD_ASSIGN_NAME_STORE_CALL_NAME_LOAD_ATTRIBUTE_NAME_LOAD_LOAD_": 2113,
      "EXPR_CALL_ATTRIBUTE_NAME_LOAD_LOAD_KEYWORD_": 2114,
      "EXPR_CALL_ATTRIBUTE_NAME_LOAD_LOAD_LIST_": 2115,
      "CONSTANT_ASSIGN_ATTRIBUTE_NAME_LOAD_STORE_CONSTANT_": 2116,
      "CALL_NAME_LOAD_SUBSCRIPT_NAME_LOAD_CONSTANT_LOAD_SUBSCRIPT_NAME_LOAD_CONSTANT_LOAD_": 2117,
      "KEYWORD_NAME_LOAD_KEYWORD_CONSTANT": 2118,
      "_ATTRIBUTE_NAME_LOAD_LOAD_ARG": 2119,
      "TUPLE_ATTRIBUTE_ATTRIBUTE_NAME_LOAD_LOAD_LOAD_": 2120,
      "ASSIGN_ATTRIBUTE_NAME_LOAD_STORE_ATTRIBUTE_ATTRIBUTE_NAME_LOAD_LOAD_LOAD_": 2121,
      "ASSIGN_SUBSCRIPT_NAME_LOAD_SLICE_": 2122,
      "COMPARE_ATTRIBUTE_NAME_LOAD_LOAD_IN_NAME_LOAD_": 2123,
      "RETURN_ASSIGN_NAME_STORE_CALL_ATTRIBUTE_NAME_LOAD_LOAD_": 2124,
      "EXPR_CALL_ATTRIBUTE_NAME_LOAD_LOAD_CALL_ATTRIBUTE_NAME_LOAD_LOAD_CONSTANT_": 2125,
      "MODULE_FUNCTIONDEF_ARGUMENTS_ARG_ARG_EXPR_CONSTANT_IF_UNARYOP_NOT_CALL_NAME_LOAD_NAME_LOAD_": 2126,
      "EQ_CONSTANT_RETURN_": 2127,
      "MODULE_FUNCTIONDEF_ARGUMENTS_ARG_EXPR_CONSTANT_RETURN_CALL_NAME_LOAD_": 2128,
      "ASSIGN_SUBSCRIPT_ATTRIBUTE_NAME_LOAD_LOAD_CONSTANT_STORE_NAME_LOAD_": 2129,
      "NNASSIGN_NAME_STORE_": 2130,
      "CONSTANT_ASSIGN_NAME_STORE_BINOP_": 2131,
      "CONSTANT_IF_CALL_ATTRIBUTE_NAME_LOAD_LOAD_NAME_LOAD_": 2132,
      "MODULE_FUNCTIONDEF_ARGUMENTS_ARG_ARG_ARG_ARG_ARG_ARG_CONSTANT_EXPR_": 2133,
      "MODULE_FUNCTIONDEF_ARGUMENTS_ARG_ARG_ARG_CONSTANT_EXPR_CONSTANT_IF_CALL_NAME_LOAD_NAME_LOAD_CONSTANT_ASSIGN_NAME_STORE_CALL_ATTRIBUTE_NAME_LOAD_LOAD_NAME_LOAD_TRY_ASSIGN_NAME_STORE_CALL_NAME_LOAD_NAME_LOAD_KEYWORD_CALL_NAME_LOAD_": 2134,
      "DICT_CONSTANT_DICT_CONSTANT_": 2135,
      "NAME_LOAD_ASSIGN_NAME_STORE_CALL_ATTRIBUTE_ATTRIBUTE_NAME_LOAD_LOAD_LOAD_NAME_LOAD_NAME_LOAD_": 2136,
      "MODULE_FUNCTIONDEF_ARGUMENTS_ARG_EXPR_CONSTANT_IF_UNARYOP_NOT_CALL_NAME_LOAD_NAME_LOAD_": 2137,
      "EXPR_CALL_ATTRIBUTE_ATTRIBUTE_NAME_LOAD_LOAD_LOAD_NAME_LOAD_RETURN_NAME_LOAD": 2138,
      "BINOP_BINOP_BINOP_BINOP_CONSTANT_ADD_": 2139,
      "BINOP_ATTRIBUTE_NAME_LOAD_LOAD_SUB_NAME_LOAD_": 2140,
      "BINOP_NAME_LOAD_SUB_ATTRIBUTE_NAME_LOAD_LOAD_": 2141,
      "CONSTANT_ASSIGN_NAME_STORE_CONSTANT_FOR_NAME_STORE_NAME_LOAD_": 2142,
      "BINOP_NAME_LOAD_MOD_CONSTANT_": 2143,
      "CONSTANT_ASSIGN_TUPLE_NAME_STORE_NAME_STORE_STORE_TUPLE_": 2144,
      "BINOP_ATTRIBUTE_NAME_LOAD_LOAD_ADD_NAME_LOAD_": 2145,
      "EXPR_CALL_ATTRIBUTE_NAME_LOAD_LOAD_ATTRIBUTE_NAME_LOAD_LOAD": 2146,
      "CALL_ATTRIBUTE_ATTRIBUTE_NAME_LOAD_LOAD_LOAD_NAME_LOAD_NAME_LOAD": 2147,
      "CONSTANT_CONSTANT_LOAD_ASSIGN_NAME_STORE_": 2148,
      "CALL_NAME_LOAD_CONSTANT_LOAD_": 2149,
      "FOR_TUPLE_NAME_STORE_NAME_STORE_STORE_CALL_NAME_LOAD_NAME_LOAD_NAME_LOAD_": 2150,
      "LISTCOMP_TUPLE_": 2151,
      "IF_COMPARE_NAME_LOAD_IS_CONSTANT_ASSIGN_NAME_STORE_ATTRIBUTE_NAME_LOAD_LOAD_": 2152,
      "BINOP_CALL_ATTRIBUTE_NAME_LOAD_LOAD_CONSTANT_ADD_": 2153,
      "BOOLOP_AND_ATTRIBUTE_NAME_LOAD_LOAD_": 2154,
      "IF_BOOLOP_AND_COMPARE_ATTRIBUTE_NAME_LOAD_LOAD_ISNOT_CONSTANT_": 2155,
      "CALL_NAME_LOAD_NAME_LOAD_ASSIGN_NAME_STORE_CONSTANT_": 2156,
      "SUBSCRIPT_NAME_LOAD_CONSTANT_LOAD_SUBSCRIPT_NAME_LOAD_CONSTANT_LOAD_SUBSCRIPT_NAME_LOAD_CONSTANT_LOAD_": 2157,
      "ASSIGN_NAME_STORE_CALL_NAME_LOAD_CONSTANT_": 2158,
      "COMPARE_CONSTANT_IN_NAME_LOAD_COMPARE_CONSTANT_IN_NAME_LOAD_": 2159,
      "KEYWORD_CONSTANT_ASSIGN_NAME_STORE_CALL_ATTRIBUTE_NAME_LOAD_LOAD_NAME_LOAD_": 2160,
      "SUBSCRIPT_NAME_LOAD_NAME_LOAD_LOAD_STORE_": 2161,
      "ASSIGN_NAME_STORE_CALL_ATTRIBUTE_NAME_LOAD_LOAD_NAME_LOAD_ASSIGN_NAME_STORE_CALL_ATTRIBUTE_NAME_LOAD_LOAD_NAME_LOAD_": 2162,
      "CONSTANT_ASSIGN_NAME_STORE_CALL_ATTRIBUTE_NAME_LOAD_LOAD_KEYWORD_CONSTANT_KEYWORD_CONSTANT_KEYWORD_CONSTANT_": 2163,
      "TUPLE_CONSTANT_NAME_LOAD_LOAD_LOAD_": 2164,
      "DICT_ASSIGN_ATTRIBUTE_NAME_LOAD_STORE_": 2165,
      "EXPR_CALL_ATTRIBUTE_NAME_LOAD_LOAD_NAME_LOAD_EXPR_CALL_ATTRIBUTE_NAME_LOAD_LOAD_CONSTANT_": 2166,
      "CALL_NAME_LOAD_ATTRIBUTE_NAME_LOAD_LOAD": 2167,
      "EXPR_CALL_ATTRIBUTE_NAME_LOAD_LOAD_NAME_LOAD_IF_NAME_LOAD_": 2168,
      "BINOP_CONSTANT_MOD_TUPLE_ATTRIBUTE_NAME_LOAD_LOAD_ATTRIBUTE_NAME_LOAD_LOAD_LOAD_": 2169,
      "MODULE_FUNCTIONDEF_ARGUMENTS_ARG_EXPR_CONSTANT_ASSIGN_NAME_STORE_DICT_ASSIGN_NAME_STORE_": 2170,
      "IF_COMPARE_ATTRIBUTE_NAME_LOAD_LOAD_IN_ATTRIBUTE_NAME_LOAD_LOAD_": 2171,
      "ASSIGN_TUPLE_NAME_STORE_NAME_STORE_STORE_CALL_ATTRIBUTE_ATTRIBUTE_NAME_LOAD_LOAD_LOAD_NAME_LOAD_": 2172,
      "CONSTANT_LOAD_STORE_": 2173,
      "COMPARE_CALL_NAME_LOAD_SUBSCRIPT_NAME_LOAD_CONSTANT_LOAD_": 2174,
      "FOR_TUPLE_NAME_STORE_TUPLE_NAME_STORE_NAME_STORE_STORE_STORE_": 2175,
      "ASSIGN_ATTRIBUTE_NAME_LOAD_STORE_CONSTANT_EXPR_CALL_ATTRIBUTE_NAME_LOAD_LOAD_": 2176,
      "JOINEDSTR_CONSTANT_FORMATTEDVALUE_NAME_LOAD_CONSTANT_FORMATTEDVALUE_": 2177,
      "CALL_NAME_LOAD_NAME_LOAD_KEYWORD_": 2178,
      "UNARYOP_NOT_CALL_ATTRIBUTE_ATTRIBUTE_NAME_LOAD_LOAD_LOAD_": 2179,
      "TUPLE_CONSTANT_CONSTANT_CONSTANT_LOAD_TUPLE_CONSTANT_CONSTANT_CONSTANT_LOAD_": 2180,
      "BINOP_ATTRIBUTE_NAME_LOAD_LOAD_SUB_CONSTANT_": 2181,
      "EXCEPTHANDLER_EXPR_": 2182,
      "BINOP_CONSTANT_MOD_TUPLE_NAME_LOAD_NAME_LOAD_NAME_LOAD_LOAD_": 2183,
      "CALL_NAME_LOAD_NAME_LOAD_NAME_LOAD_LOAD": 2184,
      "CALL_NAME_LOAD_CONSTANT_CALL_NAME_LOAD_CONSTANT_": 2185,
      "CALL_ATTRIBUTE_CALL_NAME_LOAD_NAME_LOAD_NAME_LOAD_LOAD_NAME_LOAD_": 2186,
      "ASSIGN_NAME_STORE_CALL_NAME_LOAD_ASSIGN_NAME_STORE_CALL_NAME_LOAD_": 2187,
      "CONSTANT_IF_UNARYOP_NOT_CALL_NAME_LOAD_NAME_LOAD_NAME_LOAD_RAISE_CALL_NAME_LOAD_CONSTANT_": 2188,
      "SUBSCRIPT_CALL_ATTRIBUTE_ATTRIBUTE_NAME_LOAD_LOAD_LOAD_NAME_LOAD_CONSTANT_LOAD_": 2189,
      "IF_COMPARE_NAME_LOAD_IS_CONSTANT_CONTINUE_": 2190,
      "CALL_ATTRIBUTE_CALL_ATTRIBUTE_CALL_ATTRIBUTE_NAME_LOAD_LOAD_LOAD_": 2191,
      "EXPR_CALL_ATTRIBUTE_ATTRIBUTE_NAME_LOAD_LOAD_LOAD_CALL_ATTRIBUTE_CONSTANT_LOAD_": 2192,
      "CALL_ATTRIBUTE_NAME_LOAD_LOAD_NAME_LOAD_NAME_LOAD_NAME_LOAD": 2193,
      "ATTRIBUTE_ATTRIBUTE_ATTRIBUTE_NAME_LOAD_LOAD_LOAD_LOAD_LOAD_LOAD_": 2194,
      "DICTCOMP_NAME_LOAD_NAME_LOAD_COMPREHENSION_TUPLE_NAME_STORE_NAME_STORE_STORE_": 2195,
      "CONSTANT_ASSIGN_NAME_STORE_SUBSCRIPT_NAME_LOAD_CONSTANT_LOAD_": 2196,
      "CONSTANT_ASSIGN_NAME_STORE_LIST_LOAD_ASSIGN_NAME_STORE_": 2197,
      "CALL_ATTRIBUTE_ATTRIBUTE_ATTRIBUTE_NAME_LOAD_LOAD_LOAD_LOAD_ATTRIBUTE_NAME_LOAD_LOAD_": 2198,
      "IF_COMPARE_NAME_LOAD_ISNOT_CONSTANT_EXPR_CALL_ATTRIBUTE_NAME_LOAD_LOAD_": 2199,
      "ASSIGN_ATTRIBUTE_ATTRIBUTE_NAME_LOAD_LOAD_STORE_NAME_LOAD_": 2200,
      "MODULE_FUNCTIONDEF_ARGUMENTS_ARG_ARG_ARG_ARG_ARG_ARG_ARG_CONSTANT_CONSTANT_CONSTANT_CONSTANT_CONSTANT_CONSTANT_EXPR_": 2201,
      "MODULE_FUNCTIONDEF_ARGUMENTS_ARG_EXPR_CONSTANT_ASSERT_": 2202,
      "BINOP_CALL_ATTRIBUTE_ATTRIBUTE_NAME_LOAD_LOAD_LOAD_": 2203,
      "ASSIGN_SUBSCRIPT_NAME_LOAD_CONSTANT_STORE_CALL_NAME_LOAD_ATTRIBUTE_NAME_LOAD_LOAD_": 2204,
      "ASSIGN_NAME_STORE_ATTRIBUTE_NAME_LOAD_LOAD_ASSIGN_NAME_STORE_": 2205,
      "IF_COMPARE_CONSTANT_LTE_": 2206,
      "MODULE_FUNCTIONDEF_ARGUMENTS_ARG_ARG_CONSTANT_EXPR_CONSTANT_RETURN_": 2207,
      "BINOP_BINOP_CONSTANT_ADD_CALL_NAME_LOAD_NAME_LOAD_ADD_": 2208,
      "RETURN_CALL_NAME_LOAD_GENERATOREXP_": 2209,
      "IS_ATTRIBUTE_NAME_LOAD_LOAD_": 2210,
      "RAISE_CALL_NAME_LOAD_BINOP_CONSTANT_MOD_TUPLE_NAME_LOAD_": 2211,
      "CALL_ATTRIBUTE_NAME_LOAD_LOAD_KEYWORD_NAME_LOAD_": 2212,
      "ASSIGN_NAME_STORE_SUBSCRIPT_NAME_LOAD_NAME_LOAD_LOAD_": 2213,
      "RETURN_SUBSCRIPT_ATTRIBUTE_NAME_LOAD_LOAD_NAME_LOAD_LOAD_": 2214,
      "ASSIGN_SUBSCRIPT_NAME_LOAD_CONSTANT_STORE_CALL_NAME_LOAD_": 2215,
      "WITH_WITHITEM_CALL_NAME_LOAD_ATTRIBUTE_NAME_LOAD_LOAD_CONSTANT_NAME_STORE_": 2216,
      "BINOP_CONSTANT_ADD_ATTRIBUTE_NAME_LOAD_LOAD_": 2217,
      "EXCEPTHANDLER_NAME_LOAD_CONTINUE_": 2218,
      "BINOP_NAME_LOAD_ADD_CONSTANT_LOAD_ASSIGN_NAME_STORE_": 2219,
      "EXPR_CALL_ATTRIBUTE_NAME_LOAD_LOAD_ATTRIBUTE_NAME_LOAD_LOAD_NAME_LOAD_": 2220,
      "LIST_CONSTANT_CONSTANT_CONSTANT_CONSTANT_CONSTANT_LOAD_LIST_CONSTANT_CONSTANT_CONSTANT_CONSTANT_CONSTANT_LOAD_": 2221,
      "ASSIGN_NAME_STORE_SUBSCRIPT_NAME_LOAD_CONSTANT_LOAD_": 2222,
      "IF_BOOLOP_AND_COMPARE_ATTRIBUTE_NAME_LOAD_LOAD_EQ_CONSTANT_": 2223,
      "SETCOMP": 2224,
      "MODULE_FUNCTIONDEF_ARGUMENTS_ARG_EXPR_CONSTANT_IMPORTFROM_ALIAS_ASSIGN_NAME_STORE_": 2225,
      "COMPARE_ATTRIBUTE_NAME_LOAD_LOAD_GTE_": 2226,
      "CALL_ATTRIBUTE_CALL_NAME_LOAD_ATTRIBUTE_NAME_LOAD_LOAD_LOAD_": 2227,
      "BINOP_NAME_LOAD_ADD_NAME_LOAD": 2228,
      "IF_UNARYOP_NOT_NAME_LOAD_RAISE_CALL_NAME_LOAD_": 2229,
      "WHILE_NAME_LOAD_": 2230,
      "EXPR_CALL_NAME_LOAD_NAME_LOAD_EXPR_CALL_NAME_LOAD_NAME_LOAD_": 2231,
      "SUBSCRIPT_ATTRIBUTE_SUBSCRIPT_NAME_LOAD_CONSTANT_LOAD_LOAD_": 2232,
      "CALL_ATTRIBUTE_NAME_LOAD_LOAD_ATTRIBUTE_ATTRIBUTE_NAME_LOAD_LOAD_LOAD_": 2233,
      "BINOP_CONSTANT_MOD_NAME_LOAD": 2234,
      "DICT_CONSTANT_NAME_LOAD": 2235,
      "MODULE_FUNCTIONDEF_ARGUMENTS_ARG_ARG_ARG_CONSTANT_EXPR_CONSTANT_ASSIGN_NAME_STORE_CALL_NAME_LOAD_": 2236,
      "EXPR_CALL_ATTRIBUTE_ATTRIBUTE_NAME_LOAD_LOAD_LOAD_NAME_LOAD_NAME_LOAD": 2237,
      "TRY_EXPR_CALL_ATTRIBUTE_ATTRIBUTE_NAME_LOAD_LOAD_LOAD_NAME_LOAD_": 2238,
      "MODULE_FUNCTIONDEF_ARGUMENTS_ARG_ARG_ARG_ARG_ARG_EXPR_CONSTANT_": 2239,
      "LISTCOMP_ATTRIBUTE_NAME_LOAD_LOAD_COMPREHENSION_NAME_STORE_NAME_LOAD_": 2240,
      "RETURN_CONSTANT_IF_BOOLOP_AND_": 2241,
      "RETURN_CALL_NAME_LOAD_NAME_LOAD_NAME_LOAD_NAME_LOAD": 2242,
      "IF_UNARYOP_NOT_ATTRIBUTE_ATTRIBUTE_NAME_LOAD_LOAD_LOAD_": 2243,
      "EXPR_CALL_ATTRIBUTE_NAME_LOAD_LOAD_NAME_LOAD_EXPR_CALL_ATTRIBUTE_NAME_LOAD_LOAD_NAME_LOAD": 2244,
      "DICT_CONSTANT_CONSTANT_CONSTANT_CONSTANT_KEYWORD_CONSTANT_KEYWORD_CONSTANT_KEYWORD_CONSTANT_KEYWORD_CONSTANT_EXCEPTHANDLER_TUPLE_NAME_LOAD_NAME_LOAD_LOAD_RAISE_CALL_NAME_LOAD_DICT_CONSTANT_CONSTANT_CONSTANT_CONSTANT_CONSTANT_CONSTANT_ASSIGN_ATTRIBUTE_NAME_LOAD_STORE_NAME_LOAD_IF_CALL_NAME_LOAD_NAME_LOAD_CONSTANT_EXPR_CALL_ATTRIBUTE_NAME_LOAD_LOAD": 2245,
      "LSHIFT_": 2246,
      "ASSIGN_NAME_STORE_DICT_": 2247,
      "COMPREHENSION_NAME_STORE_NAME_LOAD_RETURN_NAME_LOAD": 2248,
      "MODULE_FUNCTIONDEF_ARGUMENTS_ARG_ARG_ARG_ARG_ARG_CONSTANT_": 2249,
      "CALL_ATTRIBUTE_NAME_LOAD_LOAD_CONSTANT_ATTRIBUTE_NAME_LOAD_LOAD_": 2250,
      "NAME_LOAD_ASSIGN_NAME_STORE_CALL_ATTRIBUTE_NAME_LOAD_LOAD_NAME_LOAD_ASSIGN_NAME_STORE_CALL_ATTRIBUTE_NAME_LOAD_LOAD_NAME_LOAD_": 2251,
      "AUGASSIGN_NAME_STORE_ADD_CONSTANT_AUGASSIGN_NAME_STORE_ADD_": 2252,
      "MODULE_FUNCTIONDEF_ARGUMENTS_ARG_ARG_EXPR_CONSTANT_IF_UNARYOP_NOT_NAME_LOAD_": 2253,
      "CONSTANT_IF_BOOLOP_OR_COMPARE_NAME_LOAD_IS_CONSTANT_": 2254,
      "CALL_NAME_LOAD_LAMBDA_ARGUMENTS_ARG_": 2255,
      "ASSIGN_NAME_STORE_CALL_ATTRIBUTE_CALL_ATTRIBUTE_NAME_LOAD_LOAD_LOAD_": 2256,
      "COMPARE_NAME_LOAD_IS_CONSTANT_ASSIGN_NAME_STORE_": 2257,
      "IF_COMPARE_ATTRIBUTE_NAME_LOAD_LOAD_NOTEQ_NAME_LOAD_": 2258,
      "EXPR_CALL_ATTRIBUTE_NAME_LOAD_LOAD_NAME_LOAD_NAME_LOAD_RETURN_NAME_LOAD": 2259,
      "SUBSCRIPT_ATTRIBUTE_NAME_LOAD_LOAD_CONSTANT_LOAD_NAME_LOAD_": 2260,
      "IF_BOOLOP_OR_COMPARE_NAME_LOAD_EQ_CONSTANT_": 2261,
      "CALL_ATTRIBUTE_ATTRIBUTE_NAME_LOAD_LOAD_LOAD_SUBSCRIPT_NAME_LOAD_CONSTANT_LOAD_": 2262,
      "LIST_ATTRIBUTE_ATTRIBUTE_NAME_LOAD_LOAD_LOAD_": 2263,
      "RETURN_CONSTANT_RETURN_NAME_LOAD": 2264,
      "RAISE_CALL_NAME_LOAD_CALL_ATTRIBUTE_CONSTANT_LOAD_NAME_LOAD_ASSIGN_NAME_STORE_": 2265,
      "DELETE_NAME_DEL_": 2266,
      "NAME_LOAD_NAME_LOAD_RETURN_NAME_LOAD": 2267,
      "BINOP_ATTRIBUTE_": 2268,
      "CALL_ATTRIBUTE_NAME_LOAD_LOAD_NAME_LOAD_EXPR_CALL_ATTRIBUTE_NAME_LOAD_LOAD_": 2269,
      "FOR_NAME_STORE_NAME_LOAD_ASSIGN_NAME_STORE_CALL_NAME_LOAD_": 2270,
      "SUBSCRIPT_NAME_LOAD_NAME_LOAD_LOAD_ASSIGN_SUBSCRIPT_NAME_LOAD_NAME_LOAD_STORE_": 2271,
      "EXPR_CALL_NAME_LOAD_CONSTANT_RETURN_": 2272,
      "CONSTANT_CONSTANT_CONSTANT_CONSTANT_CONSTANT_CONSTANT_CONSTANT_CONSTANT_CONSTANT_CONSTANT_CONSTANT_CONSTANT_CONSTANT_CONSTANT_CONSTANT_CONSTANT_CONSTANT_CONSTANT_CONSTANT_CONSTANT_CONSTANT_CONSTANT_CONSTANT_CONSTANT_CONSTANT_CONSTANT_CONSTANT_CONSTANT_CONSTANT_CONSTANT_CONSTANT_CONSTANT_": 2273,
      "EXPR_CALL_ATTRIBUTE_ATTRIBUTE_NAME_LOAD_LOAD_LOAD_NAME_LOAD_EXPR_CALL_ATTRIBUTE_NAME_LOAD_LOAD_": 2274,
      "BINOP_NAME_LOAD_ADD_CONSTANT_EXPR_CALL_ATTRIBUTE_NAME_LOAD_LOAD_": 2275,
      "ERT_ATTRIBUTE_NAME_LOAD_LOAD_": 2276,
      "RETURN_ASSIGN_": 2277,
      "IF_COMPARE_NAME_LOAD_ISNOT_CONSTANT_ASSIGN_SUBSCRIPT_NAME_LOAD_CONSTANT_STORE_CALL_ATTRIBUTE_ATTRIBUTE_NAME_LOAD_LOAD_LOAD_CONSTANT_NAME_LOAD_CONSTANT_IF_COMPARE_NAME_LOAD_ISNOT_CONSTANT_ASSIGN_SUBSCRIPT_NAME_LOAD_CONSTANT_STORE_CALL_ATTRIBUTE_ATTRIBUTE_NAME_LOAD_LOAD_LOAD_CONSTANT_NAME_LOAD_": 2278,
      "CONSTANT_CONSTANT_EXPR_CONSTANT_ASSIGN_NAME_STORE_": 2279,
      "ASSIGN_TUPLE_NAME_STORE_STORE_": 2280,
      "BINOP_ATTRIBUTE_ATTRIBUTE_NAME_LOAD_LOAD_LOAD_ADD_": 2281,
      "LIST_SUBSCRIPT_NAME_LOAD_CONSTANT_LOAD_LOAD_": 2282,
      "IF_BOOLOP_AND_UNARYOP_NOT_ATTRIBUTE_NAME_LOAD_LOAD_": 2283,
      "BREAK_EXPR_": 2284,
      "IF_COMPARE_CALL_ATTRIBUTE_NAME_LOAD_LOAD_EQ_CONSTANT_ASSIGN_NAME_STORE_": 2285,
      "IF_NAME_LOAD_ASSIGN_SUBSCRIPT_NAME_LOAD_CONSTANT_STORE_NAME_LOAD_IF_NAME_LOAD_ASSIGN_SUBSCRIPT_NAME_LOAD_CONSTANT_STORE_NAME_LOAD_": 2286,
      "CALL_NAME_LOAD_KEYWORD_NAME_LOAD_": 2287,
      "CALL_NAME_LOAD_CALL_NAME_LOAD_NAME_LOAD_NAME_LOAD_": 2288,
      "TUPLE_CONSTANT_ATTRIBUTE_NAME_LOAD_LOAD_LOAD_": 2289,
      "IMPORTFROM_ALIAS_IMPORTFROM_ALIAS_": 2290,
      "SUBSCRIPT_ATTRIBUTE_NAME_LOAD_LOAD_ATTRIBUTE_NAME_LOAD_LOAD_LOAD_LOAD_": 2291,
      "CALL_ATTRIBUTE_CALL_NAME_LOAD_CONSTANT_LOAD_": 2292,
      "RETURN_TUPLE_CONSTANT_": 2293,
      "COMPARE_ATTRIBUTE_NAME_LOAD_LOAD_NOTEQ_ATTRIBUTE_NAME_LOAD_LOAD_": 2294,
      "IF_CALL_NAME_LOAD_NAME_LOAD_NAME_LOAD_ASSIGN_NAME_STORE_CALL_ATTRIBUTE_NAME_LOAD_LOAD_": 2295,
      "PASS_ASSIGN_NAME_STORE_": 2296,
      "BINOP_CALL_NAME_LOAD_CONSTANT_": 2297,
      "EXPR_CALL_ATTRIBUTE_NAME_LOAD_LOAD_NAME_LOAD_NAME_LOAD_NAME_LOAD": 2298,
      "IF_ATTRIBUTE_NAME_LOAD_LOAD_ASSIGN_NAME_STORE_CALL_ATTRIBUTE_NAME_LOAD_LOAD_": 2299,
      "CONSTANT_ASSIGN_NAME_STORE_CALL_NAME_LOAD_CALL_ATTRIBUTE_NAME_LOAD_LOAD_": 2300,
      "IF_COMPARE_ATTRIBUTE_NAME_LOAD_LOAD_EQ_CONSTANT_RETURN_": 2301,
      "RAISE_CALL_NAME_LOAD_NAME_LOAD_ASSIGN_NAME_STORE_": 2302,
      "DICT_CONSTANT_NAME_LOAD_ASSIGN_NAME_STORE_": 2303,
      "IF_UNARYOP_NOT_CALL_ATTRIBUTE_NAME_LOAD_LOAD_CONSTANT_": 2304,
      "TRY_EXPR_YIELD_": 2305,
      "EXPR_CALL_ATTRIBUTE_ATTRIBUTE_NAME_LOAD_LOAD_LOAD_CONSTANT_ATTRIBUTE_NAME_LOAD_LOAD_": 2306,
      "EXPR_CALL_ATTRIBUTE_ATTRIBUTE_ATTRIBUTE_NAME_LOAD_LOAD_LOAD_LOAD_NAME_LOAD_": 2307,
      "EXPR_CALL_ATTRIBUTE_SUBSCRIPT_NAME_LOAD_CONSTANT_LOAD_LOAD_NAME_LOAD_": 2308,
      "CONSTANT_ASSIGN_NAME_STORE_ATTRIBUTE_NAME_LOAD_LOAD_ASSIGN_NAME_STORE_": 2309,
      "UNARYOP_USUB_CONSTANT_LOAD": 2310,
      "ASSIGN_NAME_STORE_CALL_NAME_LOAD_NAME_LOAD_ASSIGN_NAME_STORE_": 2311,
      "CONSTANT_LOAD_RETURN_NAME_LOAD": 2312,
      "KEYWORD_NAME_LOAD_ASSIGN_NAME_STORE_CALL_NAME_LOAD_": 2313,
      "KEYWORD_CALL_ATTRIBUTE_NAME_LOAD_LOAD_CONSTANT_CONSTANT_": 2314,
      "CONSTANT_ASSIGN_NAME_STORE_CALL_ATTRIBUTE_": 2315,
      "CONSTANT_RETURN_CALL_ATTRIBUTE_NAME_LOAD_LOAD_NAME_LOAD_": 2316,
      "IF_COMPARE_NAME_LOAD_IN_LIST_CONSTANT_CONSTANT_LOAD_": 2317,
      "SUBSCRIPT_SUBSCRIPT_ATTRIBUTE_NAME_LOAD_LOAD_CONSTANT_LOAD_NAME_LOAD_LOAD_": 2318,
      "CONSTANT_IF_COMPARE_": 2319,
      "CALL_ATTRIBUTE_ATTRIBUTE_NAME_LOAD_LOAD_LOAD_CALL_ATTRIBUTE_ATTRIBUTE_NAME_LOAD_LOAD_LOAD_NAME_LOAD_": 2320,
      "SUBSCRIPT_NAME_LOAD_SLICE_NAME_LOAD_NAME_LOAD_LOAD_": 2321,
      "GENERATOREXP_NAME_LOAD_COMPREHENSION_NAME_STORE_NAME_LOAD_": 2322,
      "CALL_NAME_LOAD_SUBSCRIPT_NAME_LOAD_CONSTANT_LOAD_LOAD_": 2323,
      "IF_COMPARE_NAME_LOAD_EQ_ATTRIBUTE_ATTRIBUTE_NAME_LOAD_LOAD_LOAD_": 2324,
      "COMPREHENSION_NAME_STORE_CALL_NAME_LOAD_NAME_LOAD_": 2325,
      "MODULE_FUNCTIONDEF_ARGUMENTS_ARG_EXPR_CONSTANT_ASSIGN_NAME_STORE_CALL_ATTRIBUTE_NAME_LOAD_LOAD_ATTRIBUTE_NAME_LOAD_LOAD_": 2326,
      "SUBSCRIPT_SUBSCRIPT_NAME_LOAD_UNARYOP_USUB_CONSTANT_LOAD_": 2327,
      "CALL_ATTRIBUTE_NAME_LOAD_LOAD_CONSTANT_RETURN_NAME_LOAD": 2328,
      "IN_TUPLE_CONSTANT_CONSTANT_LOAD_": 2329,
      "FOR_NAME_STORE_NAME_LOAD_ASSIGN_SUBSCRIPT_NAME_LOAD_NAME_LOAD_STORE_": 2330,
      "MODULE_FUNCTIONDEF_ARGUMENTS_ARG_ARG_ARG_ARG_ARG_ARG_ARG_ARG_CONSTANT_CONSTANT_CONSTANT_CONSTANT_CONSTANT_": 2331,
      "CONSTANT_AUGASSIGN_ATTRIBUTE_NAME_LOAD_STORE_": 2332,
      "CONSTANT_NAME_STORE_": 2333,
      "CALL_NAME_LOAD_SUBSCRIPT_NAME_LOAD_NAME_LOAD_LOAD_NAME_LOAD_": 2334,
      "CONSTANT_EXCEPTHANDLER_NAME_LOAD_": 2335,
      "SUBSCRIPT_SUBSCRIPT_SUBSCRIPT_NAME_LOAD_CONSTANT_LOAD_NAME_LOAD_LOAD_": 2336,
      "MODULE_FUNCTIONDEF_ARGUMENTS_ARG_EXPR_CONSTANT_FOR_NAME_STORE_": 2337,
      "KEYWORD_ATTRIBUTE_NAME_LOAD_LOAD_EXPR_CALL_ATTRIBUTE_NAME_LOAD_LOAD_": 2338,
      "MODULE_FUNCTIONDEF_ARGUMENTS_ARG_CONSTANT_EXPR_CONSTANT_": 2339,
      "ASSIGN_ATTRIBUTE_ATTRIBUTE_ATTRIBUTE_NAME_LOAD_LOAD_LOAD_STORE_": 2340,
      "ASSIGN_TUPLE_NAME_STORE_NAME_STORE_NAME_STORE_STORE_CALL_ATTRIBUTE_NAME_LOAD_LOAD_": 2341,
      "BINOP_NAME_LOAD_SUB_CONSTANT_ASSIGN_NAME_STORE_": 2342,
      "IF_COMPARE_NAME_LOAD_IS_CONSTANT_RETURN_CONSTANT_": 2343,
      "KEYWORD_SUBSCRIPT_ATTRIBUTE_NAME_LOAD_LOAD_CONSTANT_LOAD": 2344,
      "EXPR_CALL_ATTRIBUTE_NAME_LOAD_LOAD_SUBSCRIPT_NAME_LOAD_NAME_LOAD_LOAD_": 2345,
      "ADD_NAME_LOAD_ADD_": 2346,
      "BINOP_NAME_LOAD_ADD_CONSTANT_NAME_LOAD_": 2347,
      "CONSTANT_IF_UNARYOP_NOT_CALL_ATTRIBUTE_NAME_LOAD_LOAD_NAME_LOAD_": 2348,
      "IF_CALL_NAME_LOAD_NAME_LOAD_NAME_LOAD_RETURN_": 2349,
      "IF_COMPARE_NAME_LOAD_EQ_CONSTANT_ASSIGN_ATTRIBUTE_NAME_LOAD_STORE_": 2350,
      "WHILE_COMPARE_NAME_LOAD_LT_NAME_LOAD_": 2351,
      "ASSIGN_NAME_STORE_SUBSCRIPT_ATTRIBUTE_NAME_LOAD_LOAD_CONSTANT_LOAD_": 2352,
      "NAME_LOAD_LOAD_STORE_": 2353,
      "SUBSCRIPT_NAME_LOAD_CONSTANT_LOAD_IF_COMPARE_CONSTANT_IN_NAME_LOAD_": 2354,
      "COMPREHENSION_NAME_STORE_CALL_NAME_LOAD_CONSTANT_": 2355,
      "RETURN_ATTRIBUTE_ATTRIBUTE_NAME_LOAD_LOAD_LOAD_": 2356,
      "SUBSCRIPT_ATTRIBUTE_NAME_LOAD_LOAD_SUBSCRIPT_NAME_LOAD_CONSTANT_LOAD_LOAD_": 2357,
      "IF_BOOLOP_AND_COMPARE_NAME_LOAD_IN_NAME_LOAD_": 2358,
      "MODULE_FUNCTIONDEF_ARGUMENTS_ARG_ARG_NAME_LOAD_EXPR_CONSTANT_": 2359,
      "BINOP_CONSTANT_MOD_NAME_LOAD_LOAD_": 2360,
      "CONSTANT_EXPR_CALL_NAME_LOAD_NAME_LOAD_NAME_LOAD_": 2361,
      "CALL_ATTRIBUTE_CONSTANT_LOAD_NAME_LOAD_ASSIGN_SUBSCRIPT_NAME_LOAD_CONSTANT_STORE_": 2362,
      "IF_COMPARE_CALL_NAME_LOAD_NAME_LOAD_NOTEQ_CONSTANT_EXPR_CALL_ATTRIBUTE_NAME_LOAD_LOAD_": 2363,
      "_ASS": 2364,
      "TRY_ASSIGN_NAME_STORE_CALL_ATTRIBUTE_NAME_LOAD_LOAD_CONSTANT_": 2365,
      "IF_COMPARE_NAME_LOAD_ISNOT_CONSTANT_ASSIGN_SUBSCRIPT_NAME_LOAD_CONSTANT_STORE_NAME_LOAD_IF_COMPARE_NAME_LOAD_ISNOT_CONSTANT_ASSIGN_SUBSCRIPT_NAME_LOAD_CONSTANT_STORE_NAME_LOAD_": 2366,
      "EXPR_CALL_ATTRIBUTE_NAME_LOAD_LOAD_NAME_LOAD_KEYWORD_CONSTANT_": 2367,
      "MODULE_FUNCTIONDEF_ARGUMENTS_ARG_ARG_ARG_NAME_LOAD_EXPR_": 2368,
      "ATTRIBUTE_NAME_LOAD_LOAD_ASSIGN_NAME_STORE_CALL_ATTRIBUTE_NAME_LOAD_LOAD_ATTRIBUTE_NAME_LOAD_LOAD_": 2369,
      "EXPR_CONSTANT_ASSIGN_NAME_STORE_CALL_ATTRIBUTE_NAME_LOAD_LOAD_": 2370,
      "AUGASSIGN_NAME_STORE_ADD_CONSTANT_RETURN_NAME_LOAD": 2371,
      "EXCEPTHANDLER_NAME_LOAD_PASS_RETURN_NAME_LOAD": 2372,
      "IF_COMPARE_CALL_NAME_LOAD_ATTRIBUTE_NAME_LOAD_LOAD_EQ_CONSTANT_": 2373,
      "LIST_CONSTANT_CONSTANT_CONSTANT_CONSTANT_CONSTANT_CONSTANT_LOAD_": 2374,
      "CALL_ATTRIBUTE_CONSTANT_LOAD_CALL_ATTRIBUTE_NAME_LOAD_LOAD_": 2375,
      "EXPR_CALL_ATTRIBUTE_ATTRIBUTE_NAME_LOAD_LOAD_LOAD_CALL_ATTRIBUTE_NAME_LOAD_LOAD_": 2376,
      "TRY_ASSIGN_NAME_STORE_CALL_ATTRIBUTE_NAME_LOAD_LOAD_NAME_LOAD_NAME_LOAD_": 2377,
      "MODULE_FUNCTIONDEF_ARGUMENTS_ARG_ARG_EXPR_CONSTANT_EXPR_CALL_ATTRIBUTE_NAME_LOAD_LOAD_CONSTANT_": 2378,
      "EXPR_CALL_ATTRIBUTE_NAME_LOAD_LOAD_ATTRIBUTE_NAME_LOAD_LOAD_RETURN_NAME_LOAD": 2379,
      "EXPR_CALL_NAME_LOAD_NAME_LOAD_NAME_LOAD_NAME_LOAD": 2380,
      "CONSTANT_ASSIGN_NAME_STORE_CALL_ATTRIBUTE_ATTRIBUTE_NAME_LOAD_LOAD_LOAD_CONSTANT_": 2381,
      "RAISE_CALL_NAME_LOAD_ATTRIBUTE_NAME_LOAD_LOAD_": 2382,
      "AUGASSIGN_NAME_STORE_ADD_CALL_ATTRIBUTE_NAME_LOAD_LOAD_": 2383,
      "WHILE_COMPARE_CALL_NAME_LOAD_NAME_LOAD_": 2384,
      "IF_COMPARE_ATTRIBUTE_NAME_LOAD_LOAD_ISNOT_": 2385,
      "EXPR_CALL_ATTRIBUTE_NAME_LOAD_LOAD_BINOP_CONSTANT_ADD_": 2386,
      "LISTCOMP_CALL_NAME_LOAD_NAME_LOAD_NAME_LOAD_": 2387,
      "EXPR_CALL_ATTRIBUTE_NAME_LOAD_LOAD_BINOP_CONSTANT_MOD_TUPLE_NAME_LOAD_": 2388,
      "LIST_CONSTANT_CONSTANT_CONSTANT_CONSTANT_CONSTANT_CONSTANT_CONSTANT_CONSTANT_LOAD_": 2389,
      "ATTRIBUTE_NAME_LOAD_LOAD_ATTRIBUTE_NAME_LOAD_LOAD_NAME_LOAD_": 2390,
      "SUBSCRIPT_NAME_LOAD_SLICE_NAME_LOAD_LOAD_ASSIGN_NAME_STORE_": 2391,
      "ASSIGN_TUPLE_NAME_STORE_NAME_STORE_STORE_CALL_NAME_LOAD_NAME_LOAD_NAME_LOAD_": 2392,
      "LISTCOMP_SUBSCRIPT_NAME_LOAD_CONSTANT_LOAD_COMPREHENSION_NAME_STORE_NAME_LOAD_": 2393,
      "SUBSCRIPT_ATTRIBUTE_NAME_LOAD_LOAD_CONSTANT_LOAD_LOAD_LOAD_": 2394,
      "CALL_ATTRIBUTE_CALL_NAME_LOAD_NAME_LOAD_NAME_LOAD_LOAD_NAME_LOAD": 2395,
      "SUBSCRIPT_NAME_LOAD_SLICE_UNARYOP_USUB_CONSTANT_LOAD_ASSIGN_NAME_STORE_": 2396,
      "IF_CALL_ATTRIBUTE_NAME_LOAD_LOAD_ATTRIBUTE_NAME_LOAD_LOAD_": 2397,
      "EXPR_CALL_ATTRIBUTE_NAME_LOAD_LOAD_CALL_ATTRIBUTE_ATTRIBUTE_NAME_LOAD_LOAD_LOAD_": 2398,
      "CALL_ATTRIBUTE_ATTRIBUTE_NAME_LOAD_LOAD_LOAD_NAME_LOAD_LOAD_": 2399,
      "IFEXP_COMPARE_CONSTANT_IN_NAME_LOAD_": 2400,
      "NAME_LOAD_ADD_NAME_LOAD_ADD_": 2401,
      "KEYWORD_LIST_CONSTANT_LOAD_": 2402,
      "RAISE_CALL_NAME_LOAD_CONSTANT_EXPR_CALL_ATTRIBUTE_NAME_LOAD_LOAD_": 2403,
      "MODULE_FUNCTIONDEF_ARGUMENTS_ARG_ARG_ARG_ARG_ARG_ARG_CONSTANT_CONSTANT_CONSTANT_CONSTANT_CONSTANT_EXPR_": 2404,
      "BINOP_BINOP_NAME_LOAD_ADD_NAME_LOAD_": 2405,
      "EXPR_CALL_ATTRIBUTE_NAME_LOAD_LOAD_TUPLE_NAME_LOAD_": 2406,
      "BINOP_CONSTANT_MOD_CALL_NAME_LOAD_NAME_LOAD_": 2407,
      "MODULE_FUNCTIONDEF_ARGUMENTS_ARG_ARG_CONSTANT_EXPR_CONSTANT_ASSIGN_NAME_STORE_CALL_NAME_LOAD_NAME_LOAD_": 2408,
      "MODULE_FUNCTIONDEF_ARGUMENTS_ARG_ARG_ARG_CONSTANT_EXPR_CONSTANT_ASSIGN_NAME_STORE_CALL_NAME_LOAD_NAME_LOAD_": 2409,
      "CALL_NAME_LOAD_NAME_LOAD_NAME_LOAD_NAME_LOAD_NAME_LOAD": 2410,
      "EXPR_CALL_ATTRIBUTE_ATTRIBUTE_ATTRIBUTE_NAME_LOAD_LOAD_LOAD_LOAD_ATTRIBUTE_NAME_LOAD_LOAD_": 2411,
      "WITH_WITHITEM_CALL_ATTRIBUTE_NAME_LOAD_LOAD_NAME_STORE_": 2412,
      "KEYWORD_NAME_LOAD_ASSIGN_NAME_STORE_CALL_ATTRIBUTE_NAME_LOAD_LOAD_NAME_LOAD_": 2413,
      "FOR_NAME_STORE_SUBSCRIPT_NAME_LOAD_NAME_LOAD_LOAD_": 2414,
      "LIST_CALL_ATTRIBUTE_NAME_LOAD_LOAD_": 2415,
      "IF_COMPARE_ATTRIBUTE_NAME_LOAD_LOAD_NOTIN_": 2416,
      "FOR_NAME_STORE_NAME_LOAD_IF_COMPARE_NAME_LOAD_IN_NAME_LOAD_": 2417,
      "LISTCOMP_TUPLE_NAME_LOAD_": 2418,
      "SUBSCRIPT_NAME_LOAD_CONSTANT_LOAD_ASSIGN_NAME_STORE_CALL_ATTRIBUTE_NAME_LOAD_LOAD_NAME_LOAD_": 2419,
      "SUBSCRIPT_NAME_LOAD_TUPLE_NAME_LOAD_NAME_LOAD_LOAD_LOAD": 2420,
      "BINOP_CONSTANT_MOD_TUPLE_NAME_LOAD_NAME_LOAD_": 2421,
      "CALL_NAME_LOAD_ATTRIBUTE_NAME_LOAD_LOAD_ADD_CONSTANT_ADD_": 2422,
      "COMPARE_NAME_LOAD_ISNOT_": 2423,
      "CALL_ATTRIBUTE_CONSTANT_LOAD_ATTRIBUTE_ATTRIBUTE_NAME_LOAD_LOAD_LOAD_": 2424,
      "MODULE_FUNCTIONDEF_ARGUMENTS_ARG_ARG_ARG_CONSTANT_EXPR_CONSTANT_ASSIGN_NAME_STORE_CALL_ATTRIBUTE_NAME_LOAD_LOAD_NAME_LOAD_": 2425,
      "RETURN_CALL_NAME_LOAD_CONSTANT_": 2426,
      "WHILE_COMPARE_NAME_LOAD_LT_": 2427,
      "RETURN_CALL_ATTRIBUTE_": 2428,
      "ISNOT_": 2429,
      "TRY_RETURN_CALL_ATTRIBUTE_NAME_LOAD_LOAD_NAME_LOAD_": 2430,
      "EXPR_YIELD_TUPLE_": 2431,
      "BINOP_NAME_LOAD_SUB_NAME_LOAD_ASSIGN_NAME_STORE_": 2432,
      "COMPARE_SUBSCRIPT_NAME_LOAD_UNARYOP_USUB_CONSTANT_LOAD_": 2433,
      "CALL_NAME_LOAD_NAME_LOAD_STORE_": 2434,
      "RETURN_NAME_LOAD_RETURN_NAME_LOAD": 2435,
      "NAME_LOAD_ASSIGN_NAME_STORE_DICT_": 2436,
      "UNARYOP_USUB_ATTRIBUTE_NAME_LOAD_LOAD_": 2437,
      "LIST_CONSTANT_CONSTANT_CONSTANT_CONSTANT_CONSTANT_CONSTANT_CONSTANT_CONSTANT_CONSTANT_": 2438,
      "EXPR_CALL_NAME_LOAD_CONSTANT_KEYWORD_CONSTANT_KEYWORD_CONSTANT_": 2439,
      "IF_COMPARE_CONSTANT_NOTIN_NAME_LOAD_ASSIGN_SUBSCRIPT_NAME_LOAD_CONSTANT_STORE_": 2440,
      "CONSTANT_ASSIGN_SUBSCRIPT_SUBSCRIPT_NAME_LOAD_CONSTANT_LOAD_CONSTANT_STORE_": 2441,
      "SUBSCRIPT_NAME_LOAD_NAME_LOAD_LOAD_NAME_LOAD_": 2442,
      "EXCEPTHANDLER_NAME_LOAD_EXPR_CALL_ATTRIBUTE_NAME_LOAD_LOAD_CONSTANT_NAME_LOAD_": 2443,
      "SUBSCRIPT_SUBSCRIPT_SUBSCRIPT_SUBSCRIPT_NAME_LOAD_CONSTANT_LOAD_CONSTANT_LOAD_": 2444,
      "ASSIGN_SUBSCRIPT_SUBSCRIPT_NAME_LOAD_CONSTANT_LOAD_NAME_LOAD_STORE_": 2445,
      "IF_SUBSCRIPT_NAME_LOAD_CONSTANT_LOAD_ASSIGN_SUBSCRIPT_NAME_LOAD_CONSTANT_STORE_": 2446,
      "ISNOT_NAME_LOAD_": 2447,
      "IF_UNARYOP_NOT_CALL_NAME_LOAD_NAME_LOAD_ATTRIBUTE_NAME_LOAD_LOAD_": 2448,
      "IF_CALL_NAME_LOAD_NAME_LOAD_NAME_LOAD_ASSIGN_NAME_STORE_CALL_NAME_LOAD_NAME_LOAD_": 2449,
      "IF_COMPARE_NAME_LOAD_EQ_CONSTANT_RETURN_CONSTANT_": 2450,
      "BOOLOP_OR_NAME_LOAD_ATTRIBUTE_NAME_LOAD_LOAD_": 2451,
      "DICT_CONSTANT_CONSTANT_CONSTANT_CONSTANT_NAME_LOAD_NAME_LOAD_NAME_LOAD_NAME_LOAD_": 2452,
      "NAME_LOAD_NAME_LOAD_LOAD": 2453,
      "RAISE_CALL_ATTRIBUTE_NAME_LOAD_LOAD_NAME_LOAD_": 2454,
      "MODULE_FUNCTIONDEF_ARGUMENTS_ARG_EXPR_CONSTANT_ASSIGN_NAME_STORE_CALL_NAME_LOAD_NAME_LOAD_ASSIGN_NAME_STORE_": 2455,
      "BINOP_BINOP_NAME_LOAD_ADD_CONSTANT_ADD_NAME_LOAD_": 2456,
      "COMPARE_CALL_NAME_LOAD_ATTRIBUTE_NAME_LOAD_LOAD_EQ_CONSTANT_": 2457,
      "LSHIFT_CONSTANT_BITOR_": 2458,
      "ATTRIBUTE_ATTRIBUTE_NAME_LOAD_LOAD_LOAD_ASSIGN_NAME_STORE_CALL_ATTRIBUTE_NAME_LOAD_LOAD_": 2459,
      "ASSIGN_ATTRIBUTE_NAME_LOAD_STORE_NAME_LOAD_EXPR_CALL_ATTRIBUTE_NAME_LOAD_LOAD_": 2460,
      "BINOP_CONSTANT_SUB_": 2461,
      "GT_CONSTANT_EXPR_": 2462,
      "COMPARE_ATTRIBUTE_NAME_LOAD_LOAD_IN_ATTRIBUTE_NAME_LOAD_LOAD_": 2463,
      "COMPARE_CALL_NAME_LOAD_NAME_LOAD_EQ_NAME_LOAD_": 2464,
      "BOOLOP_OR_ATTRIBUTE_NAME_LOAD_LOAD_ATTRIBUTE_NAME_LOAD_LOAD_": 2465,
      "IF_COMPARE_ATTRIBUTE_NAME_LOAD_LOAD_ISNOT_CONSTANT_ASSIGN_SUBSCRIPT_NAME_LOAD_CONSTANT_STORE_ATTRIBUTE_NAME_LOAD_LOAD_": 2466,
      "MODULE_FUNCTIONDEF_ARGUMENTS_ARG_ARG_ARG_ARG_CONSTANT_CONSTANT_CONSTANT_EXPR_CONSTANT_": 2467,
      "CALL_NAME_LOAD_CALL_NAME_LOAD_ATTRIBUTE_NAME_LOAD_LOAD_": 2468,
      "IF_CALL_NAME_LOAD_NAME_LOAD_ASSIGN_NAME_STORE_": 2469,
      "MODULE_FUNCTIONDEF_ARGUMENTS_ARG_ARG_ARG_EXPR_CONSTANT_ASSERT_": 2470,
      "BINOP_BINOP_BINOP_CONSTANT_ADD_NAME_LOAD_ADD_CONSTANT_ADD_": 2471,
      "IF_COMPARE_CALL_NAME_LOAD_NAME_LOAD_NOTEQ_CONSTANT_EXPR_CALL_ATTRIBUTE_NAME_LOAD_LOAD_UNARYOP_NOT_CALL_ATTRIBUTE_NAME_LOAD_LOAD_": 2472,
      "CALL_NAME_LOAD_NAME_LOAD_EXPR_CALL_ATTRIBUTE_NAME_LOAD_LOAD_NAME_LOAD_": 2473,
      "TUPLE_BINOP_NAME_LOAD_RSHIFT": 2474,
      "UNARYOP_USUB_CONSTANT_STORE_": 2475,
      "ASSERT_CALL_NAME_LOAD_NAME_LOAD_NAME_LOAD_": 2476,
      "IF_BOOLOP_AND_NAME_LOAD_UNARYOP_NOT_NAME_LOAD_": 2477,
      "MODULE_FUNCTIONDEF_ARGUMENTS_ARG_EXPR_CONSTANT_IF_COMPARE_ATTRIBUTE_NAME_LOAD_LOAD_IS_CONSTANT_ASSIGN_ATTRIBUTE_NAME_LOAD_STORE_CALL_NAME_LOAD_ATTRIBUTE_NAME_LOAD_LOAD_": 2478,
      "TUPLE_ATTRIBUTE_NAME_LOAD_LOAD_ATTRIBUTE_NAME_LOAD_LOAD_ATTRIBUTE_NAME_LOAD_LOAD_LOAD_": 2479,
      "CONSTANT_LOAD_ASSIGN_NAME_STORE_CALL_ATTRIBUTE_NAME_LOAD_LOAD_": 2480,
      "KEYWORD_NAME_LOAD_KEYWORD_NAME_LOAD_KEYWORD_NAME_LOAD_KEYWORD_NAME_LOAD_KEYWORD_NAME_LOAD_KEYWORD_NAME_LOAD_": 2481,
      "EXCEPTHANDLER_NAME_LOAD_RAISE_CALL_NAME_LOAD_CALL_ATTRIBUTE_CONSTANT_LOAD_": 2482,
      "ATTRIBUTE_NAME_LOAD_LOAD_ATTRIBUTE_NAME_LOAD_LOAD_ASSIGN_NAME_STORE_": 2483,
      "FOR_TUPLE_NAME_STORE_NAME_STORE_STORE_CALL_ATTRIBUTE_NAME_LOAD_LOAD_ASSIGN_NAME_STORE_": 2484,
      "ATTRIBUTE_NAME_LOAD_LOAD_ADD_CONSTANT_ADD_": 2485,
      "BINOP_CONSTANT_SUB_NAME_LOAD_": 2486,
      "MODULE_FUNCTIONDEF_ARGUMENTS_ARG_ARG_EXPR_CONSTANT_IF_COMPARE_NAME_LOAD_NOTIN_ATTRIBUTE_NAME_LOAD_LOAD_": 2487,
      "TRY_WITH_WITHITEM_CALL_NAME_LOAD_NAME_LOAD_CONSTANT_NAME_STORE_": 2488,
      "COMPARE_CALL_ATTRIBUTE_ATTRIBUTE_NAME_LOAD_LOAD_LOAD_": 2489,
      "IF_ATTRIBUTE_NAME_LOAD_LOAD_EXPR_CALL_ATTRIBUTE_NAME_LOAD_LOAD_ATTRIBUTE_NAME_LOAD_LOAD_": 2490,
      "CONSTANT_IF_BOOLOP_AND_NAME_LOAD_NAME_LOAD_": 2491,
      "DICT_CONSTANT_CONSTANT_CONSTANT_NAME_LOAD_NAME_LOAD_NAME_LOAD_": 2492,
      "SUBSCRIPT_NAME_LOAD_TUPLE_SLICE_NAME_LOAD_LOAD_LOAD_": 2493,
      "COMPARE_NAME_LOAD_GTE_CONSTANT_": 2494,
      "MODULE_FUNCTIONDEF_ARGUMENTS_ARG_ARG_ARG_ARG_ARG_ARG_ARG_ARG_ARG_CONSTANT_CONSTANT_CONSTANT_CONSTANT_CONSTANT_": 2495,
      "CALL_NAME_LOAD_KEYWORD_CONSTANT_": 2496,
      "CALL_NAME_LOAD_NAME_LOAD_KEYWORD_CONSTANT_": 2497,
      "KEYWORD_NAME_LOAD_IF_NAME_LOAD_": 2498,
      "CALL_ATTRIBUTE_NAME_LOAD_LOAD_CONSTANT_KEYWORD_": 2499,
      "IF_ATTRIBUTE_NAME_LOAD_LOAD_RETURN_": 2500,
      "LIST_LOAD_ASSIGN_NAME_STORE_CONSTANT_": 2501,
      "IMPORTFROM_ALIAS_EXPR_": 2502,
      "MODULE_FUNCTIONDEF_ARGUMENTS_ARG_ARG_ARG_CONSTANT_CONSTANT_EXPR_CONSTANT_IF_COMPARE_NAME_LOAD_IS_CONSTANT_ASSIGN_NAME_STORE_": 2503,
      "DELETE_ATTRIBUTE_": 2504,
      "_ARG_CONSTANT_CONSTANT_CONSTANT_CONSTANT_CONSTANT_CONSTANT_CONSTANT_CONSTANT_CONSTANT_": 2505,
      "EXPR_CALL_ATTRIBUTE_NAME_LOAD_LOAD_CONSTANT_NAME_LOAD_RETURN_NAME_LOAD": 2506,
      "DICT_CONSTANT_NAME_LOAD_RETURN_": 2507,
      "CALL_ATTRIBUTE_CONSTANT_LOAD_NAME_LOAD_NAME_LOAD": 2508,
      "WITH_WITHITEM_CALL_ATTRIBUTE_ATTRIBUTE_NAME_LOAD_LOAD_LOAD_": 2509,
      "LOAD_LOAD_LOAD_": 2510,
      "IF_COMPARE_NAME_LOAD_IN_NAME_LOAD_RETURN_": 2511,
      "KEYWORD_ATTRIBUTE_SUBSCRIPT_ATTRIBUTE_NAME_LOAD_LOAD_CONSTANT_LOAD_LOAD_": 2512,
      "IF_COMPARE_SUBSCRIPT_ATTRIBUTE_NAME_LOAD_LOAD_NAME_LOAD_LOAD_": 2513,
      "BINOP_CONSTANT_MOD_TUPLE_ATTRIBUTE_NAME_LOAD_LOAD_NAME_LOAD_LOAD_": 2514,
      "CONSTANT_CONSTANT_LOAD_CONSTANT_CONSTANT_LOAD_": 2515,
      "NAME_LOAD_ASSIGN_ATTRIBUTE_NAME_LOAD_STORE_NAME_LOAD_": 2516,
      "EXPR_CALL_ATTRIBUTE_NAME_LOAD_LOAD_NAME_LOAD_FOR_NAME_STORE_NAME_LOAD_": 2517,
      "IF_BOOLOP_AND_CALL_ATTRIBUTE_NAME_LOAD_LOAD_CONSTANT_": 2518,
      "FOR_TUPLE_NAME_STORE_NAME_STORE_STORE_ATTRIBUTE_NAME_LOAD_LOAD_": 2519,
      "KEYWORD_SUBSCRIPT_NAME_LOAD_CONSTANT_LOAD_KEYWORD_SUBSCRIPT_NAME_LOAD_CONSTANT_LOAD_KEYWORD_SUBSCRIPT_NAME_LOAD_CONSTANT_LOAD_KEYWORD_SUBSCRIPT_NAME_LOAD_CONSTANT_LOAD_": 2520,
      "NAME_LOAD_ASSIGN_NAME_STORE_CALL_NAME_LOAD_NAME_LOAD_NAME_LOAD_NAME_LOAD_": 2521,
      "ASSIGN_SUBSCRIPT_NAME_LOAD_CALL_ATTRIBUTE_NAME_LOAD_LOAD_": 2522,
      "RETURN_CALL_ATTRIBUTE_NAME_LOAD_LOAD_NAME_LOAD_NAME_LOAD_NAME_LOAD": 2523,
      "SLICE_LOAD_STORE_": 2524,
      "IF_COMPARE_SUBSCRIPT_SUBSCRIPT_NAME_LOAD_CONSTANT_LOAD_CONSTANT_LOAD_": 2525,
      "NAME_LOAD_ASSIGN_NAME_STORE_SUBSCRIPT_NAME_LOAD_CONSTANT_LOAD_": 2526,
      "ASSIGN_SUBSCRIPT_SUBSCRIPT_ATTRIBUTE_NAME_LOAD_LOAD_CONSTANT_LOAD_": 2527,
      "BINOP_NAME_LOAD_RSHIFT_CONSTANT_": 2528,
      "BINOP_CALL_NAME_LOAD_CONSTANT_MOD_": 2529,
      "CALL_ATTRIBUTE_NAME_LOAD_LOAD_CONSTANT_CONSTANT_ASSIGN_NAME_STORE_": 2530,
      "EXPR_CALL_ATTRIBUTE_NAME_LOAD_LOAD_CONSTANT_KEYWORD_": 2531,
      "EXPR_CALL_ATTRIBUTE_NAME_LOAD_LOAD_BINOP_CONSTANT_MOD_ATTRIBUTE_NAME_LOAD_LOAD_": 2532,
      "RETURN_BINOP_": 2533,
      "CALL_ATTRIBUTE_NAME_LOAD_LOAD_NAME_LOAD_ASSIGN_NAME_STORE_CALL_ATTRIBUTE_NAME_LOAD_LOAD_": 2534,
      "BOOLOP_AND_CALL_NAME_LOAD_NAME_LOAD_NAME_LOAD_": 2535,
      "CONSTANT_EXPR_CALL_ATTRIBUTE_NAME_LOAD_LOAD_CALL_ATTRIBUTE_CONSTANT_LOAD_": 2536,
      "SUBSCRIPT_NAME_LOAD_CONSTANT_LOAD_ASSIGN_NAME_STORE_CALL_NAME_LOAD_NAME_LOAD_": 2537,
      "DEL_ASSIGN_NAME_STORE_": 2538,
      "COMPARE_SUBSCRIPT_NAME_LOAD_CONSTANT_LOAD_NOTEQ_CONSTANT_": 2539,
      "KEYWORD_CONSTANT_KEYWORD_NAME_LOAD_KEYWORD_CONSTANT_": 2540,
      "IN_LIST_CONSTANT_CONSTANT_LOAD_": 2541,
      "COMPARE_NAME_LOAD_IS_": 2542,
      "MODULE_FUNCTIONDEF_ARGUMENTS_ARG_EXPR_CONSTANT_WHILE_": 2543,
      "LIST_CONSTANT_CONSTANT_UNARYOP_USUB_CONSTANT_": 2544,
      "BREAK_AUGASSIGN_NAME_STORE_ADD_": 2545,
      "SUBSCRIPT_SUBSCRIPT_NAME_LOAD_CONSTANT_LOAD_CONSTANT_LOAD_SUBSCRIPT_SUBSCRIPT_NAME_LOAD_CONSTANT_LOAD_CONSTANT_LOAD_": 2546,
      "BINOP_BINOP_CONSTANT_ADD_NAME_LOAD_ADD_CONSTANT_": 2547,
      "FOR_NAME_STORE_NAME_LOAD_AUGASSIGN_NAME_STORE_ADD_": 2548,
      "SUBSCRIPT_NAME_LOAD_SLICE_BINOP_NAME_LOAD_ADD_CONSTANT_LOAD_": 2549,
      "CONSTANT_ASSIGN_NAME_STORE_CALL_NAME_LOAD_CONSTANT_": 2550,
      "IF_COMPARE_NAME_LOAD_IN_NAME_LOAD_ASSIGN_NAME_STORE_SUBSCRIPT_NAME_LOAD_NAME_LOAD_LOAD_": 2551,
      "ASSIGN_SUBSCRIPT_NAME_LOAD_NAME_LOAD_STORE_CALL_NAME_LOAD_NAME_LOAD_": 2552,
      "NAME_LOAD_ASSIGN_NAME_STORE_BINOP_": 2553,
      "TUPLE_NAME_LOAD_NAME_LOAD_LOAD_COMPREHENSION_TUPLE_NAME_STORE_NAME_STORE_STORE_": 2554,
      "COMPARE_ATTRIBUTE_NAME_LOAD_LOAD_EQ_CONSTANT_ASSIGN_NAME_STORE_": 2555,
      "CONTINUE_ASSIGN_NAME_STORE_CALL_ATTRIBUTE_NAME_LOAD_LOAD_": 2556,
      "IF_BOOLOP_AND_COMPARE_NAME_LOAD_NOTEQ_CONSTANT_": 2557,
      "DICT_CONSTANT_CONSTANT_CONSTANT_CONSTANT_CONSTANT_CONSTANT_CONSTANT_CONSTANT_CONSTANT_CONSTANT_": 2558,
      "COMPARE_CALL_ATTRIBUTE_NAME_LOAD_LOAD_EQ_CONSTANT_": 2559,
      "TRY_EXPR_CALL_ATTRIBUTE_NAME_LOAD_LOAD_NAME_LOAD_EXCEPTHANDLER_NAME_LOAD_": 2560,
      "LIST_CONSTANT_CONSTANT_CONSTANT_CONSTANT_CONSTANT_CONSTANT_CONSTANT_LOAD_": 2561,
      "EXPR_CALL_ATTRIBUTE_NAME_LOAD_LOAD_CONSTANT_KEYWORD_CONSTANT_KEYWORD_CONSTANT_EXPR_CALL_ATTRIBUTE_NAME_LOAD_LOAD_CONSTANT_KEYWORD_CONSTANT_KEYWORD_CONSTANT_": 2562,
      "KEYWORD_CALL_ATTRIBUTE_NAME_LOAD_LOAD_NAME_LOAD_": 2563,
      "CALL_NAME_LOAD_ATTRIBUTE_NAME_LOAD_LOAD_NAME_LOAD_NAME_LOAD_": 2564,
      "KEYWORD_ATTRIBUTE_ATTRIBUTE_NAME_LOAD_LOAD_LOAD_KEYWORD_ATTRIBUTE_ATTRIBUTE_NAME_LOAD_LOAD_LOAD_": 2565,
      "EXPR_CALL_NAME_LOAD_CONSTANT_KEYWORD_CONSTANT_KEYWORD_CONSTANT_EXPR_CALL_NAME_LOAD_CONSTANT_KEYWORD_CONSTANT_KEYWORD_CONSTANT_": 2566,
      "_ASSERT_": 2567,
      "_CONSTANT_CONSTANT_CONSTANT_CONSTANT_CONSTANT_EXPR_CONSTANT_ASSIGN_NAME_STORE_": 2568,
      "ASSIGN_NAME_STORE_CALL_ATTRIBUTE_ATTRIBUTE_ATTRIBUTE_NAME_LOAD_LOAD_LOAD_LOAD_": 2569,
      "ASSIGN_TUPLE_NAME_STORE_NAME_STORE_STORE_CALL_ATTRIBUTE_ATTRIBUTE_NAME_LOAD_LOAD_LOAD_": 2570,
      "CONSTANT_LOAD_ASSIGN_NAME_STORE_CALL_ATTRIBUTE_NAME_LOAD_LOAD_NAME_LOAD_": 2571,
      "CALL_NAME_LOAD_SUBSCRIPT_NAME_LOAD_CONSTANT_LOAD_CALL_NAME_LOAD_SUBSCRIPT_NAME_LOAD_CONSTANT_LOAD_": 2572,
      "SUBSCRIPT_SUBSCRIPT_NAME_LOAD_NAME_LOAD_LOAD_CONSTANT_LOAD_LOAD_": 2573,
      "DICT_ASSIGN_NAME_STORE_DICT_ASSIGN_NAME_STORE_": 2574,
      "EXPR_CALL_ATTRIBUTE_NAME_LOAD_LOAD_CONSTANT_NAME_LOAD_EXPR_CALL_ATTRIBUTE_NAME_LOAD_LOAD_": 2575,
      "EXPR_CALL_NAME_LOAD_NAME_LOAD_ATTRIBUTE_NAME_LOAD_LOAD_": 2576,
      "CALL_NAME_LOAD_SUBSCRIPT_ATTRIBUTE_NAME_LOAD_LOAD_NAME_LOAD_LOAD_": 2577,
      "CONSTANT_ASSIGN_NAME_STORE_IFEXP_NAME_LOAD_": 2578,
      "MODULE_FUNCTIONDEF_ARGUMENTS_ARG_EXPR_CONSTANT_ASSIGN_NAME_STORE_ATTRIBUTE_NAME_LOAD_LOAD_ASSIGN_NAME_STORE_": 2579,
      "SUBSCRIPT_NAME_LOAD_SLICE_CALL_NAME_LOAD_NAME_LOAD_LOAD_": 2580,
      "SUBSCRIPT_NAME_LOAD_TUPLE_SLICE_SLICE_": 2581,
      "BINOP_SUBSCRIPT_NAME_LOAD_CONSTANT_LOAD_SUB_": 2582,
      "EXPR_CALL_": 2583,
      "IF_COMPARE_CALL_NAME_LOAD_SUBSCRIPT_NAME_LOAD_NAME_LOAD_LOAD_": 2584,
      "CONSTANT_ASSIGN_SUBSCRIPT_SUBSCRIPT_NAME_LOAD_NAME_LOAD_LOAD_": 2585,
      "IFEXP_CALL_NAME_LOAD_NAME_LOAD_NAME_LOAD_": 2586,
      "LIST_LOAD_FOR_NAME_STORE_NAME_LOAD_EXPR_CALL_ATTRIBUTE_NAME_LOAD_LOAD_": 2587,
      "ASSIGN_TUPLE_ATTRIBUTE_NAME_LOAD_STORE_ATTRIBUTE_NAME_LOAD_STORE_STORE_": 2588,
      "KEYWORD_CALL_NAME_LOAD_ATTRIBUTE_NAME_LOAD_LOAD_": 2589,
      "ADD_CONSTANT": 2590,
      "EXPR_CALL_ATTRIBUTE_ATTRIBUTE_NAME_LOAD_LOAD_LOAD_CALL_ATTRIBUTE_CONSTANT_LOAD_NAME_LOAD_": 2591,
      "IF_COMPARE_NAME_LOAD_IN_ATTRIBUTE_NAME_LOAD_LOAD_ASSIGN_NAME_STORE_SUBSCRIPT_ATTRIBUTE_NAME_LOAD_LOAD_NAME_LOAD_LOAD_": 2592,
      "LISTCOMP_ATTRIBUTE_NAME_LOAD_LOAD_COMPREHENSION_NAME_STORE_ATTRIBUTE_NAME_LOAD_LOAD_": 2593,
      "TUPLE_CONSTANT_NAME_LOAD_LOAD_TUPLE_CONSTANT_NAME_LOAD_LOAD_": 2594,
      "DICT_CONSTANT_CONSTANT_NAME_LOAD_NAME_LOAD": 2595,
      "CONSTANT_IF_BOOLOP_AND_COMPARE_NAME_LOAD_IS_CONSTANT_": 2596,
      "EXCEPTHANDLER_TUPLE_NAME_LOAD_NAME_LOAD_NAME_LOAD_LOAD_": 2597,
      "IF_COMPARE_SUBSCRIPT_NAME_LOAD_CONSTANT_LOAD_NOTEQ_CONSTANT_": 2598,
      "EXPR_CALL_ATTRIBUTE_NAME_LOAD_LOAD_CONSTANT_CONSTANT_KEYWORD_CONSTANT_KEYWORD_CONSTANT_KEYWORD_CONSTANT_": 2599,
      "WITH_WITHITEM_CALL_NAME_LOAD_NAME_LOAD_CONSTANT_NAME_STORE_ASSIGN_NAME_STORE_CALL_ATTRIBUTE_NAME_LOAD_LOAD_": 2600,
      "RETURN_SUBSCRIPT_NAME_LOAD_CONSTANT_LOAD": 2601,
      "EXPR_CALL_ATTRIBUTE_ATTRIBUTE_NAME_LOAD_LOAD_LOAD_ATTRIBUTE_NAME_LOAD_LOAD": 2602,
      "IF_COMPARE_ATTRIBUTE_NAME_LOAD_LOAD_NOTIN_NAME_LOAD_": 2603,
      "TRY_ASSIGN_NAME_STORE_SUBSCRIPT_NAME_LOAD_NAME_LOAD_LOAD_": 2604,
      "IF_COMPARE_CONSTANT_IN_NAME_LOAD_ASSIGN_NAME_STORE_CALL_ATTRIBUTE_NAME_LOAD_LOAD_": 2605,
      "CALL_ATTRIBUTE_NAME_LOAD_LOAD_NAME_LOAD_LOAD": 2606,
      "EXPR_CALL_ATTRIBUTE_ATTRIBUTE_NAME_LOAD_LOAD_LOAD_NAME_LOAD_RETURN_": 2607,
      "SUBSCRIPT_ATTRIBUTE_NAME_LOAD_LOAD_SLICE_UNARYOP_USUB_CONSTANT_LOAD_": 2608,
      "ATTRIBUTE_CALL_ATTRIBUTE_NAME_LOAD_LOAD_CONSTANT_LOAD_": 2609,
      "MODULE_FUNCTIONDEF_ARGUMENTS_ARG_ARG_ARG_ARG_CONSTANT_CONSTANT_CONSTANT_CONSTANT_EXPR_": 2610,
      "MODULE_FUNCTIONDEF_ARGUMENTS_ARG_EXPR_CONSTANT_ASSIGN_NAME_STORE_ATTRIBUTE_ATTRIBUTE_NAME_LOAD_LOAD_LOAD_": 2611,
      "IF_BOOLOP_AND_UNARYOP_NOT_": 2612,
      "IF_ATTRIBUTE_NAME_LOAD_LOAD_AUGASSIGN_NAME_STORE_ADD_": 2613,
      "ASSIGN_NAME_STORE_SUBSCRIPT_": 2614,
      "CONSTANT_EXPR_CALL_ATTRIBUTE_NAME_LOAD_LOAD_CONSTANT_CONSTANT_": 2615,
      "LIST_CONSTANT_CONSTANT_CONSTANT_LOAD_LIST_CONSTANT_CONSTANT_CONSTANT_LOAD_": 2616,
      "CALL_ATTRIBUTE_NAME_LOAD_LOAD_NAME_LOAD_NAME_LOAD_NAME_LOAD_NAME_LOAD_": 2617,
      "MODULE_FUNCTIONDEF_ARGUMENTS_ARG_ARG_ATTRIBUTE_NAME_LOAD_LOAD_EXPR_": 2618,
      "LIST_LOAD_ASSIGN_NAME_STORE_CALL_ATTRIBUTE_NAME_LOAD_LOAD_": 2619,
      "NAME_LOAD_RETURN_CALL_NAME_LOAD_NAME_LOAD_": 2620,
      "BINOP_BINOP_BINOP_": 2621,
      "IF_COMPARE_CALL_NAME_LOAD_NAME_LOAD_NOTEQ_NAME_LOAD_": 2622,
      "CONSTANT_ASSIGN_SUBSCRIPT_NAME_LOAD_NAME_LOAD_STORE_NAME_LOAD_": 2623,
      "NAME_STORE_ASSIGN_NAME_STORE_CALL_ATTRIBUTE_NAME_LOAD_LOAD_": 2624,
      "CONSTANT_ASSIGN_NAME_STORE_LISTCOMP_": 2625,
      "RETURN_LIST_": 2626,
      "EXPR_CALL_ATTRIBUTE_NAME_LOAD_LOAD_CONSTANT_NAME_LOAD_ASSIGN_NAME_STORE_": 2627,
      "CALL_ATTRIBUTE_ATTRIBUTE_NAME_LOAD_LOAD_LOAD_NAME_LOAD_ATTRIBUTE_NAME_LOAD_LOAD_": 2628,
      "SUBSCRIPT_ATTRIBUTE_NAME_LOAD_LOAD_SLICE_NAME_LOAD_LOAD_": 2629,
      "LISTCOMP_CALL_ATTRIBUTE_NAME_LOAD_LOAD_COMPREHENSION_NAME_STORE_ATTRIBUTE_NAME_LOAD_LOAD_": 2630,
      "KEYWORD_CONSTANT_KEYWORD_NAME_LOAD_KEYWORD_NAME_LOAD_": 2631,
      "LIST_LOAD_FOR_NAME_STORE_ATTRIBUTE_NAME_LOAD_LOAD_": 2632,
      "IF_UNARYOP_NOT_NAME_LOAD_EXPR_CALL_ATTRIBUTE_NAME_LOAD_LOAD_": 2633,
      "IF_COMPARE_NAME_LOAD_IS_CONSTANT_RAISE_CALL_NAME_LOAD_CONSTANT_": 2634,
      "MODULE_FUNCTIONDEF_ARGUMENTS_ARG_ARG_ARG_ARG_ARG_ARG_ARG_CONSTANT_CONSTANT_CONSTANT_CONSTANT_EXPR_": 2635,
      "IF_COMPARE_NAME_LOAD_ISNOT_CONSTANT_AUGASSIGN_NAME_STORE_ADD_": 2636,
      "IF_BOOLOP_AND_CALL_NAME_LOAD_NAME_LOAD_CONSTANT_COMPARE_ATTRIBUTE_NAME_LOAD_LOAD_ISNOT_CONSTANT_ASSIGN_SUBSCRIPT_NAME_LOAD_CONSTANT_STORE_ATTRIBUTE_NAME_LOAD_LOAD_IF_BOOLOP_AND_CALL_NAME_LOAD_NAME_LOAD_CONSTANT_COMPARE_ATTRIBUTE_NAME_LOAD_LOAD_ISNOT_CONSTANT_ASSIGN_SUBSCRIPT_NAME_LOAD_CONSTANT_STORE_ATTRIBUTE_NAME_LOAD_LOAD_": 2637,
      "CONSTANT_ASSIGN_NAME_STORE_CALL_NAME_LOAD_NAME_LOAD_NAME_LOAD_NAME_LOAD_": 2638,
      "CALL_ATTRIBUTE_CONSTANT_LOAD_KEYWORD_NAME_LOAD_": 2639,
      "BOOLOP_AND_COMPARE_NAME_LOAD_ISNOT_CONSTANT_": 2640,
      "EXCEPTHANDLER_NAME_LOAD_RAISE_CALL_NAME_LOAD_CONSTANT_": 2641,
      "ASSIGN_TUPLE_NAME_STORE_NAME_STORE_STORE_NAME_LOAD_": 2642,
      "TUPLE_ATTRIBUTE_NAME_LOAD_LOAD_CONSTANT_LOAD_": 2643,
      "RETURN_TUPLE_CONSTANT_CONSTANT_LOAD": 2644,
      "CONSTANT_IF_CALL_ATTRIBUTE_NAME_LOAD_LOAD_CONSTANT_ASSIGN_NAME_STORE_": 2645,
      "LIST_LOAD_ASSIGN_NAME_STORE_CALL_NAME_LOAD_": 2646,
      "COMPREHENSION_NAME_STORE_ATTRIBUTE_NAME_LOAD_LOAD": 2647,
      "CONSTANT_ASSIGN_ATTRIBUTE_NAME_LOAD_STORE_CALL_ATTRIBUTE_NAME_LOAD_LOAD_CONSTANT_": 2648,
      "KEYWORD_ATTRIBUTE_NAME_LOAD_LOAD_KEYWORD_ATTRIBUTE_NAME_LOAD_LOAD_KEYWORD_ATTRIBUTE_NAME_LOAD_LOAD": 2649,
      "KEYWORD_NAME_LOAD_KEYWORD_SUBSCRIPT_NAME_LOAD_CONSTANT_LOAD_": 2650,
      "EXPR_CONSTANT_RETURN_": 2651,
      "ASSIGN_NAME_STORE_ATTRIBUTE_ATTRIBUTE_NAME_LOAD_LOAD_LOAD_": 2652,
      "MODULE_FUNCTIONDEF_ARGUMENTS_ARG_ARG_EXPR_CONSTANT_ASSIGN_SUBSCRIPT_NAME_LOAD_CONSTANT_STORE_": 2653,
      "CONSTANT_ASSIGN_ATTRIBUTE_NAME_LOAD_STORE_CONSTANT": 2654,
      "CALL_NAME_LOAD_NAME_LOAD_ASSIGN_NAME_STORE_CALL_ATTRIBUTE_NAME_LOAD_LOAD_CONSTANT_": 2655,
      "MODULE_FUNCTIONDEF_ARGUMENTS_ARG_ARG_CONSTANT_EXPR_CONSTANT_EXPR_CALL_ATTRIBUTE_NAME_LOAD_LOAD_": 2656,
      "DIV_CONSTANT_LOAD_": 2657,
      "GTE_NAME_LOAD_": 2658,
      "EXCEPTHANDLER_NAME_LOAD_EXPR_CALL_ATTRIBUTE_NAME_LOAD_LOAD_CALL_ATTRIBUTE_CONSTANT_LOAD_NAME_LOAD_": 2659,
      "SUBSCRIPT_NAME_LOAD_SLICE_LOAD_": 2660,
      "COMPARE_ATTRIBUTE_NAME_LOAD_LOAD_GT_CONSTANT_": 2661,
      "CONSTANT_ASSIGN_NAME_STORE_CONSTANT_WHILE_": 2662,
      "KEYWORD_DICT_CONSTANT_NAME_LOAD_": 2663,
      "COMPREHENSION_NAME_STORE_NAME_LOAD_EXPR_CALL_ATTRIBUTE_NAME_LOAD_LOAD_": 2664,
      "SUBSCRIPT_NAME_LOAD_NAME_LOAD_LOAD_LOAD_LOAD_": 2665,
      "LISTCOMP_NAME_LOAD_COMPREHENSION_NAME_STORE_CALL_ATTRIBUTE_NAME_LOAD_LOAD_": 2666,
      "AUGASSIGN_NAME_STORE_BITOR_": 2667,
      "CONSTANT_ASSIGN_NAME_STORE_DICT_CONSTANT_": 2668,
      "MODULE_FUNCTIONDEF_ARGUMENTS_ARG_EXPR_CONSTANT_EXPR_CALL_NAME_LOAD_": 2669,
      "MODULE_FUNCTIONDEF_ARGUMENTS_ARG_ARG_ARG_CONSTANT_": 2670,
      "COMPARE_ATTRIBUTE_NAME_LOAD_LOAD_LTE_": 2671,
      "ASSIGN_TUPLE_NAME_STORE_NAME_STORE_STORE_CALL_NAME_LOAD_": 2672,
      "BINOP_CALL_NAME_LOAD_NAME_LOAD_ADD_CONSTANT_": 2673,
      "MODULE_FUNCTIONDEF_ARGUMENTS_ARG_EXPR_CONSTANT_RETURN_CALL_ATTRIBUTE_NAME_LOAD_LOAD_": 2674,
      "ASSIGN_ATTRIBUTE_ATTRIBUTE_NAME_LOAD_LOAD_STORE_ATTRIBUTE_NAME_LOAD_LOAD_": 2675,
      "SUBSCRIPT_NAME_LOAD_SLICE_NAME_LOAD_BINOP_NAME_LOAD_ADD_CONSTANT_LOAD_": 2676,
      "NAME_LOAD_ASSIGN_NAME_STORE_BINOP_NAME_LOAD_ADD_": 2677,
      "ASSIGN_ATTRIBUTE_NAME_LOAD_STORE_CONSTANT_ASSIGN_ATTRIBUTE_NAME_LOAD_STORE_CONSTANT_ASSIGN_ATTRIBUTE_NAME_LOAD_STORE_": 2678,
      "EXPR_CALL_NAME_LOAD_BINOP_CONSTANT_MOD_TUPLE_": 2679,
      "NAME_LOAD_RETURN_TUPLE_": 2680,
      "CALL_NAME_LOAD_NAME_LOAD_ASSIGN_NAME_STORE_SUBSCRIPT_NAME_LOAD_NAME_LOAD_LOAD_": 2681,
      "TRY_RETURN_CALL_NAME_LOAD_NAME_LOAD_": 2682,
      "CONSTANT_IF_BOOLOP_AND_COMPARE_NAME_LOAD_EQ_CONSTANT_": 2683,
      "IF_COMPARE_NAME_LOAD_EQ_CONSTANT_ASSIGN_SUBSCRIPT_NAME_LOAD_CONSTANT_STORE_": 2684,
      "BITXOR_": 2685,
      "EXPR_CALL_ATTRIBUTE_NAME_LOAD_LOAD_EXPR_CALL_ATTRIBUTE_NAME_LOAD_LOAD": 2686,
      "EXCEPTHANDLER_NAME_LOAD_RAISE_CALL_NAME_LOAD_BINOP_CONSTANT_MOD_": 2687,
      "EXPR_CALL_NAME_LOAD_NAME_LOAD_CONSTANT_NAME_LOAD_": 2688,
      "SUBSCRIPT_ATTRIBUTE_NAME_LOAD_LOAD_CONSTANT_LOAD_ASSIGN_NAME_STORE_SUBSCRIPT_ATTRIBUTE_NAME_LOAD_LOAD_CONSTANT_LOAD_": 2689,
      "NAME_LOAD_CONSTANT_LOAD_": 2690,
      "SUBSCRIPT_NAME_LOAD_CALL_ATTRIBUTE_NAME_LOAD_LOAD_": 2691,
      "MODULE_FUNCTIONDEF_ARGUMENTS_ARG_ARG_EXPR_CONSTANT_ASSIGN_ATTRIBUTE_NAME_LOAD_STORE_NAME_LOAD_": 2692,
      "BINOP_CONSTANT_MOD_SUBSCRIPT_NAME_LOAD_CONSTANT_LOAD_": 2693,
      "COMPARE_ATTRIBUTE_NAME_LOAD_LOAD_NOTEQ_NAME_LOAD_": 2694,
      "AUGASSIGN_NAME_STORE_ADD_CONSTANT_ASSIGN_NAME_STORE_": 2695,
      "IF_NAME_LOAD_ASSIGN_NAME_STORE_CALL_ATTRIBUTE_NAME_LOAD_LOAD_CONSTANT_": 2696,
      "IF_COMPARE_NAME_LOAD_EQ_NAME_LOAD_ASSIGN_NAME_STORE_": 2697,
      "RAISE_CALL_NAME_LOAD_CALL_ATTRIBUTE_CONSTANT_LOAD_NAME_LOAD_RETURN_NAME_LOAD": 2698,
      "FOR_TUPLE_NAME_STORE_NAME_STORE_NAME_STORE_STORE_CALL_ATTRIBUTE_NAME_LOAD_LOAD_NAME_LOAD_": 2699,
      "KEYWORD_ATTRIBUTE_NAME_LOAD_LOAD_LOAD_": 2700,
      "CONSTANT_CONSTANT_EXPR_CONSTANT_": 2701,
      "EXPR_CALL_ATTRIBUTE_NAME_LOAD_LOAD_CONSTANT_RETURN_CONSTANT_": 2702,
      "ATTRIBUTE_ATTRIBUTE_NAME_LOAD_LOAD_LOAD_ASSIGN_NAME_STORE_ATTRIBUTE_ATTRIBUTE_NAME_LOAD_LOAD_LOAD_": 2703,
      "KEYWORD_CONSTANT_KEYWORD_NAME_LOAD_KEYWORD_": 2704,
      "SUBSCRIPT_SUBSCRIPT_NAME_LOAD_ATTRIBUTE_NAME_LOAD_LOAD_LOAD_": 2705,
      "EXPR_CALL_ATTRIBUTE_ATTRIBUTE_NAME_LOAD_LOAD_LOAD_CONSTANT": 2706,
      "IF_NAME_LOAD_FOR_NAME_STORE_NAME_LOAD_": 2707,
      "KEYWORD_CONSTANT_KEYWORD_CONSTANT_ASSIGN_NAME_STORE_CALL_ATTRIBUTE_NAME_LOAD_LOAD_": 2708,
      "FOR_NAME_STORE_CALL_NAME_LOAD_CALL_ATTRIBUTE_ATTRIBUTE_NAME_LOAD_LOAD_LOAD_": 2709,
      "CALL_NAME_LOAD_NAME_LOAD_NAME_LOAD_NAME_LOAD_NAME_LOAD_NAME_LOAD_": 2710,
      "FOR_NAME_STORE_SUBSCRIPT_NAME_LOAD_SLICE_CONSTANT_LOAD_": 2711,
      "MODULE_FUNCTIONDEF_ARGUMENTS_ARG_EXPR_CONSTANT_ASSIGN_NAME_STORE_CALL_ATTRIBUTE_ATTRIBUTE_NAME_LOAD_LOAD_LOAD_ATTRIBUTE_NAME_LOAD_LOAD_": 2712,
      "FOR_NAME_STORE_NAME_LOAD_ASSIGN_NAME_STORE_SUBSCRIPT_NAME_LOAD_NAME_LOAD_LOAD_": 2713,
      "AUGASSIGN_SUBSCRIPT_NAME_LOAD_CONSTANT_STORE_ADD_": 2714,
      "LIST_LOAD_LIST_LOAD_LOAD_": 2715,
      "SUBSCRIPT_NAME_LOAD_CALL_NAME_LOAD_NAME_LOAD_LOAD_": 2716,
      "COMPREHENSION_NAME_STORE_CALL_ATTRIBUTE_ATTRIBUTE_NAME_LOAD_LOAD_LOAD_": 2717,
      "IF_COMPARE_ATTRIBUTE_NAME_LOAD_LOAD_NOTEQ_": 2718,
      "ASSIGN_NAME_STORE_CALL_NAME_LOAD_GENERATOREXP_": 2719,
      "EXPR_CALL_ATTRIBUTE_NAME_LOAD_LOAD_CALL_ATTRIBUTE_CONSTANT_LOAD_NAME_LOAD_RETURN_": 2720,
      "TRY_EXPR_CALL_NAME_LOAD_": 2721,
      "IF_CALL_NAME_LOAD_SUBSCRIPT_NAME_LOAD_CONSTANT_LOAD_": 2722,
      "EQ_CONSTANT_COMPARE_": 2723,
      "IF_COMPARE_ATTRIBUTE_NAME_LOAD_LOAD_EQ_ATTRIBUTE_ATTRIBUTE_NAME_LOAD_LOAD_LOAD_": 2724,
      "TRY_RETURN_CALL_ATTRIBUTE_NAME_LOAD_LOAD_": 2725,
      "ATTRIBUTE_NAME_LOAD_LOAD_EXPR_CALL_ATTRIBUTE_NAME_LOAD_LOAD_NAME_LOAD_": 2726,
      "SUBSCRIPT_CALL_ATTRIBUTE_SUBSCRIPT_NAME_LOAD_CONSTANT_LOAD_LOAD_": 2727,
      "ASSIGN_SUBSCRIPT_NAME_LOAD_TUPLE_NAME_LOAD_NAME_LOAD_LOAD_STORE_": 2728,
      "MODULE_FUNCTIONDEF_ARGUMENTS_ARG_ARG_EXPR_CONSTANT_IF_COMPARE_NAME_LOAD_IN_ATTRIBUTE_NAME_LOAD_LOAD_": 2729,
      "CALL_ATTRIBUTE_ATTRIBUTE_NAME_LOAD_LOAD_LOAD_NAME_LOAD_NAME_LOAD_NAME_LOAD_": 2730,
      "CALL_ATTRIBUTE_SUBSCRIPT_NAME_LOAD_SLICE_CONSTANT_LOAD_LOAD_": 2731,
      "AUGASSIGN_SUBSCRIPT_NAME_LOAD_NAME_LOAD_STORE_ADD_": 2732,
      "CONSTANT_CONSTANT_RETURN_NAME_LOAD": 2733,
      "NAME_LOAD_ASSIGN_NAME_STORE_SUBSCRIPT_NAME_LOAD_NAME_LOAD_LOAD_": 2734,
      "MODULE_FUNCTIONDEF_ARGUMENTS_ARG_ARG_EXPR_CONSTANT_ASSIGN_NAME_STORE_CALL_NAME_LOAD_ATTRIBUTE_NAME_LOAD_LOAD_": 2735,
      "SUBSCRIPT_NAME_LOAD_SLICE_CONSTANT_": 2736,
      "IF_ATTRIBUTE_NAME_LOAD_LOAD_ASSIGN_ATTRIBUTE_NAME_LOAD_STORE_": 2737,
      "SUBSCRIPT_ATTRIBUTE_NAME_LOAD_LOAD_NAME_LOAD_LOAD_LOAD_LOAD_": 2738,
      "CALL_ATTRIBUTE_ATTRIBUTE_NAME_LOAD_LOAD_LOAD_CALL_ATTRIBUTE_NAME_LOAD_LOAD_": 2739,
      "KEYWORD_CONSTANT_EXPR_CALL_NAME_LOAD_": 2740,
      "CALL_ATTRIBUTE_CONSTANT_LOAD_NAME_LOAD_NAME_LOAD_NAME_LOAD_": 2741,
      "CALL_ATTRIBUTE_SUBSCRIPT_NAME_LOAD_CONSTANT_LOAD_LOAD_ASSIGN_NAME_STORE_": 2742,
      "IMPORTFROM_ALIAS_ASSIGN_NAME_STORE_CALL_NAME_LOAD_": 2743,
      "RETURN_CALL_": 2744,
      "IF_COMPARE_SUBSCRIPT_NAME_LOAD_UNARYOP_USUB_CONSTANT_LOAD_": 2745,
      "BINOP_NAME_LOAD_ADD_CONSTANT": 2746,
      "MODULE_FUNCTIONDEF_ARGUMENTS_ARG_ARG_EXPR_CONSTANT_ASSIGN_NAME_STORE_LIST_LOAD_ASSIGN_NAME_STORE_": 2747,
      "KEYWORD_LAMBDA_ARGUMENTS_ARG_SUBSCRIPT_NAME_LOAD_CONSTANT_LOAD_": 2748,
      "EXPR_CALL_ATTRIBUTE_NAME_LOAD_LOAD_NAME_LOAD_ASSIGN_NAME_STORE_CALL_ATTRIBUTE_NAME_LOAD_LOAD_NAME_LOAD_": 2749,
      "IF_NAME_LOAD_RETURN_NAME_LOAD_": 2750,
      "ATTRIBUTE_NAME_LOAD_LOAD_ASSIGN_NAME_STORE_CALL_ATTRIBUTE_NAME_LOAD_LOAD_CONSTANT_": 2751,
      "AUGASSIGN_NAME_STORE_ADD_CALL_NAME_LOAD_NAME_LOAD_": 2752,
      "LIST_NAME_LOAD_LOAD_ADD_": 2753,
      "CONSTANT_ASSIGN_NAME_STORE_CONSTANT_ASSIGN_NAME_STORE_CONSTANT_ASSIGN_NAME_STORE_": 2754,
      "SUBSCRIPT_ATTRIBUTE_SUBSCRIPT_NAME_LOAD_NAME_LOAD_LOAD_LOAD_": 2755,
      "AUGASSIGN_NAME_STORE_SUB_": 2756,
      "NOTEQ_ATTRIBUTE_ATTRIBUTE_NAME_LOAD_LOAD_LOAD_": 2757,
      "MODULE_FUNCTIONDEF_ARGUMENTS_ARG_ARG_EXPR_CONSTANT_EXPR_CALL_ATTRIBUTE_NAME_LOAD_LOAD_NAME_LOAD_": 2758,
      "MODULE_FUNCTIONDEF_ARGUMENTS_ARG_ARG_CONSTANT_EXPR_CONSTANT_IF_UNARYOP_NOT_NAME_LOAD_": 2759,
      "FOR_NAME_STORE_ATTRIBUTE_NAME_LOAD_LOAD_EXPR_CALL_ATTRIBUTE_NAME_LOAD_LOAD_NAME_LOAD_": 2760,
      "CONSTANT_RETURN_TUPLE_": 2761,
      "MODULE_FUNCTIONDEF_ARGUMENTS_ARG_ARG_EXPR_CONSTANT_ASSIGN_NAME_STORE_CALL_NAME_LOAD_NAME_LOAD_ASSIGN_NAME_STORE_": 2762,
      "TRY_ASSIGN_NAME_STORE_SUBSCRIPT_ATTRIBUTE_NAME_LOAD_LOAD_NAME_LOAD_LOAD_": 2763,
      "MODULE_FUNCTIONDEF_ARGUMENTS_ARG_EXPR_CONSTANT_ASSIGN_NAME_STORE_CALL_ATTRIBUTE_NAME_LOAD_LOAD_ASSIGN_NAME_STORE_": 2764,
      "BINOP_CALL_ATTRIBUTE_NAME_LOAD_LOAD_SUB_": 2765,
      "RETURN_CALL_ATTRIBUTE_ATTRIBUTE_NAME_LOAD_LOAD_LOAD_NAME_LOAD_NAME_LOAD": 2766,
      "CALL_ATTRIBUTE_NAME_LOAD_LOAD_NAME_LOAD_ASSIGN_NAME_STORE_CALL_ATTRIBUTE_NAME_LOAD_LOAD_NAME_LOAD_": 2767,
      "EXPR_CALL_ATTRIBUTE_NAME_LOAD_LOAD_NAME_LOAD_ASSIGN_NAME_STORE_CALL_NAME_LOAD_": 2768,
      "RETURN_CALL_NAME_LOAD_CALL_ATTRIBUTE_NAME_LOAD_LOAD_": 2769,
      "IF_COMPARE_ATTRIBUTE_ATTRIBUTE_NAME_LOAD_LOAD_LOAD_EQ_CONSTANT_": 2770,
      "ATTRIBUTE_NAME_LOAD_LOAD_NAME_LOAD_NAME_LOAD_": 2771,
      "KEYWORD_LIST_": 2772,
      "IF_COMPARE_NAME_LOAD_IS_ATTRIBUTE_NAME_LOAD_LOAD_": 2773,
      "DICT_CONSTANT_CONSTANT_CONSTANT_CONSTANT_ATTRIBUTE_NAME_LOAD_LOAD_": 2774,
      "RAISE_CALL_NAME_LOAD_BINOP_CONSTANT_MOD_ATTRIBUTE_NAME_LOAD_LOAD_": 2775,
      "EXPR_CALL_ATTRIBUTE_NAME_LOAD_LOAD_CONSTANT_NAME_LOAD_EXPR_CALL_ATTRIBUTE_NAME_LOAD_LOAD_CONSTANT_NAME_LOAD_": 2776,
      "EXPR_CALL_ATTRIBUTE_NAME_LOAD_LOAD_NAME_LOAD_EXPR_CALL_ATTRIBUTE_NAME_LOAD_LOAD_NAME_LOAD_EXPR_CALL_ATTRIBUTE_NAME_LOAD_LOAD_NAME_LOAD_EXPR_CALL_ATTRIBUTE_NAME_LOAD_LOAD_NAME_LOAD_": 2777,
      "TRY_ASSIGN_SUBSCRIPT_NAME_LOAD_NAME_LOAD_STORE_": 2778,
      "EXPR_CALL_ATTRIBUTE_ATTRIBUTE_NAME_LOAD_LOAD_LOAD_NAME_LOAD_ASSIGN_NAME_STORE_": 2779,
      "BINOP_CONSTANT_MOD_NAME_LOAD_EXPR_CALL_ATTRIBUTE_NAME_LOAD_LOAD_": 2780,
      "MODULE_FUNCTIONDEF_ARGUMENTS_ARG_EXPR_CONSTANT_ASSIGN_NAME_STORE_CONSTANT_ASSIGN_NAME_STORE_": 2781,
      "ASSIGN_NAME_STORE_CALL_NAME_LOAD_CALL_NAME_LOAD_NAME_LOAD_": 2782,
      "IFEXP_UNARYOP_NOT_NAME_LOAD_": 2783,
      "CALL_ATTRIBUTE_NAME_LOAD_LOAD_CONSTANT_CONSTANT_CALL_ATTRIBUTE_NAME_LOAD_LOAD_CONSTANT_CONSTANT_": 2784,
      "MODULE_FUNCTIONDEF_ARGUMENTS_ARG_ARG_ARG_CONSTANT_CONSTANT_EXPR_CONSTANT_RETURN_": 2785,
      "KEYWORD_SUBSCRIPT_NAME_LOAD_CONSTANT_LOAD_KEYWORD_": 2786,
      "MODULE_FUNCTIONDEF_ARGUMENTS_ARG_ARG_EXPR_CONSTANT_RETURN_CALL_ATTRIBUTE_NAME_LOAD_LOAD_": 2787,
      "RAISE_CALL_NAME_LOAD_CONSTANT_IF_UNARYOP_NOT_": 2788,
      "EXPR_CALL_ATTRIBUTE_NAME_LOAD_LOAD_CONSTANT_EXPR_CALL_ATTRIBUTE_NAME_LOAD_LOAD_NAME_LOAD_": 2789,
      "BINOP_NAME_LOAD_ADD_CONSTANT_STORE_": 2790,
      "EXPR_CALL_ATTRIBUTE_NAME_LOAD_LOAD_CALL_ATTRIBUTE_CONSTANT_LOAD_NAME_LOAD": 2791,
      "KEYWORD_CONSTANT_EXPR_CALL_ATTRIBUTE_NAME_LOAD_LOAD_NAME_LOAD_": 2792,
      "MODULE_FUNCTIONDEF_ARGUMENTS_ARG_ARG_ARG_EXPR_CONSTANT_ASSIGN_TUPLE_NAME_STORE_NAME_STORE_STORE_": 2793,
      "BINOP_BINOP_CALL_ATTRIBUTE_NAME_LOAD_LOAD_": 2794,
      "IF_NAME_LOAD_EXPR_CALL_NAME_LOAD_NAME_LOAD_": 2795,
      "CONSTANT_EXPR_CALL_ATTRIBUTE_ATTRIBUTE_NAME_LOAD_LOAD_LOAD": 2796,
      "CALL_ATTRIBUTE_NAME_LOAD_LOAD_NAME_LOAD_NAME_LOAD_ASSIGN_NAME_STORE_": 2797,
      "ATTRIBUTE_ATTRIBUTE_ATTRIBUTE_NAME_LOAD_LOAD_LOAD_LOAD_ASSIGN_NAME_STORE_": 2798,
      "SUBSCRIPT_NAME_LOAD_NAME_LOAD_LOAD_ASSIGN_NAME_STORE_SUBSCRIPT_NAME_LOAD_NAME_LOAD_LOAD_": 2799,
      "AUGASSIGN_NAME_STORE_SUB_CONSTANT_": 2800,
      "CALL_ATTRIBUTE_CONSTANT_LOAD_ATTRIBUTE_NAME_LOAD_LOAD_NAME_LOAD_": 2801,
      "LIST_LOAD_FOR_NAME_STORE_CALL_ATTRIBUTE_NAME_LOAD_LOAD_": 2802,
      "EXPR_CALL_ATTRIBUTE_NAME_LOAD_LOAD_NAME_LOAD_NAME_LOAD_EXPR_CALL_ATTRIBUTE_NAME_LOAD_LOAD_NAME_LOAD_NAME_LOAD_": 2803,
      "EXPR_CALL_ATTRIBUTE_NAME_LOAD_LOAD_ATTRIBUTE_NAME_LOAD_LOAD_EXPR_CALL_ATTRIBUTE_NAME_LOAD_LOAD_": 2804,
      "CALL_ATTRIBUTE_ATTRIBUTE_NAME_LOAD_LOAD_LOAD_ATTRIBUTE_NAME_LOAD_LOAD_CONSTANT_": 2805,
      "SUBSCRIPT_CALL_ATTRIBUTE_NAME_LOAD_LOAD_CONSTANT_CONSTANT_LOAD_ASSIGN_NAME_STORE_": 2806,
      "BINOP_CALL_ATTRIBUTE_NAME_LOAD_LOAD_NAME_LOAD_ADD_": 2807,
      "_CONSTANT_CONSTANT_": 2808,
      "COMPARE_NAME_LOAD_NOTEQ_ATTRIBUTE_NAME_LOAD_LOAD_": 2809,
      "COMPREHENSION_NAME_STORE_ATTRIBUTE_NAME_LOAD_LOAD_ASSIGN_NAME_STORE_": 2810,
      "UNARYOP_USUB_CONSTANT_UNARYOP_USUB_CONSTANT_": 2811,
      "BINOP_CONSTANT_MOD_NAME_LOAD_RETURN_": 2812,
      "KEYWORD_ATTRIBUTE_NAME_LOAD_LOAD_RETURN_NAME_LOAD": 2813,
      "TRY_ASSIGN_NAME_STORE_ATTRIBUTE_NAME_LOAD_LOAD_": 2814,
      "DICT_FOR_NAME_STORE_": 2815,
      "RETURN_CALL_NAME_LOAD_CALL_NAME_LOAD_": 2816,
      "CALL_NAME_LOAD_CALL_ATTRIBUTE_NAME_LOAD_LOAD_CONSTANT_CONSTANT_": 2817,
      "KEYWORD_NAME_LOAD_KEYWORD_NAME_LOAD_KEYWORD_NAME_LOAD_KEYWORD_NAME_LOAD_KEYWORD_NAME_LOAD": 2818,
      "CALL_ATTRIBUTE_CALL_ATTRIBUTE_NAME_LOAD_LOAD_LOAD_NAME_LOAD_": 2819,
      "ATTRIBUTE_NAME_LOAD_LOAD_CONSTANT_FORMATTEDVALUE_": 2820,
      "CALL_ATTRIBUTE_SUBSCRIPT_SUBSCRIPT_NAME_LOAD_CONSTANT_LOAD_CONSTANT_LOAD_LOAD_": 2821,
      "SUBSCRIPT_ATTRIBUTE_NAME_LOAD_LOAD_TUPLE_NAME_LOAD_": 2822,
      "LISTCOMP_IFEXP_": 2823,
      "CONSTANT_EXPR_CALL_ATTRIBUTE_NAME_LOAD_LOAD_NAME_LOAD": 2824,
      "TRY_IMPORT_ALIAS_": 2825,
      "CALL_ATTRIBUTE_NAME_LOAD_LOAD_NAME_LOAD_NAME_LOAD_RETURN_NAME_LOAD": 2826,
      "DELETE_SUBSCRIPT_NAME_LOAD_NAME_LOAD_DEL": 2827,
      "CALL_ATTRIBUTE_NAME_LOAD_LOAD_NAME_LOAD_NAME_LOAD_LOAD_": 2828,
      "CONSTANT_ASSIGN_NAME_STORE_CALL_ATTRIBUTE_NAME_LOAD_LOAD_CONSTANT_ASSIGN_NAME_STORE_": 2829,
      "ATTRIBUTE_NAME_LOAD_LOAD_ASSIGN_NAME_STORE_CALL_ATTRIBUTE_ATTRIBUTE_NAME_LOAD_LOAD_LOAD_NAME_LOAD_": 2830,
      "GT_CONSTANT_EXPR_CALL_NAME_LOAD_": 2831,
      "ASSIGN_NAME_STORE_CONSTANT_FOR_NAME_STORE_NAME_LOAD_": 2832,
      "TRY_ASSIGN_SUBSCRIPT_NAME_LOAD_CONSTANT_STORE_": 2833,
      "EXPR_CALL_ATTRIBUTE_NAME_LOAD_LOAD_ASSIGN_NAME_STORE_CALL_ATTRIBUTE_NAME_LOAD_LOAD_": 2834,
      "EXPR_CALL_NAME_LOAD_CALL_ATTRIBUTE_CONSTANT_LOAD_NAME_LOAD_NAME_LOAD_": 2835,
      "NAME_LOAD_NAME_LOAD_NAME_LOAD_NAME_LOAD_NAME_LOAD_NAME_LOAD_NAME_LOAD_": 2836,
      "IF_CALL_ATTRIBUTE_ATTRIBUTE_NAME_LOAD_LOAD_LOAD_NAME_LOAD_ASSIGN_NAME_STORE_": 2837,
      "RETURN_TUPLE_CONSTANT_CONSTANT_LOAD_": 2838,
      "IF_UNARYOP_NOT_NAME_LOAD_ASSIGN_NAME_STORE_CALL_ATTRIBUTE_NAME_LOAD_LOAD_": 2839,
      "SUBSCRIPT_ATTRIBUTE_ATTRIBUTE_NAME_LOAD_LOAD_LOAD_CONSTANT_LOAD_LOAD_": 2840,
      "IF_COMPARE_NAME_LOAD_ISNOT_CONSTANT_ASSIGN_NAME_STORE_CALL_ATTRIBUTE_NAME_LOAD_LOAD_NAME_LOAD_": 2841,
      "MODULE_FUNCTIONDEF_ARGUMENTS_ARG_ARG_ARG_ARG_ARG_ARG_ARG_ARG_EXPR_": 2842,
      "ATTRIBUTE_NAME_LOAD_LOAD_ATTRIBUTE_NAME_LOAD_LOAD": 2843,
      "RETURN_NAME_LOAD_EXCEPTHANDLER_NAME_LOAD_": 2844,
      "IF_CALL_ATTRIBUTE_NAME_LOAD_LOAD_NAME_LOAD_ASSIGN_NAME_STORE_": 2845,
      "DICT_CONSTANT_CONSTANT_CONSTANT_CONSTANT_CONSTANT_CONSTANT_CONSTANT_CONSTANT_CONSTANT_CONSTANT_CONSTANT_CONSTANT_CONSTANT_CONSTANT_CONSTANT_CONSTANT_CONSTANT_": 2846,
      "CALL_NAME_LOAD_NAME_LOAD_CALL_NAME_LOAD_NAME_LOAD_CALL_NAME_LOAD_NAME_LOAD_": 2847,
      "IF_COMPARE_CONSTANT_IN_NAME_LOAD_ASSIGN_NAME_STORE_SUBSCRIPT_NAME_LOAD_CONSTANT_LOAD_": 2848,
      "IF_CALL_NAME_LOAD_ATTRIBUTE_NAME_LOAD_LOAD_NAME_LOAD_": 2849,
      "CALL_ATTRIBUTE_CALL_ATTRIBUTE_CALL_ATTRIBUTE_NAME_LOAD_LOAD_": 2850,
      "KEYWORD_CONSTANT_KEYWORD_NAME_LOAD": 2851,
      "TRY_ASSIGN_NAME_STORE_CALL_NAME_LOAD_NAME_LOAD_NAME_LOAD_": 2852,
      "TUPLE_NAME_LOAD_NAME_LOAD_LOAD_RETURN_NAME_LOAD": 2853,
      "MODULE_FUNCTIONDEF_ARGUMENTS_ARG_ARG_EXPR_CONSTANT_FOR_NAME_STORE_": 2854,
      "IF_UNARYOP_NOT_NAME_LOAD_RETURN_CONSTANT_": 2855,
      "ASSIGN_SUBSCRIPT_NAME_LOAD_NAME_LOAD_STORE_CALL_NAME_LOAD_": 2856,
      "MODULE_FUNCTIONDEF_ARGUMENTS_ARG_ARG_EXPR_CONSTANT_ASSIGN_TUPLE_NAME_STORE_NAME_STORE_NAME_STORE_STORE_": 2857,
      "CONSTANT_ASSIGN_NAME_STORE_CALL_ATTRIBUTE_NAME_LOAD_LOAD_ASSIGN_NAME_STORE_CALL_ATTRIBUTE_NAME_LOAD_LOAD_": 2858,
      "MODULE_FUNCTIONDEF_ARGUMENTS_ARG_ARG_ARG_CONSTANT_EXPR_CONSTANT_IF_NAME_LOAD_": 2859,
      "SUBSCRIPT_NAME_LOAD_SLICE_UNARYOP_USUB_CALL_NAME_LOAD_NAME_LOAD_LOAD_": 2860,
      "CONSTANT_ASSIGN_NAME_STORE_CALL_NAME_LOAD_NAME_LOAD_CONSTANT_": 2861,
      "CALL_ATTRIBUTE_CONSTANT_LOAD_LIST_NAME_LOAD_": 2862,
      "CALL_ATTRIBUTE_ATTRIBUTE_NAME_LOAD_LOAD_LOAD_NAME_LOAD_RETURN_NAME_LOAD": 2863,
      "LIST_CONSTANT_CONSTANT_CONSTANT_CONSTANT_CONSTANT_CONSTANT_CONSTANT_CONSTANT_CONSTANT_CONSTANT_CONSTANT_CONSTANT_CONSTANT_CONSTANT_CONSTANT_CONSTANT_CONSTANT_": 2864,
      "IF_BOOLOP_OR_BOOLOP_AND_": 2865,
      "MODULE_FUNCTIONDEF_ARGUMENTS_ARG_ARG_EXPR_CONSTANT_ASSIGN_NAME_STORE_CALL_ATTRIBUTE_NAME_LOAD_LOAD_ATTRIBUTE_NAME_LOAD_LOAD_": 2866,
      "RETURN_TUPLE_NAME_LOAD_NAME_LOAD_NAME_LOAD_NAME_LOAD_LOAD": 2867,
      "DICTCOMP_ATTRIBUTE_NAME_LOAD_LOAD_": 2868,
      "MODULE_FUNCTIONDEF_ARGUMENTS_ARG_ARG_ARG_CONSTANT_EXPR_CONSTANT_IF_CALL_NAME_LOAD_NAME_LOAD_CONSTANT_ASSIGN_NAME_STORE_CALL_ATTRIBUTE_NAME_LOAD_LOAD_NAME_LOAD_TRY_ASSIGN_NAME_STORE_CALL_NAME_LOAD_NAME_LOAD_KEYWORD_ATTRIBUTE_NAME_LOAD_LOAD_KEYWORD_CONSTANT_KEYWORD_CONSTANT_KEYWORD_CONSTANT_KEYWORD_CONSTANT_KEYWORD_NAME_LOAD_KEYWORD_ATTRIBUTE_NAME_LOAD_LOAD_KEYWORD_ATTRIBUTE_NAME_LOAD_LOAD_KEYWORD_CONSTANT_KEYWORD_DICT_CONSTANT_DICT_CONSTANT_CONSTANT_CONSTANT_CONSTANT_KEYWORD_CONSTANT_KEYWORD_CONSTANT_KEYWORD_CONSTANT_KEYWORD_CONSTANT_EXCEPTHANDLER_TUPLE_NAME_LOAD_NAME_LOAD_LOAD_RAISE_CALL_NAME_LOAD_DICT_CONSTANT_CONSTANT_CONSTANT_CONSTANT_CONSTANT_CONSTANT_ASSIGN_ATTRIBUTE_NAME_LOAD_STORE_NAME_LOAD_IF_CALL_NAME_LOAD_NAME_LOAD_CONSTANT_EXPR_CALL_ATTRIBUTE_NAME_LOAD_LOAD": 2869,
      "CALL_ATTRIBUTE_NAME_LOAD_LOAD_ATTRIBUTE_NAME_LOAD_LOAD_LOAD_": 2870,
      "EXPR_TUPLE_BINOP_NAME_LOAD_RSHIFT": 2871,
      "SUBSCRIPT_ATTRIBUTE_NAME_LOAD_LOAD_NAME_LOAD_STORE_": 2872,
      "SUBSCRIPT_ATTRIBUTE_NAME_LOAD_LOAD_BINOP_NAME_LOAD_ADD_CONSTANT_LOAD_": 2873,
      "EXPR_CALL_ATTRIBUTE_ATTRIBUTE_NAME_LOAD_LOAD_LOAD_ATTRIBUTE_NAME_LOAD_LOAD_ATTRIBUTE_NAME_LOAD_LOAD_": 2874,
      "CONSTANT_ASSIGN_NAME_STORE_CALL_ATTRIBUTE_NAME_LOAD_LOAD_NAME_LOAD_ASSIGN_NAME_STORE_CALL_ATTRIBUTE_NAME_LOAD_LOAD_": 2875,
      "MODULE_FUNCTIONDEF_ARGUMENTS_ARG_EXPR_CONSTANT_ASSIGN_NAME_STORE_CALL_ATTRIBUTE_ATTRIBUTE_NAME_LOAD_LOAD_LOAD_CONSTANT_": 2876,
      "IF_BOOLOP_AND_CALL_NAME_LOAD_NAME_LOAD_": 2877,
      "MODULE_FUNCTIONDEF_ARGUMENTS_ARG_ARG_ARG_EXPR_CONSTANT_ASSIGN_NAME_STORE_CALL_ATTRIBUTE_NAME_LOAD_LOAD_NAME_LOAD_NAME_LOAD_": 2878,
      "ASSIGN_NAME_STORE_CALL_NAME_LOAD_ASSIGN_NAME_STORE_": 2879,
      "COMPARE_CONSTANT_IN_NAME_LOAD_ASSIGN_NAME_STORE_": 2880,
      "COMPARE_NAME_LOAD_GTE_NAME_LOAD_": 2881,
      "IF_COMPARE_ATTRIBUTE_NAME_LOAD_LOAD_ISNOT_CONSTANT_ASSIGN_SUBSCRIPT_NAME_LOAD_CONSTANT_STORE_CALL_NAME_LOAD_ATTRIBUTE_NAME_LOAD_LOAD_": 2882,
      "EQ_ATTRIBUTE_ATTRIBUTE_ATTRIBUTE_NAME_LOAD_LOAD_LOAD_LOAD_": 2883,
      "LIST_CONSTANT_CONSTANT_UNARYOP_USUB_CONSTANT_CONSTANT_LOAD_": 2884,
      "NAME_LOAD_IF_UNARYOP_NOT_": 2885,
      "CALL_ATTRIBUTE_ATTRIBUTE_NAME_LOAD_LOAD_LOAD_ATTRIBUTE_NAME_LOAD_LOAD_ATTRIBUTE_NAME_LOAD_LOAD_": 2886,
      "ASSIGN_NAME_STORE_CALL_ATTRIBUTE_NAME_LOAD_LOAD_NAME_LOAD_NAME_LOAD_NAME_LOAD_": 2887,
      "IF_BOOLOP_AND_COMPARE_CALL_NAME_LOAD_NAME_LOAD_EQ_CONSTANT_": 2888,
      "ATTRIBUTE_NAME_LOAD_LOAD_ASSIGN_NAME_STORE_CALL_NAME_LOAD_ATTRIBUTE_NAME_LOAD_LOAD_": 2889,
      "ASSIGN_SUBSCRIPT_NAME_LOAD_NAME_LOAD_STORE_SUBSCRIPT_NAME_LOAD_NAME_LOAD_LOAD_": 2890,
      "MODULE_FUNCTIONDEF_ARGUMENTS_ARG_ARG_ARG_CONSTANT_EXPR_CONSTANT_EXPR_CALL_ATTRIBUTE_NAME_LOAD_LOAD_": 2891,
      "IF_COMPARE_NAME_LOAD_EQ_CONSTANT_EXPR_CALL_ATTRIBUTE_NAME_LOAD_LOAD_NAME_LOAD_": 2892,
      "CALL_ATTRIBUTE_CALL_ATTRIBUTE_ATTRIBUTE_NAME_LOAD_LOAD_LOAD_CONSTANT_LOAD_": 2893,
      "LISTCOMP_CALL_ATTRIBUTE_NAME_LOAD_LOAD_NAME_LOAD_COMPREHENSION_NAME_STORE_NAME_LOAD_": 2894,
      "SUBSCRIPT_CALL_ATTRIBUTE_NAME_LOAD_LOAD_CONSTANT_CONSTANT_CONSTANT_LOAD_": 2895,
      "IF_COMPARE_CALL_NAME_LOAD_NAME_LOAD_NOTEQ_CALL_NAME_LOAD_NAME_LOAD_": 2896,
      "CALL_ATTRIBUTE_NAME_LOAD_LOAD_CALL_NAME_LOAD_NAME_LOAD_": 2897,
      "TUPLE_UNARYOP_USUB_CONSTANT_": 2898,
      "SUBSCRIPT_NAME_LOAD_CONSTANT_LOAD_EXPR_CALL_ATTRIBUTE_NAME_LOAD_LOAD_NAME_LOAD_": 2899,
      "SUBSCRIPT_SUBSCRIPT_ATTRIBUTE_NAME_LOAD_LOAD_ATTRIBUTE_NAME_LOAD_LOAD_LOAD_": 2900,
      "SUBSCRIPT_NAME_LOAD_SLICE_CONSTANT_LOAD_LOAD_": 2901,
      "KEYWORD_NAME_LOAD_KEYWORD_NAME_LOAD_ASSIGN_NAME_STORE_CALL_ATTRIBUTE_NAME_LOAD_LOAD_": 2902,
      "SUBSCRIPT_SUBSCRIPT_NAME_LOAD_NAME_LOAD_LOAD_CONSTANT_LOAD_ASSIGN_NAME_STORE_": 2903,
      "CALL_ATTRIBUTE_SUBSCRIPT_NAME_LOAD_CONSTANT_LOAD_LOAD_LOAD_": 2904,
      "IF_COMPARE_SUBSCRIPT_NAME_LOAD_CONSTANT_LOAD_IN_": 2905,
      "KEYWORD_CONSTANT_ASSIGN_NAME_STORE_CALL_NAME_LOAD_NAME_LOAD_": 2906,
      "CONSTANT_ASSIGN_NAME_STORE_LIST_LOAD_FOR_NAME_STORE_": 2907,
      "EXPR_CALL_ATTRIBUTE_NAME_LOAD_LOAD_DICT_CONSTANT_": 2908,
      "SLICE_CONSTANT_LOAD_ASSIGN_NAME_STORE_": 2909,
      "SUBSCRIPT_ATTRIBUTE_NAME_LOAD_LOAD_CONSTANT_LOAD_ASSIGN_NAME_STORE_CALL_ATTRIBUTE_NAME_LOAD_LOAD_": 2910,
      "KEYWORD_NAME_LOAD_EXCEPTHANDLER_NAME_LOAD_": 2911,
      "CALL_ATTRIBUTE_NAME_LOAD_LOAD_CONSTANT_NAME_LOAD": 2912,
      "BINOP_NAME_LOAD_BITOR_NAME_LOAD_": 2913,
      "CONSTANT_ATTRIBUTE_NAME_LOAD_LOAD_NAME_LOAD_": 2914,
      "MODULE_FUNCTIONDEF_ARGUMENTS_ARG_ARG_CONSTANT_EXPR_CONSTANT_ASSIGN_NAME_STORE_CALL_ATTRIBUTE_NAME_LOAD_LOAD_NAME_LOAD_": 2915,
      "RAISE_CALL_NAME_LOAD_BINOP_CONSTANT_MOD_NAME_LOAD_ASSIGN_NAME_STORE_": 2916,
      "NAME_LOAD_ASSIGN_ATTRIBUTE_NAME_LOAD_STORE_NAME_LOAD": 2917,
      "COMPARE_SUBSCRIPT_NAME_LOAD_CONSTANT_LOAD_EQ_CONSTANT_ASSIGN_NAME_STORE_": 2918,
      "IF_COMPARE_NAME_LOAD_NOTIN_NAME_LOAD_EXPR_CALL_ATTRIBUTE_NAME_LOAD_LOAD_NAME_LOAD_": 2919,
      "SUBSCRIPT_NAME_LOAD_SLICE_NAME_LOAD_BINOP_NAME_LOAD_ADD_NAME_LOAD_LOAD_": 2920,
      "RETURN_SUBSCRIPT_NAME_LOAD_CONSTANT_LOAD_": 2921,
      "SUBSCRIPT_NAME_LOAD_CONSTANT_LOAD_ADD_": 2922,
      "RAISE_CALL_NAME_LOAD_CONSTANT_NAME_LOAD_": 2923,
      "LIST_CONSTANT_CONSTANT_LOAD_LOAD_": 2924,
      "ASSIGN_SUBSCRIPT_NAME_LOAD_NAME_LOAD_STORE_CALL_ATTRIBUTE_NAME_LOAD_LOAD_NAME_LOAD_": 2925,
      "WITH_WITHITEM_CALL_ATTRIBUTE_ATTRIBUTE_ATTRIBUTE_NAME_LOAD_LOAD_LOAD_LOAD_": 2926,
      "CALL_ATTRIBUTE_SUBSCRIPT_NAME_LOAD_CONSTANT_LOAD_LOAD_NAME_LOAD_": 2927,
      "BINOP_NAME_LOAD_SUB_NAME_LOAD_LOAD_": 2928,
      "CALL_ATTRIBUTE_CALL_ATTRIBUTE_ATTRIBUTE_ATTRIBUTE_NAME_LOAD_LOAD_LOAD_LOAD_": 2929,
      "ATTRIBUTE_NAME_LOAD_LOAD_ATTRIBUTE_NAME_LOAD_LOAD_LOAD": 2930,
      "EXPR_CALL_NAME_LOAD_BINOP_CONSTANT_ADD_": 2931,
      "IF_ATTRIBUTE_NAME_LOAD_LOAD_ASSIGN_SUBSCRIPT_NAME_LOAD_CONSTANT_STORE_ATTRIBUTE_NAME_LOAD_LOAD_": 2932,
      "IF_COMPARE_NAME_LOAD_IS_CONSTANT_RETURN_CONSTANT_RETURN_": 2933,
      "CALL_ATTRIBUTE_ATTRIBUTE_NAME_LOAD_LOAD_LOAD_ATTRIBUTE_ATTRIBUTE_NAME_LOAD_LOAD_LOAD_": 2934,
      "BINOP_CALL_NAME_LOAD_CALL_ATTRIBUTE_NAME_LOAD_LOAD_": 2935,
      "UNARYOP_USUB_CONSTANT_LOAD_LOAD_": 2936,
      "FOR_NAME_STORE_NAME_LOAD_ASSIGN_NAME_STORE_CALL_ATTRIBUTE_ATTRIBUTE_NAME_LOAD_LOAD_LOAD_NAME_LOAD_NAME_LOAD_": 2937,
      "CALL_ATTRIBUTE_NAME_LOAD_LOAD_CALL_ATTRIBUTE_NAME_LOAD_LOAD_LOAD_": 2938,
      "EXPR_CALL_ATTRIBUTE_ATTRIBUTE_NAME_LOAD_LOAD_LOAD_ATTRIBUTE_NAME_LOAD_LOAD_EXPR_CALL_ATTRIBUTE_ATTRIBUTE_NAME_LOAD_LOAD_LOAD_ATTRIBUTE_NAME_LOAD_LOAD_": 2939,
      "BINOP_NAME_LOAD_MOD_NAME_LOAD_": 2940,
      "EXPR_CALL_ATTRIBUTE_NAME_LOAD_LOAD_CONSTANT_CALL_NAME_LOAD_NAME_LOAD_": 2941,
      "CALL_NAME_LOAD_NAME_LOAD_ADD_CONSTANT_": 2942,
      "EXPR_CALL_ATTRIBUTE_NAME_LOAD_LOAD_CALL_ATTRIBUTE_NAME_LOAD_LOAD_ATTRIBUTE_NAME_LOAD_LOAD_": 2943,
      "SUBSCRIPT_SUBSCRIPT_SUBSCRIPT_NAME_LOAD_NAME_LOAD_LOAD_NAME_LOAD_LOAD_": 2944,
      "KEYWORD_NAME_LOAD_KEYWORD_NAME_LOAD_KEYWORD_NAME_LOAD_ASSIGN_NAME_STORE_": 2945,
      "IF_COMPARE_NAME_LOAD_EQ_CONSTANT_CONTINUE_": 2946,
      "IF_COMPARE_NAME_LOAD_EQ_CONSTANT_ASSIGN_NAME_STORE_CALL_NAME_LOAD_": 2947,
      "COMPARE_CALL_NAME_LOAD_NAME_LOAD_IS_NAME_LOAD_": 2948,
      "EXCEPTHANDLER_TUPLE_NAME_LOAD_NAME_LOAD_LOAD_PASS_": 2949,
      "IF_COMPARE_ATTRIBUTE_NAME_LOAD_LOAD_EQ_CONSTANT_ASSIGN_ATTRIBUTE_NAME_LOAD_STORE_": 2950,
      "UNARYOP_INVERT_NAME_LOAD_": 2951,
      "SUBSCRIPT_NAME_LOAD_ATTRIBUTE_ATTRIBUTE_NAME_LOAD_LOAD_LOAD_LOAD_": 2952,
      "ASSIGN_SUBSCRIPT_NAME_LOAD_CONSTANT_STORE_CONSTANT_": 2953,
      "_NAME_LOAD_ARG_NAME_LOAD_": 2954,
      "CONSTANT_AUGASSIGN_NAME_STORE_SUB_CONSTANT_": 2955,
      "TUPLE_CONSTANT_CONSTANT_CONSTANT_LOAD_ASSIGN_NAME_STORE_": 2956,
      "LIST_CONSTANT_CONSTANT_LOAD_LIST_CONSTANT_CONSTANT_LOAD_LIST_CONSTANT_CONSTANT_LOAD_LIST_CONSTANT_CONSTANT_LOAD_": 2957,
      "IF_NAME_LOAD_RETURN_CALL_ATTRIBUTE_NAME_LOAD_LOAD_": 2958,
      "MODULE_FUNCTIONDEF_ARGUMENTS_ARG_EXPR_CONSTANT_IF_COMPARE_": 2959,
      "CONSTANT_ATTRIBUTE_NAME_LOAD_LOAD_ASSIGN_NAME_STORE_": 2960,
      "IF_COMPARE_NAME_LOAD_IS_CONSTANT_RETURN_NAME_LOAD_": 2961,
      "MODULE_FUNCTIONDEF_ARGUMENTS_ARG_ARG_ARG_ARG_ARG_": 2962,
      "ATTRIBUTE_NAME_LOAD_STORE_STORE_": 2963,
      "CONSTANT_WHILE_": 2964,
      "IF_BOOLOP_AND_ATTRIBUTE_NAME_LOAD_LOAD_ATTRIBUTE_NAME_LOAD_LOAD_": 2965,
      "_ALIAS_ALIAS": 2966,
      "ASSIGN_NAME_STORE_CALL_ATTRIBUTE_NAME_LOAD_LOAD_NAME_LOAD_RETURN_NAME_LOAD": 2967,
      "DICT_NAME_LOAD_NAME_LOAD_": 2968,
      "BINOP_NAME_LOAD_BITAND_NAME_LOAD_": 2969,
      "LIST_CONSTANT_CONSTANT_UNARYOP_USUB_CONSTANT_CONSTANT_LOAD_LIST_CONSTANT_CONSTANT_UNARYOP_USUB_CONSTANT_CONSTANT_LOAD_": 2970,
      "SUBSCRIPT_SUBSCRIPT_SUBSCRIPT_NAME_LOAD_NAME_LOAD_LOAD_CONSTANT_LOAD_": 2971,
      "KEYWORD_ATTRIBUTE_NAME_LOAD_LOAD_KEYWORD_NAME_LOAD": 2972,
      "KEYWORD_NAME_LOAD_KEYWORD_ATTRIBUTE_NAME_LOAD_LOAD": 2973,
      "IF_COMPARE_NAME_LOAD_GT_ATTRIBUTE_NAME_LOAD_LOAD_": 2974,
      "MODULE_FUNCTIONDEF_ARGUMENTS_ARG_EXPR_CONSTANT_IF_UNARYOP_NOT_NAME_LOAD_": 2975,
      "EXPR_CALL_ATTRIBUTE_NAME_LOAD_LOAD_NAME_LOAD_EXPR_CALL_ATTRIBUTE_NAME_LOAD_LOAD": 2976,
      "ASSIGN_NAME_STORE_CALL_NAME_LOAD_SUBSCRIPT_NAME_LOAD_CONSTANT_LOAD_": 2977,
      "WITH_WITHITEM_CALL_ATTRIBUTE_NAME_LOAD_LOAD_CONSTANT_": 2978,
      "ATTRIBUTE_NAME_LOAD_LOAD_ASSIGN_NAME_STORE_ATTRIBUTE_NAME_LOAD_LOAD_ASSIGN_NAME_STORE_ATTRIBUTE_NAME_LOAD_LOAD_ASSIGN_NAME_STORE_ATTRIBUTE_NAME_LOAD_LOAD_ASSIGN_NAME_STORE_": 2979,
      "CONSTANT_ASSIGN_NAME_STORE_CALL_ATTRIBUTE_NAME_LOAD_LOAD_KEYWORD_CONSTANT_KEYWORD_CONSTANT_KEYWORD_CONSTANT_KEYWORD_NAME_LOAD_KEYWORD_NAME_LOAD_": 2980,
      "IF_BOOLOP_AND_COMPARE_CALL_NAME_LOAD_NAME_LOAD_GT_CONSTANT_": 2981,
      "NAME_LOAD_ASSIGN_NAME_STORE_CALL_ATTRIBUTE_NAME_LOAD_LOAD_ASSIGN_NAME_STORE_": 2982,
      "IF_ATTRIBUTE_NAME_LOAD_LOAD_ASSIGN_SUBSCRIPT_NAME_LOAD_CONSTANT_STORE_": 2983,
      "EXPR_CALL_ATTRIBUTE_NAME_LOAD_LOAD_BINOP_CONSTANT_MOD_NAME_LOAD_EXPR_CALL_ATTRIBUTE_NAME_LOAD_LOAD_": 2984,
      "BINOP_CALL_NAME_LOAD_NAME_LOAD_SUB_CONSTANT_ASSIGN_NAME_STORE_": 2985,
      "RAISE_CALL_NAME_LOAD_NAME_LOAD_RETURN_NAME_LOAD": 2986,
      "LIST_CONSTANT_CONSTANT_CONSTANT_CONSTANT_LOAD_ASSIGN_NAME_STORE_": 2987,
      "NAME_LOAD_NAME_LOAD_LOAD_ASSIGN_NAME_STORE_": 2988,
      "CONSTANT_FOR_NAME_STORE_ATTRIBUTE_NAME_LOAD_LOAD_": 2989,
      "KEYWORD_NAME_LOAD_ASSIGN_NAME_STORE_CALL_NAME_LOAD_NAME_LOAD_": 2990,
      "CALL_NAME_LOAD_NAME_LOAD_CONSTANT_LOAD_": 2991,
      "MODULE_FUNCTIONDEF_ARGUMENTS_ARG_ARG_NAME_LOAD_CONSTANT_EXPR_": 2992,
      "EXPR_CALL_ATTRIBUTE_NAME_LOAD_LOAD_CONSTANT_KEYWORD_CONSTANT_KEYWORD_CONSTANT_KEYWORD_CONSTANT_KEYWORD_CONSTANT_": 2993,
      "KEYWORD_NAME_LOAD_KEYWORD_NAME_LOAD_EXPR_CALL_ATTRIBUTE_NAME_LOAD_LOAD_": 2994,
      "LIST_CONSTANT_CONSTANT_": 2995,
      "IF_BOOLOP_OR_COMPARE_NAME_LOAD_EQ_CONSTANT_COMPARE_NAME_LOAD_EQ_CONSTANT_": 2996,
      "EXPR_CALL_ATTRIBUTE_NAME_LOAD_LOAD_CONSTANT_CONSTANT_KEYWORD_CONSTANT_KEYWORD_CONSTANT_KEYWORD_CONSTANT_KEYWORD_CONSTANT_": 2997,
      "RETURN_LIST_LOAD_": 2998,
      "BOOLOP_OR_BOOLOP_AND_NAME_LOAD_": 2999,
      "TRY_RETURN_CALL_NAME_LOAD_": 3000,
      "RETURN_CALL_ATTRIBUTE_NAME_LOAD_LOAD_ATTRIBUTE_NAME_LOAD_LOAD": 3001,
      "CONSTANT_ASSIGN_NAME_STORE_CALL_ATTRIBUTE_ATTRIBUTE_NAME_LOAD_LOAD_LOAD_NAME_LOAD_NAME_LOAD_": 3002,
      "EXPR_CALL_ATTRIBUTE_NAME_LOAD_LOAD_CALL_NAME_LOAD_NAME_LOAD_NAME_LOAD_": 3003,
      "MODULE_FUNCTIONDEF_ARGUMENTS_ARG_ARG_EXPR_CONSTANT_EXPR_CALL_ATTRIBUTE_ATTRIBUTE_NAME_LOAD_LOAD_LOAD_NAME_LOAD_": 3004,
      "LISTCOMP_CALL_ATTRIBUTE_NAME_LOAD_LOAD_COMPREHENSION_NAME_STORE_NAME_LOAD_": 3005,
      "CONSTANT_ASSIGN_ATTRIBUTE_NAME_LOAD_STORE_CALL_ATTRIBUTE_NAME_LOAD_LOAD_CONSTANT_ASSIGN_ATTRIBUTE_NAME_LOAD_STORE_CALL_ATTRIBUTE_NAME_LOAD_LOAD_": 3006,
      "RETURN_CONSTANT_ASSIGN_NAME_STORE_CALL_ATTRIBUTE_NAME_LOAD_LOAD_": 3007,
      "SUBSCRIPT_NAME_LOAD_CONSTANT_LOAD_LOAD": 3008,
      "BINOP_CALL_NAME_LOAD_SUBSCRIPT_NAME_LOAD_CONSTANT_LOAD_": 3009,
      "EXCEPTHANDLER_NAME_LOAD_RAISE_CALL_ATTRIBUTE_NAME_LOAD_LOAD_": 3010,
      "MODULE_FUNCTIONDEF_ARGUMENTS_ARG_ARG_ARG_EXPR_CONSTANT_IF_UNARYOP_NOT_": 3011,
      "TRY_ASSIGN_NAME_STORE_SUBSCRIPT_NAME_LOAD_CONSTANT_LOAD_": 3012,
      "NAME_LOAD_RETURN_CONSTANT_RETURN_CONSTANT": 3013,
      "BOOLOP_OR_CALL_ATTRIBUTE_NAME_LOAD_LOAD_CONSTANT_CONSTANT_": 3014,
      "ASSIGN_SUBSCRIPT_ATTRIBUTE_NAME_LOAD_LOAD_NAME_LOAD_STORE_NAME_LOAD_RETURN_NAME_LOAD": 3015,
      "COMPARE_ATTRIBUTE_NAME_LOAD_LOAD_ISNOT_": 3016,
      "ASSIGN_NAME_STORE_CALL_ATTRIBUTE_CONSTANT_LOAD_NAME_LOAD_": 3017,
      "SUBSCRIPT_NAME_LOAD_TUPLE_CONSTANT_CONSTANT_LOAD_LOAD_": 3018,
      "EXPR_CALL_ATTRIBUTE_CALL_NAME_LOAD_LOAD_": 3019,
      "BOOLOP_OR_CALL_ATTRIBUTE_NAME_LOAD_LOAD_CONSTANT_": 3020,
      "MODULE_FUNCTIONDEF_ARGUMENTS_ARG_ARG_EXPR_CONSTANT_FOR_TUPLE_NAME_STORE_NAME_STORE_STORE_CALL_ATTRIBUTE_NAME_LOAD_LOAD_": 3021,
      "IF_COMPARE_CALL_NAME_LOAD_NAME_LOAD_GTE_": 3022,
      "LIST_LOAD_ASSIGN_NAME_STORE_CALL_NAME_LOAD_NAME_LOAD_": 3023,
      "CALL_ATTRIBUTE_NAME_LOAD_LOAD_CONSTANT_ASSIGN_NAME_STORE_CALL_ATTRIBUTE_NAME_LOAD_LOAD_": 3024,
      "RETURN_DICT_CONSTANT_CONSTANT_CONSTANT_": 3025,
      "RETURN_IFEXP_NAME_LOAD_": 3026,
      "ATTRIBUTE_CALL_ATTRIBUTE_ATTRIBUTE_NAME_LOAD_LOAD_LOAD_": 3027,
      "IF_NAME_LOAD_EXPR_CALL_ATTRIBUTE_NAME_LOAD_LOAD_NAME_LOAD_NAME_LOAD_": 3028,
      "IF_COMPARE_NAME_LOAD_IS_CONSTANT_EXPR_": 3029,
      "MODULE_FUNCTIONDEF_ARGUMENTS_ARG_EXPR_CONSTANT_ASSIGN_NAME_STORE_CALL_ATTRIBUTE_ATTRIBUTE_NAME_LOAD_LOAD_LOAD_NAME_LOAD_": 3030,
      "EXPR_CALL_NAME_LOAD_NAME_LOAD_RETURN_NAME_LOAD": 3031,
      "LIST_CONSTANT_CONSTANT_CONSTANT_CONSTANT_LOAD_LIST_CONSTANT_CONSTANT_CONSTANT_CONSTANT_LOAD_": 3032,
      "ASSIGN_SUBSCRIPT_ATTRIBUTE_ATTRIBUTE_NAME_LOAD_LOAD_LOAD_CONSTANT_STORE_": 3033,
      "NAME_LOAD_LOAD_LOAD_LOAD_": 3034,
      "CALL_ATTRIBUTE_CONSTANT_LOAD_LIST_": 3035,
      "IF_COMPARE_NAME_LOAD_IS_CONSTANT_ASSIGN_NAME_STORE_NAME_LOAD_": 3036,
      "CALL_ATTRIBUTE_ATTRIBUTE_ATTRIBUTE_NAME_LOAD_LOAD_LOAD_LOAD_NAME_LOAD_NAME_LOAD_": 3037,
      "SUBSCRIPT_NAME_LOAD_CONSTANT_LOAD_ASSIGN_NAME_STORE_CALL_ATTRIBUTE_NAME_LOAD_LOAD_CONSTANT_": 3038,
      "MODULE_FUNCTIONDEF_ARGUMENTS_ARG_ARG_ARG_ARG_EXPR_CONSTANT_ASSIGN_NAME_STORE_CALL_NAME_LOAD_": 3039,
      "CONSTANT_IF_UNARYOP_NOT_CALL_NAME_LOAD_NAME_LOAD_NAME_LOAD_RAISE_CALL_NAME_LOAD_CONSTANT_IF_UNARYOP_NOT_CALL_NAME_LOAD_NAME_LOAD_NAME_LOAD_RAISE_CALL_NAME_LOAD_": 3040,
      "CONSTANT_ASSIGN_ATTRIBUTE_NAME_LOAD_STORE_CALL_ATTRIBUTE_ATTRIBUTE_NAME_LOAD_LOAD_LOAD_": 3041,
      "KEYWORD_CONSTANT_KEYWORD_CONSTANT_KEYWORD_NAME_LOAD_KEYWORD_CONSTANT_KEYWORD_CONSTANT_": 3042,
      "TRY_EXPR_CALL_ATTRIBUTE_NAME_LOAD_LOAD_ATTRIBUTE_NAME_LOAD_LOAD_": 3043,
      "CALL_NAME_LOAD_CALL_ATTRIBUTE_NAME_LOAD_LOAD_LOAD_": 3044,
      "LIST_CONSTANT_LOAD_ADD_": 3045,
      "SUBSCRIPT_NAME_LOAD_TUPLE_NAME_LOAD_NAME_LOAD_LOAD_LOAD_ARG": 3046,
      "ATTRIBUTE_NAME_LOAD_LOAD_ATTRIBUTE_NAME_LOAD_LOAD_ATTRIBUTE_NAME_LOAD_LOAD_LOAD_": 3047,
      "EXPR_CALL_NAME_LOAD_CALL_ATTRIBUTE_NAME_LOAD_LOAD_": 3048,
      "NAME_LOAD_RETURN_CALL_ATTRIBUTE_NAME_LOAD_LOAD_NAME_LOAD_NAME_LOAD": 3049,
      "MODULE_FUNCTIONDEF_ARGUMENTS_ARG_ARG_ARG_CONSTANT_CONSTANT_EXPR_CONSTANT_ASSIGN_NAME_STORE_CALL_ATTRIBUTE_NAME_LOAD_LOAD_": 3050,
      "IF_COMPARE_CALL_NAME_LOAD_NAME_LOAD_EQ_CONSTANT_ASSIGN_SUBSCRIPT_NAME_LOAD_CONSTANT_STORE_": 3051,
      "CONSTANT_ASSIGN_NAME_STORE_DICT_ASSIGN_NAME_STORE_": 3052,
      "IF_COMPARE_CALL_ATTRIBUTE_NAME_LOAD_LOAD_CONSTANT_CONSTANT_": 3053,
      "SUBSCRIPT_NAME_LOAD_CONSTANT_LOAD_EXPR_CALL_ATTRIBUTE_SUBSCRIPT_NAME_LOAD_CONSTANT_LOAD_LOAD_": 3054,
      "BOOLOP_AND_NAME_LOAD_NAME_LOAD_": 3055,
      "ASSIGN_TUPLE_NAME_STORE_NAME_STORE_STORE_TUPLE_CONSTANT_CONSTANT_LOAD_": 3056,
      "MODULE_FUNCTIONDEF_ARGUMENTS_ARG_ARG_ARG_ARG_EXPR_CONSTANT_EXPR_CALL_ATTRIBUTE_NAME_LOAD_LOAD_": 3057,
      "KEYWORD_CALL_NAME_LOAD_CONSTANT_": 3058,
      "MODULE_FUNCTIONDEF_ARGUMENTS_ARG_EXPR_CONSTANT_ASSIGN_TUPLE_NAME_STORE_NAME_STORE_NAME_STORE_STORE_": 3059,
      "EXPR_CALL_ATTRIBUTE_ATTRIBUTE_NAME_LOAD_LOAD_LOAD_ATTRIBUTE_ATTRIBUTE_NAME_LOAD_LOAD_LOAD_": 3060,
      "KEYWORD_CONSTANT_KEYWORD_CONSTANT_KEYWORD_CONSTANT_KEYWORD_": 3061,
      "AUGASSIGN_NAME_STORE_ADD_LIST_": 3062,
      "COMPREHENSION_TUPLE_NAME_STORE_NAME_STORE_STORE_CALL_ATTRIBUTE_ATTRIBUTE_NAME_LOAD_LOAD_LOAD_": 3063,
      "MODULE_FUNCTIONDEF_ARGUMENTS_ARG_ARG_EXPR_CONSTANT_ASSIGN_NAME_STORE_CALL_ATTRIBUTE_NAME_LOAD_LOAD_NAME_LOAD_ASSIGN_NAME_STORE_": 3064,
      "IF_COMPARE_CALL_ATTRIBUTE_NAME_LOAD_LOAD_IN_": 3065,
      "DICT_CONSTANT_CONSTANT_CONSTANT_CONSTANT_DICT_CONSTANT_CONSTANT_CONSTANT_CONSTANT_": 3066,
      "NAME_LOAD_CONSTANT_NAME_STORE_": 3067,
      "DICT_CONSTANT_CONSTANT_CONSTANT_CONSTANT_CONSTANT_CONSTANT_CONSTANT_CONSTANT_CONSTANT_CONSTANT_CONSTANT_CONSTANT_": 3068,
      "WITH_WITHITEM_CALL_ATTRIBUTE_NAME_LOAD_LOAD_NAME_LOAD_CONSTANT_NAME_STORE_": 3069,
      "EXPR_CALL_SUBSCRIPT_NAME_LOAD_CONSTANT_LOAD_": 3070,
      "COMPREHENSION_NAME_STORE_NAME_LOAD_ASSIGN_NAME_STORE_CALL_NAME_LOAD_": 3071,
      "BREAK_IF_UNARYOP_NOT_NAME_LOAD_": 3072,
      "BINOP_NAME_LOAD_BITAND_CONSTANT_": 3073,
[...]
